#version: 0.2 - Trained by `huggingface/tokenizers`
o n
Ġ a
Ġ t
e r
i n
a n
r e
Ġ d
Ġ s
e n
Ġ p
t i
Ġ c
e s
o r
h e
> :
a l
Ġ in
r o
i t
Ġt he
a t
o t
i c
u m
u n
i s
a r
Ġ l
l l
Ġ f
o u
c c
en t
a m
Ġa n
Ġ o
Ġ e
on i
Ġ m
a ti
Ġd i
o m
b ot
um an
Ġ w
h uman
i l
e d
Ġ I
Ġd e
o cc
occ oni
Ġ y
Ġan d
Ġt o
Ġo f
Ġ B
Ġp ro
in g
Ġ b
Ġ n
t u
Ġ un
o s
t er
z i
Ġy ou
g r
ati on
a s
e c
e t
Ġ C
l i
ĠB occoni
Ġ S
Ġ re
s i
Ġ h
a re
Ġ M
v er
v e
r i
gr am
Ġc on
tu d
e m
Ġ A
Ġ P
Ġp er
a g
o l
q u
Ġs tud
on e
v i
c e
es s
Ġf or
n i
Ġl a
i b
a d
Ġpro gram
t o
Ġ g
u s
Ġc an
Ġ T
c h
p p
er e
Ġ on
Ġ is
u l
al i
c i
m a
Ġ il
l e
Ġt h
i o
at e
Ġ i
Ġa t
s o
Ġc om
t a
Ġ (
on o
en ti
Ġt u
ll a
Ã ł
Ġ L
zi one
r s
d i
Ġ v
t e
Ġl e
i ll
o w
Ġa l
Ġs u
Ġb e
Ġ E
Ġ r
Ġ or
h i
Ġyou r
Ġa re
t r
Ġs e
a b
Ġp os
ter n
it y
f ic
u r
Ġ W
ti on
es t
ent s
Ġp re
Ġd o
Ġn e
en d
Ġe x
at o
ver s
an d
Ġa cc
in e
l y
Ã ¨
Ġ D
Ġc he
al e
w w
Ġcom p
it h
Ġa s
f or
Ġw ith
ĠI n
Ġ H
Ġ qu
Ġw ill
a c
Ġa pp
Ġh a
Ġp ar
B A
Ġa ll
Ġ Ã¨
f er
Ġ G
e ar
ĠC om
it Ãł
Ġde l
em ent
l ine
p s
i r
t t
u t
Ġ F
ent e
Ġw h
Ġs t
ĠM BA
ĠW h
an ag
g e
Ġs c
ou rs
ĠT he
p er
ĠA l
o re
Ġun a
z a
Ġm a
um ni
un ib
unib occoni
l ic
si on
l o
i a
zi oni
Ġin tern
Ġs ono
d er
n o
c on
Ġ U
or t
ation al
/ /
: //
Ġn on
Ġha ve
Ġw e
Ġy ear
t s
d e
g i
t en
v a
b il
Ġ N
anag ement
i m
Ġs p
Ġin for
en ce
ti c
Ġde ll
Ġr ic
Ġon line
d u
Ġc ours
ec i
Ġ u
Ġh tt
con om
Ġ Y
Ġc o
Ġc or
Ġde lla
Ġd is
Ġ 1
ĠP ro
Ġstud ents
i re
ar y
s hi
Ġ O
Ġ es
er v
ĠAl umni
ni vers
o i
r a
Ġa b
Ġa d
as s
Ġhtt ps
u re
Ġp u
ent o
Ġ it
or i
g li
at a
D A
a y
ation s
di d
Ġth at
m b
ĠI t
conom ic
an o
as e
Ġpre s
Ġf i
Ġre qu
Ġf in
Ġcan did
e g
or k
ĠH ow
Ġ R
an i
Ġn ot
Ġb y
ĠS DA
ĠPro gram
en za
i g
l d
o g
v o
Ġa c
Ġt est
Ġp ri
ag e
k e
Ġp i
om e
Ġstud enti
shi p
i ti
Ġg li
Q u
a zione
t h
re e
ic e
Ġprogram ma
ĠWh at
Ġ 2
an ce
ro m
l et
Ġf rom
Ġun i
Ġ Qu
Ġ gr
Ġex am
) .
an ge
ti ve
ec t
Ġper s
ĠL a
Ġ us
or d
Ġre g
rs t
ib li
ab le
c t
m ent
am e
ĠM anagement
ib r
Ġpar t
on d
Ġpro f
Ġcon s
mb a
t ro
m is
ou t
e l
Ġc h
es sion
ou r
Ġm o
Ġt i
Ġc re
ic h
Ġpos so
ww w
m p
Ġdo c
Ġfi rst
ibr ary
g l
o o
Ġd al
es e
ch o
Ġtu o
m ation
r it
Ġapp lic
ĠY ou
cho ol
m un
he l
as ter
Ġcomp let
Ġcours es
in ess
Ġin ter
it o
us iness
Ġthe ir
Ġde i
ad u
ĠU nivers
Ġu p
conomic s
Ġd a
Ġd ur
Ġof fer
Ġre s
Ġg i
Ġsp eci
Ġuni vers
Ġ ess
Ġt r
Ġs i
un d
ĠP er
Ġtu a
ĠCom e
a ch
e u
z z
Ġt a
Ġd om
ot ec
us t
Ġv is
Ġpers on
ibli otec
c ri
Ġs o
Ġs em
ti v
at es
is t
ar i
ci p
ma il
l a
Ġ ri
Ġe v
tion s
Ġt e
en g
at ed
ati ve
ĠM aster
per i
Ġdis p
Ġdom and
b er
Ġa g
Ġf e
ess o
and o
Ġinfor mation
Ġa r
an te
Ġs et
am ente
Ġpro c
ol o
du c
Ġrequ ire
Ġin s
Ġm y
ch ange
oo k
ĠUnivers ity
g h
h er
an t
an no
Ġw ork
tu re
Ġcon si
va il
ĠN o
Ġreg is
g ani
Ġs ec
Ġne ed
erv ice
Ġdoc um
ibliotec a
o c
t ing
Ġa vail
Ġc l
ed ere
Ġpro vi
ci al
Ġse l
Ġpos si
p o
Ġ en
oni bil
em ic
ad emic
pp ort
ali an
ĠCom mun
Ġwe b
Ġric hi
Ġcor si
Ġess ere
m o
z e
Ġ one
Ġ vi
it e
ll o
ĠI l
os t
fic i
Ġdomand a
Ġavail able
p ar
an ti
Ġp l
es i
zi on
Ġla ure
Ġas s
Ġst ar
Ġintern ship
mis sion
er i
Ġs os
Ġc ar
ro u
Ġan y
Ġe mail
ĠIn tern
Ġinfor ma
ĠO n
g u
â Ģ
is h
ou s
et w
ĠS ci
Ġcon t
ĠE n
Ġdisp onibil
d ab
s dab
Ġ ent
or o
ĠC on
Ġstud y
Ġi mp
Ġor gani
Ġinforma zioni
sdab occoni
c l
u ll
Ġ ot
am p
il e
Ġun o
ĠC an
0 0
A T
m it
p e
s t
Ġ V
ti tu
or s
al u
al ly
ĠE x
ĠD o
Ġintern ational
ten ere
Ġcours e
Ġprof ession
f f
er s
re s
Ġs tr
ar io
Ġb usiness
li b
Ġtu t
Ġdell e
Ġpri ma
ĠCommun ity
o b
Ġa m
er c
ti m
es ter
al y
am i
Ġde g
Ġre c
ul t
ĠL ibrary
ĠE conomics
Ġne l
Ġwh ich
M AT
o p
v is
Ã ²
Ġm ore
Ġw ww
ec u
are er
ag gi
n ing
Ġs h
al s
Ġin di
it a
Ġl i
am ento
Ġn um
Ġstud ent
adu ate
a p
c in
g et
u oi
Ã ¬
Ã ¹
Ġ ver
Ġa lla
in k
Ġp r
ro cin
Ġapplic ation
ecu tive
U nivers
b b
i zi
u ro
am o
tr a
Ġse le
Ġacc ess
ac hel
Ġpar ti
ĠF in
Ġcor so
Ġpi Ã¹
Ġsec ond
achel or
a cc
e x
on g
ar d
ar k
Ġm anagement
ĠI f
ĠB iblioteca
Ġfor m
Ġprogram s
Ġr is
end a
ĠG MAT
eci p
Ġpart ecip
ĠEn gl
Univers itÃł
c k
c un
m i
u i
Ġ k
ro ad
at ab
Ġde ve
ĠC os
ĠS e
Ġne lla
Ġab out
Ġcl ass
ark et
ĠEngl ish
c es
f ter
Ġa i
er vi
an y
re n
ti es
ĠB achelor
ĠF or
ĠU n
Ġunivers ity
âĢ Ļ
' s
c he
r ic
Ġt ro
Ġt ra
Ġp ass
Ġf are
am b
ec tion
Ġsu b
Ġpos s
Ġes ami
Ġcandid ati
Ġ2 0
Ġconsi der
Ġpossi bil
Ġdeg ree
ervi zi
c o
f fer
v en
on s
Ġp o
es si
Ġun der
ĠP os
Ġth ere
Ġqu es
ĠIntern ational
p t
t re
t end
Ġa ver
Ġa ut
ti vi
Ġe duc
Ġm i
ĠP uoi
Ġla v
ac k
lo b
Ġpu oi
ĠIt alian
Ġcre d
pport un
ĠSci ence
cl u
g g
Ġ -
Ġ J
er ti
Ġs chool
Ġo pportun
ati c
ing u
ĠP h
Ġper io
Ġstud ente
Ġwh o
lo p
ĠY es
iti es
Ġspeci fic
Ġta ke
Ġfe es
Ġpl an
amp us
) ,
c om
g ni
i v
p en
Ġ our
in a
Ġs ervizi
en ze
Ġp ot
or ld
ic es
ou ld
Ġm ust
ed ic
Ġn o
os e
ĠS tud
ĠS chool
ĠS Ã¬
ĠT h
Ġal so
Ġapp ly
Ġma y
Ġlaure a
Ġorgani z
Ġparti cip
ĠPos so
E F
k ill
n ow
u b
an gu
Ġs kill
or y
al l
Ġin d
Ġl ink
ll e
Ġm e
Ġg et
Ġi f
ĠCom p
Ġfin d
ĠQu ali
el er
Ġti rocin
Ġregis ter
Ġsos tenere
rou gh
ĠPh D
Ġperio d
3 0
b le
v es
an cial
Ġd es
Ġc ase
ati va
Ġof f
Ġre l
ĠA d
ol a
Ġon ly
Ġat tiv
ĠL e
ur ric
Ġex p
for m
ay s
Ġpres ent
peri ence
Ġrequire d
urric ul
Ġa fter
Ġs ul
Ġp ag
Ġc as
Ġc ui
Ġin gl
Ġl ib
Ġl angu
Ġe l
Ġdi re
Ġre ce
vi du
Ġex change
Ġacc edere
Ġqu al
Ġprovi d
Ġindi vidu
Ġk now
Ġskill s
Ġingl ese
f fic
k ing
o un
p ort
Ġs ta
en er
Ġp un
Ġm at
et ter
li g
Ġh ow
ĠM il
Ġstud i
Ġle ar
Ġall ow
Ġpu Ã²
Ġsem ester
etw ork
Ġot her
R E
f ore
g in
p ri
w ord
ot t
Ġdi ffer
Ġn ec
ĠS ervice
Ġth rough
ĠE uro
Ġche ck
erv ices
Ġexam s
Ġproc ess
ĠCos a
lob al
Ġnec ess
a zioni
u ter
re qu
Ġd ate
Ġd ata
Ġs ar
Ġs olo
Ġc hi
Ġin izi
Ġl o
Ġl ingu
Ġf ac
Ġe d
Ġpro get
Ġn os
et t
Ġcon ta
Ġg ener
Ġcom e
Ġall e
Ġab road
Ġdur ing
Ġweb s
Ġcont at
erc a
ex ecutive
Ġtirocin io
a zion
i tion
l ed
m ents
n ot
r on
u e
u pp
Ã ©
Ġs ito
Ġc os
ro w
Ġf o
Ġm in
Ġm anag
Ġde v
Ġde gli
Ġb ut
tu ra
ĠC h
Ġre fer
Ġh ome
ag li
Ġla w
Ġsc amb
ĠN on
tic al
Ġric e
Ġu ti
Ġac ademic
Ġdur ante
fici al
Ġsh ould
ĠFin ance
Ġdeve lop
O EF
b occoni
c or
e w
f i
f ull
o U
p ic
v ol
Ġ j
Ġ hel
Ġs ome
en e
Ġin vi
Ġin clu
is tr
Ġy oU
tu r
ver si
ĠA r
Ġstud io
ĠT OEF
Ġth is
Ġat tend
Ġor der
tic s
Ġcandid ates
ĠLa w
Ġperson al
Ġar ri
Ġdisponibil i
Ġtut ti
tim e
Ġposs ono
Ġoff re
ott or
Ġconta ct
Ġwebs ite
Ġscamb io
ĠTOEF L
m in
u to
w o
Ġ out
Ġa gli
an c
Ġd atab
en ces
Ġc erti
Ġl oro
Ġo gni
Ġe conomic
Ġm aggi
Ġw orld
ed e
Ġde m
Ġb as
Ġb ook
Ġn etwork
ĠC areer
ĠS ono
ĠD e
ĠG li
Ġsc ore
Ġpres ti
ĠProgram s
ig n
Ġregis tr
Ġprovi de
mission s
Ġtro v
Ġpass word
Ġcas o
led ge
S D
b l
b ook
p or
s p
t ri
u ola
an s
ro und
Ġthe y
Ġf requ
Ġe ach
ĠM y
ve l
em ber
ĠA s
ĠA cc
so ci
Ġv ol
Ġv ari
Ġsu lla
ĠW e
Ġcomp et
Ġwith in
gi or
Ġco p
Ġrequ est
th er
Ġmo de
Ġsel ect
Ġli ve
Ġnum er
Ġpartecip are
tivi ties
Ġdev ono
Ġuti li
a pp
b o
j ect
u ti
Ã Ī
â Ĥ
Ġ 4
Ġ bot
an ts
Ġs ession
Ġan che
Ġm ul
Ġh anno
le ase
Ġtu e
Ġbe fore
Ġdo po
Ġapp ro
Ġst age
Ġintern azion
Ġit s
eg n
ig h
Ġgi or
Ġrichi es
ĠOn line
Ġdisponibil e
Ġimp ort
Ġknow ledge
Ġpun te
Ġhel p
âĤ ¬
e en
n er
o ver
r Ãł
x t
Ġ 6
Ġ ÃĪ
in ing
al end
Ġin f
ro ll
at or
Ġf a
Ġe conomics
Ġm et
Ġm io
Ġm ia
Ġm arket
Ġde vo
as i
as es
ĠA ll
qu e
ĠT i
Ġis cri
ali d
ali z
Ġv alu
Ġpos t
fic are
Ġpre par
Ġdo es
Ġne w
Ġch o
Ġoffer s
Ġins titu
Ġass ist
st and
ĠEx change
Ġsele zione
Ġlav oro
Ġattiv itÃł
Ġdiffer ent
ĠEuro pe
s u
Ġ âĤ¬
Ġt en
Ġt im
in t
en o
en zi
ic i
Ġo b
ĠB usiness
Ġb etw
as t
Ġcon f
ĠA n
ĠA re
ĠT ut
Ġtu oi
Ġle vel
est re
end o
im um
Ġric erca
shi ps
Ġad d
Ġpres so
Ġpri v
Ġgr ad
Ġus e
Ġte am
Ġsel ection
Ġen roll
Ġunder stand
Ġmi e
ottor ato
Ġcerti fic
Ġbot h
Ġbetw een
G ate
M BA
O L
T h
d ul
d ay
h o
m s
m er
p end
Ġt wo
Ġd edic
Ġs it
Ġs ervices
Ġp h
Ġin to
Ġl etter
ĠI s
Ġh as
ĠP OL
ag es
ad er
ta zione
Ġtu ition
Ġv alid
Ġal cun
ab il
Ġpre vis
Ġacc ademic
Ġqu i
Ġha i
Ġma ke
Ġco un
ĠIt aly
Ġgr adu
mis si
Ġcomplet ed
Ġres p
Ġconsi gli
Ġstar tu
Ġprofession al
ob Gate
Ġnum ber
Ġeduc ational
ĠJ obGate
Ġlingu a
Ġnos tro
Ġdem and
I M
d it
p os
y st
Ġ 7
Ġ he
Ġ ro
er a
Ġs ol
Ġs essi
Ġp a
Ġp age
Ġc ul
es ame
Ġf oc
Ġe qu
Ġm on
ati vo
ĠI M
Ġto ol
as si
ec ts
Ġsu pport
Ġbe gin
ĠH i
Ġpar te
Ġma j
Ġwe ll
ra i
Ġpi ano
Ġdal la
rit to
Ġtr ans
Ġvis it
bb lic
Ġsub mit
Ġ20 2
Ġpossibil e
Ġtrov are
yst em
G RE
d o
l es
n ame
p ro
Ġ 9
Ġs ci
Ġs ervice
Ġc areer
um n
Ġl oc
Ġan aly
Ġe ff
Ġm om
si asi
ĠP o
qu is
Ġfor n
Ġle g
Ġex perience
ĠWh en
Ġu f
Ġ1 2
Ġpu bblic
ĠQu al
ĠQu ando
Ġcomplet e
zz o
Ġag enda
Ġproc esso
Ġdocum ents
res s
ĠMil ano
Ġlear n
Ġmaggi ori
Ġlive llo
Ġutili zz
ĠEurope an
Ġenroll ed
Ġfoc us
Ġmaj or
d is
f y
i de
r aduate
s e
v ing
Ġ 3
Ġt it
Ġd ays
Ġs og
en n
Ġc rit
Ġc ampus
Ġthe m
ic a
ic o
is i
Ġl og
am enti
Ġo ver
Ġw rit
ĠI D
Ġto day
Ġb u
Ġn u
zi enda
gr aduate
ec h
et tu
ri zzo
Ġfor ni
ad missions
ĠT est
Ġsu cc
Ġare a
Ġcomp ani
Ġwh ere
ire ct
Ġab b
eg u
ĠR eg
Ġac tivities
Ġus er
Ġpart ner
peri enza
ap ter
Ġsele zion
Ġpo li
gg io
Ġservizi o
Ġparticip ate
Ġlangu age
Ġrece i
Ġprovid ed
ffic io
Ġinclu d
Ġdatab ase
alend ar
Ġcompani es
I n
T S
d s
f in
g io
i i
m ente
m atic
p l
r u
u c
v ant
x x
Ġ "
Ġ 5
Ġt ot
Ġt em
an to
Ġs ce
Ġs ia
Ġp ol
ti tud
Ġc urricul
or to
al umni
it s
at ti
is og
Ġl im
Ġf ull
ati s
Ġdi vers
ed i
ĠI SD
Ġto pic
Ġpro pri
Ġpro bl
Ġb ase
Ġb iblioteca
os c
ĠS t
Ġh ere
ĠM IM
ce p
Ġis su
Ġth an
Ġth ir
Ġth ree
Ġle zioni
Ġse i
Ġpre not
Ġacc oun
ĠD irect
ear ch
Ġwh en
Ġsc uola
Ġma in
tic o
Ġdis c
Ġ1 0
Ġab le
Ġit ali
Ġfin ancial
ond o
Ġdal l
Ġinter est
Ġunivers itÃł
Ġtr as
Ġev enti
gh t
anti t
ous ing
Ġent r
ors e
Ġver i
Ġaver e
Ġind ic
Ġsta y
Ġmat eri
Ġnecess ario
bocconi alumni
tur al
Ġpresti to
Ġfrequ ent
bo ard
Ġmul ti
Ġgior ni
ĠTut ti
Ġstartu p
Ġmon th
pro gram
umn us
Ġeff ettu
Ġuser name
Ġprobl em
ĠDirect or
a i
a ce
e o
e llo
m esso
t Ãł
Ġ '
Ġt er
an za
re es
Ġd ue
Ġc i
he matic
ic al
ic ur
ar ti
ent r
Ġo pen
Ġm esi
Ġof ficial
Ġb isog
as ci
ec tive
ver al
vi ron
vi ew
Ġg rou
ĠT r
ch ol
ch Ã©
ali a
Ġth ese
ate g
Ġi d
Ġcom un
ta in
tr on
Ġacc eler
Ġacc ett
for ma
ĠH o
Ġqu antit
ĠThe y
lo ad
ibli o
Ġvis to
Ġsem estre
la ce
Ġdocum ent
Ġpossi ble
Ġen viron
Ġrichi edere
Ġvi a
Ġstar ting
Ġot tenere
ult y
ĠStud ents
Ġorganiz ations
Ġpag ina
Ġlib ri
Ġqual siasi
Ġindividu al
Ġsar Ãł
Ġfo und
ĠCh apter
ĠAr ts
gior no
Ġnumer o
Ġtim e
Ġ202 3
Ġuf fici
Ġrecei ve
Ġdivers e
Ġthir d
Ġbisog no
E L
L ibrary
P E
S c
c isi
e k
e pt
j ects
p re
r ing
s c
u p
Ġ end
Ġ ke
Ġa im
in izi
re en
Ġs ame
Ġp ort
at ta
ot o
ar t
Ġf ree
Ġo p
Ġm ost
Ġm any
Ġm ondo
Ġde vi
Ġde cisi
zi end
ĠC he
ĠC ul
Ġh ours
Ġcon di
Ġcon osc
Ġprogram mi
us e
enti al
Ġsu per
Ġse zione
Ġse veral
Ġas k
Ġsc ri
ĠAl umnus
no v
ten eo
Ġco ll
Ġrequ is
Ġac qu
Ġcons ult
Ġcons egu
Ġperson ali
Ġfe e
Ġwork s
Ġcar ri
Ġent ro
Ġlav or
ack board
ĠTh is
Ġregister ed
Ġdes cri
Ġrel ated
Ġlangu ages
Ġdire ct
Ġproget to
ĠMy Library
soci ation
Ġmode l
Ġinf ob
Ġtool s
Ġbegin ning
Ġsog giorno
Ġtem po
Ġquantit ative
EL TS
' t
. ,
2 4
b lic
e ll
f ul
s er
t are
Ġa v
Ġa per
Ġa ziend
Ġt esi
in i
in di
in cip
an g
re ad
Ġs im
es to
al is
Ġin nov
it al
ot her
ar ch
Ġl ibrary
Ġl ist
ll ow
Ġf u
am ite
Ġo bb
Ġm ad
Ġde ci
Ġde ta
Ġde tt
Ġpro ven
Ġpro ject
ter i
ĠC o
ĠS c
ĠS p
Ġre ad
ver so
ri enn
Ġcon fer
ĠA c
vi a
Ġcom mun
Ġv eng
Ġal umni
Ġsu pp
ur a
Ġne ll
Ġacc om
Ġacc ept
ĠG lobal
tt amente
ĠWh ere
conom ia
Ġes ame
Ġpu blic
Ġit alian
ĠIt alia
Ġcandid ate
Ġcandid ato
Ġcons ul
Ġgi ves
Ġperson ale
tiv es
Ġsec tion
Ġdocum enti
Ġvi ene
ĠSci ences
ĠCon n
ĠEx ecutive
Ġver rÃł
Ġques to
Ġeduc ation
Ġopportun ity
ĠComp any
Ġrefer ence
Ġrice v
ĠDe vi
ĠAs sociation
Ġsession s
Ġinternazion ale
Ġpunte ggio
Ġmet ho
enzi ali
Ġmie i
missi one
assi mo
Ġnu o
Ġmonth s
Ġenviron ment
inizi o
Ġrequis iti
Ġobb lig
Ġdeta il
Ġdett agli
1 0
T E
T he
c alendar
e ld
g or
h ow
i enza
l ackboard
m ento
o ti
p ren
t ed
z za
Ġt ech
in ce
Ġd or
Ġd ay
Ġs ystem
es ti
es is
Ġin v
at form
ot a
ic y
ic ation
ar ly
Ġl u
Ġf our
ou ble
am ent
Ġan no
Ġe cc
Ġe uro
Ġm ember
Ġdi g
Ġdi m
Ġdi versi
om m
om atic
il an
ĠI ELTS
Ġde par
Ġof fic
Ġn or
et ing
ĠC i
ĠC hi
ĠC PE
Ġre port
Ġh igh
ĠM a
ver y
Ġcon n
em b
em and
ag istr
to re
Ġg o
Ġg lobal
ĠT o
ul ations
Ġi de
enti als
Ġal tre
Ġsu gg
tr y
Ġse e
ĠW ill
ĠD ur
Ġwh at
ĠWh o
Ġma il
Ġwe ek
gi un
tic he
tic ul
Ġad mission
gli o
Ġgr upp
Ġch all
Ġdal le
Ġapplic ations
Ġinter view
Ġoffer ed
Ġunivers it
Ġtr amite
Ġvis ita
cip l
Ġev ent
Ġev ents
Ġev alu
Ġag giun
Ġrequire ments
Ġpl atform
Ġcar ta
ĠCon s
ĠCon tro
ĠDo es
Ġprofession ale
Ġstr ong
Ġli ke
atab ases
Ġclass es
Ġpossibil itÃł
Ġques ti
Ġaut omatic
Ġopportun ities
Ġrece iv
ĠMil an
Ġlear ning
Ġfac ulty
Ġcontat to
Ġfo llow
Ġmanag eri
min istr
Ġrichies ta
Ġinstitu tion
Ġadd ress
Ġsessi oni
Ġsce l
Ġtopic s
Ġitali ano
program s
Ġproven ienza
pren eu
f o
f t
g round
i zione
m an
n ed
s a
u tion
y ear
re ement
Ġd ati
Ġd ottorato
Ġs vol
Ġp ur
Ġc lic
al mente
Ġin tro
ro p
at ori
at ory
ic he
ic are
un i
is ce
Ġf ar
Ġo re
Ġm edic
Ġm assimo
Ġw ide
ed ia
Ġb ack
ec tives
et a
ĠS o
si d
Ġh o
ĠM arket
ĠP lease
ol d
ol e
Ġfor ma
Ġg row
Ġis c
ul s
ali zz
Ġse gu
Ġne i
ĠD eg
Ġcomp any
Ġqu ando
Ġqu ota
Ġpar ten
ĠG RE
ĠG raduate
Ġwh ile
ĠWh ich
lo y
Ġyear s
im o
Ġsp end
du ct
Ġad v
Ġfi eld
ĠR e
Ġac tiv
Ġpi atta
ect ed
Ġpers p
Ġprof ile
Ġmo di
Ġmo do
ich Ã©
oo d
Ġres erv
Ġres earch
Ġgi Ãł
und ament
ach ing
Ġvis a
Ġso ci
Ġso cial
Ġri gor
Ġdocum ento
Ġsel f
Ġrichi ed
par t
Ġass icur
Ġsos ten
Ġorgani zz
ĠV alu
res ent
Ġrec omm
Ġpr incip
acc eler
Ġris p
Ġpartecip anti
Ġai ut
Ġconsider ed
Ġaut h
Ġcred enziali
Ġcred entials
Ġparticip ants
Ġperiod o
Ġdes ign
Ġpresent are
Ġdire ttamente
Ġfac il
Ġmin imo
fi ed
Ġinvi are
Ġarri v
Ġarri vo
Ġscore s
Ġimport ant
over n
Ġiscri ver
aliz ed
Ġvalu tazione
Ġcho ice
Ġgrad e
Ġalcun i
Ġresp ons
Ġtrans cri
Ġloc ated
Ġmom ento
In tern
Ġlim it
Ġaccoun t
chol ar
ĠCul ture
Ġdirect ly
teri ori
Ġveng ono
Ġoffic e
Ġreceiv ed
Ġback ground
Ġpiatta forma
Ġrecomm end
. .
A teneo
I S
M S
Y ou
a vi
a zienda
c ome
c ampus
g gi
h tt
i et
l ement
m eno
n e
p le
v amente
Ġ human
Ġ ul
Ġ enti
on om
Ġt y
er ia
in fo
an k
re dit
re preneu
Ġs cholar
Ġp at
Ġp lease
ti vo
Ġc it
Ġc ap
al ut
Ġin iti
at ure
ot to
ll ig
Ġf at
Ġf un
Ġf ine
Ġe let
Ġe mp
Ġw ant
il d
il i
et y
ĠC l
li d
ĠS em
ĠS ch
Ġre p
ĠM at
ver e
em a
em ents
ĠP TE
Ġat tra
Ġat titud
te xt
te llig
Ġle ader
Ġal tri
Ġal read
Ġbe en
Ġdo ve
Ġne lle
vers itÃł
ĠD es
ĠD ouble
Ġas p
ĠH ub
Ġqu ali
Ġsc he
per s
va zione
bil e
im ento
Ġhtt p
Ġco ord
Ġ1 4
ure a
Ġpri mo
iti v
Ġgr aduate
Ġprof ess
Ġch ance
Ġch ange
Ġdoc enti
Ġup d
Ġup load
Ġta k
Ġsem in
eng en
Ġdisp os
ber g
Ġset tim
Ġproc ed
Ġwork ing
Ġneed s
mo d
esi der
Ġlaure ati
Ġent repreneu
ĠDo v
Ġstr ateg
Ġrec ord
Ġpr ac
Ġtra ining
amb i
Ġopportun itÃł
ĠTh ere
ĠComp uter
ĠAd mission
ĠLe ader
urricul ar
Ġlib ro
Ġallow ed
Ġsar anno
Ġcontat tare
Ġmin imum
Ġdevelop ment
anc ed
Ġbook s
por ate
Ġcop y
Ġinternazion ali
Ġpunte ggi
ĠTi rocin
Ġinstitu tions
Ġten uti
Th is
Ġaccademic o
Ġgradu ates
Ġconsigli amo
Ġhe ld
Ġ9 0
Ġwrit e
fin itiv
ace book
hematic al
Ġgrou p
Ġcomun ic
Ġcarri era
Ġinfob iblio
rienn ale
Ġaccom mod
ĠConn ection
Ġricev uto
Ġmetho ds
Ġobblig ator
Ġdepar ture
agistr ale
cipl in
Ġfollow ing
uni versitÃł
ĠSo cial
Ġforma zione
Ġparten za
overn ment
htt ps
Ġelet tron
ĠSch engen
Ġattra verso
Ġalread y
Ġsettim an
' m
E MS
S tud
a ve
c a
d ere
e v
e ti
f e
i amo
r Ã²
s ervices
u fficio
v il
v ed
w ays
x imum
y n
Ġ 8
Ġa bil
Ġa ff
Ġt al
in ate
an zi
re at
Ġd ates
Ġs end
Ġs enza
Ġs vil
Ġp ay
Ġp lace
Ġc ur
es perienza
he ther
al ori
ro om
at u
at ing
ic s
ar li
ar si
Ġl ast
Ġf undament
ent amento
Ġo per
Ġm is
Ġm ol
ati vi
ati ves
Ġw hether
il o
il asci
Ġto o
Ġb ec
Ġb est
ĠS ome
Ġre sid
Ġcon c
Ġcon tro
ĠA g
Ġper form
ag gio
Ġg u
le ar
Ġcom b
di ti
Ġv oto
Ġle ad
Ġle ast
Ġal tern
Ġal meno
Ġsu ll
Ġsu ch
Ġr ange
Ġr acc
Ġr app
tr ac
Ġse arch
Ġpos to
fic a
ur ther
Ġacc ord
ĠD i
Ġcomp eti
Ġqu anto
Ġall og
ement e
ĠAl cun
Ġdell o
Ġco ver
Ġ1 9
eg ati
ĠR ic
Ġpi ani
Ġus u
Ġprof ilo
Ġch ar
ĠUnivers itÃł
Ġgi ven
Ġsi ano
cri zione
Ġag gior
Ġins tr
Ġass ess
00 0
ĠDo ve
Ġstr ut
Ġam missione
ĠFin ancial
Ġris ult
Ġunder graduate
com p
iv al
Ġno ti
Ġallow s
Ġmanag ers
anc ing
book s
Ġcompet enze
Ġcop ia
Ġprepar ation
Ġpriv ate
Ġdedic ated
Ġletter s
Ġro om
Ġequ ival
ĠPo li
Ġutilizz are
Ġtit olo
Ġcrit eria
Ġforni re
Ġpoli tical
pl om
atis tics
Ġissu ed
Ġdisc us
Ġveri ficare
ĠTr y
Ġscri vi
Ġconsegu ito
indi rizzo
Ġinnov ative
Ġdetail s
ĠDur ing
Ġgrow th
Ġisc ritto
uls ory
Ġadv anced
Ġtranscri pt
tellig ence
Ġsche dul
Ġaccommod ation
Ġsvil upp
* *
/ *
4 3
5 0
7 43
C L
G P
I N
I t
a k
b or
c as
e ver
f atti
h t
i d
i e
i es
l tre
m l
s ervice
s sp
u ght
y a
y ing
Ġ ut
Ġ âĢ
on line
Ġa round
in d
in ts
re finitiv
Ġd on
Ġd yn
Ġs te
Ġs ede
en ci
en co
Ġp en
ti l
ti ficial
Ġc in
Ġc ent
Ġc iv
or ta
or row
al pen
Ġin cor
it are
is c
is d
is ci
ar s
ar ia
ar fatti
Ġl ong
Ġf ill
Ġf acc
ent ation
Ġan other
Ġm ess
om berg
ĠB lackboard
Ġpro m
ing l
Ġb o
Ġb orrow
Ġn ost
Ġun til
Ġyou rs
ĠC lic
ĠC ampus
ĠBocconi GP
ĠS i
ĠS arfatti
si g
Ġh ousing
ĠM et
ri b
ĠA fter
ol og
ol tre
ni z
Ġprogram m
Ġg esti
Ġg reat
Ġcan not
ere quis
ta via
di tion
Ġv ita
Ġv oti
Ġbe h
ĠE ach
tr are
ur ance
ĠW orld
Ġacc redit
ĠD emand
Ġcomp il
Ġcomp uter
ĠIn s
ĠG overnment
ĠF e
Ġsc ad
ours es
Ġma ximum
lo gin
lo omberg
ĠN ow
Ġsp e
du ce
Ġdis abil
ĠO ri
ĠO gni
Ġes perienza
Ġad dition
Ġfi ve
Ġfin o
Ġfin al
Ġfin anzi
ĠR es
ig her
Ġ2 5
Ġuni versi
Ġuni que
Ġgr atu
ĠLa urea
Ġus ing
our ces
Ġmo dul
Ġcre diti
Ġapplic ants
Ġinter ess
Ġup on
Ġta king
ust ri
Ġso v
Ġso lid
Ġte ll
Ġdomand e
ture s
ĠCommun ication
Ġstar ts
Ġcar d
Ġstudy ing
Ġstr uc
Ġtut te
Ġam ong
Ġdeg rees
op ic
Ġindi rizzo
Ġpr erequis
tra ining
Ġform ativo
ren t
Ġsub jects
Ġpot re
Ġind ustri
ĠAd missions
Ġprovid es
ffic e
Ġstudi es
Ġinizi a
Ġnos tra
Ġrefer enza
Ġdatab ases
Ġbas ic
Ġbas is
Ġpresti gi
tri es
Ġfrequ enza
ĠAcc oun
Ġvari ous
Ġappro ach
Ġcho ose
Ġvalid itÃł
Ġprevis te
Ġcoun try
Ġcoun tries
Ġsci ence
Ġleg al
Ġcrit eri
Ġselezion are
Ġinclud ed
ii i
xx x
Ġpol icy
Ġcurricul um
cep ts
Ġprenot azione
Ġfrequent are
entr ale
Ġid enti
Ġuffici ali
sc reen
Ġke y
Ġaim s
ĠChe ck
Ġconosc enza
use ful
ĠSc uola
Ġitalian a
Ġdig ital
Ġnor m
emb re
Ġsugg est
ministr ation
Ġscel ta
Ġsvol g
Ġpur ch
Ġpersp ective
Ġrigor ous
Ġauth ori
Ġdesign ed
Ġarriv al
Ġul teriori
Ġpat h
Ġemp loy
Ġcoord in
Ġupd ated
Ġobbligator ia
Ġaggior n
ĠPoli tics
ht ml
ssp r
Ġdyn am
enci es
alpen sa
Ġfacc io
ĠBocconiGP T
Ġuniversi ties
screen s
) ;
E n
I SD
O R
d ici
e lla
g a
g o
h op
h old
m on
m at
n a
o und
p tion
p ass
r anno
s el
t c
w h
z ation
¬ ģ
ï ¬ģ
Ġ K
Ġ er
Ġ 30
Ġa ge
Ġa mp
Ġa part
Ġt esto
Ġt riennale
er Ãł
in o
in s
an e
re d
re l
Ġd agli
Ġd esider
Ġs en
en a
es es
Ġin ten
ro s
ic hi
ar ten
Ġl ine
Ġl ook
Ġf ir
Ġf ond
Ġan ni
Ġe conomia
Ġe tc
Ġm ent
Ġdi ritto
ĠB Sc
Ġb ring
Ġn ome
os ed
ter s
as on
ec tions
ĠC V
ĠC EMS
Ġre f
Ġre duc
are a
ĠM ore
ĠM Sc
ver ile
Ġcon ten
em o
em p
ĠA b
ĠA m
ĠA t
ĠP re
ĠP ol
Ġper messo
ag agli
ess a
ib le
Ġg am
pp en
ul ate
le x
Ġth en
Ġth ink
Ġth esis
di mento
ow n
Ġsu re
ĠE conomic
Ġr ilasci
Ġor i
ab ile
tern o
fic ation
Ġpre n
Ġdo v
ato re
Ġacc esso
ĠD ottorato
for mation
Ġwith out
ĠIn telligence
ac y
Ġapp arten
Ġha ppen
Ġpar l
fer imento
ĠG i
ut ing
ĠF ull
Ġst amp
Ġsc an
Ġco llo
Ġdis co
Ġ1 6
Ġ1 8
ra pp
gli ere
Ġfin ance
Ġac tive
Ġtest s
Ġreg ul
Ġcons enti
el f
Ġti po
Ġcomplet are
Ġup hold
Ġspeci alis
Ġtr ad
Ġta ught
ist ema
Ġte xt
Ġins egn
Ġins urance
Ġstar t
ĠIntern ship
ous ly
Ġcont rib
Ġent er
Ġimp ren
Ġtut to
Ġprima verile
ester o
Ġrec og
Ġform at
Ġclass e
Ġclass room
ĠUn a
Ġpo ints
Ġcred its
clu si
Ġschool s
Ġpot ential
Ġorganiz ed
Ġattiv are
Ġsta ff
Ġnecess ari
ĠCh ina
fi rst
Ġj o
Ġj ob
ĠAr tificial
Ġattend ance
Ġmaggi or
ĠDe vo
Ġvol ta
Ġcompet encies
Ġmode llo
Ġmul ticul
igh t
Ġimport anti
Ġfa v
Ġmarket s
Ġmarket ing
Ġob iet
Ġconf ir
Ġgrad es
Ġletter e
Ġvalid ity
dit ori
Ġsessi one
Ġcul tural
fy ing
Ġover la
Ġbu ild
ĠReg ulations
Ġ5 0
Ġtot al
Ġtot ale
Ġpropri a
Ġissu es
Ġeffettu are
Ġid one
Ġacceler ation
Ġacceler azione
Ġuffici ale
Ġport ale
Ġdecisi on
Ġacqu ire
Ġworks hop
Ġmad e
ĠAc tivities
Ġsupp orto
Ġnuo va
Ġecc e
Ġgrupp o
Ġuniversit ario
ĠContro lla
Ġautomatic ally
Ġmanageri al
ĠMarket ing
Ġsegu enti
ĠDeg rees
ĠValu es
Ġiscriver mi
Ġscholar ships
Ġiniti atives
Ġfun c
ĠCl ass
Ġleader ship
ĠDes k
Ġentrepreneu rs
Ġsettiman a
Ġcur rent
Ġaccord ing
ĠAlcun i
Ġrisult ati
Ġschedul ed
Ġcin que
Ġyours elf
Ġbeh avi
Ġscad enza
Ġsov rapp
Ġstruc ture
ĠAccoun ting
Ġcollo qu
Ġimpren ditori
Ġmulticul tural
A C
A S
B B
E MBA
F in
G raduate
a zi
d atabases
e lle
g om
h ousing
m arket
n y
p h
p at
p age
p titud
s is
s tud
t ent
u zione
u te
Ġ ,
Ġ <
Ġ ï¬ģ
on si
on amento
Ġa ul
Ġa ptitud
Ġt re
in c
in ter
in ation
in ese
an di
an king
re ct
Ġs ince
Ġs istema
en ge
Ġp e
ti ci
Ġc are
Ġc ir
Ġc ost
Ġc erc
Ġc all
he d
al th
Ġin con
it es
at ur
at tend
at ura
ot oc
ic ro
um mer
un n
un ch
is p
Ġl ec
Ġl et
Ġf on
Ġf os
Ġf urther
ou ts
Ġan cor
Ġo w
Ġo ltre
Ġe lig
Ġe arly
Ġe very
Ġe arli
Ġm and
Ġm aster
Ġm erc
Ġm edia
Ġdi d
Ġw as
Ġw ay
Ġw ish
il y
Ġto p
ĠB as
ĠB lig
ĠB loomberg
Ġpro d
Ġpro duct
Ġb row
Ġb orse
Ġn ame
os trare
ec n
ec onom
et Ãł
li ed
li ke
ĠS upp
ĠS ystem
ĠS ince
Ġre le
Ġre te
Ġre ason
si one
Ġh igher
ĠM e
ĠM agistrale
ve lop
ri tical
Ġcon cepts
ĠA pp
ĠP a
ĠP ot
ĠP orta
ol are
ol ato
ol amento
qu es
ni ques
Ġg lob
Ġg ood
ĠT opic
Ġis titu
Ġth ose
io re
ĠL inate
Ġv uoi
te gr
Ġal ways
Ġsu a
ĠE MBA
ĠE conomia
Ġare as
tr ate
ab eta
ĠW BB
Ġex cep
ĠD atabases
Ġas soci
Ġas sig
ĠH ere
ĠH ello
Ġqu ello
Ġapp art
ĠG re
ĠG mat
ĠG EMBA
ĠF ree
ĠF acebook
Ġwh ose
Ġst ato
ĠWh y
Ġsc rit
Ġsc reen
ia o
Ġsp ons
Ġinfor m
tic a
Ġric on
Ġ1 5
ĠO ur
ĠO ffice
Ġes emp
erv ed
Ġfin ale
ĠR esi
Ġpi eno
Ġ2 4
Ġ2 6
Ġus ed
Ġmo bile
Ġcre ate
Ġdoc ente
Ġcomplet ing
Ġcomplet ato
Ġinter pre
Ġoffer ti
Ġspeci al
Ġess ential
ĠPer mit
ĠPer chÃ©
Ġvis u
Ġperson ally
ist are
ari es
Ġte aching
Ġag re
Ġar r
Ġins er
Ġneed ed
Ġvi vamente
Ġass egn
Ġcar icare
Ġcont in
ĠV is
ĠV alori
ĠEx perience
ĠDo po
Ġprofession ali
Ġpr int
Ġsecond a
acc esso
Ġform ato
Ġris orse
Ġposs a
Ġ20 10
Ġpossibil ity
Ġpo ichÃ©
ingu a
Ġpot enzi
ĠStud ying
Ġme et
Ġcase lla
Ġrel ation
Ġpag amento
Ġel ectives
Ġqual cun
Ġprovid ing
Ġindividu ale
Ġpun ti
Ġallow ing
Ġchi ave
Ġinizi are
Ġinizi ative
Ġlo an
Ġproget t
Ġproget ti
ett are
Ġgener al
Ġgener ate
ron info
Ġrice vere
Ġacademic ally
full y
Ġj ust
Ġnetwork ing
Ġregistr ation
Ġvol um
Ġvari ety
Ġgior no
Ġrichies to
Ġprepar azione
ici es
Ġob tain
ĠAn aly
Ġprevis to
Ġresp onsi
Ġconsigli a
Ġsol ito
Ġpa ro
Ġanaly tical
quis to
Ġforn isce
dis ciplin
Ġsucc ede
Ġinclud ing
Ġinterest s
Ġinterest ed
Ġentr are
Ġeffettu ato
Ġaccett are
Ġport al
Ġcondi zione
Ġconosc enze
Ġsuper vis
Ġcoll eg
Ġconsult are
Ġmad rel
Ġdeci de
ĠCo ll
zza zione
Ġtech n
Ġtech niques
Ġdor mit
Ġmember s
Ġdim ostrare
Ġide as
Ġchall eng
Ġchall enge
Ġevalu ation
Ġaggiun ta
Ġstrong ly
Ġfield s
Ġmodi ficare
Ġrichied ono
Ġprincip ali
Ġaiut arti
Ġfacil ities
Intern ational
Ġenti re
Ġcit tÃł
alut ations
Ġrep resent
Ġattitud ini
Ġtak es
Ġdispos izione
Ġrecord s
Ġprac ti
Ġelettron iche
Stud y
ĠAg reement
Ġaltern ative
Ġpiani ficare
Ġassess ment
plom a
Ġdiscus s
CL E
It alian
ingl ese
Ġnost ri
ĠMet abeta
Ġspe ak
Ġindustri es
Ġprestigi ous
ichi ar
ĠAb road
Ġgam ma
Ġthink ing
Ġapparten enza
Ġcolloqu io
housing isd
pat roninfo
attend ing
otoc op
Ġancor a
Ġmand atory
Ġmerc ato
ĠBlig ny
Ġrele vant
ĠResi d
disciplin ary
Ġmadrel ingua
) ?
A cc
A zienda
E x
F or
F ore
F ound
P er
R D
S DA
T im
a ut
a king
a pers
b ber
c ent
d a
d ed
d dis
d rop
e p
f are
g ere
h ancing
j ors
k s
l it
o om
p tions
r ary
r int
s cri
s erved
t te
t amento
t wo
u g
u ta
u zioni
w ork
Â °
Ġ uman
on gu
Ġa w
Ġa mb
Ġt ess
Ġt ongu
er op
in terno
an ces
Ġd atori
Ġs ent
Ġs ing
Ġs ap
Ġs ign
en om
Ġp ic
Ġp oi
Ġc ambi
es tra
or ario
Ġin c
Ġin si
Ġin tegr
it ato
it ative
it amente
at as
at to
is crizione
ar ante
ar mi
Ġl ar
Ġl ibr
ll are
Ġf l
Ġe mer
Ġm other
Ġm ight
Ġm icro
Ġde pend
Ġde pos
Ġy et
Ġpro jects
Ġb re
Ġb ibliotec
Ġb road
Ġb iblio
Ġb agagli
os to
os ci
as ing
as cun
ec tron
et s
et to
et able
ĠC urricular
ĠC entrale
ĠC iao
ĠS tr
ĠS alutations
Ġre n
Ġh ist
Ġh oc
Ġh ub
ve mb
Ġcon to
Ġcon text
ĠP ar
Ġper cor
Ġper chÃ©
ag enda
ce ed
Ġla bor
ib ri
us a
Ġis tr
ul ts
ci a
Ġth eses
ta zioni
enti c
ĠL ear
Ġv ary
Ġal tro
Ġbe l
Ġbe ing
ĠE U
Ġr it
Ġr un
Ġor ig
tr atto
Ġse at
ab b
fic ativo
Ġpre fer
Ġpre ga
Ġne xt
Ġex peri
Ġex trac
ĠD ata
ĠIn oltre
Ġqu elle
ac t
ac itÃł
ac quisto
Ġapp ren
Ġapp lied
Ġpar ticul
ĠG ood
ir it
ir port
ĠF all
Ġwh ole
Ġst at
Ġst ation
Ġst ata
Ġst atistics
Ġintern ships
ĠU l
de pend
ĠN el
eci alized
ĠY ear
Ġco lle
Ġcor porate
ĠPro f
ĠPro ject
Ġad mit
Ġad vis
Ġad vant
ure ato
Ġpu bl
ori zzazione
did ates
ĠHow ever
ĠR oom
ĠProgram ma
Ġpri m
Ġpri mi
Ġus ers
Ġcons is
el enco
Ġch ang
our ce
Ġcre sc
Ġda i
Ġdur ata
Ġres ults
Ġspeci ali
Ġso ddis
Ġsem pre
Ġri ferimento
Ġag ree
Ġag reement
Ġar tic
Ġar gom
Ġset ting
ĠNo vemb
Ġcl ub
Ġen c
Ġvi ew
ĠIntern ships
ĠEn ter
Ġorgani ze
ĠCan didates
ĠEx am
Ġprofession als
res ti
lib rary
Ġam messo
op ri
Ġindi pend
get to
Ġver y
Ġparti re
ard o
Ġris pos
Ġpartecip azione
ĠSe pt
Ġtro vi
Ġtro va
Ġ20 1
ons trate
Ġques tions
Ġaver age
Ġaut unn
atic a
Ġplan ned
com ing
pen ing
Ġpot rai
ĠStud ent
Ġapply ing
Ġme glio
ĠComp uting
Ġperiod s
Ġrel ations
Ġlib er
Ġmat hematical
uter e
ett embre
Ġmanag er
Ġdevelop ing
Ġinclu de
Ġattend ing
Ġdem onstrate
Ġbas ed
ĠDe velop
Ġregistr ato
Ġregistr azione
sp apers
Ġvol te
Ġselect ed
bo x
alend ario
Ġfa il
Ġiscri zione
aliz ation
aliz za
Ġvalu e
Ġprepar ing
Ġob lig
Ġconf lic
Ġconf lit
ĠTut tavia
Ġpriv acy
Ġcertific ate
Th esis
ho ps
Ġaccademic a
missi oni
Ġhe alth
Ġro le
Ġcul ture
ĠHi ya
Ġsubmit ting
Ġsci ences
Ġanaly ze
ĠPo ichÃ©
Ġpubblic azioni
Ġutilizz ando
Ġfocus es
Ġmajor ity
dis p
Ġwrit ing
Ġabb i
Ġabb ia
uc tions
Ġprenot are
Ġaccoun ting
Ġdisc utere
Ġtras cor
Ġmateri ali
Ġmateri als
Ġmulti p
Ġmulti ple
Ġter m
hematic s
Ġgrou ps
Ġke ep
Ġop tion
Ġop tions
Ġdecisi ons
Ġscri v
Ġworks hops
Ġlavor ativa
Ġaziend e
Ġfu ori
Ġfu ture
ĠSp ecialized
Ġread ing
ĠAc ademic
Ġcommun ity
Ġaccept ed
Ġitalian e
10 3
Ġdor ms
Ġsystem s
Ġinv est
Ġeuro pe
eting s
ĠMa jors
Ġgrupp i
Ġcarta ce
ĠContro l
Ġautomatic amente
Ġintro duce
eta il
Ġreserv ation
Ġrichied er
acceler ation
acceler azione
Ġrisp ettare
Ġrespons es
Intern ship
Ġrecommend ed
.. .
lement ary
Ġty pic
Ġcap acitÃł
ĠSem ester
ĠMat hematical
Ġproced ure
Ġproced ura
ĠDov rÃ²
ĠTirocin i
ĠTirocin io
ev ento
Ġabil ities
Ġfundament als
Ġtoo k
Ġcontro llare
Ġperform ance
Ġgu arante
lear ning
Ġlead ing
Ġrapp resent
Ġcompeti tive
Ġallog gio
Ġusu ally
Ġinstr uctions
comp ulsory
Ġroom s
Ġsvilupp o
Ġut enti
ĠâĢ ĵ
Ġciv il
Ġincor por
isc ono
Ġlong er
Ġprom ot
ĠClic k
olog y
ĠIns titu
ĠOri entation
Ġauthori zation
Ġemploy ers
Ġdynam ics
En hancing
Ġer r
ros s
Ġfir ms
Ġpren dere
Ġdov rai
Ġhappen s
Ġinsegn amenti
Ġjo in
Ġecce zione
Ġcurrent ly
Ġbehavi or
Ġsovrapp os
Ġï¬ģ n
Ġaptitud es
Ġcerc are
Ġow n
ĠSupp lementary
ĠMe eting
Ġassig ned
Ġesemp io
Ġinterpre t
ĠAnaly tics
ĠColl egati
Ġdormit ori
ichiar azione
Fore ign
Tim e
bber o
Ġuman e
Ġtess era
Ġtongu e
Ġsap ere
Ġbibliotec he
Ġbiblio gr
ectron ic
ĠStr ateg
Ġappren dimento
Ġadmit ted
Ġadvant age
Ġcresc ita
Ġsoddis fare
ĠSept ember
Ġautunn ale
ĠDevelop ment
' re
' ll
' ve
0 3
1 6
7 1
A F
B I
B occoni
C or
C ons
E C
G MAT
H ours
I B
O pening
P A
P ro
R IS
S p
T M
V P
a in
a use
a erop
c er
c urricular
d es
d ot
e i
e am
e le
f ru
f acebook
g ing
g th
g res
h ing
i or
i ale
k on
m ilan
n als
o ffer
p are
p lic
p ose
r ame
r gani
s y
s ol
t and
t ori
t ations
t ors
u ri
u ale
u per
v ato
v ede
w ide
y m
Ġ Q
Ġ **
Ġ outs
on a
Ġa irport
Ġt ab
Ġt ale
Ġt ass
Ġt ecn
er ve
er emo
in ando
in formation
an z
an it
Ġd ottor
Ġd own
Ġs m
Ġs y
Ġs ch
Ġs ig
Ġs ect
Ġs tore
Ġs otto
Ġs ummer
Ġs anit
en c
en ing
Ġp m
Ġp al
ti va
ti vazione
Ġc a
Ġc at
Ġc ol
Ġc le
Ġc ity
Ġc alendar
Ġc alendario
or g
or so
al a
al o
al lo
al tra
Ġin t
Ġin ves
Ġin coming
at ter
at tro
ot man
ic ani
ic inese
un que
is titu
is hed
ar icare
Ġf is
Ġf am
Ġf all
Ġf lex
am missione
Ġan ali
Ġo sp
Ġe conom
Ġe tÃł
Ġm en
Ġm il
Ġm eno
Ġdi ffic
ĠI T
Ġto get
Ġpro t
Ġpro duc
Ġpro sp
Ġpro pos
Ġb r
Ġb ad
Ġb ene
Ġb anc
Ġb ank
as p
ec ord
et ti
et tive
ĠC ent
ĠC erti
ĠS ervizi
ĠS ettembre
Ġre al
Ġre tur
si er
Ġh old
ĠM edia
ĠM alpensa
ĠM AF
ĠM VP
ver niz
ri al
Ġcon ver
Ġcon tr
ĠA I
ĠA P
ĠA teneo
ĠP ost
Ġper mit
Ġper man
ag ni
ol as
ol te
ol der
ol amenti
ol ution
vi o
ce ll
ad mission
Ġg ar
Ġg ui
Ġg ym
us try
ĠT eam
ĠT icinese
ch i
ch ments
ul y
Ġth ou
Ġcom mit
Ġcom mer
Ġcom mon
ta gram
ta chments
ĠL i
ĠL eg
ĠL og
ĠL ost
Ġv ed
Ġv edere
Ġv alut
Ġsu e
Ġsu o
Ġsu peri
ĠE duc
Ġr u
Ġr ul
Ġr aggi
Ġor ari
Ġse par
Ġpos ti
Ġpos ta
fic he
ur re
ĠW RD
est info
Ġpre si
Ġpre vede
Ġex per
Ġex tra
Ġacc ed
ĠD ec
ĠD irit
Ġcomp re
Ġcomp ar
Ġcomp ulsory
ith er
ĠIn verniz
ac he
ĠG rou
ĠG PA
ir ing
ut are
ĠF ri
ĠF ac
ĠF anno
Ġst or
Ġst esso
Ġst ren
Ġst anza
Ġst essa
Ġsc aricare
Ġsc olas
per tura
der n
der graduate
ĠU E
gi es
gi ving
bil ity
ĠN ella
Ġsp or
Ġcor re
Ġdis t
Ġdis ciplin
Ġ1 3
Ġ1 00
ĠPro getto
Ġes ig
Ġes peri
Ġes clusi
Ġab it
Ġad ministration
ay ing
Ġpres ente
Ġpres enza
Ġfin ancing
ĠR is
ĠR el
ĠR otman
ĠR ecord
og o
Ġac ross
ĠQu esto
Ġexam ple
Ġpers one
ord o
ord ine
Ġreg ard
Ġcons ente
our nals
Ġmo tiv
Ġmo dern
Ġcre are
Ġcre ative
rit ti
ito li
Ġdur ation
Ġoffer ta
Ġres ources
Ġres erve
Ġgi ve
Ġspeci fici
Ġsi amo
ach es
Ġso on
Ġri mb
Ġri pe
Ġri vol
Ġri ght
Ġri dot
Ġev ento
Ġev olution
eng er
Ġfe w
Ġfe ature
Ġar ti
Ġset tore
duc tion
Ġcl assi
Ġen able
onibil i
Ġrichi ede
mo ver
zion ali
Ġlaure e
Ġlaure ato
eri amo
eri fica
Ġcont ents
Ġimp ost
amp ia
ĠV ia
ĠV iale
ĠV erifica
ors a
Ġstr um
lib databases
ester i
Ġrec ent
Ġrec over
Ġrec uper
op le
vis te
Ġsh are
Ġsh ort
Ġli fe
Ġstudent es
bb e
ĠFin anza
ex change
ex perience
Ġk it
Ġk ind
ĠUn dergraduate
Ġpass aggi
Ġposs esso
Ġconsider are
co e
Ġthere fore
tre am
Ġaut onom
Ġmi x
Ġmi gli
Ġcred it
ĠJ ust
ĠJ uly
Ġspecific o
Ġplan ning
Ġpot resti
Ġno tions
ĠStud ies
ĠTh rough
Ġorganiz za
ub lic
Ġind ustry
ĠComp il
eler ator
Ġtirocin ante
ĠAd ministration
Ġexp l
Ġexp ire
Ġexp ress
Ġexp osed
Ġel ements
Ġqual itative
Ġindividu ali
Ġindividu als
port al
Ġother s
pri re
Ġdiffer enza
Ġthrough out
requ estinfo
Ġinizi o
Ġcontat ta
Ġcos a
Ġcos to
Ġcos ts
Ġcos Ã¬
Ġrice ver
bocconi ISD
Ġsome one
Ġinvi ate
Ġinclu si
ĠLaw s
Ġarri ve
Ġworld wide
ĠAcc ess
Ġrequest ed
Ġnumer ical
app ly
Ġimport ante
ner ship
Ġ6 50
ĠAll egati
Ġiscri versi
Ġpost ale
Ġassist ance
ĠAn y
Ġcertific ato
Ġcertific azione
pend e
Ġph d
abil i
Ġprevis ti
Ġgradu ation
Ġstartu ps
Ġ7 0
Ġ7 00
Ġsol ving
Ġpa ese
Ġcul tura
Ġloc ation
Ġanaly sis
ĠPo int
Ġleg ge
ĠQual ity
Ġfocus ing
Ġtit le
Ġlog in
Ġlog ic
Ġsucc ess
Ġsucc essi
Ġabb iamo
ĠReg olamento
Ġsce gliere
Ġpol ice
Ġpol icies
Ġcurricul ar
Ġcurricul are
Ġpropri o
ĠSt atistics
tico li
Ġitali ani
Ġtras crizione
Ġentr ata
Ġindic ated
Ġci ascun
chol og
tain ment
Ġdocument azione
Ġfound ed
Ġsuper iore
Ġask ed
Ġcoll ections
Ġacqu istare
Ġlavor ativi
Ġdescri zione
Ġdescri ptions
ell i
ser tations
Ġav vi
Ġaper to
Ġaziend ali
Ġaziend ale
Ġsim ili
Ġdeci dere
ĠSp ring
Ġconfer ma
Ġcommun ic
Ġcommun ication
Ġpublic ations
Ġconsul enti
Ġdettagli ate
Ġlu gg
Ġfour th
Ġdig it
Ġconn ect
Ġsugg eriamo
Ġevalu ate
ĠCons ulate
ĠCons olato
ft mba
Ġfar lo
Ġmedic al
ĠDeg ree
Ġactiv ation
Ġsoci ety
Ġassicur ati
Ġassicur ativa
Ġsosten endo
Ġrisp etto
Ġiscriver ti
Ġhuman ities
ank ed
ĠSem estre
Ġprofess or
Ġprofess ors
Ġtak en
Ġsemin ari
Ġsemin ars
Ġstrateg ic
Ġcomunic azioni
ev ents
Ġtal ents
Ġfundament al
Ġmol to
Ġbec ause
Ġresid ence
Ġcontro lla
Ġracc o
Ġracc olte
ĠDi ploma
Ġallog gi
ĠRic erca
Ġchar ge
Ġstrut ture
Ġequival ent
Ġsvilupp are
IN RIS
niz ed
Ġgesti one
Ġvita e
Ġcompil are
Ġdisabil itÃł
Ġaddition al
ĠRes earch
Ġgratu iti
Ġmodul o
Ġpotre bbero
Ġpotre bbe
Ġsvolg ono
Ġpurch ase
Ġcoordin ator
Ġaggiorn ati
pass enger
wh ere
Ġapart ment
Ġsen ior
Ġref und
Ġconten uti
ĠAm missioni
ĠPol icy
Ġrilasci ato
Ġori entamento
Ġparl are
Ġdisco very
Ġspecialis tici
Ġrecog nized
Ġfav ore
Ġobiet tivi
Ġoverla p
Ġbuild ing
Ġidone i
Ġfunc tions
Ġstructure d
inter o
Ġpe ople
Ġcir ca
Ġlet tura
Ġelig ible
Ġearli est
Ġbrow ser
Ġglob ale
Ġexcep tions
Ġspons or
Ġricon osci
Ġvisu alizz
Ġagre ed
Ġpotenzi ale
Ġqualcun o
Ġprogett ato
Ġparo le
Ġpracti ce
Ex perience
Ġsing olo
Ġpic k
Ġcambi are
atas tream
Ġlar ge
Ġlibr aries
Ġmicro form
Ġrit ardo
Ġorig ine
Ġargom ento
Ġrispos te
Ġconflit ti
disp onibili
Ġabbi ano
Ġcartace e
Ġï¬ģn ancial
ĠStrateg y
Opening Hours
aerop orto
cer t
rame work
sy cholog
tand ing
Ġ** *
Ġouts tanding
Ġdown load
Ġsch er
Ġsig ni
Ġpal estra
Ġtoget her
Ġbad ge
ĠServizi o
ĠMAF INRIS
ĠLeg al
Ġraggi un
ĠWRD S
ĠDirit to
ĠInverniz zi
Ġstren gth
Ġdisciplin es
Ġesig enze
ĠMAFINRIS K
" .
. )
. ).
A mb
C E
D ottorato
F i
F ree
I f
O N
P OR
Q U
R e
T A
U S
U fficio
a v
a it
a io
a pe
b u
b ibliotec
b ru
c are
c ourses
d enza
d ice
f it
f ine
g ot
g ed
h ina
i one
j ournals
k es
l ate
l and
l ami
m il
m et
m are
m ata
n ome
o li
o per
o int
p on
p th
p lace
r ono
r isp
s it
s tic
s ari
s olo
t y
t ad
t to
t anto
u an
u ch
u ali
u ary
u ole
v oro
v alu
w ay
y c
y s
y ers
z o
z zi
z ational
Ġ :
Ġ @
Ġ eng
on t
on ly
Ġa der
Ġa prire
Ġt w
Ġt ar
Ġt ari
er to
in ations
an ze
an che
an uary
re i
Ġd am
Ġd ed
Ġd ri
Ġd ichiarazione
Ġs at
Ġs to
Ġs us
Ġs eri
Ġs atis
en un
Ġp oc
Ġp sycholog
ti ene
Ġc am
Ġc ore
Ġc ust
Ġc ities
Ġc ell
Ġc ritical
es ta
or are
or io
or gani
al ity
al ore
Ġin fer
Ġin vo
Ġin cl
Ġin tend
Ġin vol
Ġin oltre
Ġin depend
Ġin gres
ro ve
it ing
it able
it armi
at t
at tico
um ul
um ents
un k
un te
un itÃł
un tamento
is e
is m
is ti
is tico
ar ri
ar amente
ar ne
Ġl at
Ġl un
Ġl ate
Ġl ost
Ġl asci
Ġl unch
Ġf ore
Ġf anno
Ġf oun
Ġf oto
Ġf ilan
Ġf otocop
cc io
cc up
ent ly
ent emente
am s
Ġo v
Ġo ccup
Ġe ither
Ġm ac
Ġm ir
Ġm etter
Ġm emb
Ġm agistrale
Ġm uch
ati v
Ġdi v
Ġdi ri
Ġdi plom
Ġdi pende
Ġw i
Ġw ord
Ġw ould
Ġw ait
ĠI mp
Ġde ad
Ġde fin
Ġof fici
Ġpro s
Ġpro per
Ġpro va
Ġpro duce
Ġpro ceed
Ġb achelor
Ġb etter
Ġn ational
Ġun ica
os a
os o
os ure
ter Ãł
ter min
ter library
as hi
as ure
as soci
ĠC A
ĠC ours
ĠC ard
ĠC ourses
ĠC ritical
ĠC erto
li ance
li min
ĠS el
Ġre m
Ġre ma
Ġre di
Ġre la
Ġre cl
Ġre tte
si de
Ġh ost
Ġh older
ĠM i
ĠM ay
ĠM aggi
Ġcon v
Ġcon ven
em e
em enti
ĠA C
ĠA ug
ĠP l
ĠP r
ĠP u
ĠP ri
ĠP ay
ĠP AS
Ġper met
ag a
vi ded
Ġfor um
ni ti
ib ili
ad ers
ad vant
Ġcan cell
ĠT ell
pp ing
Ġon es
ul ti
ul ation
ate ly
Ġat t
Ġat tent
Ġat tachments
enti tÃł
lla bor
ĠL o
ĠL u
ĠL ui
Ġv ic
Ġv ac
Ġv alori
te ad
Ġsu i
Ġsu llo
Ġsu lle
Ġsu itable
ĠE s
ĠE mp
Ġr ag
Ġr ate
Ġor a
hi p
tr ic
ab ato
Ġpos i
Ġpos ition
Ġpos izione
fic io
fic ato
fic ata
fic azione
ur y
ur isp
ĠW i
ĠW el
Ġpre vi
Ġpre so
Ġpre pare
Ġne gli
Ġne ola
and s
ĠD atab
Ġcomp agni
Ġcomp liance
ĠIn c
ĠIn ser
ĠIn formation
ĠIn terlibrary
ĠH R
ĠH all
ĠH igh
Ġqu ad
Ġqu ale
Ġqu indi
Ġqu attro
ac ter
Ġapp ello
Ġapp ena
Ġapp oint
Ġapp untamento
Ġall o
fer ence
ĠG o
ĠCom unitÃł
ir Ãł
ĠF ai
ĠF urther
Ġwh y
ĠWh ile
Ġsc ale
Ġsc ala
Ġsc oper
Ġsc uole
per ti
ĠAl ways
con tro
ĠU fficio
de pth
bil i
bil itÃł
ĠN ot
ĠN etwork
im p
Ġsp azi
Ġric erc
du zione
ĠY our
Ġco in
Ġco pertura
Ġco llabor
Ġcor risp
Ġdis cip
ĠO ff
ĠO pen
ĠO ther
Ġes p
Ġes erc
Ġes tivi
Ġes pri
Ġes perti
ra y
ra io
ass y
ass egn
ure ati
Ġpu rs
Ġit em
mb assy
Ġpres enti
Ġpres ence
ĠR om
ĠR ome
Ġnot e
ig ital
vo li
Ġac quis
Ġpri or
th ing
th rop
let e
ĠQu anto
Ġgr ant
Ġexam ination
Ġreg ulations
Ġreg ole
Ġcons um
Ġcons erv
Ġcons ist
mis sari
Ġch ances
Ġmo tivazione
Ġti ene
Ġcre ativ
rit ten
Ġcomplet o
Ġinter v
Ġinter amente
Ġinter essi
Ġinter bibliotec
adu ates
Ġoffer te
Ġres titu
Ġres ult
Ġres ource
Ġgi ft
Ġtr y
Ġtr ust
Ġtr ack
ĠPer messo
zz ato
Ġta x
Ġso ft
la ureato
Ġri m
Ġri fi
Ġri duzione
Ġte ach
ĠMaster s
Ġar ch
Ġar ticoli
Ġar ray
olo gies
Ġrequire s
Ġins tead
gh ts
ant emente
Ġwork st
Ġwork place
Ġcl ose
Ġen ab
Ġweb page
Ġvi able
Ġpl ur
Ġass ets
Ġsos titu
Ġcar atter
Ġany where
Ġany thing
Ġemail ed
ĠOn ce
âĢ Ŀ
Ġcont ent
ĠEn tro
ĠCon tratto
Ġimp egn
Ġimp lement
cl ass
Ġot ten
ĠV IS
Ġprofession isti
Ġtut tavia
ob iet
Ġam ministr
Ġrec ru
ult ane
op zione
aggi are
Ġsh ow
get ti
Ġver ranno
Ġpr atica
bb raio
Ġsele zioni
acc hi
ard s
ard ed
Ġform er
Ġai uter
Ġai uta
ĠFor m
Ġsub ject
Ġsub scri
Ġconsider ati
Ġconsider ation
Ġconsider ato
Ġconsider ata
ven zioni
Ġques tion
Ġcred ito
ĠJ anuary
Ġspecific ally
ĠSchool s
ĠTh at
ĠTh ese
Ġorganiz ation
Ġparticip ation
Ġind esider
Ġlink s
eler ation
Ġperiod ici
Ġdes k
Ġexp ect
Ġexp ected
Ġpresent ate
Ġpresent ato
Ġpresent azione
urricul ari
Ġpag are
Ġel ement
Ġel se
Ġel enco
Ġel ectronic
Ġel ementi
Ġdire t
Ġhow ever
Ġdiffer ence
Ġnecess ary
Ġchi am
Ġchi edere
Ġchi aramente
Ġlingu aggio
Ġfac tors
Ġgener a
Ġgener ation
Ġgener ale
azion ali
Ġcos ti
Ġuti le
ficial mente
ew spapers
Ġj unk
Ġhel ps
tur ato
Ġout side
Ġcerti fied
Ġeconomic o
Ġtrov ato
ĠAs s
ĠAcc edi
Ġvari ano
ĠWe b
Ġcompet ence
Ġappro ved
Ġappro ccio
Ġrichies ti
Ġinf o
Ġmet te
Ġcho ices
Ġten uto
Ġtim es
Ġtim etable
Ġob j
Ġconf ig
ĠAn d
ĠAre a
Ġpriv ato
Ġgrad o
Ġcertific azioni
Ġdedic ate
Ġdedic ato
Ġsit u
Ġph one
Ġph ilan
Ġph otocop
Ġph enom
Ġalcun a
Ġalcun e
abil itÃł
Ġaccademic he
Ġro les
Ġpa esi
Ġpa pers
Ġsupport s
Ġsupport ing
Ġtrans late
Ġsci enze
Ġmom ent
Ġforn endo
Ġuf ficialmente
Ġpubblic o
ĠQual siasi
Ġtit olare
Ġsog getti
enn aio
Ġlog ging
Ġnu lla
Ġforni ti
Ġsucc esso
Ġabb onamento
Ġselezion ato
ru denza
Ġlim ite
Ġfull y
edi amo
Ġpropri e
ĠSt anza
Ġthan ks
Ġentr y
Ġveri fy
Ġindic ato
Ġmateri al
Ġmateri ale
Ġfrequent anti
Ġmulti disciplinary
Ġproblem a
Ġproblem s
Ġter rit
Ġter min
asci ata
ĠTr ack
Ġcomun que
Ġaccett ati
forma zione
ĠChapter s
Ġaim ed
Ġop zioni
Ġacqu iring
Ġdescri zioni
Ġdescri ption
Ġmodel s
Ġav rai
Ġav anz
Ġaper tura
ang ed
ang ing
Ġsim ultane
Ġinnov ation
ĠSc opri
rienn ali
Ġsupp ly
ĠConn ect
Ġmetho d
Ġnuo vamente
Ġlu ogo
Ġmember ship
Ġdim mi
Ġhigh ly
Ġconn ected
Ġgo al
Ġide e
ĠDur ante
Ġmail box
Ġinterview ers
Ġuniversit ari
Ġevent uali
ĠCons ul
Ġmanageri ale
Ġscel te
Ġpur pose
Ġclic k
Ġintro duction
Ġmedic o
ĠRe port
Ġactiv ate
Ġpersp ectives
Ġsoci ali
Ġrigor oso
Ġorganizz ate
Ġaiut are
Ġrespons abilitÃł
Ġlimit ed
Ġty pe
Ġcit tad
Ġfat to
Ġfat tura
ild ing
ili ar
ĠCl ub
Ġrep lace
ĠDes ign
Ġasp ir
Ġdispos iti
Ġentrepreneu rial
Ġstrateg y
Ġstrateg ia
Ġcomunic azione
Ġelettron ica
Stud ents
Ġaff ect
Ġoper ate
Ġoper ations
Ġmol te
Ġbec ome
Ġconc ord
Ġgu est
Ġaltern ativa
Ġrapp orto
trac t
Ġcover age
Ġpiani ficazione
Ġusu fru
Ġchar acter
Ġinstr uments
Ġstrut turato
Ġnoti ce
Ġequival ente
id entitÃł
Ġut ente
ĠâĢ ľ
Ġste ps
Ġciv ile
Ġfill ed
Ġbo x
ĠClic ca
ĠFe bru
ĠOri entamento
Ġinteress e
Ġinteress ato
Ġidenti ficativo
Ġpurch asing
Ġemploy ment
Ġdynam ic
wh ich
Ġinten so
Ġinten se
Ġline a
Ġfond ata
Ġreduc ed
Ġreduc tion
ĠMore over
ĠGi uri
Ġdisco ver
Ġregul ar
Ġconsenti to
Ġconsenti rÃł
Ġtrad ition
Ġtrad urre
Ġtext books
Ġrecog ni
Ġfav or
Ġobiet tivo
Ġconfir m
Ġconfir mation
Ġoverla pping
Ġfunc tion
Ġimprenditori ale
Fin ancial
stud ent
Ġaul a
Ġaul e
anking s
Ġcare fully
Ġcost antemente
Ġcall ed
atur al
Ġlec tures
Ġfon di
Ġfos ters
Ġdid attico
Ġprod otto
econom ia
Ġreason ing
ĠPa ese
ĠPot rÃ²
Ġistitu to
Ġappart amento
Ġappart amenti
Ġscrit tura
Ġarr ange
Ġarr anged
Ġinser isci
Ġassegn ati
Ġcontin ue
ĠVis ita
Ġrelation ship
Ġrelation ships
Ġresponsi ble
Ġresponsi bility
Ġcolleg hi
Ġtechn ical
Ġtechn ologies
Ġchalleng es
Ġchalleng ing
Ġentire ly
ĠResid ence
ĠResid enze
aut orizzazione
Ġaw arded
Ġinc re
Ġinsi eme
Ġfl essi
Ġdepend s
Ġhist ory
ĠPar lami
Ġpercor so
Ġistr uzioni
ĠLear n
Ġbel ong
Ġexperi ences
Ġparticul ar
Ġstat ement
ĠUl teriori
ĠProf ess
Ġpubl ished
Ġprim e
Ġconsis ts
Ġchang es
Ġartic les
ĠNovemb er
Ġenc our
ĠEnter tainment
Ġindipend ente
alizza zione
Ġoblig atory
Ġmultip li
Ġscriv endo
Ġtypic ally
Ġguarante e
ĠInstitu tions
Ġerr or
Ġsovrappos ti
Ġbibliogr a
Cor porate
Sp ring
Ġtass e
Ġdottor andi
Ġsect ors
Ġsanit aria
Ġcle arly
allo ggio
Ġinves ti
istitu zione
Ġfam iliar
Ġflex ible
Ġmen u
Ġprosp ettive
etti amo
Ġretur n
Ġcontr ario
Ġgar anti
Ġcommit ment
Ġrul es
Ġexper ts
Ġcompre so
ĠFac ulty
Ġesperi enze
ĠRis orse
Ġmotiv ation
Ġrimb orso
Ġridot ta
Ġarti stic
Ġimpost are
ĠCompil a
Ġexpl ore
Ġcommunic ations
Ġlugg age
Ġdigit ale
Ġracco gliere
Ġscher mata
Amb asciata
QU IS
got ten
Ġtar get
Ġtari ff
Ġseri e
Ġcust om
Ġinvo ice
Ġindepend ent
Ġfoun der
Ġfilan tro
Ġmac ro
Ġmir a
Ġdiri g
Ġword s
Ġdead line
Ġoffici ally
ashi on
ĠCours e
ĠSel ection
Ġredi rect
Ġrela zioni
ĠMaggi ori
ĠAug ust
ĠPAS S
Ġpermet te
ĠLui gi
urisp rudenza
ĠWel come
ĠDatab ase
ĠInser isci
ĠHall s
Ġappoint ment
Ġscoper ta
Ġricerc he
Ġdiscip line
Ġeserc itarmi
missari ato
Ġinterbibliotec ario
Ġrifi utare
ĠVIS A
obiet tivo
Ġindesider ata
Ġphenom ena
Ġusufru ire
ĠFebru ary
" ,
% .
' ,
' .
) :
/ ?
0 2
0 6
0 8
1 3
1 4
1 5
1 8
1 9
2 00
3 6
3 9
5 00
6 50
6 14
7 00
8 03
9 8
A L
A M
A vail
A MBA
A AC
B ad
B lackboard
B EC
C P
C S
C on
C om
C TS
C PE
C EMS
C hina
D C
D u
D igital
E E
E s
E ust
E mbassy
E QUIS
F OR
F ashion
G lobal
I L
I l
I ELTS
K US
L a
L IN
L ibri
M D
M aster
M alpensa
N T
N DA
N ewspapers
N LIN
O S
O ffer
O ther
O rgani
P al
P ol
P ost
P lease
P ell
P TE
P rint
R L
R co
S B
S O
S em
U ni
V ia
W OR
Y ear
a il
a ff
a ving
b e
b i
b al
b is
b us
b olo
b ack
b loomberg
b agagli
c li
c ol
c ess
c to
c areer
c ita
c entrale
d y
d ate
d ono
d ence
d ano
d ays
d emand
d iche
d etail
d inando
d atastream
e y
e cc
e king
f ts
g n
g no
g azione
g erti
g lobal
g ulations
h l
h en
h ic
h ome
h ance
i f
i ente
i eg
i par
i onamento
i atura
i kon
k i
l ing
l ess
l ectronic
m al
m oni
m ere
m ore
m ers
m essi
m enc
n ali
n ational
n eg
n etwork
o k
o ve
o gli
o dul
o glio
p a
p m
p r
p es
p one
p ly
p ir
p ts
p ond
p aying
p ublic
r y
r is
r as
r ere
r ilasci
r anked
r aduates
r bis
s w
s on
s um
s ono
s te
s pe
s ingl
s tract
t amente
t led
u es
u al
u si
u rom
u ct
u tions
u over
u dit
u ilding
v ati
v ate
v ance
v anti
w ise
w ritten
x y
x ts
x change
x ury
y ou
z er
z en
z ing
z ona
Ë ļ
Ġ #
Ġ &
Ġ +
Ġ .
Ġ /
Ġ ic
Ġ ve
Ġ ente
Ġ era
Ġ ...
Ġ 06
Ġ zona
on de
on na
Ġa li
Ġa uto
Ġt esti
Ġt riennali
er ic
er ed
er si
er vazione
er dinando
in es
in um
in am
in ato
in no
in de
in ting
in chÃ©
in vio
an ch
an ci
an ning
an neg
re ational
re ach
re gulations
Ġd os
Ġd are
Ġd one
Ġd Ãł
Ġd ato
Ġd rop
Ġd enom
Ġd enun
Ġd inam
Ġd anneg
Ġs ti
Ġs om
Ġs qu
Ġs ale
Ġs iti
Ġs hel
Ġs tim
Ġs Ã¬
Ġs edi
Ġs ources
Ġs ource
Ġs hip
Ġs abato
en ed
en zioni
en ire
en ica
en ya
Ġp w
Ġp es
Ġp op
Ġp uls
ti r
Ġc u
Ġc er
Ġc ic
Ġc iti
Ġc amp
Ġc ould
Ġc erca
Ġc entr
Ġc ache
Ġc yc
es te
es tern
es tic
es ito
es co
or ti
or di
or no
or gio
or ical
or na
or rei
al di
al tern
al itÃł
al tro
Ġin comp
Ġin telligence
ro re
ro va
ro pic
ro ving
ro id
ro aches
it ary
it ates
it ante
it alia
it ecn
Ġthe ore
at tu
at ch
at ale
at ini
at tamento
at inum
ot e
ot s
ot el
ot opic
ic an
ic als
ic embre
un c
un e
un ting
is ter
is ta
is ten
is tics
is se
is tiche
is tici
is sertations
ar ation
ar ib
ar ci
ar le
ar ta
ar lo
ar ily
ar bu
ar zo
Ġl as
Ġl eng
Ġl ose
ll y
ll ing
ll icani
Ġf al
Ġf it
Ġf lo
Ġf ase
Ġf ile
Ġf asi
Ġf isc
Ġf ramework
cc o
ent ed
ent ra
Ġan n
Ġan sw
Ġo pp
Ġo pt
Ġe di
oni mo
Ġm er
Ġm one
Ġm us
Ġm arch
Ġm agistr
Ġm otto
Ġm aggio
ati che
Ġdi eci
Ġdi ary
Ġdi verso
Ġdi ploma
Ġdi ritti
Ġdi vided
om o
om alpensa
Ġw p
Ġw ai
il ity
il ica
ed ire
ed Ã¬
ed uti
ed back
ĠI SO
ĠI lly
Ġde al
Ġde le
Ġde termin
occ hi
Ġof ten
ĠB e
ĠB y
ĠB ig
ĠB ook
ĠB EC
ĠB uilding
Ġpro b
Ġpro mo
Ġpro pone
Ġpro xy
Ġb l
Ġb occoni
Ġb lackboard
Ġb ache
Ġb orsa
Ġb anche
Ġb atch
Ġn as
Ġn ess
Ġn ow
Ġn ur
Ġn oi
Ġn ature
Ġn atura
Ġn atural
tu al
tu almente
os i
os en
os ta
os est
os ita
ter e
as y
as ed
ec e
ec ourses
et tazione
et hing
ĠC or
ĠC ad
ĠC ir
ĠC urricul
ĠC up
ĠC redit
ĠC att
ĠC ras
li are
li de
li fe
ĠS u
ĠS ec
ĠS ol
ĠS und
ĠS ant
ĠS eri
ĠS AT
ĠS tazione
ĠS IM
ĠS atur
ĠS ummer
ĠS abb
ĠS DC
ĠS RL
ĠS ki
Ġre ali
Ġre ac
Ġre gi
Ġre ach
Ġre pe
Ġre vol
Ġre ject
Ġre view
Ġre alis
Ġre apply
si oni
si mo
Ġh i
Ġh is
Ġh otel
ĠM ond
ĠM ach
ĠM ost
ĠM arch
ĠM aggio
ĠM odul
ri viste
Ġcon vers
Ġcon versi
Ġcon duct
em por
em ember
ĠA ut
ĠA mer
ĠA id
ĠA TM
ĠP C
ĠP art
ĠP IN
ĠP rint
ĠP ublic
ĠP eking
Ġper so
Ġper ks
Ġper tanto
ag ed
ag ement
ag ire
ol do
ol ica
ol tÃł
ol inate
qu est
Ġfor te
Ġfor za
Ġla unch
ib ility
ad a
ad e
ad ing
ad esi
Ġg ame
Ġg round
Ġg overnment
us o
ĠT ab
ĠT ass
ĠT oo
Ġon ce
ul a
ul are
ul gazione
ali ano
ali ze
ci ale
ci ous
ma x
ma king
le f
le tion
Ġth us
io v
ate way
Ġi ll
Ġi OS
Ġat ten
Ġat tivi
so ffice
Ġcom ing
ta x
lla bus
ĠL os
ĠL ore
ĠL ibri
di es
di ale
di amo
Ġv alore
Ġv enire
Ġv orrei
te e
te llo
te gno
Ġle zione
Ġle gg
Ġle ave
ill b
ill c
ill j
Ġal to
Ġal umnus
Ġal berg
Ġsu oi
ĠE CTS
ĠE ikon
ĠE lectronic
ĠE urom
ĠE cco
Ġr ile
Ġr anked
Ġr anging
Ġor ario
Ġare e
Ġpos ting
Ġpos tazione
tern al
fic ate
fic ations
fic ant
ur ing
ĠW ork
ĠW estern
tion al
Ġpre via
Ġpre ved
Ġpre limin
Ġdo ct
Ġne llo
end s
end ing
Ġex ist
Ġex ecu
Ġex clusi
Ġex ceed
and ono
and ard
and book
Ġacc essi
Ġacc edi
Ġacc umul
Ġacc ettiamo
ine xchange
ĠD ay
ĠD oc
ĠD ue
ĠD etail
ĠD atastream
ĠD icembre
ĠD issertations
Ġcomp ati
Ġcomp ut
Ġcomp res
Ġcomp ren
Ġcomp lement
Ġcomp lex
Ġcomp uting
Ġcomp osto
Ġcomp letion
for gotten
ĠH a
ĠH ist
ĠH ong
ĠH ousing
ĠH igher
ĠH ey
ĠH andbook
Ġqu el
Ġqu oti
Ġqu ella
Ġqu elli
ac es
Ġapp os
Ġapp elli
Ġpar i
Ġpar tic
Ġall oc
ĠG ob
ĠG iv
ĠG ennaio
ĠG arib
ĠG ateway
ĠCom mit
ĠCom mer
ĠCom menc
Ġdel ay
tt on
ut es
ĠF r
ĠF ill
ĠF ond
ĠF undament
ĠF ound
ĠF ramework
ĠF CE
ĠF erdinando
Ġst ate
Ġst anno
Ġst essi
Ġst atis
Ġst anze
Ġst andard
ĠMBA s
ge les
ge board
Ġsc ru
Ġsc opri
Ġsc aff
per ations
per mal
per italia
ĠAl um
Ġma king
lic ation
sion s
con tent
ĠU S
ĠU su
ĠU pon
ĠU niti
Ġnon chÃ©
de pos
gi e
gi ate
ten ste
ĠN or
ĠN ON
Ġsp ort
Ġsp esso
Ġsp ace
Ġsp edire
tic ed
tic ally
Ġric re
du li
du cia
Ġu fficio
Ġco de
Ġco pri
Ġco aching
Ġco dice
Ġco ok
Ġcor res
Ġcor rect
Ġdis ting
Ġdis cipl
Ġdis sertations
Ġ1 18
ĠPro cess
ĠO f
ĠO ffer
ĠO ltre
ĠO rgani
ĠO NLIN
ĠO cto
ĠO rbis
ĠO perations
Ġes ist
Ġes pl
Ġes enzioni
Ġab ove
Ġad min
ure d
ure e
ori al
ori ented
gli a
mb ol
ano centrale
Ġpres ele
Ġfi ducia
Ġfin anza
Ġcandid ature
Ġcandid arsi
Ġcandid atura
eg no
ĠR ico
ĠR avi
ĠR ankings
ĠR emember
Ġnot are
Ġnot hing
og le
Ġac q
Ġac ts
Ġpi pe
th ree
th ropic
Ġ2 2
Ġ2 9
ĠQu ale
ĠQu anti
Ġgr azi
Ġgr andi
ect ing
Ġpers egu
Ġus are
Ġreg olamento
Ġreg alo
Ġreg olamenti
ond emand
Ġcons ent
Ġcons egn
Ġcons ape
Ġcons ervazione
Ġch apter
Ġch osen
ession s
our ism
Ġmo duli
Ġti p
Ġcre ated
ich erÃł
Ġapplic are
Ġapplic azioni
mun ity
Ġcomplet ando
Ġcomplet amente
Ġcomplet amento
Ġinter ac
Ġinter fer
Ġinter disciplinary
Ġinter act
Ġinter agire
Ġda ily
Ġdur a
Ġoffer ing
Ġgi fts
Ġspeci fied
Ġspeci alized
Ġspeci fying
Ġess erti
Ġess endo
Ġsi de
ĠPer io
ĠPer son
Ġdom enica
Ġperson a
Ġperson alized
Ġsem plic
tiv itÃł
la urea
la voro
Ġri un
Ġri port
Ġri man
Ġri viste
Ġri ghts
Ġri tir
Ġri esco
Ġev ening
Ġte xts
Ġte lef
eng ono
Ġag o
Ġag ain
Ġfe bbraio
Ġfe edback
Ġar ts
Ġset s
Ġset tori
Ġproc edere
duc ation
Ġins t
Ġmy library
Ġmy Print
ant age
Ġavail abil
Ġcl osed
Ġcl osest
Ġpossi amo
Ġen hance
ademic o
Ġweb in
Ġrichi ediamo
Ġvi ale
Ġvi de
Ġvi aggiare
Ġpl ay
Ġstar s
Ġsos tiene
Ġsos tegno
Ġcar ic
Ġcar ico
Ġcar icherÃł
Ġany one
ĠIntern azionali
ĠSci enze
ĠEn ric
Ġdisponibil itÃł
ĠCon cepts
ĠCon ference
Ġimp roving
00 1
pe llicani
ĠV antage
titu ite
ers ervice
Ġstr ate
Ġbusiness es
lib ri
Ġtut orial
Ġam missi
Ġam messi
tim ento
tim etable
Ġrec reational
op oldo
vis ti
vis ione
aggi ati
Ġsh ar
Ġsh own
Ġli ving
ap orto
ap hic
Ġver tic
Ġpr inting
bb iamo
Ġaccess ed
Ġsecond o
acc ordo
acc ettazione
ex t
ex ams
ong ono
Ġform ative
Ġform ativi
Ġris erv
Ġris orsa
ck s
ĠUn its
Ġtra vel
Ġpass are
Ġpass aporto
Ġsub mission
Ġconsider azione
co lle
co dici
co des
Ġpo or
Ġpo int
Ġunder ta
ĠPos sono
Ġques tura
tre preneu
Ġaut orizzazione
Ġeduc ativo
Ġmi d
ĠJ une
ĠPh ys
Ġperio di
lop edi
Ġspecific a
Ġspecific he
Ġspecific ando
com es
com munity
iv es
pen s
Ġpot enziali
edic a
ĠStud i
ĠStud enti
Ġorganiz es
EF MD
now ledge
ub scri
lle giate
Ġme eting
Ġme etings
Ġme asure
Ġfind ing
ĠQuali fication
Ġregister ing
Ġrel ativa
Ġrel ativi
ĠAd vis
ĠAd vance
Ġattiv amente
ĠLe aders
ĠLe opoldo
Ġexp and
Ġexp la
Ġexp ose
Ġexp osure
form atica
Ġpresent ation
Ġpresent ations
Ġpresent azioni
Ġpag es
Ġpag ine
Ġpag anti
Ġcas a
Ġcas i
Ġcas es
Ġel ite
Ġel ective
Ġqual itÃł
oun g
Ġsta zione
Ġmat ch
Ġmat hematics
Ġsemester s
fore ducation
pri ate
ĠEuro pa
Ġcheck ed
Ġcheck outs
Ġprocess es
Ġprocess uale
Ġnecess arily
Ġsar ai
Ġchi ed
Ġchi esto
Ġchi unque
Ġinizi ale
Ġlingu e
Ġlingu istici
Ġwebs ites
Ġcontat t
Ġcos tituite
Ġmin d
Ġdev ice
ĠCh inese
Ġhome page
Ġlaw yers
Ġrice vi
bocconi exchange
fi es
pic amente
vol e
Ġsome bo
Ġinvi a
Ġinvi ata
Ġinvi ando
Ġinvi eremo
Ġcontact ed
min imum
Ġeconomic i
Ġbas a
Ġregistr are
Ġregistr ate
Ġregistr ata
bl ackboard
por to
sp ace
ans national
ĠAcc elerator
ĠAcc eleration
ĠAcc ademico
Ġvol ont
Ġvol unte
Ġvari e
Ġvari are
Ġvari etÃł
ĠWe ek
Ġcompet enza
Ġcop ie
Ġcop ies
Ġrequest s
Ġmode lling
Ġnumer ose
Ġnumer ica
Ġutili zza
Ġutili zzi
app ro
app osita
app lication
Ġ4 0
Ġ4 8
Ġ4 00
Ġ4 13
Ġappro vi
Ġappro ves
Ġappro priate
Ġrichies te
Ġ6 0
Ġ6 5
Ġ6 9
Ġinf otopic
Ġfa i
Ġfa ce
Ġmet o
Ġmet Ãł
Ġiscri vo
Ġvalu es
Ġvalu ation
Ġdoes n
Ġnew spapers
su ch
Ġten endo
enzi ale
ĠAn geles
Ġlevel s
Ġpriv ata
Ġuse ful
Ġcertific ations
Th en
Th eses
Ġdedic are
Ġdedic ata
Ġph ases
Ġletter a
Ġprevis ta
Ġaccademic i
Ġcoun t
Ġcoun sel
Ġgradu ated
Ġresp ect
Ġconsigli ate
Ġ7 50
Ġhe ad
Ġsol ution
Ġsol uzione
Ġsol itamente
Ġpa per
Ġpage lle
Ġcul tur
Ġequ al
Ġequ ity
Ġmon diale
Ġsupport ed
Ġtrans fer
Ġtrans port
Ġvisit s
Ġvisit are
Ġsubmit ted
Ġ202 2
Ġ202 4
Ġ9 001
Ġloc ations
Ġmom enti
Ġmom ents
Ġforn ito
Ġforn ite
Ġforn ita
Ġforn iscono
Ġleg ale
Ġ12 0
Ġ12 00
Ġpubblic a
Ġpubblic ata
Ġfocus ed
ide a
se e
Ġ3 4
Ġ3 5
Ġwrit ten
Ġbu y
Ġbu on
Ġbu ona
Ġbu tton
ech an
ech tenste
Ġforni r
Ġforni rÃł
admissions portal
ĠTest s
ĠReg atta
ĠReg olamenti
Ġpartner ship
Ġselezion a
Ġselezion ano
Ġpoli tics
Ġpoli tiche
Ġpoli tica
Ġrecei pt
Ġinclud es
In contro
fin ris
pl aying
Ġtem por
atti ci
atti vo
atti vazione
Ġlim its
ĠSt ati
ĠSt atis
ĠSt atale
ĠSt arbu
Ġdisc re
Ġ10 5
Ġtras ferimento
Ġentr ambi
Ġveri fying
Ġindic ati
Ġfrequent ante
Ġeffettu a
Ġproblem i
Ġter ms
icur ati
Ġopen ing
ĠTr ansnational
tain able
Ġaccett ate
Ġaccett ato
Ġdocument ation
Ġenviron ments
Ġend s
Ġend ing
art ph
Ġfree ly
Ġdecisi one
ĠCul tural
Ġcondi vi
Ġcondi zioni
Ġcondi tions
Ġsuper are
Ġcoll ecting
Ġconsult ed
Ġconsegu ire
Ġconsegu imento
Ġpersonali zzato
Ġcarri ed
Ġlavor ando
Ġlavor ativo
Ġaper ti
Ġaper ta
incip les
Ġsim bolo
Ġsim ply
alis m
alis mo
ĠCo aching
ĠCo llegiate
ĠSc ambi
Ġconfer ita
Ġconfer red
Ġconfer mare
Ġveng a
Ġconsul ta
Ġconsul enza
Ġconsul ting
Ġnuo vo
Ġobblig hi
Ġdetail ed
Ġinv it
Ġinv ece
Ġlu glio
Ġdim en
Ġnor ms
Ġreport ed
ĠMa in
ĠMa finris
Ġconn essi
Ġgo ing
Ġgo als
Ġglobal network
Ġide a
Ġmail ing
Ġweek s
Ġweek ly
Ġadmission soffice
Ġuniversit aria
Ġaggiun tivi
Ġaggiun gere
Ġquesti oni
Ġmanageri ali
Ġsvol ge
Ġintro duct
Ġmedic he
ĠMarket s
Ġisc ritti
alizz are
alizz ato
loy ment
ĠRe fer
ĠRe finitiv
Ġactiv ity
Ġmodi fy
Ġmodi fiche
Ġreserv ing
Ġreserv ations
Ġsoci ale
Ġsoci etÃł
part nership
Ġsosten uto
Ġsosten uti
Ġorganizz are
Ġorganizz ano
ĠValu e
ĠValu ta
Ġprincip ale
Ġprincip les
Ġauth entic
Ġfacil ita
Ġfacil itates
Ġarriv are
Ġrespons abile
Ġtranscri pts
Ġlimit are
campus life
Ġul tim
Ġenti tled
Ġty pes
Ġscholar ship
Ġiniti ative
Ġfat tori
Ġfun ge
ĠMat ters
ĠMat hematics
ema il
Ġattitud es
Ġasp ects
Ġquali fication
Ġquali fications
Ġupd ate
Ġsemin ar
ĠDov rai
Ġprac tical
Ġprac ticed
ĠLeader ship
Ġcomunic ato
Ġobbligator io
Ġsettiman e
Ġabil ity
Ġabil itÃł
Ġaff inchÃ©
Ġtal k
Ġsend ing
Ġpay ment
room s
Ġoper ating
Ġmis ur
Ġmis sion
Ġmis sione
Ġmol ti
Ġresid ent
Ġconc entr
Ġconc essa
ĠAg osto
lear n
Ġcomb ina
Ġlead ers
Ġaccord o
Ġcompeti tion
ĠAlcun e
Ġcover ed
Ġ19 9
Ġ19 03
Ġ19 71
Ġ19 02
ĠRic ord
Ġstrut tura
Ġrisult ato
comp uter
Ġnoti fy
Ġnoti fied
Ġschedul e
CL EF
online programs
Ġdon azione
Ġste lle
Ġpen ale
Ġpen sier
Ġcent ro
isd bocconi
Ġfill ing
Ġmess age
Ġmess aggi
Ġmess ages
Ġprom uover
Ġbo ards
Ġbo dies
Ġborrow ed
Ġborrow ing
Ġnost re
sig n
ĠMet ho
Ġprogramm es
Ġprogramm ing
Ġprogramm ata
Ġgesti ti
Ġaccredit ed
Ġaccredit ato
ĠIns tagram
ĠFe e
ĠFe el
Ġspe aking
Ġdisabil ity
Ġdisabil ities
Ġfinanzi ari
Ġfinanzi amento
Ġfinanzi amenti
ĠRes ources
ĠRes tric
Ġgratu ito
Ġprerequis iti
Ġprerequis ito
Ġprerequis ite
Ġprerequis ites
Ġindustri al
Ġidenti fied
Ġkey word
Ġnorm ale
Ġnorm ally
Ġnorm ativa
Ġnorm almente
Ġsvolg ere
Ġsvolg ersi
Ġauthori ties
Ġaggiorn ato
En trepreneu
go ing
go zi
mon th
pass word
sel Pro
ĠK ong
ĠK enya
ĠK nowledge
Ġer rore
Ġamp io
Ġamp ie
Ġamp liare
Ġapart ments
ins tagram
Ġdesider a
Ġdesider i
Ġdesider o
Ġsen so
Ġlook ing
Ġment re
Ġment or
Ġconten uto
ĠPre sid
ĠPol itecn
Ġrilasci ata
Ġori entation
Ġparl ami
ĠGi ug
ĠGi urisprudenza
Ġstamp a
Ġstamp are
Ġstamp ate
Ġscan ning
Ġscan sione
Ġ16 5
Ġregul ation
Ġcontrib u
Ġcontrib ution
Ġnecessari e
Ġnecessari amente
Ġ50 2
Ġidone o
Ġecce zionali
Ġsovrapp ongono
AC C
AC TM
AS FOR
Fin ally
ph d
ph ds
stud enti
inc ub
Ġpe ers
Ġcir c
Ġcall s
Ġincon tro
Ġincon trare
Ġlec ture
Ġfon te
Ġfos ter
Ġelig ibility
Ġearli er
Ġdid attici
ĠBas ilica
Ġbrow se
econom ic
ĠApp roaches
ĠPot rai
Ġglob alization
Ġistitu zione
Ġassoci ations
Ġassoci ativa
Ġassoci azioni
ĠGre etings
Ġinform ed
Ġinform ative
Ġricon osc
Ġ15 8
Ġagre ements
Ġassegn ata
Ġcontin u
ĠVis it
Ġprint ed
Ġprogett ati
Ġvolum e
Ġvolum i
Ġvolum es
Ġparo la
Ġsupervis or
Ġsupervis ore
Ġrepresent ative
Ġrepresent atives
Ġpracti tion
CLE S
CLE AM
CLE ACC
Ġspeak ers
Acc elerator
Per form
cent er
Ġaw are
Ġamb ito
Ġamb iente
Ġsign ed
Ġinc entr
Ġintegr ated
Ġfl u
Ġemer gere
Ġdepend ing
Ġdepos itare
Ġbre ve
Ġbroad er
Ġren dimento
Ġhist orical
ĠPar co
Ġpercor si
Ġistr uzione
entic azione
ĠLear ning
Ġbel ow
abb andono
Ġprefer ences
Ġextrac urriculari
Ġparticul arly
ĠUl isse
Ġcolle ag
Ġcolle ge
ĠProf ession
Ġadvis e
Ġadvis ory
Ġpubl ish
Ġconsis te
Ġsetting s
ĠNovemb re
ĠExam ination
ĠExam inations
Ġindipend entemente
Ġ201 8
Ġ201 36
Ġliber amente
Ġfail ure
Ġoblig ations
Ġconflic t
Ġconflic ts
Ġtrascor ro
Ġtrascor rere
Ġmultip la
Ġterm ine
Ġinvest ment
Ġeurope e
Ġeurope o
Ġrichieder lo
Ġrichieder ne
Ġtypic al
Ġguarante ed
Ġrappresent ante
Ġrappresent anti
16 0
BI G
BI EF
Cons ulate
Cons olato
ei kon
ele vato
milan omalpensa
milan olinate
offer ta
ĠQ S
ĠQ Rco
Ġtab let
Ġtecn iche
Ġsm artph
Ġsy llabus
Ġsy mbol
Ġca usa
Ġcat al
Ġcol umn
Ġcol onna
Ġint enti
Ġfis sa
Ġanali tiche
Ġosp itante
Ġeconom y
Ġeconom et
Ġmil itare
Ġmil itary
Ġproduc ed
Ġproduc ts
Ġbr anch
Ġbanc ario
ĠCent er
ĠCerti fication
Ġconver sion
ĠAI DA
Ġperman ent
Ġperman enti
admission phd
Ġgui de
Ġgui da
Ġthou gh
Ġthou ght
Ġcommer ci
Ġcommer cial
ĠLi fe
ĠLi echtenste
Ġved o
Ġvalut are
Ġsuperi ori
ĠEduc ation
ĠEduc ational
Ġru olo
Ġru oli
Ġsepar ate
Ġacced endo
ĠDec ember
Ġcompar ative
ĠGrou p
ĠGrou ps
ĠFri ends
Ġscolas tico
Ġscolas tiche
Ġspor tiva
Ġspor tello
Ġcorre ttamente
Ġdist inc
Ġabit ativa
ĠRel ations
ĠRel azioni
Ġregard ing
Ġregard less
Ġripe tere
Ġrivol to
Ġrivol gerti
Ġfeature s
Ġstrum enti
Ġstrum ento
Ġrecuper are
Ġstudentes che
exchange application
Ġautonom ously
Ġmigli ore
Ġmigli ori
Ġexpire s
Ġricever ai
Ġsuccess fully
Ġsuccessi vo
Ġavvi are
Ġavvi ene
Ġbuilding s
Ġsponsor ing
Ġriconosci ute
Ġsigni ficant
Ġraggiun to
POR TA
Re quest
care erservice
mil anocentrale
uan ia
valu es
Ġeng agement
Ġader iscono
Ġtw ice
Ġdam age
Ġded uc
Ġsus tainable
Ġsatis fying
Ġpoc he
Ġpsycholog ical
Ġcam po
Ġcell ulare
organi zational
Ġinfer iore
Ġincl usa
Ġinvol ved
Ġingres si
rove ment
arri vo
Ġlat er
Ġlun edÃ¬
Ġlasci are
Ġfore see
Ġov unque
Ġoccup a
Ġmemb ri
Ġdiv ulgazione
Ġdiplom as
Ġwi der
ĠImp rovement
Ġproper ly
associ ations
ĠCA E
Ġrema in
Ġrecl ut
Ġconv alid
Ġconven zione
ĠAC T
ĠPl atinum
ĠPr ada
ĠPu Ã²
ĠPri vate
ĠPay Pal
aga z
Ġforum s
advant ages
Ġcancell arti
ulti mo
Ġattent amente
ĠLu glio
Ġvic ino
Ġrag ionamento
Ġposi tions
Ġprevi ously
Ġprepare s
Ġneola ureati
Ġquad riennale
ĠGo ogle
Ġspazi o
Ġcoin vol
Ġcorrisp ond
ĠOff re
ĠOther wise
Ġespri mere
assegn azione
Ġpurs ue
Ġitem s
ĠRom olo
ĠRome o
throp ology
Ġgrant ed
Ġconsist ently
Ġcreativ ity
Ġinterv istare
Ġrestitu ire
Ġrim ar
Ġarch ives
Ġworkst ation
Ġenab les
Ġcaratter istiche
class timetable
Ġamministr azione
Ġrecru it
ĠForm ativa
Ġsubscri ption
Ġdiret tore
Ġchiam ato
ĠAss icurati
Ġobj ectives
Ġconfig ur
ĠAnd roid
Ġsitu ato
Ġphilan thropic
Ġterrit orio
Ġavanz ati
Ġsimultane ously
ĠConsul ta
Ġdispositi vo
Ġconcord are
Ġcharacter istics
ĠGiuri dici
Ġrecogni ze
Ġfavor ire
Ġfunction ing
student associations
Ġincre asing
Ġflessi bile
Ġbelong ing
ĠProfess or
Ġinvesti re
Ġtarget ed
Ġtariff a
Ġcustom ers
Ġdirig enti
ĠPASS WOR
08 71
19 9
200 8
803 614
Avail able
AAC SB
CP U
CS Q
Con venzioni
Com missariato
Du omo
Digital Newspapers
Eust orgio
IL L
KUS T
Offer ta
Pol icies
Pell icani
Sem estre
Uni fit
ail ed
bloomberg foreducation
cli enti
mers chool
rilasci o
sum merschool
spe aking
singl ecourses
usi as
udit ing
Ġic on
Ġve lo
Ġ... ),
Ġ06 98
Ġali as
eric ane
inno vazione
inde x
Ġdos sier
Ġdenom inato
Ġdinam ico
Ġdanneg gi
Ġsom ething
Ġsqu ad
Ġshel ves
Ġpes o
Ġpuls ante
Ġcic lo
Ġciti zen
Ġcamp i
Ġcentr al
Ġcyc le
altern ativa
Ġincomp lete
Ġtheore tical
Ġleng th
Ġflo or
Ġopp ure
Ġedi fici
Ġmone y
Ġmagistr ali
Ġmaggio re
Ġwai vers
Ġdele g
occhi ata
Ġbache che
Ġness un
Ġnur ture
ĠCad orna
ĠCurricul um
ĠCatt olica
ĠCras h
ĠSund ays
ĠSeri es
ĠSatur day
ĠSabb atini
Ġreac hed
Ġrevol ution
ĠMond ay
ĠMach ine
Ġconversi one
ĠAmer ican
ĠPart nership
ĠPrint ed
Ġlaunch ing
adesi one
ĠTab acchi
ĠTass a
ĠLore to
ĠEurom edica
Ġrile vanti
ĠWork space
Ġpreved ono
Ġexist ing
Ġexecu tives
Ġexclusi ve
ĠDetail ed
Ġcomput ational
forgotten password
ĠHist ory
Ġquoti di
Ġpartic olare
Ġalloc ation
ĠGob bi
ĠGiv ing
ĠGarib aldi
ĠCommit tee
ĠCommer ciale
ĠCommenc ement
ĠFond azione
ĠFundament als
ĠFound ation
Ġstatis tiche
Ġscru p
Ġscopri re
Ġscaff ali
permal ink
ĠUsu ally
depos ito
Ġcorres pond
Ġdisting u
Ġdiscipl ina
ĠONLIN E
ĠOcto ber
Ġespl orare
ĠRico h
ĠRavi zza
Ġpipe line
Ġgrazi e
Ġpersegu ono
Ġsemplic emente
ĠEnric a
Ġammissi bilitÃł
colle geboard
Ġsomebo dy
Ġvolont ari
Ġvolunte er
ĠWeek end
ĠStarbu cks
ĠMafinris k
Ġintroduct ory
Ġauthentic ation
Ġpensier o
Ġpromuover e
ĠRestric ted
Entrepreneu rs
selPro gram
ĠPolitecn ico
ĠGiug no
ACTM B
ĠQRco de
Ġsmartph one
ĠLiechtenste in
PORTA NT
ĠPASSWOR D
singlecourses admission
2 6
6 00
A I
A b
A c
A g
A l
A n
A s
A t
A re
A ll
A part
A uditing
B ig
B usiness
B ook
B orse
C F
C H
C i
C ase
C EF
C erca
C osa
D e
D is
D ec
D ist
D oc
D irect
D ichiarazione
D uring
E U
E di
E uro
F our
F ind
G li
G raduates
H ow
H ai
H KUST
I D
I s
I ON
J ust
K D
L ine
L etter
M ore
M anagement
M ond
M arket
M ilan
M edia
M Es
N ota
N ote
O W
O ri
O ur
P r
P ag
P ay
P unte
Q CE
R Y
R es
R ichi
R CH
S e
S i
S t
S ing
S us
S port
S ept
S atur
S ettembre
S EE
T e
T ut
T rova
T ourism
T ext
U E
U RCH
V is
W hen
Z ecc
a w
a gr
a vers
a uto
a round
a part
a fica
a ught
a ight
a pertura
a ula
b r
b re
b ed
b ri
b ale
b la
b ated
b uzione
b itato
c ro
c ic
c ed
c os
c tion
c ts
c ase
c og
c ando
c ard
c asi
c ritto
c lear
c emente
c ardo
c iting
c osa
c ulation
c urriculari
c arta
d al
d ing
d ri
d enti
d di
d ata
d ance
d Ã¬
d ouble
d otto
d diti
d own
d ology
d ged
d enun
d icals
e f
e qu
e zione
e per
e vo
e ff
e ither
e limin
f an
f for
f ac
f fici
f ficial
f its
f ace
f ections
f unc
f ailed
g y
g ar
g ati
g ono
g est
g ine
g ia
g ence
g ure
g age
g ress
g oti
g getto
g ibili
h ot
h os
h ere
h ori
h our
h ould
h all
h asi
h older
h unting
h usias
i on
i ent
i om
i pp
i ac
i ante
i zion
i Ã¹
i uto
i ede
i eno
i eld
i ams
j o
j ing
j ections
l u
l os
l ity
l ay
l ect
l ment
l ite
l ong
l ast
l ements
l aration
l comes
m ing
m enti
m ato
m ps
m per
m anagement
m ates
m edi
m assimo
m agistrale
m alizzazione
m agaz
n d
n s
n on
n are
n ess
n do
n ected
n ology
n ewspapers
o d
o ps
o ard
o pportun
o ining
o llow
o kes
p in
p ou
p ia
p ra
p tiv
p uoi
p any
p les
p ected
p rint
r n
r al
r am
r ac
r ich
r ong
r ue
r ini
r anging
r onimo
s ic
s ed
s ce
s ere
s ure
s ile
s ection
s ue
s ew
s een
s abato
s uring
s ending
s ubscri
s hot
t oni
t om
t ta
t est
t ect
t ment
t ant
t ina
t atta
t ativi
t embre
t onde
t empor
u a
u ing
u ol
u arsi
u dono
v ent
v are
v ono
v est
v ola
v itare
v atore
v acy
v engono
w it
w ith
w orld
w ards
x ed
x im
y le
y ond
y pe
y bri
z ed
z ations
¦ ),
Ċ Ċ
Ġ io
Ġ est
Ġ vers
Ġ ),
Ġ round
Ġ roll
Ġ ibri
Ġ Zecc
on y
on er
on ti
on al
on is
on to
on so
on ents
on tro
on endo
on abile
on osci
Ġa um
Ġa zioni
Ġa mo
Ġa zienda
Ġa vant
Ġa erop
Ġa uditing
Ġt ou
Ġt as
Ġt ort
Ġt able
Ġt anti
Ġt ack
Ġt reat
Ġt rent
Ġt rial
Ġt itoli
Ġt ourism
er ali
er le
er lo
er va
er man
er ature
er istico
er pr
er gy
in al
in ed
in qu
in to
in ch
in ta
in zione
in ale
in for
in ano
in clu
in ves
in anza
in erÃł
in clusi
in contro
in onimo
in formatica
in vitare
an al
an ing
an tive
an ese
an ish
an co
an tico
an eo
an na
an cia
re ci
re mo
re ds
re ements
re ak
re cent
re etings
re bbero
re tto
Ġd ic
Ġd oni
Ġd arti
Ġd ouble
Ġd ena
Ġd ichiar
Ġd atas
Ġd ram
Ġs on
Ġs he
Ġs al
Ġs ou
Ġs for
Ġs ola
Ġs ott
Ġs era
Ġs vant
Ġs icur
Ġs lid
Ġs alutations
Ġs fru
Ġs aving
Ġs lide
Ġs erali
Ġs inonimo
en i
en ess
en ni
en ere
en so
en ven
en uti
en arsi
Ġp or
Ġp ad
Ġp ill
Ġp ut
Ġp ack
Ġp assi
Ġp orta
Ġp acchi
Ġp sic
ti ti
ti zione
ti lo
ti po
ti ble
ti se
Ġc e
Ġc al
Ġc ou
Ġc li
Ġc ri
Ġc ure
Ġc ita
Ġc amb
Ġc ron
Ġc ru
Ġc ura
Ġc lear
Ġc entrale
Ġc iao
Ġc ross
Ġc umul
Ġc attivo
es tr
es im
es ig
es tivi
es pre
es terno
es plic
or a
or ing
or itÃł
or gh
or anti
or ning
or ici
or resti
or terÃł
or ry
or nare
he ad
al are
al le
al ties
al king
al meno
al anced
al vatore
Ġin ver
Ġin de
Ġin duc
Ġin cep
Ġin come
Ġin tellig
Ġin eff
ro ch
ro vato
ro lment
it ti
it ec
it olo
it tare
it ane
it aliano
it uania
it erature
Ġthe at
Ġthe ori
Ġthe ory
Ġthe ms
at ro
at ement
at amente
at ors
at tri
at teri
at tivitÃł
ot h
ot al
ot te
ot ype
ic k
ic ed
ic king
ic lopedi
um enti
un a
un t
un ati
un ci
un ico
is ure
is co
is ms
is sa
is ters
is pens
ar re
ar are
ar to
ar di
ar te
ar ra
ar la
ar co
ar les
ar ico
ar mon
ar gom
ar iscono
ar moni
Ġl ess
Ġl atter
Ġl anci
Ġl ots
Ġl ista
Ġl isten
Ġl ending
Ġl inch
Ġl iterature
ll alo
Ġf ot
Ġf ing
Ġf as
Ġf ul
Ġf ur
Ġf und
Ġf eri
Ġf ami
Ġf erti
Ġf ron
Ġf ast
Ġf its
Ġf atti
Ġf ondo
Ġf ashion
Ġf estivi
ou gh
ou ther
cc ess
cc hi
ent er
ent are
ent ri
ent ato
ent ando
am ed
am ano
am missioni
am ericane
am inerÃł
Ġan alizz
Ġan tica
Ġan thropology
Ġan agr
Ġo k
Ġo ld
Ġo ggetto
Ġe vi
Ġe mo
Ġe book
Ġe books
Ġe journals
Ġe asy
Ġe cos
Ġe ffor
oni a
oni ere
oni fici
Ġm os
Ġm ere
Ġm ono
Ġm ese
Ġm esso
Ġm ark
Ġm anc
Ġm ilan
Ġm arzo
Ġm echan
Ġm agaz
Ġm orning
Ġdi par
Ġdi zion
Ġdi ven
om en
om es
om estic
bot h
Ġw on
Ġw il
Ġw ere
Ġw id
Ġw ind
Ġw inter
Ġw rong
Ġw alking
Ġw omen
il t
il ar
il ter
il io
il ore
il eg
il ibr
il ino
il bla
ed rai
ed uc
ĠI ce
ĠI denti
Ġde li
Ġde tr
Ġde cl
Ġde als
Ġde fine
Ġde bated
Ġde eper
Ġde tect
occ ata
occ iatura
occ ony
Ġy oung
Ġy ield
Ġand are
ĠB ut
ĠB row
ĠB isog
ĠB ank
ĠB anking
ĠB ei
ĠB oard
ĠB reak
ĠB orgh
ĠB oth
ĠB occony
Ġpro ve
Ġpro to
Ġpro te
Ġpro ac
Ġpro fici
Ġpro ving
Ġpro ie
Ġpro ï¬ģ
Ġpro gres
Ġpro gress
Ġpro jections
Ġpro vare
Ġpro attivitÃł
ing s
ing res
ing oli
Ġb ag
Ġb lo
Ġb ig
Ġb esi
Ġb ind
Ġb ars
Ġb anking
Ġb unch
Ġb iom
Ġb anco
Ġb enven
Ġb alanced
Ġb roch
Ġb onifici
Ġb occiatura
Ġn ations
Ġn ord
Ġn ative
Ġn azion
Ġn ient
tu ro
tu to
tu ali
Ġun li
Ġun us
Ġun con
Ġun su
Ġun ico
Ġun iche
Ġun emp
Ġun clear
Ġun subscri
os so
os cri
os amente
os tra
os istema
os tazioni
os essions
ter ni
ter emo
zi a
zi amo
zi almente
gr atu
gr aduates
gr ade
gr aphic
ation alization
as ta
as ur
as ons
as arico
ec tures
ec osistema
et e
et ed
et eci
et ary
et tura
et tore
et tivitÃł
ĠC ol
ĠC ali
ĠC ap
ĠC oun
ĠC alendar
ĠC red
ĠC alendario
ĠC orso
ĠC arta
ĠC asarico
li re
li ti
li es
li tical
li do
li zzo
li evo
ĠS are
ĠS vi
ĠS ta
ĠS enti
ĠS te
ĠS im
ĠS olo
ĠS che
ĠS vol
ĠS fo
ĠS cholar
ĠS MS
ĠS iamo
ĠS ala
ĠS essions
ĠS ubscri
ĠS MEs
ĠS hould
ĠS wit
ĠS orry
ĠS alvatore
ĠS outher
ĠS ingoli
Ġre ale
Ġre ven
Ġre pl
Ġre tain
Ġre written
Ġre visione
Ġre dditi
Ġre tta
Ġre infor
Ġre asons
Ġre lies
si a
si an
si ve
si di
si der
si amo
si mi
si mil
Ġh er
Ġh our
Ġh und
Ġh ous
Ġh ard
Ġh ands
Ġh ybri
Ġh armon
are ness
ĠM ir
ĠM eg
ĠM ust
ĠM over
ĠM assimo
ĠM ars
ĠM icro
ĠM agni
ĠM arzo
ĠM ade
ĠM echan
ĠM arra
ver o
ver ed
ver ai
ver ty
ver bal
ver ete
ve ment
ve gia
ri a
ri re
ri ve
ri ght
ri moni
Ġcon duc
Ġcon cl
Ġcon clu
Ġcon form
Ġcon cor
Ġcon cep
Ġcon trac
Ġcon tiene
Ġcon tract
Ġcon dotto
em po
em pt
em atiche
ĠA lla
ĠA tt
ĠA gli
ĠA ff
ĠA pri
ĠA not
ĠA zienda
ĠA ziend
ĠA vere
ĠA lex
ĠA irport
ĠA bbiamo
ĠA sia
ĠP ad
ĠP ur
ĠP ap
ĠP arti
ĠP sycholog
ĠP aga
ĠP URCH
ĠP iÃ¹
ĠP icking
Ġper di
Ġper du
ag ing
ag ista
ag onabile
ol en
ol ati
ol gi
ol ito
ol ante
ol anti
ol vere
ol ino
ol tativi
ol itane
ol osamente
ol ettura
qu esti
qu ality
qu ilino
ce o
ce lla
ce pt
ess e
ess es
ess and
Ġfor gotten
ni a
ni on
ib re
ib ly
ib ile
ib endo
ad ap
ad isi
ad ily
ad attamento
to peritalia
to bre
Ġg ot
Ġg us
Ġg overn
Ġg ain
Ġg ennaio
Ġg iov
Ġg reetings
Ġg enere
us tr
us sian
Ġcan cella
ĠT u
ĠT ur
ĠT ale
ĠT ui
ĠT ech
ĠT riennale
ĠT aking
ĠT itoli
ĠT rova
ĠT ext
ĠT RY
ĠT aught
ĠT otal
ch ant
ch ron
ch ang
pp o
Ġon going
Ġon wards
Ġis pir
Ġis sue
ul ties
ul ating
ul ously
ci re
ci are
ma ximum
le vel
le aders
le aning
Ġth rive
ate ver
Ġi mper
Ġat tive
Ġat tivo
Ġat tiva
Ġat tivazione
Ġat tualmente
Ġat tuali
Ġcom itato
Ġcom missariato
ta ur
ta ct
ta bl
ta kes
enti ve
enti to
enti fic
enti onal
Ġtu rn
ĠL ato
ĠL ith
ĠL im
ĠL mit
ĠL ingu
ĠL angu
ĠL etter
ĠL ituania
ĠL ectures
rs ing
Ġv a
Ġv end
Ġv ice
Ġv ant
Ġv ost
Ġv ener
Ġv ast
Ġv ai
Ġv ital
Ġv aria
Ġv inc
Ġv oglio
Ġv ostra
Ġv asta
Ġle ft
Ġle aving
Ġle isure
ill are
ow er
ow ment
Ġal ong
Ġal gor
Ġal tamente
Ġsu its
Ġsu ddi
Ġsu ffici
Ġbe yond
ĠE ra
ĠE th
ĠE ff
ĠE ven
ĠE very
ĠE sis
ĠE mbassy
ĠE asy
ĠE vent
Ġr ine
Ġr ational
Ġr ates
Ġr ist
Ġr ub
Ġr ank
Ġr anking
Ġr ankings
hi es
hi este
tr ack
tr ans
tr arli
tr uzioni
Ġse en
Ġse ll
Ġse gn
ab ic
ab ly
ab orare
Ġpos tazioni
tern s
fic arle
ur ity
ur rÃł
ur ances
ĠW rit
ĠW ant
ĠW ould
ĠW ritten
tion aries
est ri
est ata
Ġpre disp
Ġpre zzi
Ġpre cious
Ġpre ced
Ġpre gati
Ġpre lievo
Ġdo ing
Ġdo dici
Ġdo bbiamo
Ġne ver
Ġne gozi
Ġne goti
end ere
end ance
end ered
Ġex ecutive
Ġex tend
Ġex clu
Ġex cell
Ġex ternal
Ġex pens
Ġex citing
Ġex empt
Ġex cept
Ġex chang
vers ali
and e
and osi
Ġacc ons
Ġacc ede
Ġacc anto
Ġacc ogli
Ġacc ordi
Ġacc rue
Ġacc onto
ĠD a
ĠD ati
ĠD ates
ĠD ub
ĠD ottor
ĠD ichiarazione
ĠD igital
ĠD omestic
Ġcomp one
Ġcomp osed
Ġcomp iuto
Ġcomp onents
Ġcomp rovato
ith ms
Ġas sociation
Ġas yn
Ġas inc
Ġas tratto
Ġas col
Ġas simil
for niti
for nia
ĠIn vo
ĠIn tro
ĠIn gh
ĠIn forma
ĠIn nov
ĠIn via
ĠIn tegr
ĠIn coming
ĠIn formatica
ĠIn vest
ĠH ai
ĠH ave
ĠH unting
ĠH KUST
ĠH KD
Ġqu est
Ġqu inqu
Ġqu ick
Ġqu arto
Ġwill ing
ac ement
ac ting
Ġapp are
Ġapp ear
Ġapp ort
Ġapp ieno
Ġapp reci
Ġha ven
Ġha ving
Ġpar itÃł
Ġpar ts
Ġpar alle
Ġpar zialmente
Ġpar agonabile
Ġpar adisi
Ġall enarsi
fer iti
ĠG ame
ĠG ui
ĠG lob
ĠG ener
ĠG row
ĠG uan
ĠG raduates
ĠG iov
ĠG erman
ĠCom par
ĠCom itato
Ġdel ve
ir ation
ir mer
ir ical
tt ing
tt are
ut ation
ut amente
ut tivo
ut going
ĠF ren
ĠF ros
ĠF ailed
ĠF ollow
ĠF issa
ĠF irmer
Ġwh om
Ġwh atever
Ġst ati
Ġst ations
Ġst ates
Ġst ating
Ġst ands
Ġst yle
Ġst retto
Ġst agista
Ġst olen
Ġst esse
Ġsc adu
Ġsc ritto
Ġsc onti
ĠThe ory
per are
per to
per ty
ĠAl th
ĠAl tri
ĠAl essand
Ġma i
Ġma x
Ġma kes
lic it
lic ations
sion are
Ġintern ationalization
con fi
ĠU SD
ĠU nion
ort h
Ġwe igh
Ġwe ight
Ġwe alth
Ġwe avers
Ġwe lcomes
Ġyear ly
de bitato
gi mento
bil isce
ĠN DA
ĠN AT
ĠN ew
ĠN elle
ĠN unn
ĠN ei
ĠN atural
ĠN OW
ĠN amed
ĠN orth
im pos
im itato
im porto
Ġsp ot
Ġsp ur
Ġsp ese
Ġsp her
Ġsp ost
Ġsp ott
Ġsp read
Ġsp irit
Ġsp ieg
Ġsp anning
Ġsp aces
Ġsp okes
Ġsp onso
Ġsp ariscono
Ġinfor ms
Ġinfor matic
tic es
tic le
Ġric op
Ġric co
Ġric ons
Ġric avi
Ġric ordo
Ġric ettivitÃł
eci al
eci ally
Ġu si
Ġu gu
ĠY oung
Ġco ach
Ġco her
Ġco gni
Ġco des
Ġco aches
Ġco prire
Ġco perto
Ġcor por
Ġcor rel
Ġdis app
Ġdis ser
Ġdis sol
Ġdis advant
ĠPro por
ĠPro jects
ĠPro pose
ĠPro vengono
ĠO R
ĠO mi
ĠO ffic
ĠO pening
ĠO gn
ĠO utgoing
Ġes iti
Ġes tive
Ġes pos
Ġes egu
Ġes itare
Ġes terno
Ġes oner
Ġes aminerÃł
Ġes terni
Ġes ibendo
Ġes tabl
erv ing
erv ation
erv ata
ra ise
Ġab itative
Ġab stract
Ġad op
Ġad ap
Ġad ott
Ġad atti
Ġad att
Ġad debitato
ass icur
Ġpu lire
ori zz
ori gin
ori entamento
ori entation
ori zzato
ori gine
gli e
ĠIt alo
ĠIt aliano
Ġpres to
Ġpres cri
Ġpres tazioni
Ġpres sure
Ġpres ervation
Ġfi glio
Ġfi diamo
Ġfi gure
Ġfi xed
Ġfin ali
Ġfin estra
Ġfin alize
Ġfin alizzare
Ġcandid armi
eg oti
ĠR ice
ĠR ect
ĠR iv
ĠR etail
ĠR ipar
ĠR educ
ĠR ettore
ĠR ussian
ani eri
Ġnot a
ĠProgram mi
ĠProgram ming
ig ning
og hi
og ue
Ġac tion
Ġac quisto
Ġac tors
Ġac tual
Ġtest ate
ke holder
Ġpi oniere
Ġgli mps
Qu ando
Qu antit
Qu attro
Qu esta
th ere
th ese
th ink
Ġ2 00
Ġ2 10
Ġuni fied
ĠQu ante
ĠQu indi
ĠQu esti
ĠQu este
Ġgr an
Ġgr ants
Ġgr asp
Ġgr inta
Ġgr ande
Ġexam ine
Ġexam ples
ĠLa voro
ĠLa uree
Ġus es
Ġus ando
Ġus cita
Ġus cire
ord ing
ord inano
Ġpart endo
ond amano
Ġcons titu
Ġcons tant
Ġcons enso
Ġcons olati
tro vi
el ve
el ves
our ne
Ġmo ve
Ġmo tivo
Ġti picamente
Ġti eni
Ġcre o
Ġcre ation
Ġcre ato
Ġcre azione
Ġcre iamo
Ġcre arne
Ġfirst come
Ġdal lo
cho ice
rit e
Ġapplic azione
Ġapplic able
Ġapplic ant
Ġapplic abili
Ġcomplet es
Ġcomplet ati
Ġcomplet ata
Ġcomplet ano
Ġinter azione
Ġinter depend
Ġinter attivo
Ġinter medi
Ġinter section
Ġup grade
Ġdur ature
Ġoffer to
Ġres tri
Ġres tric
Ġres taur
Ġgi uri
Ġgi urisprudenza
Ġspeci ale
Ġspeci fy
Ġspeci alizzazione
Ġspeci fies
Ġess enziale
Ġtr amp
Ġtr ue
Ġtr attamento
Ġsi x
ĠPer tanto
zz are
zz ate
zz era
Ġta vole
Ġta ilore
Ġdom estic
Ġvis ite
Ġvis ibili
cri pt
Ġso und
Ġso pr
Ġso lide
Ġso pra
Ġso lido
Ġsem estr
Ġsem estri
tiv eness
cip ata
cip ants
la ureati
la cious
la uree
Ġri gu
Ġri entra
Ġri apertura
Ġri entri
Ġev en
Ġte aches
Ġte orici
Ġte atro
Ġdisp lay
Ġag osto
Ġag onis
Ġar t
Ġar tificial
Ġar chi
Ġset tembre
Ġproc into
olo gie
duc es
Ġrequire ment
Ġins pir
Ġins olito
Ġins urances
gh ua
ant one
Ġwork pl
Ġwork load
Ġsec olo
Ġsec urity
Ġpossi ede
po litical
Ġen jo
Ġen rich
Ġen suring
Ġen ergy
Ġen rolment
Ġvi vere
Ġvi aggio
Ġvi br
Ġvi vono
ite voli
ost ante
Ġdomanda per
Ġpl us
zion a
zion ati
zion ando
Ġlaure arsi
Ġass ister
Ġass isten
Ġstar Ãł
Ġsos pende
Ġcar ing
Ġcar ry
Ġcar atteri
Ġany more
Ġemail s
ĠIntern et
Ġinforma zione
ĠOn ly
âĢ ¦),
ish ments
Ġcont are
Ġcont empor
Ġcont empo
Ġent ra
Ġent usias
Ġent husias
ĠCon ven
ĠCon tent
ĠCon venzioni
ĠCon tatta
ĠCon sider
ĠCon tact
Ġimp ron
Ġimp act
Ġimp rove
Ġimp osta
Ġimp lements
Ġimp arare
Ġimp ostazioni
Ġimp acting
cl assi
cl osure
Ġot tobre
Ġuno fficial
mit ed
pe an
pe cchi
st antive
ĠV ai
ĠV alore
ĠV AL
ĠV oglio
ĠV engono
ĠV uol
ĠV orresti
ĠV edrai
titu to
titu tion
ors are
ĠEx tra
ĠEx ternal
ĠDo ing
Ġprofession s
ff etter
res a
res si
res erved
Ġstr aight
Ġstr anieri
Ġtut ta
Ġam ericane
tim es
tim enti
aly st
Ġrec ap
op ening
vis a
vis erÃł
vis simo
vis toperitalia
aggi ornare
Ġsh ape
Ġsh ops
Ġli es
Ġli abil
ap anese
ap hies
Ġver sion
Ġver rÃ²
Ġver sione
Ġver bale
Ġpr atic
Ġpr atiche
Ġpr iced
Univers ity
bb ene
Ġaccess ing
Ġparti es
Ġparti ally
ĠFin d
Ġsecond ary
Ġsecond aria
ex pected
ard a
ard ando
Ġform s
Ġform ativa
Ġform alized
Ġform alization
Ġform alizzazione
Ġform alizzato
Ġris e
Ġris critto
Ġris iede
Ġris erva
Ġris olvere
Ġris pecchi
Ġpartecip ante
ĠEngl and
ck ed
mi eristico
Ġk its
road s
ĠCos ts
ĠSe veral
ĠSe bbene
Ġclass mates
Ġai uto
Ġai uti
Ġai ds
ĠUn ito
ĠUn like
ric s
ric ola
ric ontro
Ġtro vo
Ġtro verete
Ġtro ppo
Ġtra its
Ġtra ilbla
Ġpass ed
Ġpass ing
Ġpass port
Ġsub ire
Ġsub sidi
Ġsub stantive
Ġposs eduti
Ġposs esses
Ġconsider s
Ġconsider iamo
Ġconsider arsi
Ġpossibil ities
co very
ven zionando
Ġpo chi
Ġpo verty
ĠPos siamo
Ġques ta
Ġques te
Ġaver lo
Ġaver ne
Ġaut enticazione
Ġaut orizzato
Ġeduc ative
ĠItalian s
ĠJ oining
ĠJ apanese
atic ally
Ġspecific s
Ġspecific are
Ġspecific amente
ina ia
Ġpot er
Ġpot rÃł
edic al
Ġno tices
Ġorganiz ing
Ġorganiz ational
Ġorganiz ziamo
Ġparticip ates
Ġparticip ant
Ġparticip ating
angu ardi
all ments
Ġind ispens
Ġind uttivo
Ġlink ed
Ġme an
Ġme ans
Ġme asur
ĠComp lete
Ġfind s
Ġtirocin i
Ġregister d
ĠPhD s
Ġperiod ical
Ġperiod icals
Ġdes tra
Ġdes gin
Ġdes erving
Ġdes igning
Ġoff rono
Ġoff rire
Ġrel ative
Ġrel atori
Ġrel atore
ola ureato
Ġattiv ato
ĠLe ading
Ġexp iration
Ġexp licit
form e
form ative
Ġpresent ati
Ġpresent ed
Ġpresent arti
Ġpresent arsi
urricul are
Ġpag ando
Ġlib eri
Ġel sew
Ġel aborare
Ġdire tte
Ġdire ction
Ġrece ption
Ġrece ptiv
Ġqual che
Ġqual cosa
Ġindividu a
Ġindividu ato
Ġknow n
Ġsta i
Ġsta zioni
Ġsta bilisce
Ġsta keholder
Ġpun to
Ġmat h
Ġmat ters
Ġmat tina
Ġmat ematiche
Ġmat ricola
etter emo
Ġstudi ati
Ġstudi ed
Ġstudi are
Ġstudi ano
pri vacy
Ġprocess ing
Ġnecess ita
Ġsar Ã²
Ġchi are
Ġchi usa
Ġchi esta
Ġchi ediamo
Ġchi uso
Ġchi udono
Ġinizi ativa
Ġlo ad
Ġlo ans
Ġlo dged
Ġlingu istico
Ġfac endo
Ġfac oltativi
Ġed ge
Ġproget tazione
Ġproget tare
ett arti
ett arne
Ġconta ins
Ġconta cts
Ġgener ations
Ġgener azione
Ġgener ous
Ġgener azioni
Ġgener ico
Ġgener erÃł
Ġgener osa
not ch
ron ti
ron tare
Ã© lite
Ġcos ta
Ġcos terÃł
Ġmin uti
Ġmin ds
Ġmin utes
Ġmanag ed
Ġdev ices
ĠCh ange
ĠCh ain
ĠCh arles
Ġrefer s
Ġrefer enze
Ġrefer ences
Ġrefer red
Ġlaw s
Ġscamb i
ĠNon ostante
Ġrice zione
Ġrice vo
Ġdevelop ed
Ġdevelop ments
cor si
ew als
fi e
pic he
vol ta
Ġj uni
Ġj ournals
Ġj ourne
Ġsome times
Ġinvi ati
Ġinvi ato
Ġinvi ante
istr ation
istr uzione
tur ers
ĠAr chi
ĠAr ticoli
ĠAr abic
ĠAr ticle
Ġattend ed
Ġattend ere
ĠLaw yers
Ġout come
Ġout comes
anc y
Ġcerti fies
Ġeconomic he
Ġeconomic al
Ġbas ata
Ġbas ano
Ġbook ed
Ġbook ings
Ġnetwork s
Ġpresti ti
Ġregistr arti
Ġregistr arsi
Ġregistr armi
Ġtrov ano
Ġtrov ino
Ġtrov arlo
por ti
sp read
tri enni
ĠAs sol
ĠAcc ordo
ĠAcc ording
ĠAcc etteremo
soci azione
Ġvol er
Ġvol ti
Ġvari es
Ġcompet e
Ġcompet ent
Ġcompet enti
Ġcop ra
Ġrequest ing
Ġnumer ico
app art
uti lizzo
Ġbot tom
Ġappro vato
Ġappro vati
Ġappro xim
egn a
egn amento
Ġgior nali
Ġimport ance
Ġhelp ing
Ġhelp ful
âĤ¬ .
âĤ¬ ?
Ġ6 00
Ġinf ine
Ġinf lu
Ġinf osessions
ator io
ator ia
Ġfa ir
Ġmet ro
Ġmet rop
aliz ing
Ġvalu terÃł
Ġvalu teremo
Ġpost ed
Ġpost are
Ġpost graduate
Ġpost pon
Ġprepar ati
Ġprepar arsi
Ġnew s
stand s
Ġten ere
Ġten ure
Ġten uta
Ġten ured
Ġconf ronti
ĠAn che
ĠAn thropology
ĠAn toni
Ġadd ice
Ġpriv ati
Ġpriv ileg
Ġteam s
Ġenroll ment
Ġunderstand ing
Ġcertific a
Ġcertific ation
Ġcertific ates
Th ere
dul e
pend s
Ġdedic ati
Ġph oto
Ġph ys
Ġletter head
ĠIs land
ĠIs truzioni
Ġvalid o
Ġvalid ation
Ġvalid ate
abil ity
abil mente
Ġgradu al
Ġgradu ale
Ġgradu ating
Ġgradu atoria
Ġresp ective
Ġconsigli ato
Ġdemand ing
IM PORTANT
pos ta
Ġhe y
Ġhe art
Ġro omm
Ġro tonde
Ġsol e
Ġsol ve
Ġsol utions
Ġpa io
Ġcul tures
Ġfoc alizza
Ġequ o
Ġequ ally
Ġequ ality
Ġequ ipar
Ġequ ipp
Ġequ ilibr
Ġmon etary
ĠIM PORTANT
Ġtool box
Ġsupport ati
Ġsupport ato
Ġbegin s
Ġbegin ner
Ġmaj ors
Ġtrans formative
Ġvisit or
Ġvisit atore
bblic he
pro vided
pro perty
Ġsci ogli
Ġsci entific
Ġloc al
Ġanaly zing
Ġanaly tically
Ġanaly sed
Ġeff ects
Ġeff ective
quis ites
Ġforn isc
Ġleg ali
Ġleg acy
Ġleg alize
Ġleg alizzare
Ġpubblic i
Ġpubblic ati
Ġpubblic are
Ġpubblic ate
Ġpubblic ato
Ġpubblic ano
Ġcomplete ly
ress a
Ġutilizz ati
Ġutilizz ate
Ġutilizz ato
Ġutilizz arle
dis covery
Ġtit les
enn ale
isi on
Ġlog ica
Ġlog ged
Ġover view
Ġbu ying
Ġbu ilt
Ġnu rsing
ettu a
Ġforni amo
Ġwhere ver
ĠReg no
ĠReg istration
Ġselezion ati
Ġselezion arne
Ġpoli zza
Ġpoli zia
Ġinclud ono
fin al
pl ishments
Ġ5 9
Ġtot ali
Ġtot alizz
Ġfull est
Ġdivers a
edi ficio
ĠSt art
Ġthir ty
Ġprenot ate
Ġprenot ando
Ġprenot azioni
Ġtras formazione
Ġtras porto
Ġtras versali
Ġtras feriti
Ġtras porti
Ġentr ando
Ġveri fied
Ġveri ficata
Ġindic ata
Ġindic ations
Ġindic azioni
Ġindic ator
Ġindic atori
Ġindic atore
Ġindic ators
Ġfrequent a
Ġfrequent ati
Ġfrequent ano
Ġmulti forme
Ġmonth ly
Ġeffettu ata
Ġter ra
Ġter ranno
Ġci Ã²
entr y
Ġopen ly
ĠTr amite
Ġcomun e
Ġcomun icare
tain ability
Ġacceler ator
Ġaccett ata
Ġaccett ano
Ġquantit ativa
Ġvisto peritalia
Ġfound ing
Ġfound ation
Ġfound ational
Ġfound ations
pre pare
sc ritto
up date
Ġend owment
Ġke pt
inizi ativa
Ġport are
art amento
Ġop ere
ĠCul tura
Ġcondi tion
Ġcondi visione
Ġsuper ati
Ġsuper ato
Ġcoll ection
Ġcoll ects
Ġrequis ito
Ġconsult ando
Ġconsult ant
Ġconsult ants
Ġconsegu iti
Ġpersonali ze
Ġcarri er
Ġcarri es
Ġlavor ano
Ġdirect ed
Ġmodel ing
ell ente
ser Ãł
Ġav enti
Ġav ranno
Ġav viserÃł
Ġaper te
Ġaper tamente
ang ano
Ġsim ulation
Ġsim ilar
Ġinnov ativa
Ġfu tures
Ġfu turo
Ġdeci do
Ġdeci ded
Ġdeci dano
teri as
ĠCo lla
ĠCo dice
ĠCo ordinano
ĠSp azi
ĠSp ots
ĠSp iac
ĠSp anish
Ġread y
Ġconfer mi
Ġconfer imento
Ġconfer ral
ĠAc ronimo
Ġsupp orta
Ġsupp lied
Ġsupp orterÃł
Ġaccom pany
Ġaccom unati
Ġaccom plishments
Ġaccept ance
Ġconsul ente
Ġconsul ates
Ġconsul tazione
Ġricev ono
Ġricev ute
Ġricev uta
Ġnuo ve
Ġobblig atori
Ġdettagli o
Ġdettagli ato
The y
Ġdor m
Ġinv ite
Ġinv itare
Ġinv iting
Ġlu diche
Ġlu xury
Ġlu oghi
ament ale
Ġanno unc
Ġecc ellente
Ġdim entic
Ġdiversi ficato
Ġdepar ting
Ġdepar tment
Ġoffic es
Ġnor ma
ĠCi Ã²
ĠCi ascun
ĠChi ef
Ġreport ing
Ġhigh est
ĠMa ke
ĠMa king
Ġconn esso
Ġconn ects
Ġconn essa
emb rac
Ġgo es
Ġide al
ĠWill iams
Ġweek end
Ġinterview s
Ġevalu ated
Ġevalu ating
Ġaggiun tivo
Ġaggiun go
ĠCons ult
Ġlike ly
Ġreceiv ing
ministr azione
Ġinstitution al
Ġscel to
Ġsvol to
Ġclic co
Ġclic king
Ġclic ca
Ġclic care
Ġclic cando
Ġintro duces
Ġfar Ãł
Ġmedic a
Ġmedic i
Ġho lid
Ġgrow ing
alizz atore
Ġsegu i
Ġsegu ente
Ġsegu ire
Ġsegu ici
Ġparten ze
loy ers
Ġspend ing
Ġadv ice
Ġadv ance
ĠRe ad
ĠRe ason
ĠRe ading
ĠRe quisites
Ġactiv ating
Ġactiv ites
Ġmodi ficarle
Ġreserv es
Ġreserv ed
Ġassicur azione
Ġassicur azioni
Ġassicur arti
Ġsosten go
Ġsosten erlo
Ġsosten ibile
Ġorganizz ati
Ġorganizz ato
Ġorganizz ata
Ġorganizz eremo
Ġprincip iante
acceler atore
Ġrisp ettive
Ġrisp ettarne
Ġaiut ano
Ġaiut arli
Ġauth or
Ġfacil mente
Ġarriv arci
Ġrespons abili
Ġlimit ati
Ġlimit ato
Ġbackground s
ne olaureato
Ġscholar s
Ġpat rimoni
Ġpat terns
Ġcit ations
Ġcap able
Ġcap ital
Ġcap itoli
Ġcap itolo
Ġcap illare
Ġiniti al
Ġfat te
Ġfat ture
Ġfun ziona
Ġemp hasi
Ġemp ower
ĠSem pre
Ġrep utation
ĠMat h
Ġattitud e
Ġattitud inale
Ġasp ettare
Ġasp etti
Ġasp iring
Ġasp ettiamo
Ġasp ettarti
Ġquali ties
Ġquali fica
Ġquali fiche
Ġsche da
pers on
pers ons
Ġcoord ina
Ġcoord inate
Ġprofess ore
Ġprofess ori
Ġupload ed
Ġdispos al
ambi ente
Ġbooks tore
Ġcopy right
Ġcomunic ando
Ġaccommod ations
Ġdeparture s
Ġelettron ico
Ġsettiman almente
fe terias
Ġaff ected
Ġaff inando
Ġaff ittare
Ġaff rontare
Ġtal enti
Ġtal volta
anzi a
Ġpay ing
Ġcur ve
Ġcur va
Ġoper azioni
Ġmis to
Ġmis ura
Ġmis takes
Ġbec ame
Ġbec omes
Ġresid ente
Ġresid enze
Ġresid ences
Ġconc edere
Ġconc entra
ĠAg reements
Ġperform ing
Ġperform ances
Ġgu ardando
Ġcomb ine
Ġcomb ining
Ġcomb ination
Ġcomb inando
Ġcomb inations
Ġcomb ines
Ġcomb ined
Ġracc ont
Ġrapp orti
Ġcompeti zioni
Ġcompeti tions
Ġcover ing
ĠRic cardo
ĠRic onosci
ĠRic hieste
Ġusu al
Ġchar ity
Ġchar ged
Ġaggior ni
Ġinstr uct
Ġassess ed
Ġassess ments
Ġnoti fying
Ġnoti ficata
Ġequival enti
Ġequival ents
ĠPoli tiche
Ġdiscus sion
Ġdiscus sioni
Ġdiscus sions
It aly
ak s
Ġdon are
Ġdon azioni
Ġdon ne
Ġste p
Ġste al
Ġste adily
Ġpen alized
Ġpen alitÃł
Ġpen alizzato
Ġpen alties
Ġcin ema
Ġcent er
Ġcent re
Ġcent ri
Ġcent res
Ġcent ury
Ġcent inaia
Ġincor porate
Ġincor aggiare
Ġincor aggiati
Ġmess e
Ġmess aggio
Ġprom osso
Ġbo ost
rib ution
olog ia
olog ico
olog ical
Ġprogramm are
Ġprogramm ato
Ġgesti to
Ġgesti sce
Ġgreat est
Ġbeh ind
Ġaccredit ing
Ġaccredit ations
Ġaccredit amento
Ġaccredit amenti
Ġcompil a
Ġcompil ati
Ġcompil ato
Ġcompil ando
ĠIns urance
ĠFe bbraio
Ġscad enze
Ġfinal itÃł
Ġfinanzi ario
Ġfinanzi aria
Ġgratu ita
Ġgratu itamente
Ġmodul e
Ġmodul es
Ġmodul ar
Ġmodul are
Ġinteress ati
Ġinteress ate
Ġsov venzionando
Ġstruc tures
Ġprestigi ose
Ġprestigi osi
ĠAccoun ts
Ġapproach es
Ġidenti ficare
Ġidenti fy
Ġidenti fication
Ġsuggest ed
Ġpurch ased
Ġauthori zed
Ġpath s
Ġcoordin ato
Ġcoordin ates
Ġcoordin ated
Ġcoordin atore
Ġaggiorn ata
Ġaggiorn amenti
mat hematics
na ire
sel ors
sel ection
sel ected
ĠK it
Ġage vola
Ġamp le
ins titution
ins egnamento
ane amente
Ġdesider ano
Ġsen se
Ġinten sive
Ġfir mare
Ġfir mato
Ġfond ato
Ġfond azione
Ġfond atori
Ġfond amentale
Ġment ore
Ġment ori
Ġment ors
Ġbring s
Ġbring ing
Ġref ining
Ġref use
Ġref lect
Ġreduc tions
Ġconten ute
ĠAb sol
ĠAm ong
ĠAm ministrazione
ĠAt tachments
ĠAt tualmente
ĠPol ice
Ġgam es
Ġrilasci a
Ġori entato
Ġpren de
Ġpren da
Ġdov rei
Ġdov remo
Ġapparten enti
Ġparl ino
Ġstamp ata
Ġscan sionare
Ġactive ly
Ġregul arly
Ġregul atory
Ġconsenti re
Ġspecialis ed
Ġspecialis tico
Ġspecialis tiche
Ġtrad izion
Ġtext book
Ġinsegn ante
Ġinsegn amento
Ġcontrib uto
Ġcontrib ute
Ġcontrib utes
Ġenter ing
Ġenter tainment
Ġformat s
first name
Ġjo ining
Ġjo int
Ġmaggior anza
Ġconfir ms
Ġidone e
Ġacquire d
Ġbehavi ours
Ġbehavi ors
Ġcolloqu i
AS E
Fin ance
market ing
page lle
stud ente
ute ly
Ġï¬ģ rst
Ġaptitud e
inter a
Ġcare ful
Ġcerc ano
Ġincon tri
Ġincon trarli
Ġlec turers
Ġlet to
Ġlet ture
Ġfon ti
Ġfos si
Ġow ned
Ġevery one
Ġevery where
ĠBas ic
ĠBas ed
ĠBas ta
ĠBas ato
Ġprod urre
Ġprod otte
Ġprod urrÃł
Ġname ly
econom ics
ĠSupp ly
ĠSystem s
Ġreason ably
ĠMe asure
velop ments
ĠApp lications
ĠApp artamento
ĠPa olo
ĠPa esi
ĠPa ola
ĠPot rebbero
Ġistitu zioni
Ġexcep tion
Ġexcep tional
Ġassig ns
Ġscrit ti
Ġscrit ta
Ġscrit te
Ġspons ors
Ġspons orizz
Ġinform ati
Ġinform ato
Ġesemp i
Ġinterpre ting
Ġvisu al
Ġvisu alizza
Ġinser iti
Ġinser ito
Ġinser ting
Ġassegn ate
Ġcontin ents
ĠVis itare
Ġpotenzi are
Ġpotenzi alitÃł
Ġobtain ed
ĠAnaly sis
Ġsupervis ed
Ġsupervis ion
Ġcolleg a
Ġcolleg es
Ġcolleg are
ĠColl ections
Ġdormit orio
Ġalternative ly
Ġdiscuss ed
Ġspeak er
Acc edi
Acc eleration
Acc ordi
Ex ecutive
For malizzazione
Found ations
aut enticazione
aut olettura
cent ric
cent red
Ġamb iti
Ġsing le
Ġpic tures
Ġcambi ate
Ġinsi de
Ġinsi ghts
Ġintegr ata
Ġintegr ano
Ġintegr almente
Ġlar gest
Ġlibr eria
Ġemer ge
Ġemer ging
Ġemer gence
Ġdepos it
Ġdepos iti
Ġdepos ito
Ġbre ed
Ġbre vissimo
Ġbre aks
Ġbroad en
Ġbroad ened
Ġren t
Ġren egoti
Ġren ewals
Ġhub s
Ġlabor atory
Ġlabor atorio
ĠEU R
Ġrit enuti
Ġrun s
Ġorig inal
Ġseat s
abb onamento
Ġprefer enze
Ġprefer isci
Ġexperi ential
Ġexperi enc
Ġextrac t
Ġextrac urricular
Ġextrac urriculare
Ġstat us
Ġstat ements
depend ing
Ġcolle zioni
Ġadvis ors
ĠRoom s
Ġprim ario
Ġchang ed
Ġchang ing
Ġagree ing
Ġartic le
Ġartic olo
Ġargom enti
Ġclub s
Ġenc yc
Ġenc iclopedi
Ġview able
ĠExam s
Ġrispos ta
Ġtrovi ate
Ġ201 7
Ġliber o
Ġliber alism
Ġliber alismo
Ġconflic ting
Ġconflit to
Ġabbi ate
Ġtrascor si
Ġterm ina
Ġkeep ing
Ġoption al
Ġscriv ano
Ġscriv eteci
Ġeurope a
Ġcartace i
Ġrichieder li
... )
... ).
Ġrappresent ano
Ġincorpor a
Ġincorpor are
Ġincorpor ata
Ġincorpor ates
Ġincorpor ated
Ġpromot e
Ġpromot ed
Ġpromot ing
Ġpromot ore
Ġpromot ers
ĠInstitu te
ĠInstitu tion
Ġerr ate
Ġerr ori
Ġsovrappos te
Ġsovrappos izione
Ġï¬ģn ance
Ġinterpret ation
Ġbibliogr aphic
Ġbibliogr aphies
ĠStrateg ic
Cor si
Pro duct
Pro posta
Sp ecial
des ign
offer ed
offer to
plic a
sol ving
Ġairport s
Ġtab les
Ġtab ella
Ġtass a
Ġtecn ici
Ġtecn ico
anz ato
Ġdottor ati
Ġsm all
Ġsm arri
Ġsect or
Ġstore d
Ġsanit ario
enc y
Ġca ffetter
Ġca feterias
Ġcat alyst
Ġcat alizzatore
Ġcle an
Ġint orno
Ġint estata
Ġinves timenti
istitu to
Ġfis ica
Ġfis serÃł
Ġfam ily
Ġfall s
Ġfall isci
Ġfall isco
Ġflex ibly
Ġanali tico
Ġanali tica
Ġosp iti
Ġosp itato
Ġmen sile
Ġdiffic ile
Ġdiffic ult
Ġdiffic oltÃł
Ġdiffic ulties
Ġprot ection
Ġprot ected
Ġprot etto
Ġprot otype
Ġprosp ective
Ġpropos es
Ġpropos al
Ġpropos ta
Ġpropos ition
Ġbr and
Ġbr ands
Ġbene fica
Ġbene fit
Ġbene ficio
Ġbene fits
Ġbanc a
Ġbanc ari
Ġbank s
asp ilio
ĠCent re
ĠCent ro
ĠCerti ficato
ĠCerti ficate
Ġreal ms
Ġretur ning
Ġconver ted
Ġconver titi
Ġcontr assegn
ĠPost ale
Ġgar anzia
Ġcommon ly
ĠLog ic
Ġved rai
Ġved erle
Ġvalut ate
Ġvalut ata
Ġrul e
Ġsepar ately
Ġsepar atamente
Ġposti cipata
Ġpresi eduti
Ġexper tise
Ġacced o
Ġacced ervi
ĠDec laration
ĠDec ision
Ġcompre hen
Ġcompar able
Ġcompar irÃł
ĠFri day
ĠFri days
ĠFac oltÃł
Ġstor ia
Ġstor age
Ġstor ici
Ġstor ico
Ġcorre tte
Ġcorre tto
Ġdist ance
Ġdist inzione
Ġesperi enziale
Ġesclusi vi
Ġesclusi vamente
Ġabit uale
Ġabit uarsi
ĠRis ervata
Ġmotiv ated
Ġrimb orsare
Ġripe tilo
Ġripe tuto
Ġridot te
Ġclassi ficato
Ġclassi ficata
Ġimpost ato
Ġrecuper arli
Ġrecuper arla
Ġshare d
Ġstudentes ca
Ġstudentes chi
Ġautonom ia
Ġautonom amente
Ġmix ture
ĠJust in
Ġorganizza zioni
ĠCompil ando
Ġexpl oring
Ġexpire d
Ġexpress ly
Ġcontatta ci
Ġricever anno
Ġricever Ã²
ĠAny one
Ġsuccess ful
Ġsuccessi vi
Ġsuccessi va
Ġcommunic ated
Ġlugg ages
Ġdigit ali
Ġconnect ing
Ġracco glie
Ġfavore ndo
Ġriconosci uto
Ġriconosci mento
Ġvisualizz ati
Ġvisualizz are
Ġvisualizz abili
Ġvisualizz arlo
Ġpick up
Ġmicroform s
Ġmicroform ati
Ġmicroform ato
Ġscher mo
Ġsigni fica
Ġsigni ficativo
Ġraggiun gere
Ġraggiun gibili
Ġstrength en
Ġstrength ening
Ġstrength ened
POR T
Re ference
US C
av vio
av anguardi
av anzato
bu ilding
ione voli
valu tazioni
Ġeng endered
Ġader isce
Ġtw elve
Ġdam mi
Ġded uct
Ġdri ve
Ġdri vers
Ġdri ven
Ġsto p
Ġsto od
Ġsus pends
Ġsatis fy
Ġpoc o
Ġpsycholog y
Ġcam ere
organi zzazione
Ġinfer mieristico
Ġincl use
Ġintend ed
Ġintend ono
Ġinvol vement
Ġingres so
Ġlat est
Ġlun ga
Ġlasci ato
Ġfore seen
Ġfotocop ia
Ġfotocop ie
Ġfotocop iatura
Ġov vero
Ġoccup azionali
Ġmetter ti
Ġmetter li
Ġmetter Ãł
Ġmemb ro
Ġdiv entare
Ġdiplom ati
ĠImp egno
Ġdefin ed
Ġdefin ire
Ġdefin ita
Ġpros simo
Ġpros simi
Ġpros perare
Ġproceed ing
termin ato
associ azione
ĠCA RD
Ġrem ember
Ġrem oto
Ġrem ote
Ġrema ins
Ġrecl utare
Ġhost ed
Ġholder s
Ġconv entional
Ġconven zionali
ĠAC QUIS
ĠPl anning
ĠPr inciples
ĠPu bbliche
ĠPri ma
Ġcancell ation
ulti ma
Ġatt esi
Ġatt esta
Ġatt orno
Ġattent a
ĠLo an
ĠLu xury
Ġvic ina
Ġvac anti
Ġvac anze
Ġvac ancy
Ġvalori zzare
ĠEs ame
ĠEs ami
ĠEs sere
ĠEmp loyment
ĠEmp irical
ĠEmp loyers
Ġrag ionevoli
Ġposi zioni
Ġprevi ous
Ġneola ureato
Ġcompagni a
Ġcompagni e
ĠInc entive
Ġquad riennali
ĠFurther more
ĠNetwork s
imp ieg
imp egno
imp resa
Ġcoin quilino
Ġcollabor ation
Ġcollabor ative
Ġcollabor ativo
Ġcorrisp onde
ĠOff rite
Ġesp ecially
Ġesp ressi
Ġesp ressa
Ġespri mo
Ġpurs uing
ĠRom a
Ġacquis ti
Ġacquis ire
Ġacquis ito
throp y
Ġconsum er
Ġconsum ers
Ġconsum ption
Ġconserv ation
Ġconserv are
Ġconserv ato
Ġcreativ itÃł
Ġinterv allo
Ġrestitu zione
Ġrim angano
Ġteach er
Ġarch itec
Ġworkst ations
Ġenab ling
Ġplur ality
Ġplur alism
Ġplur alismo
Ġsostitu ire
Ġsostitu tiva
Ġsostitu irÃł
Ġcaratter e
Ġimpegn ate
Ġimpegn ativo
Ġimpegn arti
Ġimplement ing
Ġimplement ation
Ġotten uti
Ġotten ga
Ġotten go
Ġamministr ativa
Ġrecru iting
Ġshow ing
Ġaiuter Ãł
Ġaiuter anno
Ġaiuter emo
ĠForm alizing
Ġsubscri be
Ġquestion ario
Ġquestion naire
Ġelement o
Ġdiret ta
Ġchiam a
ĠAss et
Ġobj ective
Ġconfig ured
Ġsitu ate
Ġphilan thropy
Ġphotocop y
Ġphotocop ies
Ġphotocop ying
Ġnulla osta
Ġterrit ory
Ġtermin i
Ġtermin are
Ġtermin ano
Ġavanz are
Ġsimultane e
Ġmethod ology
Ġmethod ological
Ġuniversitari e
ĠConsul ting
ĠReport ing
Ġcittad ini
Ġcittad ino
Ġcittad inanza
Ġfattura zione
Ġaspir ations
Ġaspir anti
Ġaspir azioni
Ġdispositi vi
Ġconcord ati
Ġguest s
Ġbox es
ĠGiuri diche
Ġdiscover ing
Ġtradition ally
Ġrecogni tion
Ġfavor isce
Ġconfirm ing
Ġincre ased
Ġflessi bili
ĠProfess ors
Ġencour age
Ġencour aged
Ġencour aging
Ġmultipli es
Ġguarantee ing
Ġbibliogra fica
Ġbibliogra fiche
Ġbibliogra fie
Ġinvesti te
Ġfamiliar ity
Ġfamiliar itÃł
Ġgaranti re
Ġgaranti to
Ġgaranti ta
Ġtarget s
Ġtariff e
Ġcustom er
Ġfounder s
Ġfilantro picamente
Ġfilantro pia
Ġfilantro piche
Ġmacro economic
Ġdirig ente
Ġredirect ing
ĠPASS PORT
EE A
Es tratto
Organi zation
Organi zational
bal ance
col azione
ecc ezione
zer land
Ġauto re
ered itÃł
anci ent
Ġdenun cia
Ġdenun ciare
Ġsti ll
Ġsti le
Ġstim olante
Ġstim ulating
Ġcu ore
Ġcu tting
Ġcer ta
Ġcer tain
attu ale
attu tto
ister ed
Ġlas ts
Ġlas ting
Ġfal liti
Ġfal lacious
Ġfisc ali
Ġfisc almente
Ġann uale
Ġann unci
Ġansw er
Ġansw ers
Ġmer chant
Ġmer itevoli
Ġmus ic
Ġmus ica
Ġmarch i
Ġmarch io
Ġdeal ing
Ġdetermin ed
Ġdetermin ate
ĠBook ing
Ġprob abile
Ġprob abilmente
Ġpromo zionali
Ġpromo tional
Ġbl end
Ġbl occata
Ġnas ce
Ġnas cita
ĠCor porate
ĠCor rect
ĠCir culation
ĠCir colazione
ĠSu lla
ĠSec ondo
ĠSec ondamano
ĠSol uzioni
ĠSol utions
Ġreali ties
Ġregi oni
Ġregi ons
Ġrepe ated
Ġrepe ating
Ġrealis tic
Ġrealis tico
Ġhi ya
ĠModul ar
ĠModul are
Ġconvers ation
Ġconvers azione
Ġconduct ed
ĠAut hori
ĠAut oritÃł
Ġground ing
Ġill ustr
Ġill imitato
Ġatten zione
Ġatten di
Ġlegg ere
Ġlegg endo
Ġalberg o
Ġalberg hi
Ġprelimin are
Ġprelimin ary
Ġdoct or
Ġdoct ors
Ġexceed ing
Ġaccessi ble
Ġaccessi bili
Ġaccumul ato
Ġaccumul ated
ĠDoc enti
ĠDoc ente
Ġcompati bility
Ġcompati bilitÃł
Ġcompres a
Ġcompres e
Ġcompren sione
Ġcompren dano
Ġcomplement ed
Ġappos ito
Ġappos itamente
Ġdelay ed
ĠFr ance
ĠFr ancia
ĠUS C
ĠNor way
ĠNor vegia
Ġricre ative
Ġricre ativa
Ġcopri rÃł
Ġcopri ranno
Ġcook ie
Ġcook ies
ĠProcess es
ĠOrgani zation
ĠOrgani zations
Ġesist enti
Ġesist ente
Ġadmin isters
Ġadmin istered
Ġpresele zione
Ġpresele zionati
Ġconsent ono
Ġconsegn ato
Ġconsegn ata
Ġconsape voli
Ġconsape vole
Ġchapter s
Ġtip ologie
Ġinterac tion
Ġinterac tive
Ġinterfer ing
Ġinterfer ire
ĠPerio dici
ĠPerio dicals
ĠPerson al
ĠPerson ale
Ġriun ire
Ġriun isce
Ġriport ati
Ġriport ato
Ġriman e
Ġriman ere
Ġritir ate
Ġritir ato
Ġtelef ono
Ġtelef onia
Ġinst ance
Ġinst allments
Ġavailabil ity
Ġavailabil ities
Ġwebin ar
Ġwebin ars
Ġvide o
Ġvide os
Ġcaric ate
Ġcaric ando
Ġstrate gies
Ġstrate gie
Ġshar ing
Ġshar pen
Ġvertic ali
Ġvertic als
Ġriserv ate
Ġriserv ando
Ġunderta ke
Ġunderta king
ĠPhys ical
ĠPhys ics
lopedi as
Ġmeasure s
ĠAdvis or
ĠAdvis ory
Ġexpla in
Ġexpla ins
Ġmatch es
Ġmatch ing
Ġchied erti
Ġchied eremo
Ġcontatt ato
Ġcontatt arci
Ġricevi mento
appro ved
appro vati
Ġmeto di
Ġmeto do
Ġcounsel ing
Ġcounsel ors
Ġhead ed
Ġhead shot
Ġpaper work
Ġcultur ali
Ġcultur ale
Ġtransfer s
Ġtransfer red
Ġtransport ations
Ġbuon giorno
Ġfornir ti
Ġfornir ci
Ġtempor ary
Ġtempor aneo
ĠStatis tical
ĠStatis tica
Ġdiscre zione
Ġdiscre tion
Ġcondivi dono
Ġcondivi diamo
Ġconsulta bile
Ġconsulta bili
Ġinvit ati
Ġinvit ed
Ġdimen sioni
Ġdimen sions
Ġultim i
Ġultim ately
Ġmisur are
Ġmisur abili
Ġmolti plica
Ġconcentr ano
Ġconcentr andosi
Ġcombina zioni
ĠRicord a
ĠRicord ati
ĠMetho ds
ĠMetho dology
Ġfinanziari e
gozi are
Ġmentor ship
ĠPresid ent
ĠPresid ente
Ġcontribu ire
Ġcontribu isce
incub ation
incub azione
Ġcirc ulate
Ġcirc olare
Ġfoster ing
Ġriconosc ere
Ġriconosc erÃł
Ġcontinu o
Ġcontinu ativa
Ġpractition er
Ġpractition ers
Perform ing
Perform ance
Ġincentr ate
Ġincentr ato
Ġflu ently
Ġflu entemente
Ġcolleag ue
Ġcolleag ues
ĠProfession al
ĠProfession ale
Ġpublish ing
Ġcatal ogo
Ġcatal ogue
Ġeconomet ria
Ġeconomet rics
Ġbranch es
Ġcommerci ali
Ġcommerci ante
Ġdistinc tion
Ġdistinc tive
Ġdeduc ibili
Ġdeduc tible
Ġlater al
Ġreclut ano
Ġreclut atori
Ġconvalid a
Ġconvalid are
Ġcoinvol ti
Ġcoinvol gimento
Ġcorrispond a
Ġcorrispond ono
Ġrimar rÃł
Ġrimar ranno
Ġrecruit ers
Ġconfigur ata
Ġconfigur azione
Ġphilanthropic ally
Ġincreasing ly
Ġicon ic
Ġicon ici
Ġvelo ci
Ġvelo cemente
Ġdanneggi ato
Ġsquad re
Ġsquad ra
Ġcitizen ship
Ġlength y
Ġdeleg ate
Ġdeleg ato
Ġnessun o
Ġexclusive ly
Ġquotidi ano
Ġquotidi ani
Ġscrup olosamente
Ġscrup ulously
Ġcorrespond s
Ġdistingu ono
Ġdistingu ish
Entrepreneurs hip
26 0
Ab stract
Ac ademic
Ag enda
Al tri
An no
As sociazione
Are a
Apart ment
Book s
CF O
CEF R
De velopments
Dis closure
Dec ember
Dist ribution
Doc umenti
Edi ficio
Euro pean
Is tituto
ION AL
Line a
Letter e
More over
Mond ays
Market ing
Ori entamento
Pr inciples
Pag abile
Pay able
Punte ggio
QCE R
Res earch
Richi edi
St atement
Sing le
Sus tainability
Sept ember
Satur days
Te aching
Tut ti
Text books
Vis ual
aw areness
auto re
apart ments
cic olo
cog nome
carta ceo
dri ven
denun cia
equ ity
elimin azione
fan ia
fac eted
func tions
gar de
hos ting
last name
magaz ines
opportun itÃł
pou los
tempor ary
Ġest endere
Ġvers a
Ġroll ing
Ġibri do
ĠZecc hina
Ġaum entando
Ġamo unt
Ġaerop orti
Ġtou ch
Ġtas te
Ġtack ling
Ġtreat ment
Ġtrent esim
erpr ints
inclu ding
inves timento
anal isi
Ġdic tionaries
Ġdena ro
Ġdichiar azioni
Ġdatas ets
Ġdram atically
Ġshe ets
Ġsal ve
Ġsou ght
Ġsfor zo
Ġsott oscri
Ġsvant aggiati
Ġsicur amente
Ġslid es
Ġsfru ttare
Ġpor re
Ġpill ars
Ġput s
Ġpack ages
Ġpsic ologico
Ġcal ibre
Ġcou ple
Ġcli ente
Ġcri tically
Ġcita zioni
Ġcamb ia
Ġcron ologia
Ġcru cial
Ġcross roads
Ġcumul abile
esig enza
espre ad
esplic ita
Ġinver nali
Ġinde terminato
Ġinduc tive
Ġincep tion
Ġintellig enza
Ġineff ective
Ġtheat re
Ġtheori es
Ġthems elves
attri buzione
argom ento
armoni a
Ġless ons
Ġlanci o
Ġlisten ing
Ġlinch pin
Ġfing erprints
Ġfas cicolo
Ġful cro
Ġfur to
Ġfund raise
Ġferi ali
Ġfami glia
Ġferti lity
Ġfron t
Ġfatti bile
ccess fully
Ġanalizz ati
Ġanagr afica
Ġold est
Ġevi dence
Ġemo tions
Ġecos ystem
Ġeffor t
Ġmos trate
Ġmono graphic
Ġmark ed
Ġmanc ato
Ġmilan esi
Ġmechan isms
Ġmagaz ine
Ġdipar timento
Ġdizion ari
Ġdiven ne
Ġwid espread
Ġwind ow
ilter ra
ĠIce land
ĠIdenti ficativo
Ġdeli vered
Ġdetr arre
Ġdecl aration
Ġyield s
ĠBrow se
ĠBisog na
ĠBei jing
ĠBreak down
ĠBorgh ini
Ġproto tipo
Ġprote zione
Ġproac tiveness
Ġprofici ency
Ġproie zioni
Ġproï¬ģ t
Ġprogres so
ingres so
Ġbag gage
Ġblo cked
Ġbesi de
Ġbind ing
Ġbiom edical
Ġbenven uto
Ġbroch ure
Ġnord americane
Ġnazion ale
Ġunli mited
Ġunus ual
Ġuncon nected
Ġunsu ccessfully
Ġunemp loyment
Ġunsubscri be
gratu itamente
ĠCol antone
ĠCali fornia
ĠCap itoli
ĠCoun selors
ĠCred entials
ĠSare mo
ĠSvi zzera
ĠSta ff
ĠSenti ti
ĠSte fania
ĠSim ulation
ĠSche dule
ĠSvol gono
ĠSfo glia
ĠScholar ships
ĠSubscri ptions
ĠSwit zerland
ĠSouther n
Ġreven ues
Ġrepl acement
Ġreinfor ces
Ġhund reds
Ġhous e
Ġhybri d
Ġharmon y
ĠMir ano
ĠMeg a
ĠMars hall
ĠMicro economics
ĠMechan ism
Ġconduc ono
Ġconcl uso
Ġconclu di
Ġconform itÃł
Ġconcor so
Ġconcep tual
Ġcontrac ts
ĠAtt endance
ĠAff itti
ĠAnot her
ĠAziend ale
ĠPad ula
ĠPap aspilio
ĠParti cipants
ĠPsycholog y
ĠPURCH ASE
ĠPiÃ¹ Case
Ġperdu to
olgi ti
adap tive
Ġgus to
Ġgovern ments
Ġgiov ani
Ġcancella zione
ĠTur rini
ĠTui tion
ĠTech nology
chron ous
Ġispir atori
Ġimper fections
ĠLith uania
ĠLim ita
ĠLingu istico
ĠLangu age
Ġvend e
Ġvant aggi
Ġvost ri
Ġvener dÃ¬
Ġvital ity
Ġvinc olanti
Ġalgor ithms
Ġsuddi visa
Ġsuffici ente
ĠEth ics
ĠEff ettua
ĠEsis te
Ġrine goziare
Ġrist oranti
Ġrub are
Ġrank s
trans cript
Ġsegn alare
ĠWrit ing
Ġpredisp onendo
Ġpreced ente
Ġnegoti ation
Ġexclu ded
Ġexcell ent
Ġexpens es
Ġexempt ed
Ġexchang es
Ġaccons entito
Ġaccogli e
ĠDub ini
ĠDottor andi
Ġasyn chronous
Ġasinc rono
Ġascol to
Ġassimil ated
ĠInvo ices
ĠIntro duction
ĠIngh ilterra
ĠInforma zioni
ĠInnov ation
ĠIntegr ated
ĠInvest ment
Ġquinqu ennale
Ġappear s
Ġapport are
Ġappreci ate
Ġhaven s
Ġparalle lo
ĠGui dance
ĠGlob alization
ĠGener ally
ĠGrow th
ĠGuan ghua
ĠGiov anna
ĠCompar ative
ĠFren ch
ĠFros ini
ĠFollow ing
ĠFirmer ai
Ġscadu te
ĠAlth ough
ĠAltri menti
ĠAlessand ra
confi dence
Ġweigh ting
Ġwealth y
ĠNDA s
ĠNAT IONAL
ĠNunn ari
impos tazione
Ġspher es
Ġspost amento
Ġspott ed
Ġspieg a
Ġspokes persons
Ġsponso red
Ġinformatic a
Ġricop rono
Ġricons egna
Ġugu almente
ĠYoung er
Ġcoher ent
Ġcogni tive
Ġcorpor ations
Ġcorrel ati
Ġdisapp ear
Ġdisser tazioni
Ġdissol ved
Ġdisadvant aged
ĠPropor re
ĠOmi ros
ĠOffic er
ĠOgn una
Ġespos izione
Ġesegu ito
Ġesoner ato
Ġestabl ished
Ġadop ted
Ġadap t
Ġadott ato
Ġadatti amo
Ġadatt ano
assicur azione
origin ale
Ġprescri bed
Ġfigure s
ĠRice verai
ĠRect or
ĠRiv olgiti
ĠRetail ing
ĠRipar tizione
ĠReduc ed
Ġglimps e
Quantit ative
think ing
Ġ200 00
Ġconstitu ted
Ġconstant ly
Ġinterdepend encies
Ġintermedi aries
Ġrestri zioni
Ġrestric tions
Ġrestaur ants
Ġgiuri dici
Ġtramp olino
Ġtailore d
Ġsopr attutto
Ġsemestr almente
Ġrigu arda
Ġdisplay ed
Ġagonis tica
Ġarchi vi
Ġinspir ational
Ġworkpl aces
Ġenjo y
Ġvibr ant
Ġassister vi
Ġassisten za
Ġcaratteri zzate
Ġcontempor aneamente
Ġentusias mo
Ġenthusias m
ĠConven zione
ĠContatta ci
Ġimpron te
classi ficate
ĠVAL ID
Ġrecap iti
Ġliabil ities
Ġpratic ato
ricontro llalo
Ġtrailbla zer
Ġsubsidi zing
Ġindispens abile
Ġmeasur able
Ġdesgin ed
Ġelsew here
Ġreceptiv ity
Ġminds et
Ġjuni or
Ġjourne y
ĠArchi vio
trienni o
ĠAssol utamente
appart amenti
Ġapproxim ately
Ġinflu irÃł
Ġmetrop olitane
Ġpostpon ed
ĠAntoni o
Ġprivileg es
Ġphys ics
ĠIsland a
Ġroomm ate
Ġequipar ata
Ġequipp ed
Ġequilibr ata
Ġsciogli mento
Ġfornisc ano
Ġtotalizz ante
prepare d
Ġdecided ly
ĠSpazi o
ĠSpiac ente
Ġannounc ements
Ġdimentic ato
ĠCiascun o
embrac ing
Ġholid ays
ĠReason ing
Ġemphasi ze
Ġraccont ami
ĠRiconosci amo
Ġinstruct ors
Ġagevola zioni
ĠAbsol utely
Ġtradizion almente
ĠMeasure ment
Ġsponsorizz ata
Ġsupervision ati
Ġrenegoti ate
Ġexperienc ing
Ġencyc lopedias
Ġenciclopedi e
Ġsmarri mento
Ġcaffetter ie
Ġcontrassegn ati
Ġcomprehen sion
avanguardi a
Ġremote ly
ĠACQUIS TA
impieg o
Ġarchitec ture
ĠAuthori ties
Ġillustr erÃł
Ġconsapevole zza
Ġtrentesim i
Ġsottoscri vere
ĠPapaspilio poulos
