{"<|endoftext|>":0,"!":1,"\"":2,"#":3,"$":4,"%":5,"&":6,"'":7,"(":8,")":9,"*":10,"+":11,",":12,"-":13,".":14,"/":15,"0":16,"1":17,"2":18,"3":19,"4":20,"5":21,"6":22,"7":23,"8":24,"9":25,":":26,";":27,"<":28,"=":29,">":30,"?":31,"@":32,"A":33,"B":34,"C":35,"D":36,"E":37,"F":38,"G":39,"H":40,"I":41,"J":42,"K":43,"L":44,"M":45,"N":46,"O":47,"P":48,"Q":49,"R":50,"S":51,"T":52,"U":53,"V":54,"W":55,"X":56,"Y":57,"Z":58,"[":59,"\\":60,"]":61,"^":62,"_":63,"`":64,"a":65,"b":66,"c":67,"d":68,"e":69,"f":70,"g":71,"h":72,"i":73,"j":74,"k":75,"l":76,"m":77,"n":78,"o":79,"p":80,"q":81,"r":82,"s":83,"t":84,"u":85,"v":86,"w":87,"x":88,"y":89,"z":90,"{":91,"|":92,"}":93,"~":94,"¡":95,"¢":96,"£":97,"¤":98,"¥":99,"¦":100,"§":101,"¨":102,"©":103,"ª":104,"«":105,"¬":106,"®":107,"¯":108,"°":109,"±":110,"²":111,"³":112,"´":113,"µ":114,"¶":115,"·":116,"¸":117,"¹":118,"º":119,"»":120,"¼":121,"½":122,"¾":123,"¿":124,"À":125,"Á":126,"Â":127,"Ã":128,"Ä":129,"Å":130,"Æ":131,"Ç":132,"È":133,"É":134,"Ê":135,"Ë":136,"Ì":137,"Í":138,"Î":139,"Ï":140,"Ð":141,"Ñ":142,"Ò":143,"Ó":144,"Ô":145,"Õ":146,"Ö":147,"×":148,"Ø":149,"Ù":150,"Ú":151,"Û":152,"Ü":153,"Ý":154,"Þ":155,"ß":156,"à":157,"á":158,"â":159,"ã":160,"ä":161,"å":162,"æ":163,"ç":164,"è":165,"é":166,"ê":167,"ë":168,"ì":169,"í":170,"î":171,"ï":172,"ð":173,"ñ":174,"ò":175,"ó":176,"ô":177,"õ":178,"ö":179,"÷":180,"ø":181,"ù":182,"ú":183,"û":184,"ü":185,"ý":186,"þ":187,"ÿ":188,"Ā":189,"ā":190,"Ă":191,"ă":192,"Ą":193,"ą":194,"Ć":195,"ć":196,"Ĉ":197,"ĉ":198,"Ċ":199,"ċ":200,"Č":201,"č":202,"Ď":203,"ď":204,"Đ":205,"đ":206,"Ē":207,"ē":208,"Ĕ":209,"ĕ":210,"Ė":211,"ė":212,"Ę":213,"ę":214,"Ě":215,"ě":216,"Ĝ":217,"ĝ":218,"Ğ":219,"ğ":220,"Ġ":221,"ġ":222,"Ģ":223,"ģ":224,"Ĥ":225,"ĥ":226,"Ħ":227,"ħ":228,"Ĩ":229,"ĩ":230,"Ī":231,"ī":232,"Ĭ":233,"ĭ":234,"Į":235,"į":236,"İ":237,"ı":238,"Ĳ":239,"ĳ":240,"Ĵ":241,"ĵ":242,"Ķ":243,"ķ":244,"ĸ":245,"Ĺ":246,"ĺ":247,"Ļ":248,"ļ":249,"Ľ":250,"ľ":251,"Ŀ":252,"ŀ":253,"Ł":254,"ł":255,"Ń":256,"on":257,"Ġa":258,"Ġt":259,"er":260,"in":261,"an":262,"re":263,"Ġd":264,"Ġs":265,"en":266,"Ġp":267,"ti":268,"Ġc":269,"es":270,"or":271,"he":272,">:":273,"al":274,"Ġin":275,"ro":276,"it":277,"Ġthe":278,"at":279,"ot":280,"ic":281,"um":282,"un":283,"is":284,"ar":285,"Ġl":286,"ll":287,"Ġf":288,"ou":289,"cc":290,"ent":291,"am":292,"Ġan":293,"Ġo":294,"Ġe":295,"oni":296,"Ġm":297,"ati":298,"Ġdi":299,"om":300,"bot":301,"uman":302,"Ġw":303,"human":304,"il":305,"ed":306,"ĠI":307,"Ġde":308,"occ":309,"occoni":310,"Ġy":311,"Ġand":312,"Ġto":313,"Ġof":314,"ĠB":315,"Ġpro":316,"ing":317,"Ġb":318,"Ġn":319,"tu":320,"Ġun":321,"os":322,"ter":323,"zi":324,"Ġyou":325,"gr":326,"ation":327,"as":328,"ec":329,"et":330,"ĠC":331,"li":332,"ĠBocconi":333,"ĠS":334,"Ġre":335,"si":336,"Ġh":337,"are":338,"ĠM":339,"ver":340,"ve":341,"ri":342,"gram":343,"Ġcon":344,"tud":345,"em":346,"ĠA":347,"ĠP":348,"Ġper":349,"ag":350,"ol":351,"qu":352,"Ġstud":353,"one":354,"vi":355,"ce":356,"ess":357,"Ġfor":358,"ni":359,"Ġla":360,"ib":361,"ad":362,"Ġprogram":363,"to":364,"Ġg":365,"us":366,"Ġcan":367,"ĠT":368,"ch":369,"pp":370,"ere":371,"Ġon":372,"Ġis":373,"ul":374,"ali":375,"ci":376,"ma":377,"Ġil":378,"le":379,"Ġth":380,"io":381,"ate":382,"Ġi":383,"Ġat":384,"so":385,"Ġcom":386,"ta":387,"Ġ(":388,"ono":389,"enti":390,"Ġtu":391,"lla":392,"Ãł":393,"ĠL":394,"zione":395,"rs":396,"di":397,"Ġv":398,"te":399,"Ġle":400,"ill":401,"ow":402,"Ġal":403,"Ġsu":404,"Ġbe":405,"ĠE":406,"Ġr":407,"Ġor":408,"hi":409,"Ġyour":410,"Ġare":411,"tr":412,"Ġse":413,"ab":414,"Ġpos":415,"tern":416,"ity":417,"fic":418,"ur":419,"ĠW":420,"tion":421,"est":422,"ents":423,"Ġpre":424,"Ġdo":425,"Ġne":426,"end":427,"Ġex":428,"ato":429,"vers":430,"and":431,"Ġacc":432,"ine":433,"ly":434,"Ã¨":435,"ĠD":436,"Ġche":437,"ale":438,"ww":439,"Ġcomp":440,"ith":441,"Ġas":442,"for":443,"Ġwith":444,"ĠIn":445,"ĠH":446,"Ġqu":447,"Ġwill":448,"ac":449,"Ġapp":450,"Ġha":451,"Ġpar":452,"BA":453,"Ġall":454,"ĠÃ¨":455,"fer":456,"ĠG":457,"ear":458,"ĠCom":459,"itÃł":460,"Ġdel":461,"ement":462,"line":463,"ps":464,"ir":465,"tt":466,"ut":467,"ĠF":468,"ente":469,"Ġwh":470,"Ġst":471,"ĠMBA":472,"ĠWh":473,"anag":474,"ge":475,"Ġsc":476,"ours":477,"ĠThe":478,"per":479,"ĠAl":480,"ore":481,"Ġuna":482,"za":483,"Ġma":484,"umni":485,"unib":486,"unibocconi":487,"lic":488,"sion":489,"lo":490,"ia":491,"zioni":492,"Ġintern":493,"Ġsono":494,"der":495,"no":496,"con":497,"ĠU":498,"ort":499,"ational":500,"//":501,"://":502,"Ġnon":503,"Ġhave":504,"Ġwe":505,"Ġyear":506,"ts":507,"de":508,"gi":509,"ten":510,"va":511,"bil":512,"ĠN":513,"anagement":514,"im":515,"Ġsp":516,"Ġinfor":517,"ence":518,"tic":519,"Ġdell":520,"Ġric":521,"Ġonline":522,"du":523,"Ġcours":524,"eci":525,"Ġu":526,"Ġhtt":527,"conom":528,"ĠY":529,"Ġco":530,"Ġcor":531,"Ġdella":532,"Ġdis":533,"Ġ1":534,"ĠPro":535,"Ġstudents":536,"ire":537,"ary":538,"shi":539,"ĠO":540,"Ġes":541,"erv":542,"ĠAlumni":543,"nivers":544,"oi":545,"ra":546,"Ġab":547,"Ġad":548,"ass":549,"Ġhttps":550,"ure":551,"Ġpu":552,"ento":553,"Ġit":554,"ori":555,"gli":556,"ata":557,"DA":558,"ay":559,"ations":560,"did":561,"Ġthat":562,"mb":563,"ĠIt":564,"conomic":565,"ano":566,"ase":567,"Ġpres":568,"Ġfi":569,"Ġrequ":570,"Ġfin":571,"Ġcandid":572,"eg":573,"ork":574,"ĠHow":575,"ĠR":576,"ani":577,"Ġnot":578,"Ġby":579,"ĠSDA":580,"ĠProgram":581,"enza":582,"ig":583,"ld":584,"og":585,"vo":586,"Ġac":587,"Ġtest":588,"Ġpri":589,"age":590,"ke":591,"Ġpi":592,"ome":593,"Ġstudenti":594,"ship":595,"iti":596,"Ġgli":597,"Qu":598,"azione":599,"th":600,"ree":601,"ice":602,"Ġprogramma":603,"ĠWhat":604,"Ġ2":605,"ance":606,"rom":607,"let":608,"Ġfrom":609,"Ġuni":610,"ĠQu":611,"Ġgr":612,"Ġexam":613,").":614,"ange":615,"tive":616,"ect":617,"Ġpers":618,"ĠLa":619,"Ġus":620,"ord":621,"Ġreg":622,"rst":623,"ibli":624,"able":625,"ct":626,"ment":627,"ame":628,"ĠManagement":629,"ibr":630,"Ġpart":631,"ond":632,"Ġprof":633,"Ġcons":634,"mba":635,"tro":636,"mis":637,"out":638,"el":639,"Ġch":640,"ession":641,"our":642,"Ġmo":643,"Ġti":644,"Ġcre":645,"ich":646,"Ġposso":647,"www":648,"mp":649,"Ġdoc":650,"Ġfirst":651,"ibrary":652,"gl":653,"oo":654,"Ġdal":655,"ese":656,"cho":657,"Ġtuo":658,"mation":659,"rit":660,"Ġapplic":661,"ĠYou":662,"chool":663,"mun":664,"hel":665,"aster":666,"Ġcomplet":667,"Ġcourses":668,"iness":669,"Ġinter":670,"ito":671,"usiness":672,"Ġtheir":673,"Ġdei":674,"adu":675,"ĠUnivers":676,"Ġup":677,"conomics":678,"Ġda":679,"Ġdur":680,"Ġoffer":681,"Ġres":682,"Ġgi":683,"Ġspeci":684,"Ġunivers":685,"Ġess":686,"Ġtr":687,"Ġsi":688,"und":689,"ĠPer":690,"Ġtua":691,"ĠCome":692,"ach":693,"eu":694,"zz":695,"Ġta":696,"Ġdom":697,"otec":698,"ust":699,"Ġvis":700,"Ġperson":701,"ibliotec":702,"cri":703,"Ġso":704,"Ġsem":705,"tiv":706,"ates":707,"ist":708,"ari":709,"cip":710,"mail":711,"la":712,"Ġri":713,"Ġev":714,"tions":715,"Ġte":716,"eng":717,"ated":718,"ative":719,"ĠMaster":720,"peri":721,"Ġdisp":722,"Ġdomand":723,"ber":724,"Ġag":725,"Ġfe":726,"esso":727,"ando":728,"Ġinformation":729,"Ġar":730,"ante":731,"Ġset":732,"amente":733,"Ġproc":734,"olo":735,"duc":736,"Ġrequire":737,"Ġins":738,"Ġmy":739,"change":740,"ook":741,"ĠUniversity":742,"gh":743,"her":744,"ant":745,"anno":746,"Ġwork":747,"ture":748,"Ġconsi":749,"vail":750,"ĠNo":751,"Ġregis":752,"gani":753,"Ġsec":754,"Ġneed":755,"ervice":756,"Ġdocum":757,"iblioteca":758,"oc":759,"ting":760,"Ġavail":761,"Ġcl":762,"edere":763,"Ġprovi":764,"cial":765,"Ġsel":766,"Ġpossi":767,"po":768,"Ġen":769,"onibil":770,"emic":771,"ademic":772,"pport":773,"alian":774,"ĠCommun":775,"Ġweb":776,"Ġrichi":777,"Ġcorsi":778,"Ġessere":779,"mo":780,"ze":781,"Ġone":782,"Ġvi":783,"ite":784,"llo":785,"ĠIl":786,"ost":787,"fici":788,"Ġdomanda":789,"Ġavailable":790,"par":791,"anti":792,"Ġpl":793,"esi":794,"zion":795,"Ġlaure":796,"Ġass":797,"Ġstar":798,"Ġinternship":799,"mission":800,"eri":801,"Ġsos":802,"Ġcar":803,"rou":804,"Ġany":805,"Ġemail":806,"ĠIntern":807,"Ġinforma":808,"ĠOn":809,"gu":810,"âĢ":811,"ish":812,"ous":813,"etw":814,"ĠSci":815,"Ġcont":816,"ĠEn":817,"Ġdisponibil":818,"dab":819,"sdab":820,"Ġent":821,"oro":822,"ĠCon":823,"Ġstudy":824,"Ġimp":825,"Ġorgani":826,"Ġinformazioni":827,"sdabocconi":828,"cl":829,"ull":830,"Ġot":831,"amp":832,"ile":833,"Ġuno":834,"ĠCan":835,"00":836,"AT":837,"mit":838,"pe":839,"st":840,"ĠV":841,"titu":842,"ors":843,"alu":844,"ally":845,"ĠEx":846,"ĠDo":847,"Ġinternational":848,"tenere":849,"Ġcourse":850,"Ġprofession":851,"ff":852,"ers":853,"res":854,"Ġstr":855,"ario":856,"Ġbusiness":857,"lib":858,"Ġtut":859,"Ġdelle":860,"Ġprima":861,"ĠCommunity":862,"ob":863,"Ġam":864,"erc":865,"tim":866,"ester":867,"aly":868,"ami":869,"Ġdeg":870,"Ġrec":871,"ult":872,"ĠLibrary":873,"ĠEconomics":874,"Ġnel":875,"Ġwhich":876,"MAT":877,"op":878,"vis":879,"Ã²":880,"Ġmore":881,"Ġwww":882,"ecu":883,"areer":884,"aggi":885,"ning":886,"Ġsh":887,"als":888,"Ġindi":889,"ita":890,"Ġli":891,"amento":892,"Ġnum":893,"Ġstudent":894,"aduate":895,"ap":896,"cin":897,"get":898,"uoi":899,"Ã¬":900,"Ã¹":901,"Ġver":902,"Ġalla":903,"ink":904,"Ġpr":905,"rocin":906,"Ġapplication":907,"ecutive":908,"Univers":909,"bb":910,"izi":911,"uro":912,"amo":913,"tra":914,"Ġsele":915,"Ġaccess":916,"achel":917,"Ġparti":918,"ĠFin":919,"Ġcorso":920,"ĠpiÃ¹":921,"Ġsecond":922,"achelor":923,"acc":924,"ex":925,"ong":926,"ard":927,"ark":928,"Ġmanagement":929,"ĠIf":930,"ĠBiblioteca":931,"Ġform":932,"Ġprograms":933,"Ġris":934,"enda":935,"ĠGMAT":936,"ecip":937,"Ġpartecip":938,"ĠEngl":939,"UniversitÃł":940,"ck":941,"cun":942,"mi":943,"ui":944,"Ġk":945,"road":946,"atab":947,"Ġdeve":948,"ĠCos":949,"ĠSe":950,"Ġnella":951,"Ġabout":952,"Ġclass":953,"arket":954,"ĠEnglish":955,"ces":956,"fter":957,"Ġai":958,"ervi":959,"any":960,"ren":961,"ties":962,"ĠBachelor":963,"ĠFor":964,"ĠUn":965,"Ġuniversity":966,"âĢĻ":967,"'s":968,"che":969,"ric":970,"Ġtro":971,"Ġtra":972,"Ġpass":973,"Ġfare":974,"amb":975,"ection":976,"Ġsub":977,"Ġposs":978,"Ġesami":979,"Ġcandidati":980,"Ġ20":981,"Ġconsider":982,"Ġpossibil":983,"Ġdegree":984,"ervizi":985,"co":986,"ffer":987,"ven":988,"ons":989,"Ġpo":990,"essi":991,"Ġunder":992,"ĠPos":993,"Ġthere":994,"Ġques":995,"ĠInternational":996,"pt":997,"tre":998,"tend":999,"Ġaver":1000,"Ġaut":1001,"tivi":1002,"Ġeduc":1003,"Ġmi":1004,"ĠPuoi":1005,"Ġlav":1006,"ack":1007,"lob":1008,"Ġpuoi":1009,"ĠItalian":1010,"Ġcred":1011,"pportun":1012,"ĠScience":1013,"clu":1014,"gg":1015,"Ġ-":1016,"ĠJ":1017,"erti":1018,"Ġschool":1019,"Ġopportun":1020,"atic":1021,"ingu":1022,"ĠPh":1023,"Ġperio":1024,"Ġstudente":1025,"Ġwho":1026,"lop":1027,"ĠYes":1028,"ities":1029,"Ġspecific":1030,"Ġtake":1031,"Ġfees":1032,"Ġplan":1033,"ampus":1034,"),":1035,"com":1036,"gni":1037,"iv":1038,"pen":1039,"Ġour":1040,"ina":1041,"Ġservizi":1042,"enze":1043,"Ġpot":1044,"orld":1045,"ices":1046,"ould":1047,"Ġmust":1048,"edic":1049,"Ġno":1050,"ose":1051,"ĠStud":1052,"ĠSchool":1053,"ĠSÃ¬":1054,"ĠTh":1055,"Ġalso":1056,"Ġapply":1057,"Ġmay":1058,"Ġlaurea":1059,"Ġorganiz":1060,"Ġparticip":1061,"ĠPosso":1062,"EF":1063,"kill":1064,"now":1065,"ub":1066,"angu":1067,"Ġskill":1068,"ory":1069,"all":1070,"Ġind":1071,"Ġlink":1072,"lle":1073,"Ġme":1074,"Ġget":1075,"Ġif":1076,"ĠComp":1077,"Ġfind":1078,"ĠQuali":1079,"eler":1080,"Ġtirocin":1081,"Ġregister":1082,"Ġsostenere":1083,"rough":1084,"ĠPhD":1085,"Ġperiod":1086,"30":1087,"ble":1088,"ves":1089,"ancial":1090,"Ġdes":1091,"Ġcase":1092,"ativa":1093,"Ġoff":1094,"Ġrel":1095,"ĠAd":1096,"ola":1097,"Ġonly":1098,"Ġattiv":1099,"ĠLe":1100,"urric":1101,"Ġexp":1102,"form":1103,"ays":1104,"Ġpresent":1105,"perience":1106,"Ġrequired":1107,"urricul":1108,"Ġafter":1109,"Ġsul":1110,"Ġpag":1111,"Ġcas":1112,"Ġcui":1113,"Ġingl":1114,"Ġlib":1115,"Ġlangu":1116,"Ġel":1117,"Ġdire":1118,"Ġrece":1119,"vidu":1120,"Ġexchange":1121,"Ġaccedere":1122,"Ġqual":1123,"Ġprovid":1124,"Ġindividu":1125,"Ġknow":1126,"Ġskills":1127,"Ġinglese":1128,"ffic":1129,"king":1130,"oun":1131,"port":1132,"Ġsta":1133,"ener":1134,"Ġpun":1135,"Ġmat":1136,"etter":1137,"lig":1138,"Ġhow":1139,"ĠMil":1140,"Ġstudi":1141,"Ġlear":1142,"Ġallow":1143,"ĠpuÃ²":1144,"Ġsemester":1145,"etwork":1146,"Ġother":1147,"RE":1148,"fore":1149,"gin":1150,"pri":1151,"word":1152,"ott":1153,"Ġdiffer":1154,"Ġnec":1155,"ĠService":1156,"Ġthrough":1157,"ĠEuro":1158,"Ġcheck":1159,"ervices":1160,"Ġexams":1161,"Ġprocess":1162,"ĠCosa":1163,"lobal":1164,"Ġnecess":1165,"azioni":1166,"uter":1167,"requ":1168,"Ġdate":1169,"Ġdata":1170,"Ġsar":1171,"Ġsolo":1172,"Ġchi":1173,"Ġinizi":1174,"Ġlo":1175,"Ġlingu":1176,"Ġfac":1177,"Ġed":1178,"Ġproget":1179,"Ġnos":1180,"ett":1181,"Ġconta":1182,"Ġgener":1183,"Ġcome":1184,"Ġalle":1185,"Ġabroad":1186,"Ġduring":1187,"Ġwebs":1188,"Ġcontat":1189,"erca":1190,"executive":1191,"Ġtirocinio":1192,"azion":1193,"ition":1194,"led":1195,"ments":1196,"not":1197,"ron":1198,"ue":1199,"upp":1200,"Ã©":1201,"Ġsito":1202,"Ġcos":1203,"row":1204,"Ġfo":1205,"Ġmin":1206,"Ġmanag":1207,"Ġdev":1208,"Ġdegli":1209,"Ġbut":1210,"tura":1211,"ĠCh":1212,"Ġrefer":1213,"Ġhome":1214,"agli":1215,"Ġlaw":1216,"Ġscamb":1217,"ĠNon":1218,"tical":1219,"Ġrice":1220,"Ġuti":1221,"Ġacademic":1222,"Ġdurante":1223,"ficial":1224,"Ġshould":1225,"ĠFinance":1226,"Ġdevelop":1227,"OEF":1228,"bocconi":1229,"cor":1230,"ew":1231,"fi":1232,"full":1233,"oU":1234,"pic":1235,"vol":1236,"Ġj":1237,"Ġhel":1238,"Ġsome":1239,"ene":1240,"Ġinvi":1241,"Ġinclu":1242,"istr":1243,"ĠyoU":1244,"tur":1245,"versi":1246,"ĠAr":1247,"Ġstudio":1248,"ĠTOEF":1249,"Ġthis":1250,"Ġattend":1251,"Ġorder":1252,"tics":1253,"Ġcandidates":1254,"ĠLaw":1255,"Ġpersonal":1256,"Ġarri":1257,"Ġdisponibili":1258,"Ġtutti":1259,"time":1260,"Ġpossono":1261,"Ġoffre":1262,"ottor":1263,"Ġcontact":1264,"Ġwebsite":1265,"Ġscambio":1266,"ĠTOEFL":1267,"min":1268,"uto":1269,"wo":1270,"Ġout":1271,"Ġagli":1272,"anc":1273,"Ġdatab":1274,"ences":1275,"Ġcerti":1276,"Ġloro":1277,"Ġogni":1278,"Ġeconomic":1279,"Ġmaggi":1280,"Ġworld":1281,"ede":1282,"Ġdem":1283,"Ġbas":1284,"Ġbook":1285,"Ġnetwork":1286,"ĠCareer":1287,"ĠSono":1288,"ĠDe":1289,"ĠGli":1290,"Ġscore":1291,"Ġpresti":1292,"ĠPrograms":1293,"ign":1294,"Ġregistr":1295,"Ġprovide":1296,"missions":1297,"Ġtrov":1298,"Ġpassword":1299,"Ġcaso":1300,"ledge":1301,"SD":1302,"bl":1303,"book":1304,"por":1305,"sp":1306,"tri":1307,"uola":1308,"ans":1309,"round":1310,"Ġthey":1311,"Ġfrequ":1312,"Ġeach":1313,"ĠMy":1314,"vel":1315,"ember":1316,"ĠAs":1317,"ĠAcc":1318,"soci":1319,"Ġvol":1320,"Ġvari":1321,"Ġsulla":1322,"ĠWe":1323,"Ġcompet":1324,"Ġwithin":1325,"gior":1326,"Ġcop":1327,"Ġrequest":1328,"ther":1329,"Ġmode":1330,"Ġselect":1331,"Ġlive":1332,"Ġnumer":1333,"Ġpartecipare":1334,"tivities":1335,"Ġdevono":1336,"Ġutili":1337,"app":1338,"bo":1339,"ject":1340,"uti":1341,"ÃĪ":1342,"âĤ":1343,"Ġ4":1344,"Ġbot":1345,"ants":1346,"Ġsession":1347,"Ġanche":1348,"Ġmul":1349,"Ġhanno":1350,"lease":1351,"Ġtue":1352,"Ġbefore":1353,"Ġdopo":1354,"Ġappro":1355,"Ġstage":1356,"Ġinternazion":1357,"Ġits":1358,"egn":1359,"igh":1360,"Ġgior":1361,"Ġrichies":1362,"ĠOnline":1363,"Ġdisponibile":1364,"Ġimport":1365,"Ġknowledge":1366,"Ġpunte":1367,"Ġhelp":1368,"âĤ¬":1369,"een":1370,"ner":1371,"over":1372,"rÃł":1373,"xt":1374,"Ġ6":1375,"ĠÃĪ":1376,"ining":1377,"alend":1378,"Ġinf":1379,"roll":1380,"ator":1381,"Ġfa":1382,"Ġeconomics":1383,"Ġmet":1384,"Ġmio":1385,"Ġmia":1386,"Ġmarket":1387,"Ġdevo":1388,"asi":1389,"ases":1390,"ĠAll":1391,"que":1392,"ĠTi":1393,"Ġiscri":1394,"alid":1395,"aliz":1396,"Ġvalu":1397,"Ġpost":1398,"ficare":1399,"Ġprepar":1400,"Ġdoes":1401,"Ġnew":1402,"Ġcho":1403,"Ġoffers":1404,"Ġinstitu":1405,"Ġassist":1406,"stand":1407,"ĠExchange":1408,"Ġselezione":1409,"Ġlavoro":1410,"ĠattivitÃł":1411,"Ġdifferent":1412,"ĠEurope":1413,"su":1414,"ĠâĤ¬":1415,"Ġten":1416,"Ġtim":1417,"int":1418,"eno":1419,"enzi":1420,"ici":1421,"Ġob":1422,"ĠBusiness":1423,"Ġbetw":1424,"ast":1425,"Ġconf":1426,"ĠAn":1427,"ĠAre":1428,"ĠTut":1429,"Ġtuoi":1430,"Ġlevel":1431,"estre":1432,"endo":1433,"imum":1434,"Ġricerca":1435,"ships":1436,"Ġadd":1437,"Ġpresso":1438,"Ġpriv":1439,"Ġgrad":1440,"Ġuse":1441,"Ġteam":1442,"Ġselection":1443,"Ġenroll":1444,"Ġunderstand":1445,"Ġmie":1446,"ottorato":1447,"Ġcertific":1448,"Ġboth":1449,"Ġbetween":1450,"Gate":1451,"MBA":1452,"OL":1453,"Th":1454,"dul":1455,"day":1456,"ho":1457,"ms":1458,"mer":1459,"pend":1460,"Ġtwo":1461,"Ġdedic":1462,"Ġsit":1463,"Ġservices":1464,"Ġph":1465,"Ġinto":1466,"Ġletter":1467,"ĠIs":1468,"Ġhas":1469,"ĠPOL":1470,"ages":1471,"ader":1472,"tazione":1473,"Ġtuition":1474,"Ġvalid":1475,"Ġalcun":1476,"abil":1477,"Ġprevis":1478,"Ġaccademic":1479,"Ġqui":1480,"Ġhai":1481,"Ġmake":1482,"Ġcoun":1483,"ĠItaly":1484,"Ġgradu":1485,"missi":1486,"Ġcompleted":1487,"Ġresp":1488,"Ġconsigli":1489,"Ġstartu":1490,"Ġprofessional":1491,"obGate":1492,"Ġnumber":1493,"Ġeducational":1494,"ĠJobGate":1495,"Ġlingua":1496,"Ġnostro":1497,"Ġdemand":1498,"IM":1499,"dit":1500,"pos":1501,"yst":1502,"Ġ7":1503,"Ġhe":1504,"Ġro":1505,"era":1506,"Ġsol":1507,"Ġsessi":1508,"Ġpa":1509,"Ġpage":1510,"Ġcul":1511,"esame":1512,"Ġfoc":1513,"Ġequ":1514,"Ġmon":1515,"ativo":1516,"ĠIM":1517,"Ġtool":1518,"assi":1519,"ects":1520,"Ġsupport":1521,"Ġbegin":1522,"ĠHi":1523,"Ġparte":1524,"Ġmaj":1525,"Ġwell":1526,"rai":1527,"Ġpiano":1528,"Ġdalla":1529,"ritto":1530,"Ġtrans":1531,"Ġvisit":1532,"bblic":1533,"Ġsubmit":1534,"Ġ202":1535,"Ġpossibile":1536,"Ġtrovare":1537,"ystem":1538,"GRE":1539,"do":1540,"les":1541,"name":1542,"pro":1543,"Ġ9":1544,"Ġsci":1545,"Ġservice":1546,"Ġcareer":1547,"umn":1548,"Ġloc":1549,"Ġanaly":1550,"Ġeff":1551,"Ġmom":1552,"siasi":1553,"ĠPo":1554,"quis":1555,"Ġforn":1556,"Ġleg":1557,"Ġexperience":1558,"ĠWhen":1559,"Ġuf":1560,"Ġ12":1561,"Ġpubblic":1562,"ĠQual":1563,"ĠQuando":1564,"Ġcomplete":1565,"zzo":1566,"Ġagenda":1567,"Ġprocesso":1568,"Ġdocuments":1569,"ress":1570,"ĠMilano":1571,"Ġlearn":1572,"Ġmaggiori":1573,"Ġlivello":1574,"Ġutilizz":1575,"ĠEuropean":1576,"Ġenrolled":1577,"Ġfocus":1578,"Ġmajor":1579,"dis":1580,"fy":1581,"ide":1582,"raduate":1583,"se":1584,"ving":1585,"Ġ3":1586,"Ġtit":1587,"Ġdays":1588,"Ġsog":1589,"enn":1590,"Ġcrit":1591,"Ġcampus":1592,"Ġthem":1593,"ica":1594,"ico":1595,"isi":1596,"Ġlog":1597,"amenti":1598,"Ġover":1599,"Ġwrit":1600,"ĠID":1601,"Ġtoday":1602,"Ġbu":1603,"Ġnu":1604,"zienda":1605,"graduate":1606,"ech":1607,"ettu":1608,"rizzo":1609,"Ġforni":1610,"admissions":1611,"ĠTest":1612,"Ġsucc":1613,"Ġarea":1614,"Ġcompani":1615,"Ġwhere":1616,"irect":1617,"Ġabb":1618,"egu":1619,"ĠReg":1620,"Ġactivities":1621,"Ġuser":1622,"Ġpartner":1623,"perienza":1624,"apter":1625,"Ġselezion":1626,"Ġpoli":1627,"ggio":1628,"Ġservizio":1629,"Ġparticipate":1630,"Ġlanguage":1631,"Ġrecei":1632,"Ġprovided":1633,"fficio":1634,"Ġinclud":1635,"Ġdatabase":1636,"alendar":1637,"Ġcompanies":1638,"In":1639,"TS":1640,"ds":1641,"fin":1642,"gio":1643,"ii":1644,"mente":1645,"matic":1646,"pl":1647,"ru":1648,"uc":1649,"vant":1650,"xx":1651,"Ġ\"":1652,"Ġ5":1653,"Ġtot":1654,"Ġtem":1655,"anto":1656,"Ġsce":1657,"Ġsia":1658,"Ġpol":1659,"titud":1660,"Ġcurricul":1661,"orto":1662,"alumni":1663,"its":1664,"atti":1665,"isog":1666,"Ġlim":1667,"Ġfull":1668,"atis":1669,"Ġdivers":1670,"edi":1671,"ĠISD":1672,"Ġtopic":1673,"Ġpropri":1674,"Ġprobl":1675,"Ġbase":1676,"Ġbiblioteca":1677,"osc":1678,"ĠSt":1679,"Ġhere":1680,"ĠMIM":1681,"cep":1682,"Ġissu":1683,"Ġthan":1684,"Ġthir":1685,"Ġthree":1686,"Ġlezioni":1687,"Ġsei":1688,"Ġprenot":1689,"Ġaccoun":1690,"ĠDirect":1691,"earch":1692,"Ġwhen":1693,"Ġscuola":1694,"Ġmain":1695,"tico":1696,"Ġdisc":1697,"Ġ10":1698,"Ġable":1699,"Ġitali":1700,"Ġfinancial":1701,"ondo":1702,"Ġdall":1703,"Ġinterest":1704,"ĠuniversitÃł":1705,"Ġtras":1706,"Ġeventi":1707,"ght":1708,"antit":1709,"ousing":1710,"Ġentr":1711,"orse":1712,"Ġveri":1713,"Ġavere":1714,"Ġindic":1715,"Ġstay":1716,"Ġmateri":1717,"Ġnecessario":1718,"bocconialumni":1719,"tural":1720,"Ġprestito":1721,"Ġfrequent":1722,"board":1723,"Ġmulti":1724,"Ġgiorni":1725,"ĠTutti":1726,"Ġstartup":1727,"Ġmonth":1728,"program":1729,"umnus":1730,"Ġeffettu":1731,"Ġusername":1732,"Ġproblem":1733,"ĠDirector":1734,"ai":1735,"ace":1736,"eo":1737,"ello":1738,"messo":1739,"tÃł":1740,"Ġ'":1741,"Ġter":1742,"anza":1743,"rees":1744,"Ġdue":1745,"Ġci":1746,"hematic":1747,"ical":1748,"icur":1749,"arti":1750,"entr":1751,"Ġopen":1752,"Ġmesi":1753,"Ġofficial":1754,"Ġbisog":1755,"asci":1756,"ective":1757,"veral":1758,"viron":1759,"view":1760,"Ġgrou":1761,"ĠTr":1762,"chol":1763,"chÃ©":1764,"alia":1765,"Ġthese":1766,"ateg":1767,"Ġid":1768,"Ġcomun":1769,"tain":1770,"tron":1771,"Ġacceler":1772,"Ġaccett":1773,"forma":1774,"ĠHo":1775,"Ġquantit":1776,"ĠThey":1777,"load":1778,"iblio":1779,"Ġvisto":1780,"Ġsemestre":1781,"lace":1782,"Ġdocument":1783,"Ġpossible":1784,"Ġenviron":1785,"Ġrichiedere":1786,"Ġvia":1787,"Ġstarting":1788,"Ġottenere":1789,"ulty":1790,"ĠStudents":1791,"Ġorganizations":1792,"Ġpagina":1793,"Ġlibri":1794,"Ġqualsiasi":1795,"Ġindividual":1796,"ĠsarÃł":1797,"Ġfound":1798,"ĠChapter":1799,"ĠArts":1800,"giorno":1801,"Ġnumero":1802,"Ġtime":1803,"Ġ2023":1804,"Ġuffici":1805,"Ġreceive":1806,"Ġdiverse":1807,"Ġthird":1808,"Ġbisogno":1809,"EL":1810,"Library":1811,"PE":1812,"Sc":1813,"cisi":1814,"ek":1815,"ept":1816,"jects":1817,"pre":1818,"ring":1819,"sc":1820,"up":1821,"Ġend":1822,"Ġke":1823,"Ġaim":1824,"inizi":1825,"reen":1826,"Ġsame":1827,"Ġport":1828,"atta":1829,"oto":1830,"art":1831,"Ġfree":1832,"Ġop":1833,"Ġmost":1834,"Ġmany":1835,"Ġmondo":1836,"Ġdevi":1837,"Ġdecisi":1838,"ziend":1839,"ĠChe":1840,"ĠCul":1841,"Ġhours":1842,"Ġcondi":1843,"Ġconosc":1844,"Ġprogrammi":1845,"use":1846,"ential":1847,"Ġsuper":1848,"Ġsezione":1849,"Ġseveral":1850,"Ġask":1851,"Ġscri":1852,"ĠAlumnus":1853,"nov":1854,"teneo":1855,"Ġcoll":1856,"Ġrequis":1857,"Ġacqu":1858,"Ġconsult":1859,"Ġconsegu":1860,"Ġpersonali":1861,"Ġfee":1862,"Ġworks":1863,"Ġcarri":1864,"Ġentro":1865,"Ġlavor":1866,"ackboard":1867,"ĠThis":1868,"Ġregistered":1869,"Ġdescri":1870,"Ġrelated":1871,"Ġlanguages":1872,"Ġdirect":1873,"Ġprogetto":1874,"ĠMyLibrary":1875,"sociation":1876,"Ġmodel":1877,"Ġinfob":1878,"Ġtools":1879,"Ġbeginning":1880,"Ġsoggiorno":1881,"Ġtempo":1882,"Ġquantitative":1883,"ELTS":1884,"'t":1885,".,":1886,"24":1887,"blic":1888,"ell":1889,"ful":1890,"ser":1891,"tare":1892,"Ġav":1893,"Ġaper":1894,"Ġaziend":1895,"Ġtesi":1896,"ini":1897,"indi":1898,"incip":1899,"ang":1900,"read":1901,"Ġsim":1902,"esto":1903,"alis":1904,"Ġinnov":1905,"ital":1906,"other":1907,"arch":1908,"Ġlibrary":1909,"Ġlist":1910,"llow":1911,"Ġfu":1912,"amite":1913,"Ġobb":1914,"Ġmad":1915,"Ġdeci":1916,"Ġdeta":1917,"Ġdett":1918,"Ġproven":1919,"Ġproject":1920,"teri":1921,"ĠCo":1922,"ĠSc":1923,"ĠSp":1924,"Ġread":1925,"verso":1926,"rienn":1927,"Ġconfer":1928,"ĠAc":1929,"via":1930,"Ġcommun":1931,"Ġveng":1932,"Ġalumni":1933,"Ġsupp":1934,"ura":1935,"Ġnell":1936,"Ġaccom":1937,"Ġaccept":1938,"ĠGlobal":1939,"ttamente":1940,"ĠWhere":1941,"conomia":1942,"Ġesame":1943,"Ġpublic":1944,"Ġitalian":1945,"ĠItalia":1946,"Ġcandidate":1947,"Ġcandidato":1948,"Ġconsul":1949,"Ġgives":1950,"Ġpersonale":1951,"tives":1952,"Ġsection":1953,"Ġdocumenti":1954,"Ġviene":1955,"ĠSciences":1956,"ĠConn":1957,"ĠExecutive":1958,"ĠverrÃł":1959,"Ġquesto":1960,"Ġeducation":1961,"Ġopportunity":1962,"ĠCompany":1963,"Ġreference":1964,"Ġricev":1965,"ĠDevi":1966,"ĠAssociation":1967,"Ġsessions":1968,"Ġinternazionale":1969,"Ġpunteggio":1970,"Ġmetho":1971,"enziali":1972,"Ġmiei":1973,"missione":1974,"assimo":1975,"Ġnuo":1976,"Ġmonths":1977,"Ġenvironment":1978,"inizio":1979,"Ġrequisiti":1980,"Ġobblig":1981,"Ġdetail":1982,"Ġdettagli":1983,"10":1984,"TE":1985,"The":1986,"calendar":1987,"eld":1988,"gor":1989,"how":1990,"ienza":1991,"lackboard":1992,"mento":1993,"oti":1994,"pren":1995,"ted":1996,"zza":1997,"Ġtech":1998,"ince":1999,"Ġdor":2000,"Ġday":2001,"Ġsystem":2002,"esti":2003,"esis":2004,"Ġinv":2005,"atform":2006,"ota":2007,"icy":2008,"ication":2009,"arly":2010,"Ġlu":2011,"Ġfour":2012,"ouble":2013,"ament":2014,"Ġanno":2015,"Ġecc":2016,"Ġeuro":2017,"Ġmember":2018,"Ġdig":2019,"Ġdim":2020,"Ġdiversi":2021,"omm":2022,"omatic":2023,"ilan":2024,"ĠIELTS":2025,"Ġdepar":2026,"Ġoffic":2027,"Ġnor":2028,"eting":2029,"ĠCi":2030,"ĠChi":2031,"ĠCPE":2032,"Ġreport":2033,"Ġhigh":2034,"ĠMa":2035,"very":2036,"Ġconn":2037,"emb":2038,"emand":2039,"agistr":2040,"tore":2041,"Ġgo":2042,"Ġglobal":2043,"ĠTo":2044,"ulations":2045,"Ġide":2046,"entials":2047,"Ġaltre":2048,"Ġsugg":2049,"try":2050,"Ġsee":2051,"ĠWill":2052,"ĠDur":2053,"Ġwhat":2054,"ĠWho":2055,"Ġmail":2056,"Ġweek":2057,"giun":2058,"tiche":2059,"ticul":2060,"Ġadmission":2061,"glio":2062,"Ġgrupp":2063,"Ġchall":2064,"Ġdalle":2065,"Ġapplications":2066,"Ġinterview":2067,"Ġoffered":2068,"Ġuniversit":2069,"Ġtramite":2070,"Ġvisita":2071,"cipl":2072,"Ġevent":2073,"Ġevents":2074,"Ġevalu":2075,"Ġaggiun":2076,"Ġrequirements":2077,"Ġplatform":2078,"Ġcarta":2079,"ĠCons":2080,"ĠContro":2081,"ĠDoes":2082,"Ġprofessionale":2083,"Ġstrong":2084,"Ġlike":2085,"atabases":2086,"Ġclasses":2087,"ĠpossibilitÃł":2088,"Ġquesti":2089,"Ġautomatic":2090,"Ġopportunities":2091,"Ġreceiv":2092,"ĠMilan":2093,"Ġlearning":2094,"Ġfaculty":2095,"Ġcontatto":2096,"Ġfollow":2097,"Ġmanageri":2098,"ministr":2099,"Ġrichiesta":2100,"Ġinstitution":2101,"Ġaddress":2102,"Ġsessioni":2103,"Ġscel":2104,"Ġtopics":2105,"Ġitaliano":2106,"programs":2107,"Ġprovenienza":2108,"preneu":2109,"fo":2110,"ft":2111,"ground":2112,"izione":2113,"man":2114,"ned":2115,"sa":2116,"ution":2117,"year":2118,"reement":2119,"Ġdati":2120,"Ġdottorato":2121,"Ġsvol":2122,"Ġpur":2123,"Ġclic":2124,"almente":2125,"Ġintro":2126,"rop":2127,"atori":2128,"atory":2129,"iche":2130,"icare":2131,"uni":2132,"isce":2133,"Ġfar":2134,"Ġore":2135,"Ġmedic":2136,"Ġmassimo":2137,"Ġwide":2138,"edia":2139,"Ġback":2140,"ectives":2141,"eta":2142,"ĠSo":2143,"sid":2144,"Ġho":2145,"ĠMarket":2146,"ĠPlease":2147,"old":2148,"ole":2149,"Ġforma":2150,"Ġgrow":2151,"Ġisc":2152,"uls":2153,"alizz":2154,"Ġsegu":2155,"Ġnei":2156,"ĠDeg":2157,"Ġcompany":2158,"Ġquando":2159,"Ġquota":2160,"Ġparten":2161,"ĠGRE":2162,"ĠGraduate":2163,"Ġwhile":2164,"ĠWhich":2165,"loy":2166,"Ġyears":2167,"imo":2168,"Ġspend":2169,"duct":2170,"Ġadv":2171,"Ġfield":2172,"ĠRe":2173,"Ġactiv":2174,"Ġpiatta":2175,"ected":2176,"Ġpersp":2177,"Ġprofile":2178,"Ġmodi":2179,"Ġmodo":2180,"ichÃ©":2181,"ood":2182,"Ġreserv":2183,"Ġresearch":2184,"ĠgiÃł":2185,"undament":2186,"aching":2187,"Ġvisa":2188,"Ġsoci":2189,"Ġsocial":2190,"Ġrigor":2191,"Ġdocumento":2192,"Ġself":2193,"Ġrichied":2194,"part":2195,"Ġassicur":2196,"Ġsosten":2197,"Ġorganizz":2198,"ĠValu":2199,"resent":2200,"Ġrecomm":2201,"Ġprincip":2202,"acceler":2203,"Ġrisp":2204,"Ġpartecipanti":2205,"Ġaiut":2206,"Ġconsidered":2207,"Ġauth":2208,"Ġcredenziali":2209,"Ġcredentials":2210,"Ġparticipants":2211,"Ġperiodo":2212,"Ġdesign":2213,"Ġpresentare":2214,"Ġdirettamente":2215,"Ġfacil":2216,"Ġminimo":2217,"fied":2218,"Ġinviare":2219,"Ġarriv":2220,"Ġarrivo":2221,"Ġscores":2222,"Ġimportant":2223,"overn":2224,"Ġiscriver":2225,"alized":2226,"Ġvalutazione":2227,"Ġchoice":2228,"Ġgrade":2229,"Ġalcuni":2230,"Ġrespons":2231,"Ġtranscri":2232,"Ġlocated":2233,"Ġmomento":2234,"Intern":2235,"Ġlimit":2236,"Ġaccount":2237,"cholar":2238,"ĠCulture":2239,"Ġdirectly":2240,"teriori":2241,"Ġvengono":2242,"Ġoffice":2243,"Ġreceived":2244,"Ġbackground":2245,"Ġpiattaforma":2246,"Ġrecommend":2247,"..":2248,"Ateneo":2249,"IS":2250,"MS":2251,"You":2252,"avi":2253,"azienda":2254,"come":2255,"campus":2256,"ggi":2257,"htt":2258,"iet":2259,"lement":2260,"meno":2261,"ne":2262,"ple":2263,"vamente":2264,"Ġhuman":2265,"Ġul":2266,"Ġenti":2267,"onom":2268,"Ġty":2269,"eria":2270,"info":2271,"ank":2272,"redit":2273,"repreneu":2274,"Ġscholar":2275,"Ġpat":2276,"Ġplease":2277,"tivo":2278,"Ġcit":2279,"Ġcap":2280,"alut":2281,"Ġiniti":2282,"ature":2283,"otto":2284,"llig":2285,"Ġfat":2286,"Ġfun":2287,"Ġfine":2288,"Ġelet":2289,"Ġemp":2290,"Ġwant":2291,"ild":2292,"ili":2293,"ety":2294,"ĠCl":2295,"lid":2296,"ĠSem":2297,"ĠSch":2298,"Ġrep":2299,"ĠMat":2300,"vere":2301,"ema":2302,"ements":2303,"ĠPTE":2304,"Ġattra":2305,"Ġattitud":2306,"text":2307,"tellig":2308,"Ġleader":2309,"Ġaltri":2310,"Ġalread":2311,"Ġbeen":2312,"Ġdove":2313,"Ġnelle":2314,"versitÃł":2315,"ĠDes":2316,"ĠDouble":2317,"Ġasp":2318,"ĠHub":2319,"Ġquali":2320,"Ġsche":2321,"pers":2322,"vazione":2323,"bile":2324,"imento":2325,"Ġhttp":2326,"Ġcoord":2327,"Ġ14":2328,"urea":2329,"Ġprimo":2330,"itiv":2331,"Ġgraduate":2332,"Ġprofess":2333,"Ġchance":2334,"Ġchange":2335,"Ġdocenti":2336,"Ġupd":2337,"Ġupload":2338,"Ġtak":2339,"Ġsemin":2340,"engen":2341,"Ġdispos":2342,"berg":2343,"Ġsettim":2344,"Ġproced":2345,"Ġworking":2346,"Ġneeds":2347,"mod":2348,"esider":2349,"Ġlaureati":2350,"Ġentrepreneu":2351,"ĠDov":2352,"Ġstrateg":2353,"Ġrecord":2354,"Ġprac":2355,"Ġtraining":2356,"ambi":2357,"ĠopportunitÃł":2358,"ĠThere":2359,"ĠComputer":2360,"ĠAdmission":2361,"ĠLeader":2362,"urricular":2363,"Ġlibro":2364,"Ġallowed":2365,"Ġsaranno":2366,"Ġcontattare":2367,"Ġminimum":2368,"Ġdevelopment":2369,"anced":2370,"Ġbooks":2371,"porate":2372,"Ġcopy":2373,"Ġinternazionali":2374,"Ġpunteggi":2375,"ĠTirocin":2376,"Ġinstitutions":2377,"Ġtenuti":2378,"This":2379,"Ġaccademico":2380,"Ġgraduates":2381,"Ġconsigliamo":2382,"Ġheld":2383,"Ġ90":2384,"Ġwrite":2385,"finitiv":2386,"acebook":2387,"hematical":2388,"Ġgroup":2389,"Ġcomunic":2390,"Ġcarriera":2391,"Ġinfobiblio":2392,"riennale":2393,"Ġaccommod":2394,"ĠConnection":2395,"Ġricevuto":2396,"Ġmethods":2397,"Ġobbligator":2398,"Ġdeparture":2399,"agistrale":2400,"ciplin":2401,"Ġfollowing":2402,"universitÃł":2403,"ĠSocial":2404,"Ġformazione":2405,"Ġpartenza":2406,"overnment":2407,"https":2408,"Ġelettron":2409,"ĠSchengen":2410,"Ġattraverso":2411,"Ġalready":2412,"Ġsettiman":2413,"'m":2414,"EMS":2415,"Stud":2416,"ave":2417,"ca":2418,"dere":2419,"ev":2420,"eti":2421,"fe":2422,"iamo":2423,"rÃ²":2424,"services":2425,"ufficio":2426,"vil":2427,"ved":2428,"ways":2429,"ximum":2430,"yn":2431,"Ġ8":2432,"Ġabil":2433,"Ġaff":2434,"Ġtal":2435,"inate":2436,"anzi":2437,"reat":2438,"Ġdates":2439,"Ġsend":2440,"Ġsenza":2441,"Ġsvil":2442,"Ġpay":2443,"Ġplace":2444,"Ġcur":2445,"esperienza":2446,"hether":2447,"alori":2448,"room":2449,"atu":2450,"ating":2451,"ics":2452,"arli":2453,"arsi":2454,"Ġlast":2455,"Ġfundament":2456,"entamento":2457,"Ġoper":2458,"Ġmis":2459,"Ġmol":2460,"ativi":2461,"atives":2462,"Ġwhether":2463,"ilo":2464,"ilasci":2465,"Ġtoo":2466,"Ġbec":2467,"Ġbest":2468,"ĠSome":2469,"Ġresid":2470,"Ġconc":2471,"Ġcontro":2472,"ĠAg":2473,"Ġperform":2474,"aggio":2475,"Ġgu":2476,"lear":2477,"Ġcomb":2478,"diti":2479,"Ġvoto":2480,"Ġlead":2481,"Ġleast":2482,"Ġaltern":2483,"Ġalmeno":2484,"Ġsull":2485,"Ġsuch":2486,"Ġrange":2487,"Ġracc":2488,"Ġrapp":2489,"trac":2490,"Ġsearch":2491,"Ġposto":2492,"fica":2493,"urther":2494,"Ġaccord":2495,"ĠDi":2496,"Ġcompeti":2497,"Ġquanto":2498,"Ġallog":2499,"emente":2500,"ĠAlcun":2501,"Ġdello":2502,"Ġcover":2503,"Ġ19":2504,"egati":2505,"ĠRic":2506,"Ġpiani":2507,"Ġusu":2508,"Ġprofilo":2509,"Ġchar":2510,"ĠUniversitÃł":2511,"Ġgiven":2512,"Ġsiano":2513,"crizione":2514,"Ġaggior":2515,"Ġinstr":2516,"Ġassess":2517,"000":2518,"ĠDove":2519,"Ġstrut":2520,"Ġammissione":2521,"ĠFinancial":2522,"Ġrisult":2523,"Ġundergraduate":2524,"comp":2525,"ival":2526,"Ġnoti":2527,"Ġallows":2528,"Ġmanagers":2529,"ancing":2530,"books":2531,"Ġcompetenze":2532,"Ġcopia":2533,"Ġpreparation":2534,"Ġprivate":2535,"Ġdedicated":2536,"Ġletters":2537,"Ġroom":2538,"Ġequival":2539,"ĠPoli":2540,"Ġutilizzare":2541,"Ġtitolo":2542,"Ġcriteria":2543,"Ġfornire":2544,"Ġpolitical":2545,"plom":2546,"atistics":2547,"Ġissued":2548,"Ġdiscus":2549,"Ġverificare":2550,"ĠTry":2551,"Ġscrivi":2552,"Ġconseguito":2553,"indirizzo":2554,"Ġinnovative":2555,"Ġdetails":2556,"ĠDuring":2557,"Ġgrowth":2558,"Ġiscritto":2559,"ulsory":2560,"Ġadvanced":2561,"Ġtranscript":2562,"telligence":2563,"Ġschedul":2564,"Ġaccommodation":2565,"Ġsvilupp":2566,"**":2567,"/*":2568,"43":2569,"50":2570,"743":2571,"CL":2572,"GP":2573,"IN":2574,"It":2575,"ak":2576,"bor":2577,"cas":2578,"ever":2579,"fatti":2580,"ht":2581,"id":2582,"ie":2583,"ies":2584,"ltre":2585,"ml":2586,"service":2587,"ssp":2588,"ught":2589,"ya":2590,"ying":2591,"Ġut":2592,"ĠâĢ":2593,"online":2594,"Ġaround":2595,"ind":2596,"ints":2597,"refinitiv":2598,"Ġdon":2599,"Ġdyn":2600,"Ġste":2601,"Ġsede":2602,"enci":2603,"enco":2604,"Ġpen":2605,"til":2606,"tificial":2607,"Ġcin":2608,"Ġcent":2609,"Ġciv":2610,"orta":2611,"orrow":2612,"alpen":2613,"Ġincor":2614,"itare":2615,"isc":2616,"isd":2617,"isci":2618,"ars":2619,"aria":2620,"arfatti":2621,"Ġlong":2622,"Ġfill":2623,"Ġfacc":2624,"entation":2625,"Ġanother":2626,"Ġmess":2627,"omberg":2628,"ĠBlackboard":2629,"Ġprom":2630,"ingl":2631,"Ġbo":2632,"Ġborrow":2633,"Ġnost":2634,"Ġuntil":2635,"Ġyours":2636,"ĠClic":2637,"ĠCampus":2638,"ĠBocconiGP":2639,"ĠSi":2640,"ĠSarfatti":2641,"sig":2642,"Ġhousing":2643,"ĠMet":2644,"rib":2645,"ĠAfter":2646,"olog":2647,"oltre":2648,"niz":2649,"Ġprogramm":2650,"Ġgesti":2651,"Ġgreat":2652,"Ġcannot":2653,"erequis":2654,"tavia":2655,"dition":2656,"Ġvita":2657,"Ġvoti":2658,"Ġbeh":2659,"ĠEach":2660,"trare":2661,"urance":2662,"ĠWorld":2663,"Ġaccredit":2664,"ĠDemand":2665,"Ġcompil":2666,"Ġcomputer":2667,"ĠIns":2668,"ĠGovernment":2669,"ĠFe":2670,"Ġscad":2671,"ourses":2672,"Ġmaximum":2673,"login":2674,"loomberg":2675,"ĠNow":2676,"Ġspe":2677,"duce":2678,"Ġdisabil":2679,"ĠOri":2680,"ĠOgni":2681,"Ġesperienza":2682,"Ġaddition":2683,"Ġfive":2684,"Ġfino":2685,"Ġfinal":2686,"Ġfinanzi":2687,"ĠRes":2688,"igher":2689,"Ġ25":2690,"Ġuniversi":2691,"Ġunique":2692,"Ġgratu":2693,"ĠLaurea":2694,"Ġusing":2695,"ources":2696,"Ġmodul":2697,"Ġcrediti":2698,"Ġapplicants":2699,"Ġinteress":2700,"Ġupon":2701,"Ġtaking":2702,"ustri":2703,"Ġsov":2704,"Ġsolid":2705,"Ġtell":2706,"Ġdomande":2707,"tures":2708,"ĠCommunication":2709,"Ġstarts":2710,"Ġcard":2711,"Ġstudying":2712,"Ġstruc":2713,"Ġtutte":2714,"Ġamong":2715,"Ġdegrees":2716,"opic":2717,"Ġindirizzo":2718,"Ġprerequis":2719,"training":2720,"Ġformativo":2721,"rent":2722,"Ġsubjects":2723,"Ġpotre":2724,"Ġindustri":2725,"ĠAdmissions":2726,"Ġprovides":2727,"ffice":2728,"Ġstudies":2729,"Ġinizia":2730,"Ġnostra":2731,"Ġreferenza":2732,"Ġdatabases":2733,"Ġbasic":2734,"Ġbasis":2735,"Ġprestigi":2736,"tries":2737,"Ġfrequenza":2738,"ĠAccoun":2739,"Ġvarious":2740,"Ġapproach":2741,"Ġchoose":2742,"ĠvaliditÃł":2743,"Ġpreviste":2744,"Ġcountry":2745,"Ġcountries":2746,"Ġscience":2747,"Ġlegal":2748,"Ġcriteri":2749,"Ġselezionare":2750,"Ġincluded":2751,"iii":2752,"xxx":2753,"Ġpolicy":2754,"Ġcurriculum":2755,"cepts":2756,"Ġprenotazione":2757,"Ġfrequentare":2758,"entrale":2759,"Ġidenti":2760,"Ġufficiali":2761,"screen":2762,"Ġkey":2763,"Ġaims":2764,"ĠCheck":2765,"Ġconoscenza":2766,"useful":2767,"ĠScuola":2768,"Ġitaliana":2769,"Ġdigital":2770,"Ġnorm":2771,"embre":2772,"Ġsuggest":2773,"ministration":2774,"Ġscelta":2775,"Ġsvolg":2776,"Ġpurch":2777,"Ġperspective":2778,"Ġrigorous":2779,"Ġauthori":2780,"Ġdesigned":2781,"Ġarrival":2782,"Ġulteriori":2783,"Ġpath":2784,"Ġemploy":2785,"Ġcoordin":2786,"Ġupdated":2787,"Ġobbligatoria":2788,"Ġaggiorn":2789,"ĠPolitics":2790,"html":2791,"sspr":2792,"Ġdynam":2793,"encies":2794,"alpensa":2795,"Ġfaccio":2796,"ĠBocconiGPT":2797,"Ġuniversities":2798,"screens":2799,");":2800,"En":2801,"ISD":2802,"OR":2803,"dici":2804,"ella":2805,"ga":2806,"go":2807,"hop":2808,"hold":2809,"mon":2810,"mat":2811,"na":2812,"ound":2813,"ption":2814,"pass":2815,"ranno":2816,"sel":2817,"tc":2818,"wh":2819,"zation":2820,"¬ģ":2821,"ï¬ģ":2822,"ĠK":2823,"Ġer":2824,"Ġ30":2825,"Ġage":2826,"Ġamp":2827,"Ġapart":2828,"Ġtesto":2829,"Ġtriennale":2830,"erÃł":2831,"ino":2832,"ins":2833,"ane":2834,"red":2835,"rel":2836,"Ġdagli":2837,"Ġdesider":2838,"Ġsen":2839,"ena":2840,"eses":2841,"Ġinten":2842,"ros":2843,"ichi":2844,"arten":2845,"Ġline":2846,"Ġlook":2847,"Ġfir":2848,"Ġfond":2849,"Ġanni":2850,"Ġeconomia":2851,"Ġetc":2852,"Ġment":2853,"Ġdiritto":2854,"ĠBSc":2855,"Ġbring":2856,"Ġnome":2857,"osed":2858,"ters":2859,"ason":2860,"ections":2861,"ĠCV":2862,"ĠCEMS":2863,"Ġref":2864,"Ġreduc":2865,"area":2866,"ĠMore":2867,"ĠMSc":2868,"verile":2869,"Ġconten":2870,"emo":2871,"emp":2872,"ĠAb":2873,"ĠAm":2874,"ĠAt":2875,"ĠPre":2876,"ĠPol":2877,"Ġpermesso":2878,"agagli":2879,"essa":2880,"ible":2881,"Ġgam":2882,"ppen":2883,"ulate":2884,"lex":2885,"Ġthen":2886,"Ġthink":2887,"Ġthesis":2888,"dimento":2889,"own":2890,"Ġsure":2891,"ĠEconomic":2892,"Ġrilasci":2893,"Ġori":2894,"abile":2895,"terno":2896,"fication":2897,"Ġpren":2898,"Ġdov":2899,"atore":2900,"Ġaccesso":2901,"ĠDottorato":2902,"formation":2903,"Ġwithout":2904,"ĠIntelligence":2905,"acy":2906,"Ġapparten":2907,"Ġhappen":2908,"Ġparl":2909,"ferimento":2910,"ĠGi":2911,"uting":2912,"ĠFull":2913,"Ġstamp":2914,"Ġscan":2915,"Ġcollo":2916,"Ġdisco":2917,"Ġ16":2918,"Ġ18":2919,"rapp":2920,"gliere":2921,"Ġfinance":2922,"Ġactive":2923,"Ġtests":2924,"Ġregul":2925,"Ġconsenti":2926,"elf":2927,"Ġtipo":2928,"Ġcompletare":2929,"Ġuphold":2930,"Ġspecialis":2931,"Ġtrad":2932,"Ġtaught":2933,"istema":2934,"Ġtext":2935,"Ġinsegn":2936,"Ġinsurance":2937,"Ġstart":2938,"ĠInternship":2939,"ously":2940,"Ġcontrib":2941,"Ġenter":2942,"Ġimpren":2943,"Ġtutto":2944,"Ġprimaverile":2945,"estero":2946,"Ġrecog":2947,"Ġformat":2948,"Ġclasse":2949,"Ġclassroom":2950,"ĠUna":2951,"Ġpoints":2952,"Ġcredits":2953,"clusi":2954,"Ġschools":2955,"Ġpotential":2956,"Ġorganized":2957,"Ġattivare":2958,"Ġstaff":2959,"Ġnecessari":2960,"ĠChina":2961,"first":2962,"Ġjo":2963,"Ġjob":2964,"ĠArtificial":2965,"Ġattendance":2966,"Ġmaggior":2967,"ĠDevo":2968,"Ġvolta":2969,"Ġcompetencies":2970,"Ġmodello":2971,"Ġmulticul":2972,"ight":2973,"Ġimportanti":2974,"Ġfav":2975,"Ġmarkets":2976,"Ġmarketing":2977,"Ġobiet":2978,"Ġconfir":2979,"Ġgrades":2980,"Ġlettere":2981,"Ġvalidity":2982,"ditori":2983,"Ġsessione":2984,"Ġcultural":2985,"fying":2986,"Ġoverla":2987,"Ġbuild":2988,"ĠRegulations":2989,"Ġ50":2990,"Ġtotal":2991,"Ġtotale":2992,"Ġpropria":2993,"Ġissues":2994,"Ġeffettuare":2995,"Ġidone":2996,"Ġacceleration":2997,"Ġaccelerazione":2998,"Ġufficiale":2999,"Ġportale":3000,"Ġdecision":3001,"Ġacquire":3002,"Ġworkshop":3003,"Ġmade":3004,"ĠActivities":3005,"Ġsupporto":3006,"Ġnuova":3007,"Ġecce":3008,"Ġgruppo":3009,"Ġuniversitario":3010,"ĠControlla":3011,"Ġautomatically":3012,"Ġmanagerial":3013,"ĠMarketing":3014,"Ġseguenti":3015,"ĠDegrees":3016,"ĠValues":3017,"Ġiscrivermi":3018,"Ġscholarships":3019,"Ġinitiatives":3020,"Ġfunc":3021,"ĠClass":3022,"Ġleadership":3023,"ĠDesk":3024,"Ġentrepreneurs":3025,"Ġsettimana":3026,"Ġcurrent":3027,"Ġaccording":3028,"ĠAlcuni":3029,"Ġrisultati":3030,"Ġscheduled":3031,"Ġcinque":3032,"Ġyourself":3033,"Ġbehavi":3034,"Ġscadenza":3035,"Ġsovrapp":3036,"Ġstructure":3037,"ĠAccounting":3038,"Ġcolloqu":3039,"Ġimprenditori":3040,"Ġmulticultural":3041,"AC":3042,"AS":3043,"BB":3044,"EMBA":3045,"Fin":3046,"Graduate":3047,"azi":3048,"databases":3049,"elle":3050,"gom":3051,"housing":3052,"market":3053,"ny":3054,"ph":3055,"pat":3056,"page":3057,"ptitud":3058,"sis":3059,"stud":3060,"tent":3061,"uzione":3062,"ute":3063,"Ġ,":3064,"Ġ<":3065,"Ġï¬ģ":3066,"onsi":3067,"onamento":3068,"Ġaul":3069,"Ġaptitud":3070,"Ġtre":3071,"inc":3072,"inter":3073,"ination":3074,"inese":3075,"andi":3076,"anking":3077,"rect":3078,"Ġsince":3079,"Ġsistema":3080,"enge":3081,"Ġpe":3082,"tici":3083,"Ġcare":3084,"Ġcir":3085,"Ġcost":3086,"Ġcerc":3087,"Ġcall":3088,"hed":3089,"alth":3090,"Ġincon":3091,"ites":3092,"atur":3093,"attend":3094,"atura":3095,"otoc":3096,"icro":3097,"ummer":3098,"unn":3099,"unch":3100,"isp":3101,"Ġlec":3102,"Ġlet":3103,"Ġfon":3104,"Ġfos":3105,"Ġfurther":3106,"outs":3107,"Ġancor":3108,"Ġow":3109,"Ġoltre":3110,"Ġelig":3111,"Ġearly":3112,"Ġevery":3113,"Ġearli":3114,"Ġmand":3115,"Ġmaster":3116,"Ġmerc":3117,"Ġmedia":3118,"Ġdid":3119,"Ġwas":3120,"Ġway":3121,"Ġwish":3122,"ily":3123,"Ġtop":3124,"ĠBas":3125,"ĠBlig":3126,"ĠBloomberg":3127,"Ġprod":3128,"Ġproduct":3129,"Ġbrow":3130,"Ġborse":3131,"Ġname":3132,"ostrare":3133,"ecn":3134,"econom":3135,"etÃł":3136,"lied":3137,"like":3138,"ĠSupp":3139,"ĠSystem":3140,"ĠSince":3141,"Ġrele":3142,"Ġrete":3143,"Ġreason":3144,"sione":3145,"Ġhigher":3146,"ĠMe":3147,"ĠMagistrale":3148,"velop":3149,"ritical":3150,"Ġconcepts":3151,"ĠApp":3152,"ĠPa":3153,"ĠPot":3154,"ĠPorta":3155,"olare":3156,"olato":3157,"olamento":3158,"ques":3159,"niques":3160,"Ġglob":3161,"Ġgood":3162,"ĠTopic":3163,"Ġistitu":3164,"Ġthose":3165,"iore":3166,"ĠLinate":3167,"Ġvuoi":3168,"tegr":3169,"Ġalways":3170,"Ġsua":3171,"ĠEMBA":3172,"ĠEconomia":3173,"Ġareas":3174,"trate":3175,"abeta":3176,"ĠWBB":3177,"Ġexcep":3178,"ĠDatabases":3179,"Ġassoci":3180,"Ġassig":3181,"ĠHere":3182,"ĠHello":3183,"Ġquello":3184,"Ġappart":3185,"ĠGre":3186,"ĠGmat":3187,"ĠGEMBA":3188,"ĠFree":3189,"ĠFacebook":3190,"Ġwhose":3191,"Ġstato":3192,"ĠWhy":3193,"Ġscrit":3194,"Ġscreen":3195,"iao":3196,"Ġspons":3197,"Ġinform":3198,"tica":3199,"Ġricon":3200,"Ġ15":3201,"ĠOur":3202,"ĠOffice":3203,"Ġesemp":3204,"erved":3205,"Ġfinale":3206,"ĠResi":3207,"Ġpieno":3208,"Ġ24":3209,"Ġ26":3210,"Ġused":3211,"Ġmobile":3212,"Ġcreate":3213,"Ġdocente":3214,"Ġcompleting":3215,"Ġcompletato":3216,"Ġinterpre":3217,"Ġofferti":3218,"Ġspecial":3219,"Ġessential":3220,"ĠPermit":3221,"ĠPerchÃ©":3222,"Ġvisu":3223,"Ġpersonally":3224,"istare":3225,"aries":3226,"Ġteaching":3227,"Ġagre":3228,"Ġarr":3229,"Ġinser":3230,"Ġneeded":3231,"Ġvivamente":3232,"Ġassegn":3233,"Ġcaricare":3234,"Ġcontin":3235,"ĠVis":3236,"ĠValori":3237,"ĠExperience":3238,"ĠDopo":3239,"Ġprofessionali":3240,"Ġprint":3241,"Ġseconda":3242,"accesso":3243,"Ġformato":3244,"Ġrisorse":3245,"Ġpossa":3246,"Ġ2010":3247,"Ġpossibility":3248,"ĠpoichÃ©":3249,"ingua":3250,"Ġpotenzi":3251,"ĠStudying":3252,"Ġmeet":3253,"Ġcasella":3254,"Ġrelation":3255,"Ġpagamento":3256,"Ġelectives":3257,"Ġqualcun":3258,"Ġproviding":3259,"Ġindividuale":3260,"Ġpunti":3261,"Ġallowing":3262,"Ġchiave":3263,"Ġiniziare":3264,"Ġiniziative":3265,"Ġloan":3266,"Ġprogett":3267,"Ġprogetti":3268,"ettare":3269,"Ġgeneral":3270,"Ġgenerate":3271,"roninfo":3272,"Ġricevere":3273,"Ġacademically":3274,"fully":3275,"Ġjust":3276,"Ġnetworking":3277,"Ġregistration":3278,"Ġvolum":3279,"Ġvariety":3280,"Ġgiorno":3281,"Ġrichiesto":3282,"Ġpreparazione":3283,"icies":3284,"Ġobtain":3285,"ĠAnaly":3286,"Ġprevisto":3287,"Ġresponsi":3288,"Ġconsiglia":3289,"Ġsolito":3290,"Ġparo":3291,"Ġanalytical":3292,"quisto":3293,"Ġfornisce":3294,"disciplin":3295,"Ġsuccede":3296,"Ġincluding":3297,"Ġinterests":3298,"Ġinterested":3299,"Ġentrare":3300,"Ġeffettuato":3301,"Ġaccettare":3302,"Ġportal":3303,"Ġcondizione":3304,"Ġconoscenze":3305,"Ġsupervis":3306,"Ġcolleg":3307,"Ġconsultare":3308,"Ġmadrel":3309,"Ġdecide":3310,"ĠColl":3311,"zzazione":3312,"Ġtechn":3313,"Ġtechniques":3314,"Ġdormit":3315,"Ġmembers":3316,"Ġdimostrare":3317,"Ġideas":3318,"Ġchalleng":3319,"Ġchallenge":3320,"Ġevaluation":3321,"Ġaggiunta":3322,"Ġstrongly":3323,"Ġfields":3324,"Ġmodificare":3325,"Ġrichiedono":3326,"Ġprincipali":3327,"Ġaiutarti":3328,"Ġfacilities":3329,"International":3330,"Ġentire":3331,"ĠcittÃł":3332,"alutations":3333,"Ġrepresent":3334,"Ġattitudini":3335,"Ġtakes":3336,"Ġdisposizione":3337,"Ġrecords":3338,"Ġpracti":3339,"Ġelettroniche":3340,"Study":3341,"ĠAgreement":3342,"Ġalternative":3343,"Ġpianificare":3344,"Ġassessment":3345,"ploma":3346,"Ġdiscuss":3347,"CLE":3348,"Italian":3349,"inglese":3350,"Ġnostri":3351,"ĠMetabeta":3352,"Ġspeak":3353,"Ġindustries":3354,"Ġprestigious":3355,"ichiar":3356,"ĠAbroad":3357,"Ġgamma":3358,"Ġthinking":3359,"Ġappartenenza":3360,"Ġcolloquio":3361,"housingisd":3362,"patroninfo":3363,"attending":3364,"otocop":3365,"Ġancora":3366,"Ġmandatory":3367,"Ġmercato":3368,"ĠBligny":3369,"Ġrelevant":3370,"ĠResid":3371,"disciplinary":3372,"Ġmadrelingua":3373,")?":3374,"Acc":3375,"Azienda":3376,"Ex":3377,"For":3378,"Fore":3379,"Found":3380,"Per":3381,"RD":3382,"SDA":3383,"Tim":3384,"aut":3385,"aking":3386,"apers":3387,"bber":3388,"cent":3389,"da":3390,"ded":3391,"ddis":3392,"drop":3393,"ep":3394,"fare":3395,"gere":3396,"hancing":3397,"jors":3398,"ks":3399,"lit":3400,"oom":3401,"ptions":3402,"rary":3403,"rint":3404,"scri":3405,"served":3406,"tte":3407,"tamento":3408,"two":3409,"ug":3410,"uta":3411,"uzioni":3412,"work":3413,"Â°":3414,"Ġuman":3415,"ongu":3416,"Ġaw":3417,"Ġamb":3418,"Ġtess":3419,"Ġtongu":3420,"erop":3421,"interno":3422,"ances":3423,"Ġdatori":3424,"Ġsent":3425,"Ġsing":3426,"Ġsap":3427,"Ġsign":3428,"enom":3429,"Ġpic":3430,"Ġpoi":3431,"Ġcambi":3432,"estra":3433,"orario":3434,"Ġinc":3435,"Ġinsi":3436,"Ġintegr":3437,"itato":3438,"itative":3439,"itamente":3440,"atas":3441,"atto":3442,"iscrizione":3443,"arante":3444,"armi":3445,"Ġlar":3446,"Ġlibr":3447,"llare":3448,"Ġfl":3449,"Ġemer":3450,"Ġmother":3451,"Ġmight":3452,"Ġmicro":3453,"Ġdepend":3454,"Ġdepos":3455,"Ġyet":3456,"Ġprojects":3457,"Ġbre":3458,"Ġbibliotec":3459,"Ġbroad":3460,"Ġbiblio":3461,"Ġbagagli":3462,"osto":3463,"osci":3464,"asing":3465,"ascun":3466,"ectron":3467,"ets":3468,"etto":3469,"etable":3470,"ĠCurricular":3471,"ĠCentrale":3472,"ĠCiao":3473,"ĠStr":3474,"ĠSalutations":3475,"Ġren":3476,"Ġhist":3477,"Ġhoc":3478,"Ġhub":3479,"vemb":3480,"Ġconto":3481,"Ġcontext":3482,"ĠPar":3483,"Ġpercor":3484,"ĠperchÃ©":3485,"agenda":3486,"ceed":3487,"Ġlabor":3488,"ibri":3489,"usa":3490,"Ġistr":3491,"ults":3492,"cia":3493,"Ġtheses":3494,"tazioni":3495,"entic":3496,"ĠLear":3497,"Ġvary":3498,"Ġaltro":3499,"Ġbel":3500,"Ġbeing":3501,"ĠEU":3502,"Ġrit":3503,"Ġrun":3504,"Ġorig":3505,"tratto":3506,"Ġseat":3507,"abb":3508,"ficativo":3509,"Ġprefer":3510,"Ġprega":3511,"Ġnext":3512,"Ġexperi":3513,"Ġextrac":3514,"ĠData":3515,"ĠInoltre":3516,"Ġquelle":3517,"act":3518,"acitÃł":3519,"acquisto":3520,"Ġappren":3521,"Ġapplied":3522,"Ġparticul":3523,"ĠGood":3524,"irit":3525,"irport":3526,"ĠFall":3527,"Ġwhole":3528,"Ġstat":3529,"Ġstation":3530,"Ġstata":3531,"Ġstatistics":3532,"Ġinternships":3533,"ĠUl":3534,"depend":3535,"ĠNel":3536,"ecialized":3537,"ĠYear":3538,"Ġcolle":3539,"Ġcorporate":3540,"ĠProf":3541,"ĠProject":3542,"Ġadmit":3543,"Ġadvis":3544,"Ġadvant":3545,"ureato":3546,"Ġpubl":3547,"orizzazione":3548,"didates":3549,"ĠHowever":3550,"ĠRoom":3551,"ĠProgramma":3552,"Ġprim":3553,"Ġprimi":3554,"Ġusers":3555,"Ġconsis":3556,"elenco":3557,"Ġchang":3558,"ource":3559,"Ġcresc":3560,"Ġdai":3561,"Ġdurata":3562,"Ġresults":3563,"Ġspeciali":3564,"Ġsoddis":3565,"Ġsempre":3566,"Ġriferimento":3567,"Ġagree":3568,"Ġagreement":3569,"Ġartic":3570,"Ġargom":3571,"Ġsetting":3572,"ĠNovemb":3573,"Ġclub":3574,"Ġenc":3575,"Ġview":3576,"ĠInternships":3577,"ĠEnter":3578,"Ġorganize":3579,"ĠCandidates":3580,"ĠExam":3581,"Ġprofessionals":3582,"resti":3583,"library":3584,"Ġammesso":3585,"opri":3586,"Ġindipend":3587,"getto":3588,"Ġvery":3589,"Ġpartire":3590,"ardo":3591,"Ġrispos":3592,"Ġpartecipazione":3593,"ĠSept":3594,"Ġtrovi":3595,"Ġtrova":3596,"Ġ201":3597,"onstrate":3598,"Ġquestions":3599,"Ġaverage":3600,"Ġautunn":3601,"atica":3602,"Ġplanned":3603,"coming":3604,"pening":3605,"Ġpotrai":3606,"ĠStudent":3607,"Ġapplying":3608,"Ġmeglio":3609,"ĠComputing":3610,"Ġperiods":3611,"Ġrelations":3612,"Ġliber":3613,"Ġmathematical":3614,"utere":3615,"ettembre":3616,"Ġmanager":3617,"Ġdeveloping":3618,"Ġinclude":3619,"Ġattending":3620,"Ġdemonstrate":3621,"Ġbased":3622,"ĠDevelop":3623,"Ġregistrato":3624,"Ġregistrazione":3625,"spapers":3626,"Ġvolte":3627,"Ġselected":3628,"box":3629,"alendario":3630,"Ġfail":3631,"Ġiscrizione":3632,"alization":3633,"alizza":3634,"Ġvalue":3635,"Ġpreparing":3636,"Ġoblig":3637,"Ġconflic":3638,"Ġconflit":3639,"ĠTuttavia":3640,"Ġprivacy":3641,"Ġcertificate":3642,"Thesis":3643,"hops":3644,"Ġaccademica":3645,"missioni":3646,"Ġhealth":3647,"Ġrole":3648,"Ġculture":3649,"ĠHiya":3650,"Ġsubmitting":3651,"Ġsciences":3652,"Ġanalyze":3653,"ĠPoichÃ©":3654,"Ġpubblicazioni":3655,"Ġutilizzando":3656,"Ġfocuses":3657,"Ġmajority":3658,"disp":3659,"Ġwriting":3660,"Ġabbi":3661,"Ġabbia":3662,"uctions":3663,"Ġprenotare":3664,"Ġaccounting":3665,"Ġdiscutere":3666,"Ġtrascor":3667,"Ġmateriali":3668,"Ġmaterials":3669,"Ġmultip":3670,"Ġmultiple":3671,"Ġterm":3672,"hematics":3673,"Ġgroups":3674,"Ġkeep":3675,"Ġoption":3676,"Ġoptions":3677,"Ġdecisions":3678,"Ġscriv":3679,"Ġworkshops":3680,"Ġlavorativa":3681,"Ġaziende":3682,"Ġfuori":3683,"Ġfuture":3684,"ĠSpecialized":3685,"Ġreading":3686,"ĠAcademic":3687,"Ġcommunity":3688,"Ġaccepted":3689,"Ġitaliane":3690,"103":3691,"Ġdorms":3692,"Ġsystems":3693,"Ġinvest":3694,"Ġeurope":3695,"etings":3696,"ĠMajors":3697,"Ġgruppi":3698,"Ġcartace":3699,"ĠControl":3700,"Ġautomaticamente":3701,"Ġintroduce":3702,"etail":3703,"Ġreservation":3704,"Ġrichieder":3705,"acceleration":3706,"accelerazione":3707,"Ġrispettare":3708,"Ġresponses":3709,"Internship":3710,"Ġrecommended":3711,"...":3712,"lementary":3713,"Ġtypic":3714,"ĠcapacitÃł":3715,"ĠSemester":3716,"ĠMathematical":3717,"Ġprocedure":3718,"Ġprocedura":3719,"ĠDovrÃ²":3720,"ĠTirocini":3721,"ĠTirocinio":3722,"evento":3723,"Ġabilities":3724,"Ġfundamentals":3725,"Ġtook":3726,"Ġcontrollare":3727,"Ġperformance":3728,"Ġguarante":3729,"learning":3730,"Ġleading":3731,"Ġrappresent":3732,"Ġcompetitive":3733,"Ġalloggio":3734,"Ġusually":3735,"Ġinstructions":3736,"compulsory":3737,"Ġrooms":3738,"Ġsviluppo":3739,"Ġutenti":3740,"ĠâĢĵ":3741,"Ġcivil":3742,"Ġincorpor":3743,"iscono":3744,"Ġlonger":3745,"Ġpromot":3746,"ĠClick":3747,"ology":3748,"ĠInstitu":3749,"ĠOrientation":3750,"Ġauthorization":3751,"Ġemployers":3752,"Ġdynamics":3753,"Enhancing":3754,"Ġerr":3755,"ross":3756,"Ġfirms":3757,"Ġprendere":3758,"Ġdovrai":3759,"Ġhappens":3760,"Ġinsegnamenti":3761,"Ġjoin":3762,"Ġeccezione":3763,"Ġcurrently":3764,"Ġbehavior":3765,"Ġsovrappos":3766,"Ġï¬ģn":3767,"Ġaptitudes":3768,"Ġcercare":3769,"Ġown":3770,"ĠSupplementary":3771,"ĠMeeting":3772,"Ġassigned":3773,"Ġesempio":3774,"Ġinterpret":3775,"ĠAnalytics":3776,"ĠCollegati":3777,"Ġdormitori":3778,"ichiarazione":3779,"Foreign":3780,"Time":3781,"bbero":3782,"Ġumane":3783,"Ġtessera":3784,"Ġtongue":3785,"Ġsapere":3786,"Ġbiblioteche":3787,"Ġbibliogr":3788,"ectronic":3789,"ĠStrateg":3790,"Ġapprendimento":3791,"Ġadmitted":3792,"Ġadvantage":3793,"Ġcrescita":3794,"Ġsoddisfare":3795,"ĠSeptember":3796,"Ġautunnale":3797,"ĠDevelopment":3798,"'re":3799,"'ll":3800,"'ve":3801,"03":3802,"16":3803,"71":3804,"AF":3805,"BI":3806,"Bocconi":3807,"Cor":3808,"Cons":3809,"EC":3810,"GMAT":3811,"Hours":3812,"IB":3813,"Opening":3814,"PA":3815,"Pro":3816,"RIS":3817,"Sp":3818,"TM":3819,"VP":3820,"ain":3821,"ause":3822,"aerop":3823,"cer":3824,"curricular":3825,"des":3826,"dot":3827,"ei":3828,"eam":3829,"ele":3830,"fru":3831,"facebook":3832,"ging":3833,"gth":3834,"gres":3835,"hing":3836,"ior":3837,"iale":3838,"kon":3839,"milan":3840,"nals":3841,"offer":3842,"pare":3843,"plic":3844,"pose":3845,"rame":3846,"rgani":3847,"sy":3848,"sol":3849,"tand":3850,"tori":3851,"tations":3852,"tors":3853,"uri":3854,"uale":3855,"uper":3856,"vato":3857,"vede":3858,"wide":3859,"ym":3860,"ĠQ":3861,"Ġ**":3862,"Ġouts":3863,"ona":3864,"Ġairport":3865,"Ġtab":3866,"Ġtale":3867,"Ġtass":3868,"Ġtecn":3869,"erve":3870,"eremo":3871,"inando":3872,"information":3873,"anz":3874,"anit":3875,"Ġdottor":3876,"Ġdown":3877,"Ġsm":3878,"Ġsy":3879,"Ġsch":3880,"Ġsig":3881,"Ġsect":3882,"Ġstore":3883,"Ġsotto":3884,"Ġsummer":3885,"Ġsanit":3886,"enc":3887,"ening":3888,"Ġpm":3889,"Ġpal":3890,"tiva":3891,"tivazione":3892,"Ġca":3893,"Ġcat":3894,"Ġcol":3895,"Ġcle":3896,"Ġcity":3897,"Ġcalendar":3898,"Ġcalendario":3899,"org":3900,"orso":3901,"ala":3902,"alo":3903,"allo":3904,"altra":3905,"Ġint":3906,"Ġinves":3907,"Ġincoming":3908,"atter":3909,"attro":3910,"otman":3911,"icani":3912,"icinese":3913,"unque":3914,"istitu":3915,"ished":3916,"aricare":3917,"Ġfis":3918,"Ġfam":3919,"Ġfall":3920,"Ġflex":3921,"ammissione":3922,"Ġanali":3923,"Ġosp":3924,"Ġeconom":3925,"ĠetÃł":3926,"Ġmen":3927,"Ġmil":3928,"Ġmeno":3929,"Ġdiffic":3930,"ĠIT":3931,"Ġtoget":3932,"Ġprot":3933,"Ġproduc":3934,"Ġprosp":3935,"Ġpropos":3936,"Ġbr":3937,"Ġbad":3938,"Ġbene":3939,"Ġbanc":3940,"Ġbank":3941,"asp":3942,"ecord":3943,"etti":3944,"ettive":3945,"ĠCent":3946,"ĠCerti":3947,"ĠServizi":3948,"ĠSettembre":3949,"Ġreal":3950,"Ġretur":3951,"sier":3952,"Ġhold":3953,"ĠMedia":3954,"ĠMalpensa":3955,"ĠMAF":3956,"ĠMVP":3957,"verniz":3958,"rial":3959,"Ġconver":3960,"Ġcontr":3961,"ĠAI":3962,"ĠAP":3963,"ĠAteneo":3964,"ĠPost":3965,"Ġpermit":3966,"Ġperman":3967,"agni":3968,"olas":3969,"olte":3970,"older":3971,"olamenti":3972,"olution":3973,"vio":3974,"cell":3975,"admission":3976,"Ġgar":3977,"Ġgui":3978,"Ġgym":3979,"ustry":3980,"ĠTeam":3981,"ĠTicinese":3982,"chi":3983,"chments":3984,"uly":3985,"Ġthou":3986,"Ġcommit":3987,"Ġcommer":3988,"Ġcommon":3989,"tagram":3990,"tachments":3991,"ĠLi":3992,"ĠLeg":3993,"ĠLog":3994,"ĠLost":3995,"Ġved":3996,"Ġvedere":3997,"Ġvalut":3998,"Ġsue":3999,"Ġsuo":4000,"Ġsuperi":4001,"ĠEduc":4002,"Ġru":4003,"Ġrul":4004,"Ġraggi":4005,"Ġorari":4006,"Ġsepar":4007,"Ġposti":4008,"Ġposta":4009,"fiche":4010,"urre":4011,"ĠWRD":4012,"estinfo":4013,"Ġpresi":4014,"Ġprevede":4015,"Ġexper":4016,"Ġextra":4017,"Ġacced":4018,"ĠDec":4019,"ĠDirit":4020,"Ġcompre":4021,"Ġcompar":4022,"Ġcompulsory":4023,"ither":4024,"ĠInverniz":4025,"ache":4026,"ĠGrou":4027,"ĠGPA":4028,"iring":4029,"utare":4030,"ĠFri":4031,"ĠFac":4032,"ĠFanno":4033,"Ġstor":4034,"Ġstesso":4035,"Ġstren":4036,"Ġstanza":4037,"Ġstessa":4038,"Ġscaricare":4039,"Ġscolas":4040,"pertura":4041,"dern":4042,"dergraduate":4043,"ĠUE":4044,"gies":4045,"giving":4046,"bility":4047,"ĠNella":4048,"Ġspor":4049,"Ġcorre":4050,"Ġdist":4051,"Ġdisciplin":4052,"Ġ13":4053,"Ġ100":4054,"ĠProgetto":4055,"Ġesig":4056,"Ġesperi":4057,"Ġesclusi":4058,"Ġabit":4059,"Ġadministration":4060,"aying":4061,"Ġpresente":4062,"Ġpresenza":4063,"Ġfinancing":4064,"ĠRis":4065,"ĠRel":4066,"ĠRotman":4067,"ĠRecord":4068,"ogo":4069,"Ġacross":4070,"ĠQuesto":4071,"Ġexample":4072,"Ġpersone":4073,"ordo":4074,"ordine":4075,"Ġregard":4076,"Ġconsente":4077,"ournals":4078,"Ġmotiv":4079,"Ġmodern":4080,"Ġcreare":4081,"Ġcreative":4082,"ritti":4083,"itoli":4084,"Ġduration":4085,"Ġofferta":4086,"Ġresources":4087,"Ġreserve":4088,"Ġgive":4089,"Ġspecifici":4090,"Ġsiamo":4091,"aches":4092,"Ġsoon":4093,"Ġrimb":4094,"Ġripe":4095,"Ġrivol":4096,"Ġright":4097,"Ġridot":4098,"Ġevento":4099,"Ġevolution":4100,"enger":4101,"Ġfew":4102,"Ġfeature":4103,"Ġarti":4104,"Ġsettore":4105,"duction":4106,"Ġclassi":4107,"Ġenable":4108,"onibili":4109,"Ġrichiede":4110,"mover":4111,"zionali":4112,"Ġlauree":4113,"Ġlaureato":4114,"eriamo":4115,"erifica":4116,"Ġcontents":4117,"Ġimpost":4118,"ampia":4119,"ĠVia":4120,"ĠViale":4121,"ĠVerifica":4122,"orsa":4123,"Ġstrum":4124,"libdatabases":4125,"esteri":4126,"Ġrecent":4127,"Ġrecover":4128,"Ġrecuper":4129,"ople":4130,"viste":4131,"Ġshare":4132,"Ġshort":4133,"Ġlife":4134,"Ġstudentes":4135,"bbe":4136,"ĠFinanza":4137,"exchange":4138,"experience":4139,"Ġkit":4140,"Ġkind":4141,"ĠUndergraduate":4142,"Ġpassaggi":4143,"Ġpossesso":4144,"Ġconsiderare":4145,"coe":4146,"Ġtherefore":4147,"tream":4148,"Ġautonom":4149,"Ġmix":4150,"Ġmigli":4151,"Ġcredit":4152,"ĠJust":4153,"ĠJuly":4154,"Ġspecifico":4155,"Ġplanning":4156,"Ġpotresti":4157,"Ġnotions":4158,"ĠStudies":4159,"ĠThrough":4160,"Ġorganizza":4161,"ublic":4162,"Ġindustry":4163,"ĠCompil":4164,"elerator":4165,"Ġtirocinante":4166,"ĠAdministration":4167,"Ġexpl":4168,"Ġexpire":4169,"Ġexpress":4170,"Ġexposed":4171,"Ġelements":4172,"Ġqualitative":4173,"Ġindividuali":4174,"Ġindividuals":4175,"portal":4176,"Ġothers":4177,"prire":4178,"Ġdifferenza":4179,"Ġthroughout":4180,"requestinfo":4181,"Ġinizio":4182,"Ġcontatta":4183,"Ġcosa":4184,"Ġcosto":4185,"Ġcosts":4186,"ĠcosÃ¬":4187,"Ġricever":4188,"bocconiISD":4189,"Ġsomeone":4190,"Ġinviate":4191,"Ġinclusi":4192,"ĠLaws":4193,"Ġarrive":4194,"Ġworldwide":4195,"ĠAccess":4196,"Ġrequested":4197,"Ġnumerical":4198,"apply":4199,"Ġimportante":4200,"nership":4201,"Ġ650":4202,"ĠAllegati":4203,"Ġiscriversi":4204,"Ġpostale":4205,"Ġassistance":4206,"ĠAny":4207,"Ġcertificato":4208,"Ġcertificazione":4209,"pende":4210,"Ġphd":4211,"abili":4212,"Ġprevisti":4213,"Ġgraduation":4214,"Ġstartups":4215,"Ġ70":4216,"Ġ700":4217,"Ġsolving":4218,"Ġpaese":4219,"Ġcultura":4220,"Ġlocation":4221,"Ġanalysis":4222,"ĠPoint":4223,"Ġlegge":4224,"ĠQuality":4225,"Ġfocusing":4226,"Ġtitle":4227,"Ġlogin":4228,"Ġlogic":4229,"Ġsuccess":4230,"Ġsuccessi":4231,"Ġabbiamo":4232,"ĠRegolamento":4233,"Ġscegliere":4234,"Ġpolice":4235,"Ġpolicies":4236,"Ġcurricular":4237,"Ġcurriculare":4238,"Ġproprio":4239,"ĠStatistics":4240,"ticoli":4241,"Ġitaliani":4242,"Ġtrascrizione":4243,"Ġentrata":4244,"Ġindicated":4245,"Ġciascun":4246,"cholog":4247,"tainment":4248,"Ġdocumentazione":4249,"Ġfounded":4250,"Ġsuperiore":4251,"Ġasked":4252,"Ġcollections":4253,"Ġacquistare":4254,"Ġlavorativi":4255,"Ġdescrizione":4256,"Ġdescriptions":4257,"elli":4258,"sertations":4259,"Ġavvi":4260,"Ġaperto":4261,"Ġaziendali":4262,"Ġaziendale":4263,"Ġsimili":4264,"Ġdecidere":4265,"ĠSpring":4266,"Ġconferma":4267,"Ġcommunic":4268,"Ġcommunication":4269,"Ġpublications":4270,"Ġconsulenti":4271,"Ġdettagliate":4272,"Ġlugg":4273,"Ġfourth":4274,"Ġdigit":4275,"Ġconnect":4276,"Ġsuggeriamo":4277,"Ġevaluate":4278,"ĠConsulate":4279,"ĠConsolato":4280,"ftmba":4281,"Ġfarlo":4282,"Ġmedical":4283,"ĠDegree":4284,"Ġactivation":4285,"Ġsociety":4286,"Ġassicurati":4287,"Ġassicurativa":4288,"Ġsostenendo":4289,"Ġrispetto":4290,"Ġiscriverti":4291,"Ġhumanities":4292,"anked":4293,"ĠSemestre":4294,"Ġprofessor":4295,"Ġprofessors":4296,"Ġtaken":4297,"Ġseminari":4298,"Ġseminars":4299,"Ġstrategic":4300,"Ġcomunicazioni":4301,"events":4302,"Ġtalents":4303,"Ġfundamental":4304,"Ġmolto":4305,"Ġbecause":4306,"Ġresidence":4307,"Ġcontrolla":4308,"Ġracco":4309,"Ġraccolte":4310,"ĠDiploma":4311,"Ġalloggi":4312,"ĠRicerca":4313,"Ġcharge":4314,"Ġstrutture":4315,"Ġequivalent":4316,"Ġsviluppare":4317,"INRIS":4318,"nized":4319,"Ġgestione":4320,"Ġvitae":4321,"Ġcompilare":4322,"ĠdisabilitÃł":4323,"Ġadditional":4324,"ĠResearch":4325,"Ġgratuiti":4326,"Ġmodulo":4327,"Ġpotrebbero":4328,"Ġpotrebbe":4329,"Ġsvolgono":4330,"Ġpurchase":4331,"Ġcoordinator":4332,"Ġaggiornati":4333,"passenger":4334,"where":4335,"Ġapartment":4336,"Ġsenior":4337,"Ġrefund":4338,"Ġcontenuti":4339,"ĠAmmissioni":4340,"ĠPolicy":4341,"Ġrilasciato":4342,"Ġorientamento":4343,"Ġparlare":4344,"Ġdiscovery":4345,"Ġspecialistici":4346,"Ġrecognized":4347,"Ġfavore":4348,"Ġobiettivi":4349,"Ġoverlap":4350,"Ġbuilding":4351,"Ġidonei":4352,"Ġfunctions":4353,"Ġstructured":4354,"intero":4355,"Ġpeople":4356,"Ġcirca":4357,"Ġlettura":4358,"Ġeligible":4359,"Ġearliest":4360,"Ġbrowser":4361,"Ġglobale":4362,"Ġexceptions":4363,"Ġsponsor":4364,"Ġriconosci":4365,"Ġvisualizz":4366,"Ġagreed":4367,"Ġpotenziale":4368,"Ġqualcuno":4369,"Ġprogettato":4370,"Ġparole":4371,"Ġpractice":4372,"Experience":4373,"Ġsingolo":4374,"Ġpick":4375,"Ġcambiare":4376,"atastream":4377,"Ġlarge":4378,"Ġlibraries":4379,"Ġmicroform":4380,"Ġritardo":4381,"Ġorigine":4382,"Ġargomento":4383,"Ġrisposte":4384,"Ġconflitti":4385,"disponibili":4386,"Ġabbiano":4387,"Ġcartacee":4388,"Ġï¬ģnancial":4389,"ĠStrategy":4390,"OpeningHours":4391,"aeroporto":4392,"cert":4393,"ramework":4394,"sycholog":4395,"tanding":4396,"Ġ***":4397,"Ġoutstanding":4398,"Ġdownload":4399,"Ġscher":4400,"Ġsigni":4401,"Ġpalestra":4402,"Ġtogether":4403,"Ġbadge":4404,"ĠServizio":4405,"ĠMAFINRIS":4406,"ĠLegal":4407,"Ġraggiun":4408,"ĠWRDS":4409,"ĠDiritto":4410,"ĠInvernizzi":4411,"Ġstrength":4412,"Ġdisciplines":4413,"Ġesigenze":4414,"ĠMAFINRISK":4415,"\".":4416,".)":4417,".).":4418,"Amb":4419,"CE":4420,"Dottorato":4421,"Fi":4422,"Free":4423,"If":4424,"ON":4425,"POR":4426,"QU":4427,"Re":4428,"TA":4429,"US":4430,"Ufficio":4431,"av":4432,"ait":4433,"aio":4434,"ape":4435,"bu":4436,"bibliotec":4437,"bru":4438,"care":4439,"courses":4440,"denza":4441,"dice":4442,"fit":4443,"fine":4444,"got":4445,"ged":4446,"hina":4447,"ione":4448,"journals":4449,"kes":4450,"late":4451,"land":4452,"lami":4453,"mil":4454,"met":4455,"mare":4456,"mata":4457,"nome":4458,"oli":4459,"oper":4460,"oint":4461,"pon":4462,"pth":4463,"place":4464,"rono":4465,"risp":4466,"sit":4467,"stic":4468,"sari":4469,"solo":4470,"ty":4471,"tad":4472,"tto":4473,"tanto":4474,"uan":4475,"uch":4476,"uali":4477,"uary":4478,"uole":4479,"voro":4480,"valu":4481,"way":4482,"yc":4483,"ys":4484,"yers":4485,"zo":4486,"zzi":4487,"zational":4488,"Ġ:":4489,"Ġ@":4490,"Ġeng":4491,"ont":4492,"only":4493,"Ġader":4494,"Ġaprire":4495,"Ġtw":4496,"Ġtar":4497,"Ġtari":4498,"erto":4499,"inations":4500,"anze":4501,"anche":4502,"anuary":4503,"rei":4504,"Ġdam":4505,"Ġded":4506,"Ġdri":4507,"Ġdichiarazione":4508,"Ġsat":4509,"Ġsto":4510,"Ġsus":4511,"Ġseri":4512,"Ġsatis":4513,"enun":4514,"Ġpoc":4515,"Ġpsycholog":4516,"tiene":4517,"Ġcam":4518,"Ġcore":4519,"Ġcust":4520,"Ġcities":4521,"Ġcell":4522,"Ġcritical":4523,"esta":4524,"orare":4525,"orio":4526,"organi":4527,"ality":4528,"alore":4529,"Ġinfer":4530,"Ġinvo":4531,"Ġincl":4532,"Ġintend":4533,"Ġinvol":4534,"Ġinoltre":4535,"Ġindepend":4536,"Ġingres":4537,"rove":4538,"iting":4539,"itable":4540,"itarmi":4541,"att":4542,"attico":4543,"umul":4544,"uments":4545,"unk":4546,"unte":4547,"unitÃł":4548,"untamento":4549,"ise":4550,"ism":4551,"isti":4552,"istico":4553,"arri":4554,"aramente":4555,"arne":4556,"Ġlat":4557,"Ġlun":4558,"Ġlate":4559,"Ġlost":4560,"Ġlasci":4561,"Ġlunch":4562,"Ġfore":4563,"Ġfanno":4564,"Ġfoun":4565,"Ġfoto":4566,"Ġfilan":4567,"Ġfotocop":4568,"ccio":4569,"ccup":4570,"ently":4571,"entemente":4572,"ams":4573,"Ġov":4574,"Ġoccup":4575,"Ġeither":4576,"Ġmac":4577,"Ġmir":4578,"Ġmetter":4579,"Ġmemb":4580,"Ġmagistrale":4581,"Ġmuch":4582,"ativ":4583,"Ġdiv":4584,"Ġdiri":4585,"Ġdiplom":4586,"Ġdipende":4587,"Ġwi":4588,"Ġword":4589,"Ġwould":4590,"Ġwait":4591,"ĠImp":4592,"Ġdead":4593,"Ġdefin":4594,"Ġoffici":4595,"Ġpros":4596,"Ġproper":4597,"Ġprova":4598,"Ġproduce":4599,"Ġproceed":4600,"Ġbachelor":4601,"Ġbetter":4602,"Ġnational":4603,"Ġunica":4604,"osa":4605,"oso":4606,"osure":4607,"terÃł":4608,"termin":4609,"terlibrary":4610,"ashi":4611,"asure":4612,"associ":4613,"ĠCA":4614,"ĠCours":4615,"ĠCard":4616,"ĠCourses":4617,"ĠCritical":4618,"ĠCerto":4619,"liance":4620,"limin":4621,"ĠSel":4622,"Ġrem":4623,"Ġrema":4624,"Ġredi":4625,"Ġrela":4626,"Ġrecl":4627,"Ġrette":4628,"side":4629,"Ġhost":4630,"Ġholder":4631,"ĠMi":4632,"ĠMay":4633,"ĠMaggi":4634,"Ġconv":4635,"Ġconven":4636,"eme":4637,"ementi":4638,"ĠAC":4639,"ĠAug":4640,"ĠPl":4641,"ĠPr":4642,"ĠPu":4643,"ĠPri":4644,"ĠPay":4645,"ĠPAS":4646,"Ġpermet":4647,"aga":4648,"vided":4649,"Ġforum":4650,"niti":4651,"ibili":4652,"aders":4653,"advant":4654,"Ġcancell":4655,"ĠTell":4656,"pping":4657,"Ġones":4658,"ulti":4659,"ulation":4660,"ately":4661,"Ġatt":4662,"Ġattent":4663,"Ġattachments":4664,"entitÃł":4665,"llabor":4666,"ĠLo":4667,"ĠLu":4668,"ĠLui":4669,"Ġvic":4670,"Ġvac":4671,"Ġvalori":4672,"tead":4673,"Ġsui":4674,"Ġsullo":4675,"Ġsulle":4676,"Ġsuitable":4677,"ĠEs":4678,"ĠEmp":4679,"Ġrag":4680,"Ġrate":4681,"Ġora":4682,"hip":4683,"tric":4684,"abato":4685,"Ġposi":4686,"Ġposition":4687,"Ġposizione":4688,"ficio":4689,"ficato":4690,"ficata":4691,"ficazione":4692,"ury":4693,"urisp":4694,"ĠWi":4695,"ĠWel":4696,"Ġprevi":4697,"Ġpreso":4698,"Ġprepare":4699,"Ġnegli":4700,"Ġneola":4701,"ands":4702,"ĠDatab":4703,"Ġcompagni":4704,"Ġcompliance":4705,"ĠInc":4706,"ĠInser":4707,"ĠInformation":4708,"ĠInterlibrary":4709,"ĠHR":4710,"ĠHall":4711,"ĠHigh":4712,"Ġquad":4713,"Ġquale":4714,"Ġquindi":4715,"Ġquattro":4716,"acter":4717,"Ġappello":4718,"Ġappena":4719,"Ġappoint":4720,"Ġappuntamento":4721,"Ġallo":4722,"ference":4723,"ĠGo":4724,"ĠComunitÃł":4725,"irÃł":4726,"ĠFai":4727,"ĠFurther":4728,"Ġwhy":4729,"ĠWhile":4730,"Ġscale":4731,"Ġscala":4732,"Ġscoper":4733,"Ġscuole":4734,"perti":4735,"ĠAlways":4736,"contro":4737,"ĠUfficio":4738,"depth":4739,"bili":4740,"bilitÃł":4741,"ĠNot":4742,"ĠNetwork":4743,"imp":4744,"Ġspazi":4745,"Ġricerc":4746,"duzione":4747,"ĠYour":4748,"Ġcoin":4749,"Ġcopertura":4750,"Ġcollabor":4751,"Ġcorrisp":4752,"Ġdiscip":4753,"ĠOff":4754,"ĠOpen":4755,"ĠOther":4756,"Ġesp":4757,"Ġeserc":4758,"Ġestivi":4759,"Ġespri":4760,"Ġesperti":4761,"ray":4762,"raio":4763,"assy":4764,"assegn":4765,"ureati":4766,"Ġpurs":4767,"Ġitem":4768,"mbassy":4769,"Ġpresenti":4770,"Ġpresence":4771,"ĠRom":4772,"ĠRome":4773,"Ġnote":4774,"igital":4775,"voli":4776,"Ġacquis":4777,"Ġprior":4778,"thing":4779,"throp":4780,"lete":4781,"ĠQuanto":4782,"Ġgrant":4783,"Ġexamination":4784,"Ġregulations":4785,"Ġregole":4786,"Ġconsum":4787,"Ġconserv":4788,"Ġconsist":4789,"missari":4790,"Ġchances":4791,"Ġmotivazione":4792,"Ġtiene":4793,"Ġcreativ":4794,"ritten":4795,"Ġcompleto":4796,"Ġinterv":4797,"Ġinteramente":4798,"Ġinteressi":4799,"Ġinterbibliotec":4800,"aduates":4801,"Ġofferte":4802,"Ġrestitu":4803,"Ġresult":4804,"Ġresource":4805,"Ġgift":4806,"Ġtry":4807,"Ġtrust":4808,"Ġtrack":4809,"ĠPermesso":4810,"zzato":4811,"Ġtax":4812,"Ġsoft":4813,"laureato":4814,"Ġrim":4815,"Ġrifi":4816,"Ġriduzione":4817,"Ġteach":4818,"ĠMasters":4819,"Ġarch":4820,"Ġarticoli":4821,"Ġarray":4822,"ologies":4823,"Ġrequires":4824,"Ġinstead":4825,"ghts":4826,"antemente":4827,"Ġworkst":4828,"Ġworkplace":4829,"Ġclose":4830,"Ġenab":4831,"Ġwebpage":4832,"Ġviable":4833,"Ġplur":4834,"Ġassets":4835,"Ġsostitu":4836,"Ġcaratter":4837,"Ġanywhere":4838,"Ġanything":4839,"Ġemailed":4840,"ĠOnce":4841,"âĢĿ":4842,"Ġcontent":4843,"ĠEntro":4844,"ĠContratto":4845,"Ġimpegn":4846,"Ġimplement":4847,"class":4848,"Ġotten":4849,"ĠVIS":4850,"Ġprofessionisti":4851,"Ġtuttavia":4852,"obiet":4853,"Ġamministr":4854,"Ġrecru":4855,"ultane":4856,"opzione":4857,"aggiare":4858,"Ġshow":4859,"getti":4860,"Ġverranno":4861,"Ġpratica":4862,"bbraio":4863,"Ġselezioni":4864,"acchi":4865,"ards":4866,"arded":4867,"Ġformer":4868,"Ġaiuter":4869,"Ġaiuta":4870,"ĠForm":4871,"Ġsubject":4872,"Ġsubscri":4873,"Ġconsiderati":4874,"Ġconsideration":4875,"Ġconsiderato":4876,"Ġconsiderata":4877,"venzioni":4878,"Ġquestion":4879,"Ġcredito":4880,"ĠJanuary":4881,"Ġspecifically":4882,"ĠSchools":4883,"ĠThat":4884,"ĠThese":4885,"Ġorganization":4886,"Ġparticipation":4887,"Ġindesider":4888,"Ġlinks":4889,"eleration":4890,"Ġperiodici":4891,"Ġdesk":4892,"Ġexpect":4893,"Ġexpected":4894,"Ġpresentate":4895,"Ġpresentato":4896,"Ġpresentazione":4897,"urriculari":4898,"Ġpagare":4899,"Ġelement":4900,"Ġelse":4901,"Ġelenco":4902,"Ġelectronic":4903,"Ġelementi":4904,"Ġdiret":4905,"Ġhowever":4906,"Ġdifference":4907,"Ġnecessary":4908,"Ġchiam":4909,"Ġchiedere":4910,"Ġchiaramente":4911,"Ġlinguaggio":4912,"Ġfactors":4913,"Ġgenera":4914,"Ġgeneration":4915,"Ġgenerale":4916,"azionali":4917,"Ġcosti":4918,"Ġutile":4919,"ficialmente":4920,"ewspapers":4921,"Ġjunk":4922,"Ġhelps":4923,"turato":4924,"Ġoutside":4925,"Ġcertified":4926,"Ġeconomico":4927,"Ġtrovato":4928,"ĠAss":4929,"ĠAccedi":4930,"Ġvariano":4931,"ĠWeb":4932,"Ġcompetence":4933,"Ġapproved":4934,"Ġapproccio":4935,"Ġrichiesti":4936,"Ġinfo":4937,"Ġmette":4938,"Ġchoices":4939,"Ġtenuto":4940,"Ġtimes":4941,"Ġtimetable":4942,"Ġobj":4943,"Ġconfig":4944,"ĠAnd":4945,"ĠArea":4946,"Ġprivato":4947,"Ġgrado":4948,"Ġcertificazioni":4949,"Ġdedicate":4950,"Ġdedicato":4951,"Ġsitu":4952,"Ġphone":4953,"Ġphilan":4954,"Ġphotocop":4955,"Ġphenom":4956,"Ġalcuna":4957,"Ġalcune":4958,"abilitÃł":4959,"Ġaccademiche":4960,"Ġroles":4961,"Ġpaesi":4962,"Ġpapers":4963,"Ġsupports":4964,"Ġsupporting":4965,"Ġtranslate":4966,"Ġscienze":4967,"Ġmoment":4968,"Ġfornendo":4969,"Ġufficialmente":4970,"Ġpubblico":4971,"ĠQualsiasi":4972,"Ġtitolare":4973,"Ġsoggetti":4974,"ennaio":4975,"Ġlogging":4976,"Ġnulla":4977,"Ġforniti":4978,"Ġsuccesso":4979,"Ġabbonamento":4980,"Ġselezionato":4981,"rudenza":4982,"Ġlimite":4983,"Ġfully":4984,"ediamo":4985,"Ġproprie":4986,"ĠStanza":4987,"Ġthanks":4988,"Ġentry":4989,"Ġverify":4990,"Ġindicato":4991,"Ġmaterial":4992,"Ġmateriale":4993,"Ġfrequentanti":4994,"Ġmultidisciplinary":4995,"Ġproblema":4996,"Ġproblems":4997,"Ġterrit":4998,"Ġtermin":4999,"asciata":5000,"ĠTrack":5001,"Ġcomunque":5002,"Ġaccettati":5003,"formazione":5004,"ĠChapters":5005,"Ġaimed":5006,"Ġopzioni":5007,"Ġacquiring":5008,"Ġdescrizioni":5009,"Ġdescription":5010,"Ġmodels":5011,"Ġavrai":5012,"Ġavanz":5013,"Ġapertura":5014,"anged":5015,"anging":5016,"Ġsimultane":5017,"Ġinnovation":5018,"ĠScopri":5019,"riennali":5020,"Ġsupply":5021,"ĠConnect":5022,"Ġmethod":5023,"Ġnuovamente":5024,"Ġluogo":5025,"Ġmembership":5026,"Ġdimmi":5027,"Ġhighly":5028,"Ġconnected":5029,"Ġgoal":5030,"Ġidee":5031,"ĠDurante":5032,"Ġmailbox":5033,"Ġinterviewers":5034,"Ġuniversitari":5035,"Ġeventuali":5036,"ĠConsul":5037,"Ġmanageriale":5038,"Ġscelte":5039,"Ġpurpose":5040,"Ġclick":5041,"Ġintroduction":5042,"Ġmedico":5043,"ĠReport":5044,"Ġactivate":5045,"Ġperspectives":5046,"Ġsociali":5047,"Ġrigoroso":5048,"Ġorganizzate":5049,"Ġaiutare":5050,"ĠresponsabilitÃł":5051,"Ġlimited":5052,"Ġtype":5053,"Ġcittad":5054,"Ġfatto":5055,"Ġfattura":5056,"ilding":5057,"iliar":5058,"ĠClub":5059,"Ġreplace":5060,"ĠDesign":5061,"Ġaspir":5062,"Ġdispositi":5063,"Ġentrepreneurial":5064,"Ġstrategy":5065,"Ġstrategia":5066,"Ġcomunicazione":5067,"Ġelettronica":5068,"Students":5069,"Ġaffect":5070,"Ġoperate":5071,"Ġoperations":5072,"Ġmolte":5073,"Ġbecome":5074,"Ġconcord":5075,"Ġguest":5076,"Ġalternativa":5077,"Ġrapporto":5078,"tract":5079,"Ġcoverage":5080,"Ġpianificazione":5081,"Ġusufru":5082,"Ġcharacter":5083,"Ġinstruments":5084,"Ġstrutturato":5085,"Ġnotice":5086,"Ġequivalente":5087,"identitÃł":5088,"Ġutente":5089,"ĠâĢľ":5090,"Ġsteps":5091,"Ġcivile":5092,"Ġfilled":5093,"Ġbox":5094,"ĠClicca":5095,"ĠFebru":5096,"ĠOrientamento":5097,"Ġinteresse":5098,"Ġinteressato":5099,"Ġidentificativo":5100,"Ġpurchasing":5101,"Ġemployment":5102,"Ġdynamic":5103,"which":5104,"Ġintenso":5105,"Ġintense":5106,"Ġlinea":5107,"Ġfondata":5108,"Ġreduced":5109,"Ġreduction":5110,"ĠMoreover":5111,"ĠGiuri":5112,"Ġdiscover":5113,"Ġregular":5114,"Ġconsentito":5115,"ĠconsentirÃł":5116,"Ġtradition":5117,"Ġtradurre":5118,"Ġtextbooks":5119,"Ġrecogni":5120,"Ġfavor":5121,"Ġobiettivo":5122,"Ġconfirm":5123,"Ġconfirmation":5124,"Ġoverlapping":5125,"Ġfunction":5126,"Ġimprenditoriale":5127,"Financial":5128,"student":5129,"Ġaula":5130,"Ġaule":5131,"ankings":5132,"Ġcarefully":5133,"Ġcostantemente":5134,"Ġcalled":5135,"atural":5136,"Ġlectures":5137,"Ġfondi":5138,"Ġfosters":5139,"Ġdidattico":5140,"Ġprodotto":5141,"economia":5142,"Ġreasoning":5143,"ĠPaese":5144,"ĠPotrÃ²":5145,"Ġistituto":5146,"Ġappartamento":5147,"Ġappartamenti":5148,"Ġscrittura":5149,"Ġarrange":5150,"Ġarranged":5151,"Ġinserisci":5152,"Ġassegnati":5153,"Ġcontinue":5154,"ĠVisita":5155,"Ġrelationship":5156,"Ġrelationships":5157,"Ġresponsible":5158,"Ġresponsibility":5159,"Ġcolleghi":5160,"Ġtechnical":5161,"Ġtechnologies":5162,"Ġchallenges":5163,"Ġchallenging":5164,"Ġentirely":5165,"ĠResidence":5166,"ĠResidenze":5167,"autorizzazione":5168,"Ġawarded":5169,"Ġincre":5170,"Ġinsieme":5171,"Ġflessi":5172,"Ġdepends":5173,"Ġhistory":5174,"ĠParlami":5175,"Ġpercorso":5176,"Ġistruzioni":5177,"ĠLearn":5178,"Ġbelong":5179,"Ġexperiences":5180,"Ġparticular":5181,"Ġstatement":5182,"ĠUlteriori":5183,"ĠProfess":5184,"Ġpublished":5185,"Ġprime":5186,"Ġconsists":5187,"Ġchanges":5188,"Ġarticles":5189,"ĠNovember":5190,"Ġencour":5191,"ĠEntertainment":5192,"Ġindipendente":5193,"alizzazione":5194,"Ġobligatory":5195,"Ġmultipli":5196,"Ġscrivendo":5197,"Ġtypically":5198,"Ġguarantee":5199,"ĠInstitutions":5200,"Ġerror":5201,"Ġsovrapposti":5202,"Ġbibliogra":5203,"Corporate":5204,"Spring":5205,"Ġtasse":5206,"Ġdottorandi":5207,"Ġsectors":5208,"Ġsanitaria":5209,"Ġclearly":5210,"alloggio":5211,"Ġinvesti":5212,"istituzione":5213,"Ġfamiliar":5214,"Ġflexible":5215,"Ġmenu":5216,"Ġprospettive":5217,"ettiamo":5218,"Ġreturn":5219,"Ġcontrario":5220,"Ġgaranti":5221,"Ġcommitment":5222,"Ġrules":5223,"Ġexperts":5224,"Ġcompreso":5225,"ĠFaculty":5226,"Ġesperienze":5227,"ĠRisorse":5228,"Ġmotivation":5229,"Ġrimborso":5230,"Ġridotta":5231,"Ġartistic":5232,"Ġimpostare":5233,"ĠCompila":5234,"Ġexplore":5235,"Ġcommunications":5236,"Ġluggage":5237,"Ġdigitale":5238,"Ġraccogliere":5239,"Ġschermata":5240,"Ambasciata":5241,"QUIS":5242,"gotten":5243,"Ġtarget":5244,"Ġtariff":5245,"Ġserie":5246,"Ġcustom":5247,"Ġinvoice":5248,"Ġindependent":5249,"Ġfounder":5250,"Ġfilantro":5251,"Ġmacro":5252,"Ġmira":5253,"Ġdirig":5254,"Ġwords":5255,"Ġdeadline":5256,"Ġofficially":5257,"ashion":5258,"ĠCourse":5259,"ĠSelection":5260,"Ġredirect":5261,"Ġrelazioni":5262,"ĠMaggiori":5263,"ĠAugust":5264,"ĠPASS":5265,"Ġpermette":5266,"ĠLuigi":5267,"urisprudenza":5268,"ĠWelcome":5269,"ĠDatabase":5270,"ĠInserisci":5271,"ĠHalls":5272,"Ġappointment":5273,"Ġscoperta":5274,"Ġricerche":5275,"Ġdiscipline":5276,"Ġesercitarmi":5277,"missariato":5278,"Ġinterbibliotecario":5279,"Ġrifiutare":5280,"ĠVISA":5281,"obiettivo":5282,"Ġindesiderata":5283,"Ġphenomena":5284,"Ġusufruire":5285,"ĠFebruary":5286,"\",":5287,"%.":5288,"',":5289,"'.":5290,"):":5291,"/?":5292,"02":5293,"06":5294,"08":5295,"13":5296,"14":5297,"15":5298,"18":5299,"19":5300,"200":5301,"36":5302,"39":5303,"500":5304,"650":5305,"614":5306,"700":5307,"803":5308,"98":5309,"AL":5310,"AM":5311,"Avail":5312,"AMBA":5313,"AAC":5314,"Bad":5315,"Blackboard":5316,"BEC":5317,"CP":5318,"CS":5319,"Con":5320,"Com":5321,"CTS":5322,"CPE":5323,"CEMS":5324,"China":5325,"DC":5326,"Du":5327,"Digital":5328,"EE":5329,"Es":5330,"Eust":5331,"Embassy":5332,"EQUIS":5333,"FOR":5334,"Fashion":5335,"Global":5336,"IL":5337,"Il":5338,"IELTS":5339,"KUS":5340,"La":5341,"LIN":5342,"Libri":5343,"MD":5344,"Master":5345,"Malpensa":5346,"NT":5347,"NDA":5348,"Newspapers":5349,"NLIN":5350,"OS":5351,"Offer":5352,"Other":5353,"Organi":5354,"Pal":5355,"Pol":5356,"Post":5357,"Please":5358,"Pell":5359,"PTE":5360,"Print":5361,"RL":5362,"Rco":5363,"SB":5364,"SO":5365,"Sem":5366,"Uni":5367,"Via":5368,"WOR":5369,"Year":5370,"ail":5371,"aff":5372,"aving":5373,"be":5374,"bi":5375,"bal":5376,"bis":5377,"bus":5378,"bolo":5379,"back":5380,"bloomberg":5381,"bagagli":5382,"cli":5383,"col":5384,"cess":5385,"cto":5386,"career":5387,"cita":5388,"centrale":5389,"dy":5390,"date":5391,"dono":5392,"dence":5393,"dano":5394,"days":5395,"demand":5396,"diche":5397,"detail":5398,"dinando":5399,"datastream":5400,"ey":5401,"ecc":5402,"eking":5403,"fts":5404,"gn":5405,"gno":5406,"gazione":5407,"gerti":5408,"global":5409,"gulations":5410,"hl":5411,"hen":5412,"hic":5413,"home":5414,"hance":5415,"if":5416,"iente":5417,"ieg":5418,"ipar":5419,"ionamento":5420,"iatura":5421,"ikon":5422,"ki":5423,"ling":5424,"less":5425,"lectronic":5426,"mal":5427,"moni":5428,"mere":5429,"more":5430,"mers":5431,"messi":5432,"menc":5433,"nali":5434,"national":5435,"neg":5436,"network":5437,"ok":5438,"ove":5439,"ogli":5440,"odul":5441,"oglio":5442,"pa":5443,"pm":5444,"pr":5445,"pes":5446,"pone":5447,"ply":5448,"pir":5449,"pts":5450,"pond":5451,"paying":5452,"public":5453,"ry":5454,"ris":5455,"ras":5456,"rere":5457,"rilasci":5458,"ranked":5459,"raduates":5460,"rbis":5461,"sw":5462,"son":5463,"sum":5464,"sono":5465,"ste":5466,"spe":5467,"singl":5468,"stract":5469,"tamente":5470,"tled":5471,"ues":5472,"ual":5473,"usi":5474,"urom":5475,"uct":5476,"utions":5477,"uover":5478,"udit":5479,"uilding":5480,"vati":5481,"vate":5482,"vance":5483,"vanti":5484,"wise":5485,"written":5486,"xy":5487,"xts":5488,"xchange":5489,"xury":5490,"you":5491,"zer":5492,"zen":5493,"zing":5494,"zona":5495,"Ëļ":5496,"Ġ#":5497,"Ġ&":5498,"Ġ+":5499,"Ġ.":5500,"Ġ/":5501,"Ġic":5502,"Ġve":5503,"Ġente":5504,"Ġera":5505,"Ġ...":5506,"Ġ06":5507,"Ġzona":5508,"onde":5509,"onna":5510,"Ġali":5511,"Ġauto":5512,"Ġtesti":5513,"Ġtriennali":5514,"eric":5515,"ered":5516,"ersi":5517,"ervazione":5518,"erdinando":5519,"ines":5520,"inum":5521,"inam":5522,"inato":5523,"inno":5524,"inde":5525,"inting":5526,"inchÃ©":5527,"invio":5528,"anch":5529,"anci":5530,"anning":5531,"anneg":5532,"reational":5533,"reach":5534,"regulations":5535,"Ġdos":5536,"Ġdare":5537,"Ġdone":5538,"ĠdÃł":5539,"Ġdato":5540,"Ġdrop":5541,"Ġdenom":5542,"Ġdenun":5543,"Ġdinam":5544,"Ġdanneg":5545,"Ġsti":5546,"Ġsom":5547,"Ġsqu":5548,"Ġsale":5549,"Ġsiti":5550,"Ġshel":5551,"Ġstim":5552,"ĠsÃ¬":5553,"Ġsedi":5554,"Ġsources":5555,"Ġsource":5556,"Ġship":5557,"Ġsabato":5558,"ened":5559,"enzioni":5560,"enire":5561,"enica":5562,"enya":5563,"Ġpw":5564,"Ġpes":5565,"Ġpop":5566,"Ġpuls":5567,"tir":5568,"Ġcu":5569,"Ġcer":5570,"Ġcic":5571,"Ġciti":5572,"Ġcamp":5573,"Ġcould":5574,"Ġcerca":5575,"Ġcentr":5576,"Ġcache":5577,"Ġcyc":5578,"este":5579,"estern":5580,"estic":5581,"esito":5582,"esco":5583,"orti":5584,"ordi":5585,"orno":5586,"orgio":5587,"orical":5588,"orna":5589,"orrei":5590,"aldi":5591,"altern":5592,"alitÃł":5593,"altro":5594,"Ġincomp":5595,"Ġintelligence":5596,"rore":5597,"rova":5598,"ropic":5599,"roving":5600,"roid":5601,"roaches":5602,"itary":5603,"itates":5604,"itante":5605,"italia":5606,"itecn":5607,"Ġtheore":5608,"attu":5609,"atch":5610,"atale":5611,"atini":5612,"attamento":5613,"atinum":5614,"ote":5615,"ots":5616,"otel":5617,"otopic":5618,"ican":5619,"icals":5620,"icembre":5621,"unc":5622,"une":5623,"unting":5624,"ister":5625,"ista":5626,"isten":5627,"istics":5628,"isse":5629,"istiche":5630,"istici":5631,"issertations":5632,"aration":5633,"arib":5634,"arci":5635,"arle":5636,"arta":5637,"arlo":5638,"arily":5639,"arbu":5640,"arzo":5641,"Ġlas":5642,"Ġleng":5643,"Ġlose":5644,"lly":5645,"lling":5646,"llicani":5647,"Ġfal":5648,"Ġfit":5649,"Ġflo":5650,"Ġfase":5651,"Ġfile":5652,"Ġfasi":5653,"Ġfisc":5654,"Ġframework":5655,"cco":5656,"ented":5657,"entra":5658,"Ġann":5659,"Ġansw":5660,"Ġopp":5661,"Ġopt":5662,"Ġedi":5663,"onimo":5664,"Ġmer":5665,"Ġmone":5666,"Ġmus":5667,"Ġmarch":5668,"Ġmagistr":5669,"Ġmotto":5670,"Ġmaggio":5671,"atiche":5672,"Ġdieci":5673,"Ġdiary":5674,"Ġdiverso":5675,"Ġdiploma":5676,"Ġdiritti":5677,"Ġdivided":5678,"omo":5679,"omalpensa":5680,"Ġwp":5681,"Ġwai":5682,"ility":5683,"ilica":5684,"edire":5685,"edÃ¬":5686,"eduti":5687,"edback":5688,"ĠISO":5689,"ĠIlly":5690,"Ġdeal":5691,"Ġdele":5692,"Ġdetermin":5693,"occhi":5694,"Ġoften":5695,"ĠBe":5696,"ĠBy":5697,"ĠBig":5698,"ĠBook":5699,"ĠBEC":5700,"ĠBuilding":5701,"Ġprob":5702,"Ġpromo":5703,"Ġpropone":5704,"Ġproxy":5705,"Ġbl":5706,"Ġbocconi":5707,"Ġblackboard":5708,"Ġbache":5709,"Ġborsa":5710,"Ġbanche":5711,"Ġbatch":5712,"Ġnas":5713,"Ġness":5714,"Ġnow":5715,"Ġnur":5716,"Ġnoi":5717,"Ġnature":5718,"Ġnatura":5719,"Ġnatural":5720,"tual":5721,"tualmente":5722,"osi":5723,"osen":5724,"osta":5725,"osest":5726,"osita":5727,"tere":5728,"asy":5729,"ased":5730,"ece":5731,"ecourses":5732,"ettazione":5733,"ething":5734,"ĠCor":5735,"ĠCad":5736,"ĠCir":5737,"ĠCurricul":5738,"ĠCup":5739,"ĠCredit":5740,"ĠCatt":5741,"ĠCras":5742,"liare":5743,"lide":5744,"life":5745,"ĠSu":5746,"ĠSec":5747,"ĠSol":5748,"ĠSund":5749,"ĠSant":5750,"ĠSeri":5751,"ĠSAT":5752,"ĠStazione":5753,"ĠSIM":5754,"ĠSatur":5755,"ĠSummer":5756,"ĠSabb":5757,"ĠSDC":5758,"ĠSRL":5759,"ĠSki":5760,"Ġreali":5761,"Ġreac":5762,"Ġregi":5763,"Ġreach":5764,"Ġrepe":5765,"Ġrevol":5766,"Ġreject":5767,"Ġreview":5768,"Ġrealis":5769,"Ġreapply":5770,"sioni":5771,"simo":5772,"Ġhi":5773,"Ġhis":5774,"Ġhotel":5775,"ĠMond":5776,"ĠMach":5777,"ĠMost":5778,"ĠMarch":5779,"ĠMaggio":5780,"ĠModul":5781,"riviste":5782,"Ġconvers":5783,"Ġconversi":5784,"Ġconduct":5785,"empor":5786,"emember":5787,"ĠAut":5788,"ĠAmer":5789,"ĠAid":5790,"ĠATM":5791,"ĠPC":5792,"ĠPart":5793,"ĠPIN":5794,"ĠPrint":5795,"ĠPublic":5796,"ĠPeking":5797,"Ġperso":5798,"Ġperks":5799,"Ġpertanto":5800,"aged":5801,"agement":5802,"agire":5803,"oldo":5804,"olica":5805,"oltÃł":5806,"olinate":5807,"quest":5808,"Ġforte":5809,"Ġforza":5810,"Ġlaunch":5811,"ibility":5812,"ada":5813,"ade":5814,"ading":5815,"adesi":5816,"Ġgame":5817,"Ġground":5818,"Ġgovernment":5819,"uso":5820,"ĠTab":5821,"ĠTass":5822,"ĠToo":5823,"Ġonce":5824,"ula":5825,"ulare":5826,"ulgazione":5827,"aliano":5828,"alize":5829,"ciale":5830,"cious":5831,"max":5832,"making":5833,"lef":5834,"letion":5835,"Ġthus":5836,"iov":5837,"ateway":5838,"Ġill":5839,"ĠiOS":5840,"Ġatten":5841,"Ġattivi":5842,"soffice":5843,"Ġcoming":5844,"tax":5845,"llabus":5846,"ĠLos":5847,"ĠLore":5848,"ĠLibri":5849,"dies":5850,"diale":5851,"diamo":5852,"Ġvalore":5853,"Ġvenire":5854,"Ġvorrei":5855,"tee":5856,"tello":5857,"tegno":5858,"Ġlezione":5859,"Ġlegg":5860,"Ġleave":5861,"illb":5862,"illc":5863,"illj":5864,"Ġalto":5865,"Ġalumnus":5866,"Ġalberg":5867,"Ġsuoi":5868,"ĠECTS":5869,"ĠEikon":5870,"ĠElectronic":5871,"ĠEurom":5872,"ĠEcco":5873,"Ġrile":5874,"Ġranked":5875,"Ġranging":5876,"Ġorario":5877,"Ġaree":5878,"Ġposting":5879,"Ġpostazione":5880,"ternal":5881,"ficate":5882,"fications":5883,"ficant":5884,"uring":5885,"ĠWork":5886,"ĠWestern":5887,"tional":5888,"Ġprevia":5889,"Ġpreved":5890,"Ġprelimin":5891,"Ġdoct":5892,"Ġnello":5893,"ends":5894,"ending":5895,"Ġexist":5896,"Ġexecu":5897,"Ġexclusi":5898,"Ġexceed":5899,"andono":5900,"andard":5901,"andbook":5902,"Ġaccessi":5903,"Ġaccedi":5904,"Ġaccumul":5905,"Ġaccettiamo":5906,"inexchange":5907,"ĠDay":5908,"ĠDoc":5909,"ĠDue":5910,"ĠDetail":5911,"ĠDatastream":5912,"ĠDicembre":5913,"ĠDissertations":5914,"Ġcompati":5915,"Ġcomput":5916,"Ġcompres":5917,"Ġcompren":5918,"Ġcomplement":5919,"Ġcomplex":5920,"Ġcomputing":5921,"Ġcomposto":5922,"Ġcompletion":5923,"forgotten":5924,"ĠHa":5925,"ĠHist":5926,"ĠHong":5927,"ĠHousing":5928,"ĠHigher":5929,"ĠHey":5930,"ĠHandbook":5931,"Ġquel":5932,"Ġquoti":5933,"Ġquella":5934,"Ġquelli":5935,"aces":5936,"Ġappos":5937,"Ġappelli":5938,"Ġpari":5939,"Ġpartic":5940,"Ġalloc":5941,"ĠGob":5942,"ĠGiv":5943,"ĠGennaio":5944,"ĠGarib":5945,"ĠGateway":5946,"ĠCommit":5947,"ĠCommer":5948,"ĠCommenc":5949,"Ġdelay":5950,"tton":5951,"utes":5952,"ĠFr":5953,"ĠFill":5954,"ĠFond":5955,"ĠFundament":5956,"ĠFound":5957,"ĠFramework":5958,"ĠFCE":5959,"ĠFerdinando":5960,"Ġstate":5961,"Ġstanno":5962,"Ġstessi":5963,"Ġstatis":5964,"Ġstanze":5965,"Ġstandard":5966,"ĠMBAs":5967,"geles":5968,"geboard":5969,"Ġscru":5970,"Ġscopri":5971,"Ġscaff":5972,"perations":5973,"permal":5974,"peritalia":5975,"ĠAlum":5976,"Ġmaking":5977,"lication":5978,"sions":5979,"content":5980,"ĠUS":5981,"ĠUsu":5982,"ĠUpon":5983,"ĠUniti":5984,"ĠnonchÃ©":5985,"depos":5986,"gie":5987,"giate":5988,"tenste":5989,"ĠNor":5990,"ĠNON":5991,"Ġsport":5992,"Ġspesso":5993,"Ġspace":5994,"Ġspedire":5995,"ticed":5996,"tically":5997,"Ġricre":5998,"duli":5999,"ducia":6000,"Ġufficio":6001,"Ġcode":6002,"Ġcopri":6003,"Ġcoaching":6004,"Ġcodice":6005,"Ġcook":6006,"Ġcorres":6007,"Ġcorrect":6008,"Ġdisting":6009,"Ġdiscipl":6010,"Ġdissertations":6011,"Ġ118":6012,"ĠProcess":6013,"ĠOf":6014,"ĠOffer":6015,"ĠOltre":6016,"ĠOrgani":6017,"ĠONLIN":6018,"ĠOcto":6019,"ĠOrbis":6020,"ĠOperations":6021,"Ġesist":6022,"Ġespl":6023,"Ġesenzioni":6024,"Ġabove":6025,"Ġadmin":6026,"ured":6027,"uree":6028,"orial":6029,"oriented":6030,"glia":6031,"mbol":6032,"anocentrale":6033,"Ġpresele":6034,"Ġfiducia":6035,"Ġfinanza":6036,"Ġcandidature":6037,"Ġcandidarsi":6038,"Ġcandidatura":6039,"egno":6040,"ĠRico":6041,"ĠRavi":6042,"ĠRankings":6043,"ĠRemember":6044,"Ġnotare":6045,"Ġnothing":6046,"ogle":6047,"Ġacq":6048,"Ġacts":6049,"Ġpipe":6050,"three":6051,"thropic":6052,"Ġ22":6053,"Ġ29":6054,"ĠQuale":6055,"ĠQuanti":6056,"Ġgrazi":6057,"Ġgrandi":6058,"ecting":6059,"Ġpersegu":6060,"Ġusare":6061,"Ġregolamento":6062,"Ġregalo":6063,"Ġregolamenti":6064,"ondemand":6065,"Ġconsent":6066,"Ġconsegn":6067,"Ġconsape":6068,"Ġconservazione":6069,"Ġchapter":6070,"Ġchosen":6071,"essions":6072,"ourism":6073,"Ġmoduli":6074,"Ġtip":6075,"Ġcreated":6076,"icherÃł":6077,"Ġapplicare":6078,"Ġapplicazioni":6079,"munity":6080,"Ġcompletando":6081,"Ġcompletamente":6082,"Ġcompletamento":6083,"Ġinterac":6084,"Ġinterfer":6085,"Ġinterdisciplinary":6086,"Ġinteract":6087,"Ġinteragire":6088,"Ġdaily":6089,"Ġdura":6090,"Ġoffering":6091,"Ġgifts":6092,"Ġspecified":6093,"Ġspecialized":6094,"Ġspecifying":6095,"Ġesserti":6096,"Ġessendo":6097,"Ġside":6098,"ĠPerio":6099,"ĠPerson":6100,"Ġdomenica":6101,"Ġpersona":6102,"Ġpersonalized":6103,"Ġsemplic":6104,"tivitÃł":6105,"laurea":6106,"lavoro":6107,"Ġriun":6108,"Ġriport":6109,"Ġriman":6110,"Ġriviste":6111,"Ġrights":6112,"Ġritir":6113,"Ġriesco":6114,"Ġevening":6115,"Ġtexts":6116,"Ġtelef":6117,"engono":6118,"Ġago":6119,"Ġagain":6120,"Ġfebbraio":6121,"Ġfeedback":6122,"Ġarts":6123,"Ġsets":6124,"Ġsettori":6125,"Ġprocedere":6126,"ducation":6127,"Ġinst":6128,"Ġmylibrary":6129,"ĠmyPrint":6130,"antage":6131,"Ġavailabil":6132,"Ġclosed":6133,"Ġclosest":6134,"Ġpossiamo":6135,"Ġenhance":6136,"ademico":6137,"Ġwebin":6138,"Ġrichiediamo":6139,"Ġviale":6140,"Ġvide":6141,"Ġviaggiare":6142,"Ġplay":6143,"Ġstars":6144,"Ġsostiene":6145,"Ġsostegno":6146,"Ġcaric":6147,"Ġcarico":6148,"ĠcaricherÃł":6149,"Ġanyone":6150,"ĠInternazionali":6151,"ĠScienze":6152,"ĠEnric":6153,"ĠdisponibilitÃł":6154,"ĠConcepts":6155,"ĠConference":6156,"Ġimproving":6157,"001":6158,"pellicani":6159,"ĠVantage":6160,"tituite":6161,"erservice":6162,"Ġstrate":6163,"Ġbusinesses":6164,"libri":6165,"Ġtutorial":6166,"Ġammissi":6167,"Ġammessi":6168,"timento":6169,"timetable":6170,"Ġrecreational":6171,"opoldo":6172,"visti":6173,"visione":6174,"aggiati":6175,"Ġshar":6176,"Ġshown":6177,"Ġliving":6178,"aporto":6179,"aphic":6180,"Ġvertic":6181,"Ġprinting":6182,"bbiamo":6183,"Ġaccessed":6184,"Ġsecondo":6185,"accordo":6186,"accettazione":6187,"ext":6188,"exams":6189,"ongono":6190,"Ġformative":6191,"Ġformativi":6192,"Ġriserv":6193,"Ġrisorsa":6194,"cks":6195,"ĠUnits":6196,"Ġtravel":6197,"Ġpassare":6198,"Ġpassaporto":6199,"Ġsubmission":6200,"Ġconsiderazione":6201,"colle":6202,"codici":6203,"codes":6204,"Ġpoor":6205,"Ġpoint":6206,"Ġunderta":6207,"ĠPossono":6208,"Ġquestura":6209,"trepreneu":6210,"Ġautorizzazione":6211,"Ġeducativo":6212,"Ġmid":6213,"ĠJune":6214,"ĠPhys":6215,"Ġperiodi":6216,"lopedi":6217,"Ġspecifica":6218,"Ġspecifiche":6219,"Ġspecificando":6220,"comes":6221,"community":6222,"ives":6223,"pens":6224,"Ġpotenziali":6225,"edica":6226,"ĠStudi":6227,"ĠStudenti":6228,"Ġorganizes":6229,"EFMD":6230,"nowledge":6231,"ubscri":6232,"llegiate":6233,"Ġmeeting":6234,"Ġmeetings":6235,"Ġmeasure":6236,"Ġfinding":6237,"ĠQualification":6238,"Ġregistering":6239,"Ġrelativa":6240,"Ġrelativi":6241,"ĠAdvis":6242,"ĠAdvance":6243,"Ġattivamente":6244,"ĠLeaders":6245,"ĠLeopoldo":6246,"Ġexpand":6247,"Ġexpla":6248,"Ġexpose":6249,"Ġexposure":6250,"formatica":6251,"Ġpresentation":6252,"Ġpresentations":6253,"Ġpresentazioni":6254,"Ġpages":6255,"Ġpagine":6256,"Ġpaganti":6257,"Ġcasa":6258,"Ġcasi":6259,"Ġcases":6260,"Ġelite":6261,"Ġelective":6262,"ĠqualitÃł":6263,"oung":6264,"Ġstazione":6265,"Ġmatch":6266,"Ġmathematics":6267,"Ġsemesters":6268,"foreducation":6269,"priate":6270,"ĠEuropa":6271,"Ġchecked":6272,"Ġcheckouts":6273,"Ġprocesses":6274,"Ġprocessuale":6275,"Ġnecessarily":6276,"Ġsarai":6277,"Ġchied":6278,"Ġchiesto":6279,"Ġchiunque":6280,"Ġiniziale":6281,"Ġlingue":6282,"Ġlinguistici":6283,"Ġwebsites":6284,"Ġcontatt":6285,"Ġcostituite":6286,"Ġmind":6287,"Ġdevice":6288,"ĠChinese":6289,"Ġhomepage":6290,"Ġlawyers":6291,"Ġricevi":6292,"bocconiexchange":6293,"fies":6294,"picamente":6295,"vole":6296,"Ġsomebo":6297,"Ġinvia":6298,"Ġinviata":6299,"Ġinviando":6300,"Ġinvieremo":6301,"Ġcontacted":6302,"minimum":6303,"Ġeconomici":6304,"Ġbasa":6305,"Ġregistrare":6306,"Ġregistrate":6307,"Ġregistrata":6308,"blackboard":6309,"porto":6310,"space":6311,"ansnational":6312,"ĠAccelerator":6313,"ĠAcceleration":6314,"ĠAccademico":6315,"Ġvolont":6316,"Ġvolunte":6317,"Ġvarie":6318,"Ġvariare":6319,"ĠvarietÃł":6320,"ĠWeek":6321,"Ġcompetenza":6322,"Ġcopie":6323,"Ġcopies":6324,"Ġrequests":6325,"Ġmodelling":6326,"Ġnumerose":6327,"Ġnumerica":6328,"Ġutilizza":6329,"Ġutilizzi":6330,"appro":6331,"apposita":6332,"application":6333,"Ġ40":6334,"Ġ48":6335,"Ġ400":6336,"Ġ413":6337,"Ġapprovi":6338,"Ġapproves":6339,"Ġappropriate":6340,"Ġrichieste":6341,"Ġ60":6342,"Ġ65":6343,"Ġ69":6344,"Ġinfotopic":6345,"Ġfai":6346,"Ġface":6347,"Ġmeto":6348,"ĠmetÃł":6349,"Ġiscrivo":6350,"Ġvalues":6351,"Ġvaluation":6352,"Ġdoesn":6353,"Ġnewspapers":6354,"such":6355,"Ġtenendo":6356,"enziale":6357,"ĠAngeles":6358,"Ġlevels":6359,"Ġprivata":6360,"Ġuseful":6361,"Ġcertifications":6362,"Then":6363,"Theses":6364,"Ġdedicare":6365,"Ġdedicata":6366,"Ġphases":6367,"Ġlettera":6368,"Ġprevista":6369,"Ġaccademici":6370,"Ġcount":6371,"Ġcounsel":6372,"Ġgraduated":6373,"Ġrespect":6374,"Ġconsigliate":6375,"Ġ750":6376,"Ġhead":6377,"Ġsolution":6378,"Ġsoluzione":6379,"Ġsolitamente":6380,"Ġpaper":6381,"Ġpagelle":6382,"Ġcultur":6383,"Ġequal":6384,"Ġequity":6385,"Ġmondiale":6386,"Ġsupported":6387,"Ġtransfer":6388,"Ġtransport":6389,"Ġvisits":6390,"Ġvisitare":6391,"Ġsubmitted":6392,"Ġ2022":6393,"Ġ2024":6394,"Ġ9001":6395,"Ġlocations":6396,"Ġmomenti":6397,"Ġmoments":6398,"Ġfornito":6399,"Ġfornite":6400,"Ġfornita":6401,"Ġforniscono":6402,"Ġlegale":6403,"Ġ120":6404,"Ġ1200":6405,"Ġpubblica":6406,"Ġpubblicata":6407,"Ġfocused":6408,"idea":6409,"see":6410,"Ġ34":6411,"Ġ35":6412,"Ġwritten":6413,"Ġbuy":6414,"Ġbuon":6415,"Ġbuona":6416,"Ġbutton":6417,"echan":6418,"echtenste":6419,"Ġfornir":6420,"ĠfornirÃł":6421,"admissionsportal":6422,"ĠTests":6423,"ĠRegatta":6424,"ĠRegolamenti":6425,"Ġpartnership":6426,"Ġseleziona":6427,"Ġselezionano":6428,"Ġpolitics":6429,"Ġpolitiche":6430,"Ġpolitica":6431,"Ġreceipt":6432,"Ġincludes":6433,"Incontro":6434,"finris":6435,"playing":6436,"Ġtempor":6437,"attici":6438,"attivo":6439,"attivazione":6440,"Ġlimits":6441,"ĠStati":6442,"ĠStatis":6443,"ĠStatale":6444,"ĠStarbu":6445,"Ġdiscre":6446,"Ġ105":6447,"Ġtrasferimento":6448,"Ġentrambi":6449,"Ġverifying":6450,"Ġindicati":6451,"Ġfrequentante":6452,"Ġeffettua":6453,"Ġproblemi":6454,"Ġterms":6455,"icurati":6456,"Ġopening":6457,"ĠTransnational":6458,"tainable":6459,"Ġaccettate":6460,"Ġaccettato":6461,"Ġdocumentation":6462,"Ġenvironments":6463,"Ġends":6464,"Ġending":6465,"artph":6466,"Ġfreely":6467,"Ġdecisione":6468,"ĠCultural":6469,"Ġcondivi":6470,"Ġcondizioni":6471,"Ġconditions":6472,"Ġsuperare":6473,"Ġcollecting":6474,"Ġconsulted":6475,"Ġconseguire":6476,"Ġconseguimento":6477,"Ġpersonalizzato":6478,"Ġcarried":6479,"Ġlavorando":6480,"Ġlavorativo":6481,"Ġaperti":6482,"Ġaperta":6483,"inciples":6484,"Ġsimbolo":6485,"Ġsimply":6486,"alism":6487,"alismo":6488,"ĠCoaching":6489,"ĠCollegiate":6490,"ĠScambi":6491,"Ġconferita":6492,"Ġconferred":6493,"Ġconfermare":6494,"Ġvenga":6495,"Ġconsulta":6496,"Ġconsulenza":6497,"Ġconsulting":6498,"Ġnuovo":6499,"Ġobblighi":6500,"Ġdetailed":6501,"Ġinvit":6502,"Ġinvece":6503,"Ġluglio":6504,"Ġdimen":6505,"Ġnorms":6506,"Ġreported":6507,"ĠMain":6508,"ĠMafinris":6509,"Ġconnessi":6510,"Ġgoing":6511,"Ġgoals":6512,"Ġglobalnetwork":6513,"Ġidea":6514,"Ġmailing":6515,"Ġweeks":6516,"Ġweekly":6517,"Ġadmissionsoffice":6518,"Ġuniversitaria":6519,"Ġaggiuntivi":6520,"Ġaggiungere":6521,"Ġquestioni":6522,"Ġmanageriali":6523,"Ġsvolge":6524,"Ġintroduct":6525,"Ġmediche":6526,"ĠMarkets":6527,"Ġiscritti":6528,"alizzare":6529,"alizzato":6530,"loyment":6531,"ĠRefer":6532,"ĠRefinitiv":6533,"Ġactivity":6534,"Ġmodify":6535,"Ġmodifiche":6536,"Ġreserving":6537,"Ġreservations":6538,"Ġsociale":6539,"ĠsocietÃł":6540,"partnership":6541,"Ġsostenuto":6542,"Ġsostenuti":6543,"Ġorganizzare":6544,"Ġorganizzano":6545,"ĠValue":6546,"ĠValuta":6547,"Ġprincipale":6548,"Ġprinciples":6549,"Ġauthentic":6550,"Ġfacilita":6551,"Ġfacilitates":6552,"Ġarrivare":6553,"Ġresponsabile":6554,"Ġtranscripts":6555,"Ġlimitare":6556,"campuslife":6557,"Ġultim":6558,"Ġentitled":6559,"Ġtypes":6560,"Ġscholarship":6561,"Ġinitiative":6562,"Ġfattori":6563,"Ġfunge":6564,"ĠMatters":6565,"ĠMathematics":6566,"email":6567,"Ġattitudes":6568,"Ġaspects":6569,"Ġqualification":6570,"Ġqualifications":6571,"Ġupdate":6572,"Ġseminar":6573,"ĠDovrai":6574,"Ġpractical":6575,"Ġpracticed":6576,"ĠLeadership":6577,"Ġcomunicato":6578,"Ġobbligatorio":6579,"Ġsettimane":6580,"Ġability":6581,"ĠabilitÃł":6582,"ĠaffinchÃ©":6583,"Ġtalk":6584,"Ġsending":6585,"Ġpayment":6586,"rooms":6587,"Ġoperating":6588,"Ġmisur":6589,"Ġmission":6590,"Ġmissione":6591,"Ġmolti":6592,"Ġresident":6593,"Ġconcentr":6594,"Ġconcessa":6595,"ĠAgosto":6596,"learn":6597,"Ġcombina":6598,"Ġleaders":6599,"Ġaccordo":6600,"Ġcompetition":6601,"ĠAlcune":6602,"Ġcovered":6603,"Ġ199":6604,"Ġ1903":6605,"Ġ1971":6606,"Ġ1902":6607,"ĠRicord":6608,"Ġstruttura":6609,"Ġrisultato":6610,"computer":6611,"Ġnotify":6612,"Ġnotified":6613,"Ġschedule":6614,"CLEF":6615,"onlineprograms":6616,"Ġdonazione":6617,"Ġstelle":6618,"Ġpenale":6619,"Ġpensier":6620,"Ġcentro":6621,"isdbocconi":6622,"Ġfilling":6623,"Ġmessage":6624,"Ġmessaggi":6625,"Ġmessages":6626,"Ġpromuover":6627,"Ġboards":6628,"Ġbodies":6629,"Ġborrowed":6630,"Ġborrowing":6631,"Ġnostre":6632,"sign":6633,"ĠMetho":6634,"Ġprogrammes":6635,"Ġprogramming":6636,"Ġprogrammata":6637,"Ġgestiti":6638,"Ġaccredited":6639,"Ġaccreditato":6640,"ĠInstagram":6641,"ĠFee":6642,"ĠFeel":6643,"Ġspeaking":6644,"Ġdisability":6645,"Ġdisabilities":6646,"Ġfinanziari":6647,"Ġfinanziamento":6648,"Ġfinanziamenti":6649,"ĠResources":6650,"ĠRestric":6651,"Ġgratuito":6652,"Ġprerequisiti":6653,"Ġprerequisito":6654,"Ġprerequisite":6655,"Ġprerequisites":6656,"Ġindustrial":6657,"Ġidentified":6658,"Ġkeyword":6659,"Ġnormale":6660,"Ġnormally":6661,"Ġnormativa":6662,"Ġnormalmente":6663,"Ġsvolgere":6664,"Ġsvolgersi":6665,"Ġauthorities":6666,"Ġaggiornato":6667,"Entrepreneu":6668,"going":6669,"gozi":6670,"month":6671,"password":6672,"selPro":6673,"ĠKong":6674,"ĠKenya":6675,"ĠKnowledge":6676,"Ġerrore":6677,"Ġampio":6678,"Ġampie":6679,"Ġampliare":6680,"Ġapartments":6681,"instagram":6682,"Ġdesidera":6683,"Ġdesideri":6684,"Ġdesidero":6685,"Ġsenso":6686,"Ġlooking":6687,"Ġmentre":6688,"Ġmentor":6689,"Ġcontenuto":6690,"ĠPresid":6691,"ĠPolitecn":6692,"Ġrilasciata":6693,"Ġorientation":6694,"Ġparlami":6695,"ĠGiug":6696,"ĠGiurisprudenza":6697,"Ġstampa":6698,"Ġstampare":6699,"Ġstampate":6700,"Ġscanning":6701,"Ġscansione":6702,"Ġ165":6703,"Ġregulation":6704,"Ġcontribu":6705,"Ġcontribution":6706,"Ġnecessarie":6707,"Ġnecessariamente":6708,"Ġ502":6709,"Ġidoneo":6710,"Ġeccezionali":6711,"Ġsovrappongono":6712,"ACC":6713,"ACTM":6714,"ASFOR":6715,"Finally":6716,"phd":6717,"phds":6718,"studenti":6719,"incub":6720,"Ġpeers":6721,"Ġcirc":6722,"Ġcalls":6723,"Ġincontro":6724,"Ġincontrare":6725,"Ġlecture":6726,"Ġfonte":6727,"Ġfoster":6728,"Ġeligibility":6729,"Ġearlier":6730,"Ġdidattici":6731,"ĠBasilica":6732,"Ġbrowse":6733,"economic":6734,"ĠApproaches":6735,"ĠPotrai":6736,"Ġglobalization":6737,"Ġistituzione":6738,"Ġassociations":6739,"Ġassociativa":6740,"Ġassociazioni":6741,"ĠGreetings":6742,"Ġinformed":6743,"Ġinformative":6744,"Ġriconosc":6745,"Ġ158":6746,"Ġagreements":6747,"Ġassegnata":6748,"Ġcontinu":6749,"ĠVisit":6750,"Ġprinted":6751,"Ġprogettati":6752,"Ġvolume":6753,"Ġvolumi":6754,"Ġvolumes":6755,"Ġparola":6756,"Ġsupervisor":6757,"Ġsupervisore":6758,"Ġrepresentative":6759,"Ġrepresentatives":6760,"Ġpractition":6761,"CLES":6762,"CLEAM":6763,"CLEACC":6764,"Ġspeakers":6765,"Accelerator":6766,"Perform":6767,"center":6768,"Ġaware":6769,"Ġambito":6770,"Ġambiente":6771,"Ġsigned":6772,"Ġincentr":6773,"Ġintegrated":6774,"Ġflu":6775,"Ġemergere":6776,"Ġdepending":6777,"Ġdepositare":6778,"Ġbreve":6779,"Ġbroader":6780,"Ġrendimento":6781,"Ġhistorical":6782,"ĠParco":6783,"Ġpercorsi":6784,"Ġistruzione":6785,"enticazione":6786,"ĠLearning":6787,"Ġbelow":6788,"abbandono":6789,"Ġpreferences":6790,"Ġextracurriculari":6791,"Ġparticularly":6792,"ĠUlisse":6793,"Ġcolleag":6794,"Ġcollege":6795,"ĠProfession":6796,"Ġadvise":6797,"Ġadvisory":6798,"Ġpublish":6799,"Ġconsiste":6800,"Ġsettings":6801,"ĠNovembre":6802,"ĠExamination":6803,"ĠExaminations":6804,"Ġindipendentemente":6805,"Ġ2018":6806,"Ġ20136":6807,"Ġliberamente":6808,"Ġfailure":6809,"Ġobligations":6810,"Ġconflict":6811,"Ġconflicts":6812,"Ġtrascorro":6813,"Ġtrascorrere":6814,"Ġmultipla":6815,"Ġtermine":6816,"Ġinvestment":6817,"Ġeuropee":6818,"Ġeuropeo":6819,"Ġrichiederlo":6820,"Ġrichiederne":6821,"Ġtypical":6822,"Ġguaranteed":6823,"Ġrappresentante":6824,"Ġrappresentanti":6825,"160":6826,"BIG":6827,"BIEF":6828,"Consulate":6829,"Consolato":6830,"eikon":6831,"elevato":6832,"milanomalpensa":6833,"milanolinate":6834,"offerta":6835,"ĠQS":6836,"ĠQRco":6837,"Ġtablet":6838,"Ġtecniche":6839,"Ġsmartph":6840,"Ġsyllabus":6841,"Ġsymbol":6842,"Ġcausa":6843,"Ġcatal":6844,"Ġcolumn":6845,"Ġcolonna":6846,"Ġintenti":6847,"Ġfissa":6848,"Ġanalitiche":6849,"Ġospitante":6850,"Ġeconomy":6851,"Ġeconomet":6852,"Ġmilitare":6853,"Ġmilitary":6854,"Ġproduced":6855,"Ġproducts":6856,"Ġbranch":6857,"Ġbancario":6858,"ĠCenter":6859,"ĠCertification":6860,"Ġconversion":6861,"ĠAIDA":6862,"Ġpermanent":6863,"Ġpermanenti":6864,"admissionphd":6865,"Ġguide":6866,"Ġguida":6867,"Ġthough":6868,"Ġthought":6869,"Ġcommerci":6870,"Ġcommercial":6871,"ĠLife":6872,"ĠLiechtenste":6873,"Ġvedo":6874,"Ġvalutare":6875,"Ġsuperiori":6876,"ĠEducation":6877,"ĠEducational":6878,"Ġruolo":6879,"Ġruoli":6880,"Ġseparate":6881,"Ġaccedendo":6882,"ĠDecember":6883,"Ġcomparative":6884,"ĠGroup":6885,"ĠGroups":6886,"ĠFriends":6887,"Ġscolastico":6888,"Ġscolastiche":6889,"Ġsportiva":6890,"Ġsportello":6891,"Ġcorrettamente":6892,"Ġdistinc":6893,"Ġabitativa":6894,"ĠRelations":6895,"ĠRelazioni":6896,"Ġregarding":6897,"Ġregardless":6898,"Ġripetere":6899,"Ġrivolto":6900,"Ġrivolgerti":6901,"Ġfeatures":6902,"Ġstrumenti":6903,"Ġstrumento":6904,"Ġrecuperare":6905,"Ġstudentesche":6906,"exchangeapplication":6907,"Ġautonomously":6908,"Ġmigliore":6909,"Ġmigliori":6910,"Ġexpires":6911,"Ġriceverai":6912,"Ġsuccessfully":6913,"Ġsuccessivo":6914,"Ġavviare":6915,"Ġavviene":6916,"Ġbuildings":6917,"Ġsponsoring":6918,"Ġriconosciute":6919,"Ġsignificant":6920,"Ġraggiunto":6921,"PORTA":6922,"Request":6923,"careerservice":6924,"milanocentrale":6925,"uania":6926,"values":6927,"Ġengagement":6928,"Ġaderiscono":6929,"Ġtwice":6930,"Ġdamage":6931,"Ġdeduc":6932,"Ġsustainable":6933,"Ġsatisfying":6934,"Ġpoche":6935,"Ġpsychological":6936,"Ġcampo":6937,"Ġcellulare":6938,"organizational":6939,"Ġinferiore":6940,"Ġinclusa":6941,"Ġinvolved":6942,"Ġingressi":6943,"rovement":6944,"arrivo":6945,"Ġlater":6946,"ĠlunedÃ¬":6947,"Ġlasciare":6948,"Ġforesee":6949,"Ġovunque":6950,"Ġoccupa":6951,"Ġmembri":6952,"Ġdivulgazione":6953,"Ġdiplomas":6954,"Ġwider":6955,"ĠImprovement":6956,"Ġproperly":6957,"associations":6958,"ĠCAE":6959,"Ġremain":6960,"Ġreclut":6961,"Ġconvalid":6962,"Ġconvenzione":6963,"ĠACT":6964,"ĠPlatinum":6965,"ĠPrada":6966,"ĠPuÃ²":6967,"ĠPrivate":6968,"ĠPayPal":6969,"agaz":6970,"Ġforums":6971,"advantages":6972,"Ġcancellarti":6973,"ultimo":6974,"Ġattentamente":6975,"ĠLuglio":6976,"Ġvicino":6977,"Ġragionamento":6978,"Ġpositions":6979,"Ġpreviously":6980,"Ġprepares":6981,"Ġneolaureati":6982,"Ġquadriennale":6983,"ĠGoogle":6984,"Ġspazio":6985,"Ġcoinvol":6986,"Ġcorrispond":6987,"ĠOffre":6988,"ĠOtherwise":6989,"Ġesprimere":6990,"assegnazione":6991,"Ġpursue":6992,"Ġitems":6993,"ĠRomolo":6994,"ĠRomeo":6995,"thropology":6996,"Ġgranted":6997,"Ġconsistently":6998,"Ġcreativity":6999,"Ġintervistare":7000,"Ġrestituire":7001,"Ġrimar":7002,"Ġarchives":7003,"Ġworkstation":7004,"Ġenables":7005,"Ġcaratteristiche":7006,"classtimetable":7007,"Ġamministrazione":7008,"Ġrecruit":7009,"ĠFormativa":7010,"Ġsubscription":7011,"Ġdirettore":7012,"Ġchiamato":7013,"ĠAssicurati":7014,"Ġobjectives":7015,"Ġconfigur":7016,"ĠAndroid":7017,"Ġsituato":7018,"Ġphilanthropic":7019,"Ġterritorio":7020,"Ġavanzati":7021,"Ġsimultaneously":7022,"ĠConsulta":7023,"Ġdispositivo":7024,"Ġconcordare":7025,"Ġcharacteristics":7026,"ĠGiuridici":7027,"Ġrecognize":7028,"Ġfavorire":7029,"Ġfunctioning":7030,"studentassociations":7031,"Ġincreasing":7032,"Ġflessibile":7033,"Ġbelonging":7034,"ĠProfessor":7035,"Ġinvestire":7036,"Ġtargeted":7037,"Ġtariffa":7038,"Ġcustomers":7039,"Ġdirigenti":7040,"ĠPASSWOR":7041,"0871":7042,"199":7043,"2008":7044,"803614":7045,"Available":7046,"AACSB":7047,"CPU":7048,"CSQ":7049,"Convenzioni":7050,"Commissariato":7051,"Duomo":7052,"DigitalNewspapers":7053,"Eustorgio":7054,"ILL":7055,"KUST":7056,"Offerta":7057,"Policies":7058,"Pellicani":7059,"Semestre":7060,"Unifit":7061,"ailed":7062,"bloombergforeducation":7063,"clienti":7064,"merschool":7065,"rilascio":7066,"summerschool":7067,"speaking":7068,"singlecourses":7069,"usias":7070,"uditing":7071,"Ġicon":7072,"Ġvelo":7073,"Ġ...),":7074,"Ġ0698":7075,"Ġalias":7076,"ericane":7077,"innovazione":7078,"index":7079,"Ġdossier":7080,"Ġdenominato":7081,"Ġdinamico":7082,"Ġdanneggi":7083,"Ġsomething":7084,"Ġsquad":7085,"Ġshelves":7086,"Ġpeso":7087,"Ġpulsante":7088,"Ġciclo":7089,"Ġcitizen":7090,"Ġcampi":7091,"Ġcentral":7092,"Ġcycle":7093,"alternativa":7094,"Ġincomplete":7095,"Ġtheoretical":7096,"Ġlength":7097,"Ġfloor":7098,"Ġoppure":7099,"Ġedifici":7100,"Ġmoney":7101,"Ġmagistrali":7102,"Ġmaggiore":7103,"Ġwaivers":7104,"Ġdeleg":7105,"occhiata":7106,"Ġbacheche":7107,"Ġnessun":7108,"Ġnurture":7109,"ĠCadorna":7110,"ĠCurriculum":7111,"ĠCattolica":7112,"ĠCrash":7113,"ĠSundays":7114,"ĠSeries":7115,"ĠSaturday":7116,"ĠSabbatini":7117,"Ġreached":7118,"Ġrevolution":7119,"ĠMonday":7120,"ĠMachine":7121,"Ġconversione":7122,"ĠAmerican":7123,"ĠPartnership":7124,"ĠPrinted":7125,"Ġlaunching":7126,"adesione":7127,"ĠTabacchi":7128,"ĠTassa":7129,"ĠLoreto":7130,"ĠEuromedica":7131,"Ġrilevanti":7132,"ĠWorkspace":7133,"Ġprevedono":7134,"Ġexisting":7135,"Ġexecutives":7136,"Ġexclusive":7137,"ĠDetailed":7138,"Ġcomputational":7139,"forgottenpassword":7140,"ĠHistory":7141,"Ġquotidi":7142,"Ġparticolare":7143,"Ġallocation":7144,"ĠGobbi":7145,"ĠGiving":7146,"ĠGaribaldi":7147,"ĠCommittee":7148,"ĠCommerciale":7149,"ĠCommencement":7150,"ĠFondazione":7151,"ĠFundamentals":7152,"ĠFoundation":7153,"Ġstatistiche":7154,"Ġscrup":7155,"Ġscoprire":7156,"Ġscaffali":7157,"permalink":7158,"ĠUsually":7159,"deposito":7160,"Ġcorrespond":7161,"Ġdistingu":7162,"Ġdisciplina":7163,"ĠONLINE":7164,"ĠOctober":7165,"Ġesplorare":7166,"ĠRicoh":7167,"ĠRavizza":7168,"Ġpipeline":7169,"Ġgrazie":7170,"Ġperseguono":7171,"Ġsemplicemente":7172,"ĠEnrica":7173,"ĠammissibilitÃł":7174,"collegeboard":7175,"Ġsomebody":7176,"Ġvolontari":7177,"Ġvolunteer":7178,"ĠWeekend":7179,"ĠStarbucks":7180,"ĠMafinrisk":7181,"Ġintroductory":7182,"Ġauthentication":7183,"Ġpensiero":7184,"Ġpromuovere":7185,"ĠRestricted":7186,"Entrepreneurs":7187,"selProgram":7188,"ĠPolitecnico":7189,"ĠGiugno":7190,"ACTMB":7191,"ĠQRcode":7192,"Ġsmartphone":7193,"ĠLiechtenstein":7194,"PORTANT":7195,"ĠPASSWORD":7196,"singlecoursesadmission":7197,"26":7198,"600":7199,"AI":7200,"Ab":7201,"Ac":7202,"Ag":7203,"Al":7204,"An":7205,"As":7206,"At":7207,"Are":7208,"All":7209,"Apart":7210,"Auditing":7211,"Big":7212,"Business":7213,"Book":7214,"Borse":7215,"CF":7216,"CH":7217,"Ci":7218,"Case":7219,"CEF":7220,"Cerca":7221,"Cosa":7222,"De":7223,"Dis":7224,"Dec":7225,"Dist":7226,"Doc":7227,"Direct":7228,"Dichiarazione":7229,"During":7230,"EU":7231,"Edi":7232,"Euro":7233,"Four":7234,"Find":7235,"Gli":7236,"Graduates":7237,"How":7238,"Hai":7239,"HKUST":7240,"ID":7241,"Is":7242,"ION":7243,"Just":7244,"KD":7245,"Line":7246,"Letter":7247,"More":7248,"Management":7249,"Mond":7250,"Market":7251,"Milan":7252,"Media":7253,"MEs":7254,"Nota":7255,"Note":7256,"OW":7257,"Ori":7258,"Our":7259,"Pr":7260,"Pag":7261,"Pay":7262,"Punte":7263,"QCE":7264,"RY":7265,"Res":7266,"Richi":7267,"RCH":7268,"Se":7269,"Si":7270,"St":7271,"Sing":7272,"Sus":7273,"Sport":7274,"Sept":7275,"Satur":7276,"Settembre":7277,"SEE":7278,"Te":7279,"Tut":7280,"Trova":7281,"Tourism":7282,"Text":7283,"UE":7284,"URCH":7285,"Vis":7286,"When":7287,"Zecc":7288,"aw":7289,"agr":7290,"avers":7291,"auto":7292,"around":7293,"apart":7294,"afica":7295,"aught":7296,"aight":7297,"apertura":7298,"aula":7299,"br":7300,"bre":7301,"bed":7302,"bri":7303,"bale":7304,"bla":7305,"bated":7306,"buzione":7307,"bitato":7308,"cro":7309,"cic":7310,"ced":7311,"cos":7312,"ction":7313,"cts":7314,"case":7315,"cog":7316,"cando":7317,"card":7318,"casi":7319,"critto":7320,"clear":7321,"cemente":7322,"cardo":7323,"citing":7324,"cosa":7325,"culation":7326,"curriculari":7327,"carta":7328,"dal":7329,"ding":7330,"dri":7331,"denti":7332,"ddi":7333,"data":7334,"dance":7335,"dÃ¬":7336,"double":7337,"dotto":7338,"dditi":7339,"down":7340,"dology":7341,"dged":7342,"denun":7343,"dicals":7344,"ef":7345,"equ":7346,"ezione":7347,"eper":7348,"evo":7349,"eff":7350,"either":7351,"elimin":7352,"fan":7353,"ffor":7354,"fac":7355,"ffici":7356,"fficial":7357,"fits":7358,"face":7359,"fections":7360,"func":7361,"failed":7362,"gy":7363,"gar":7364,"gati":7365,"gono":7366,"gest":7367,"gine":7368,"gia":7369,"gence":7370,"gure":7371,"gage":7372,"gress":7373,"goti":7374,"ggetto":7375,"gibili":7376,"hot":7377,"hos":7378,"here":7379,"hori":7380,"hour":7381,"hould":7382,"hall":7383,"hasi":7384,"holder":7385,"hunting":7386,"husias":7387,"ion":7388,"ient":7389,"iom":7390,"ipp":7391,"iac":7392,"iante":7393,"izion":7394,"iÃ¹":7395,"iuto":7396,"iede":7397,"ieno":7398,"ield":7399,"iams":7400,"jo":7401,"jing":7402,"jections":7403,"lu":7404,"los":7405,"lity":7406,"lay":7407,"lect":7408,"lment":7409,"lite":7410,"long":7411,"last":7412,"lements":7413,"laration":7414,"lcomes":7415,"ming":7416,"menti":7417,"mato":7418,"mps":7419,"mper":7420,"management":7421,"mates":7422,"medi":7423,"massimo":7424,"magistrale":7425,"malizzazione":7426,"magaz":7427,"nd":7428,"ns":7429,"non":7430,"nare":7431,"ness":7432,"ndo":7433,"nected":7434,"nology":7435,"newspapers":7436,"od":7437,"ops":7438,"oard":7439,"opportun":7440,"oining":7441,"ollow":7442,"okes":7443,"pin":7444,"pou":7445,"pia":7446,"pra":7447,"ptiv":7448,"puoi":7449,"pany":7450,"ples":7451,"pected":7452,"print":7453,"rn":7454,"ral":7455,"ram":7456,"rac":7457,"rich":7458,"rong":7459,"rue":7460,"rini":7461,"ranging":7462,"ronimo":7463,"sic":7464,"sed":7465,"sce":7466,"sere":7467,"sure":7468,"sile":7469,"section":7470,"sue":7471,"sew":7472,"seen":7473,"sabato":7474,"suring":7475,"sending":7476,"subscri":7477,"shot":7478,"toni":7479,"tom":7480,"tta":7481,"test":7482,"tect":7483,"tment":7484,"tant":7485,"tina":7486,"tatta":7487,"tativi":7488,"tembre":7489,"tonde":7490,"tempor":7491,"ua":7492,"uing":7493,"uol":7494,"uarsi":7495,"udono":7496,"vent":7497,"vare":7498,"vono":7499,"vest":7500,"vola":7501,"vitare":7502,"vatore":7503,"vacy":7504,"vengono":7505,"wit":7506,"with":7507,"world":7508,"wards":7509,"xed":7510,"xim":7511,"yle":7512,"yond":7513,"ype":7514,"ybri":7515,"zed":7516,"zations":7517,"¦),":7518,"ĊĊ":7519,"Ġio":7520,"Ġest":7521,"Ġvers":7522,"Ġ),":7523,"Ġround":7524,"Ġroll":7525,"Ġibri":7526,"ĠZecc":7527,"ony":7528,"oner":7529,"onti":7530,"onal":7531,"onis":7532,"onto":7533,"onso":7534,"onents":7535,"ontro":7536,"onendo":7537,"onabile":7538,"onosci":7539,"Ġaum":7540,"Ġazioni":7541,"Ġamo":7542,"Ġazienda":7543,"Ġavant":7544,"Ġaerop":7545,"Ġauditing":7546,"Ġtou":7547,"Ġtas":7548,"Ġtort":7549,"Ġtable":7550,"Ġtanti":7551,"Ġtack":7552,"Ġtreat":7553,"Ġtrent":7554,"Ġtrial":7555,"Ġtitoli":7556,"Ġtourism":7557,"erali":7558,"erle":7559,"erlo":7560,"erva":7561,"erman":7562,"erature":7563,"eristico":7564,"erpr":7565,"ergy":7566,"inal":7567,"ined":7568,"inqu":7569,"into":7570,"inch":7571,"inta":7572,"inzione":7573,"inale":7574,"infor":7575,"inano":7576,"inclu":7577,"inves":7578,"inanza":7579,"inerÃł":7580,"inclusi":7581,"incontro":7582,"inonimo":7583,"informatica":7584,"invitare":7585,"anal":7586,"aning":7587,"antive":7588,"anese":7589,"anish":7590,"anco":7591,"antico":7592,"aneo":7593,"anna":7594,"ancia":7595,"reci":7596,"remo":7597,"reds":7598,"reements":7599,"reak":7600,"recent":7601,"reetings":7602,"rebbero":7603,"retto":7604,"Ġdic":7605,"Ġdoni":7606,"Ġdarti":7607,"Ġdouble":7608,"Ġdena":7609,"Ġdichiar":7610,"Ġdatas":7611,"Ġdram":7612,"Ġson":7613,"Ġshe":7614,"Ġsal":7615,"Ġsou":7616,"Ġsfor":7617,"Ġsola":7618,"Ġsott":7619,"Ġsera":7620,"Ġsvant":7621,"Ġsicur":7622,"Ġslid":7623,"Ġsalutations":7624,"Ġsfru":7625,"Ġsaving":7626,"Ġslide":7627,"Ġserali":7628,"Ġsinonimo":7629,"eni":7630,"eness":7631,"enni":7632,"enere":7633,"enso":7634,"enven":7635,"enuti":7636,"enarsi":7637,"Ġpor":7638,"Ġpad":7639,"Ġpill":7640,"Ġput":7641,"Ġpack":7642,"Ġpassi":7643,"Ġporta":7644,"Ġpacchi":7645,"Ġpsic":7646,"titi":7647,"tizione":7648,"tilo":7649,"tipo":7650,"tible":7651,"tise":7652,"Ġce":7653,"Ġcal":7654,"Ġcou":7655,"Ġcli":7656,"Ġcri":7657,"Ġcure":7658,"Ġcita":7659,"Ġcamb":7660,"Ġcron":7661,"Ġcru":7662,"Ġcura":7663,"Ġclear":7664,"Ġcentrale":7665,"Ġciao":7666,"Ġcross":7667,"Ġcumul":7668,"Ġcattivo":7669,"estr":7670,"esim":7671,"esig":7672,"estivi":7673,"espre":7674,"esterno":7675,"esplic":7676,"ora":7677,"oring":7678,"oritÃł":7679,"orgh":7680,"oranti":7681,"orning":7682,"orici":7683,"orresti":7684,"orterÃł":7685,"orry":7686,"ornare":7687,"head":7688,"alare":7689,"alle":7690,"alties":7691,"alking":7692,"almeno":7693,"alanced":7694,"alvatore":7695,"Ġinver":7696,"Ġinde":7697,"Ġinduc":7698,"Ġincep":7699,"Ġincome":7700,"Ġintellig":7701,"Ġineff":7702,"roch":7703,"rovato":7704,"rolment":7705,"itti":7706,"itec":7707,"itolo":7708,"ittare":7709,"itane":7710,"italiano":7711,"ituania":7712,"iterature":7713,"Ġtheat":7714,"Ġtheori":7715,"Ġtheory":7716,"Ġthems":7717,"atro":7718,"atement":7719,"atamente":7720,"ators":7721,"attri":7722,"atteri":7723,"attivitÃł":7724,"oth":7725,"otal":7726,"otte":7727,"otype":7728,"ick":7729,"iced":7730,"icking":7731,"iclopedi":7732,"umenti":7733,"una":7734,"unt":7735,"unati":7736,"unci":7737,"unico":7738,"isure":7739,"isco":7740,"isms":7741,"issa":7742,"isters":7743,"ispens":7744,"arre":7745,"arare":7746,"arto":7747,"ardi":7748,"arte":7749,"arra":7750,"arla":7751,"arco":7752,"arles":7753,"arico":7754,"armon":7755,"argom":7756,"ariscono":7757,"armoni":7758,"Ġless":7759,"Ġlatter":7760,"Ġlanci":7761,"Ġlots":7762,"Ġlista":7763,"Ġlisten":7764,"Ġlending":7765,"Ġlinch":7766,"Ġliterature":7767,"llalo":7768,"Ġfot":7769,"Ġfing":7770,"Ġfas":7771,"Ġful":7772,"Ġfur":7773,"Ġfund":7774,"Ġferi":7775,"Ġfami":7776,"Ġferti":7777,"Ġfron":7778,"Ġfast":7779,"Ġfits":7780,"Ġfatti":7781,"Ġfondo":7782,"Ġfashion":7783,"Ġfestivi":7784,"ough":7785,"outher":7786,"ccess":7787,"cchi":7788,"enter":7789,"entare":7790,"entri":7791,"entato":7792,"entando":7793,"amed":7794,"amano":7795,"ammissioni":7796,"americane":7797,"aminerÃł":7798,"Ġanalizz":7799,"Ġantica":7800,"Ġanthropology":7801,"Ġanagr":7802,"Ġok":7803,"Ġold":7804,"Ġoggetto":7805,"Ġevi":7806,"Ġemo":7807,"Ġebook":7808,"Ġebooks":7809,"Ġejournals":7810,"Ġeasy":7811,"Ġecos":7812,"Ġeffor":7813,"onia":7814,"oniere":7815,"onifici":7816,"Ġmos":7817,"Ġmere":7818,"Ġmono":7819,"Ġmese":7820,"Ġmesso":7821,"Ġmark":7822,"Ġmanc":7823,"Ġmilan":7824,"Ġmarzo":7825,"Ġmechan":7826,"Ġmagaz":7827,"Ġmorning":7828,"Ġdipar":7829,"Ġdizion":7830,"Ġdiven":7831,"omen":7832,"omes":7833,"omestic":7834,"both":7835,"Ġwon":7836,"Ġwil":7837,"Ġwere":7838,"Ġwid":7839,"Ġwind":7840,"Ġwinter":7841,"Ġwrong":7842,"Ġwalking":7843,"Ġwomen":7844,"ilt":7845,"ilar":7846,"ilter":7847,"ilio":7848,"ilore":7849,"ileg":7850,"ilibr":7851,"ilino":7852,"ilbla":7853,"edrai":7854,"educ":7855,"ĠIce":7856,"ĠIdenti":7857,"Ġdeli":7858,"Ġdetr":7859,"Ġdecl":7860,"Ġdeals":7861,"Ġdefine":7862,"Ġdebated":7863,"Ġdeeper":7864,"Ġdetect":7865,"occata":7866,"occiatura":7867,"occony":7868,"Ġyoung":7869,"Ġyield":7870,"Ġandare":7871,"ĠBut":7872,"ĠBrow":7873,"ĠBisog":7874,"ĠBank":7875,"ĠBanking":7876,"ĠBei":7877,"ĠBoard":7878,"ĠBreak":7879,"ĠBorgh":7880,"ĠBoth":7881,"ĠBoccony":7882,"Ġprove":7883,"Ġproto":7884,"Ġprote":7885,"Ġproac":7886,"Ġprofici":7887,"Ġproving":7888,"Ġproie":7889,"Ġproï¬ģ":7890,"Ġprogres":7891,"Ġprogress":7892,"Ġprojections":7893,"Ġprovare":7894,"ĠproattivitÃł":7895,"ings":7896,"ingres":7897,"ingoli":7898,"Ġbag":7899,"Ġblo":7900,"Ġbig":7901,"Ġbesi":7902,"Ġbind":7903,"Ġbars":7904,"Ġbanking":7905,"Ġbunch":7906,"Ġbiom":7907,"Ġbanco":7908,"Ġbenven":7909,"Ġbalanced":7910,"Ġbroch":7911,"Ġbonifici":7912,"Ġbocciatura":7913,"Ġnations":7914,"Ġnord":7915,"Ġnative":7916,"Ġnazion":7917,"Ġnient":7918,"turo":7919,"tuto":7920,"tuali":7921,"Ġunli":7922,"Ġunus":7923,"Ġuncon":7924,"Ġunsu":7925,"Ġunico":7926,"Ġuniche":7927,"Ġunemp":7928,"Ġunclear":7929,"Ġunsubscri":7930,"osso":7931,"oscri":7932,"osamente":7933,"ostra":7934,"osistema":7935,"ostazioni":7936,"osessions":7937,"terni":7938,"teremo":7939,"zia":7940,"ziamo":7941,"zialmente":7942,"gratu":7943,"graduates":7944,"grade":7945,"graphic":7946,"ationalization":7947,"asta":7948,"asur":7949,"asons":7950,"asarico":7951,"ectures":7952,"ecosistema":7953,"ete":7954,"eted":7955,"eteci":7956,"etary":7957,"ettura":7958,"ettore":7959,"ettivitÃł":7960,"ĠCol":7961,"ĠCali":7962,"ĠCap":7963,"ĠCoun":7964,"ĠCalendar":7965,"ĠCred":7966,"ĠCalendario":7967,"ĠCorso":7968,"ĠCarta":7969,"ĠCasarico":7970,"lire":7971,"liti":7972,"lies":7973,"litical":7974,"lido":7975,"lizzo":7976,"lievo":7977,"ĠSare":7978,"ĠSvi":7979,"ĠSta":7980,"ĠSenti":7981,"ĠSte":7982,"ĠSim":7983,"ĠSolo":7984,"ĠSche":7985,"ĠSvol":7986,"ĠSfo":7987,"ĠScholar":7988,"ĠSMS":7989,"ĠSiamo":7990,"ĠSala":7991,"ĠSessions":7992,"ĠSubscri":7993,"ĠSMEs":7994,"ĠShould":7995,"ĠSwit":7996,"ĠSorry":7997,"ĠSalvatore":7998,"ĠSouther":7999,"ĠSingoli":8000,"Ġreale":8001,"Ġreven":8002,"Ġrepl":8003,"Ġretain":8004,"Ġrewritten":8005,"Ġrevisione":8006,"Ġredditi":8007,"Ġretta":8008,"Ġreinfor":8009,"Ġreasons":8010,"Ġrelies":8011,"sia":8012,"sian":8013,"sive":8014,"sidi":8015,"sider":8016,"siamo":8017,"simi":8018,"simil":8019,"Ġher":8020,"Ġhour":8021,"Ġhund":8022,"Ġhous":8023,"Ġhard":8024,"Ġhands":8025,"Ġhybri":8026,"Ġharmon":8027,"areness":8028,"ĠMir":8029,"ĠMeg":8030,"ĠMust":8031,"ĠMover":8032,"ĠMassimo":8033,"ĠMars":8034,"ĠMicro":8035,"ĠMagni":8036,"ĠMarzo":8037,"ĠMade":8038,"ĠMechan":8039,"ĠMarra":8040,"vero":8041,"vered":8042,"verai":8043,"verty":8044,"verbal":8045,"verete":8046,"vement":8047,"vegia":8048,"ria":8049,"rire":8050,"rive":8051,"right":8052,"rimoni":8053,"Ġconduc":8054,"Ġconcl":8055,"Ġconclu":8056,"Ġconform":8057,"Ġconcor":8058,"Ġconcep":8059,"Ġcontrac":8060,"Ġcontiene":8061,"Ġcontract":8062,"Ġcondotto":8063,"empo":8064,"empt":8065,"ematiche":8066,"ĠAlla":8067,"ĠAtt":8068,"ĠAgli":8069,"ĠAff":8070,"ĠApri":8071,"ĠAnot":8072,"ĠAzienda":8073,"ĠAziend":8074,"ĠAvere":8075,"ĠAlex":8076,"ĠAirport":8077,"ĠAbbiamo":8078,"ĠAsia":8079,"ĠPad":8080,"ĠPur":8081,"ĠPap":8082,"ĠParti":8083,"ĠPsycholog":8084,"ĠPaga":8085,"ĠPURCH":8086,"ĠPiÃ¹":8087,"ĠPicking":8088,"Ġperdi":8089,"Ġperdu":8090,"aging":8091,"agista":8092,"agonabile":8093,"olen":8094,"olati":8095,"olgi":8096,"olito":8097,"olante":8098,"olanti":8099,"olvere":8100,"olino":8101,"oltativi":8102,"olitane":8103,"olosamente":8104,"olettura":8105,"questi":8106,"quality":8107,"quilino":8108,"ceo":8109,"cella":8110,"cept":8111,"esse":8112,"esses":8113,"essand":8114,"Ġforgotten":8115,"nia":8116,"nion":8117,"ibre":8118,"ibly":8119,"ibile":8120,"ibendo":8121,"adap":8122,"adisi":8123,"adily":8124,"adattamento":8125,"toperitalia":8126,"tobre":8127,"Ġgot":8128,"Ġgus":8129,"Ġgovern":8130,"Ġgain":8131,"Ġgennaio":8132,"Ġgiov":8133,"Ġgreetings":8134,"Ġgenere":8135,"ustr":8136,"ussian":8137,"Ġcancella":8138,"ĠTu":8139,"ĠTur":8140,"ĠTale":8141,"ĠTui":8142,"ĠTech":8143,"ĠTriennale":8144,"ĠTaking":8145,"ĠTitoli":8146,"ĠTrova":8147,"ĠText":8148,"ĠTRY":8149,"ĠTaught":8150,"ĠTotal":8151,"chant":8152,"chron":8153,"chang":8154,"ppo":8155,"Ġongoing":8156,"Ġonwards":8157,"Ġispir":8158,"Ġissue":8159,"ulties":8160,"ulating":8161,"ulously":8162,"cire":8163,"ciare":8164,"maximum":8165,"level":8166,"leaders":8167,"leaning":8168,"Ġthrive":8169,"atever":8170,"Ġimper":8171,"Ġattive":8172,"Ġattivo":8173,"Ġattiva":8174,"Ġattivazione":8175,"Ġattualmente":8176,"Ġattuali":8177,"Ġcomitato":8178,"Ġcommissariato":8179,"taur":8180,"tact":8181,"tabl":8182,"takes":8183,"entive":8184,"entito":8185,"entific":8186,"entional":8187,"Ġturn":8188,"ĠLato":8189,"ĠLith":8190,"ĠLim":8191,"ĠLmit":8192,"ĠLingu":8193,"ĠLangu":8194,"ĠLetter":8195,"ĠLituania":8196,"ĠLectures":8197,"rsing":8198,"Ġva":8199,"Ġvend":8200,"Ġvice":8201,"Ġvant":8202,"Ġvost":8203,"Ġvener":8204,"Ġvast":8205,"Ġvai":8206,"Ġvital":8207,"Ġvaria":8208,"Ġvinc":8209,"Ġvoglio":8210,"Ġvostra":8211,"Ġvasta":8212,"Ġleft":8213,"Ġleaving":8214,"Ġleisure":8215,"illare":8216,"ower":8217,"owment":8218,"Ġalong":8219,"Ġalgor":8220,"Ġaltamente":8221,"Ġsuits":8222,"Ġsuddi":8223,"Ġsuffici":8224,"Ġbeyond":8225,"ĠEra":8226,"ĠEth":8227,"ĠEff":8228,"ĠEven":8229,"ĠEvery":8230,"ĠEsis":8231,"ĠEmbassy":8232,"ĠEasy":8233,"ĠEvent":8234,"Ġrine":8235,"Ġrational":8236,"Ġrates":8237,"Ġrist":8238,"Ġrub":8239,"Ġrank":8240,"Ġranking":8241,"Ġrankings":8242,"hies":8243,"hieste":8244,"track":8245,"trans":8246,"trarli":8247,"truzioni":8248,"Ġseen":8249,"Ġsell":8250,"Ġsegn":8251,"abic":8252,"ably":8253,"aborare":8254,"Ġpostazioni":8255,"terns":8256,"ficarle":8257,"urity":8258,"urrÃł":8259,"urances":8260,"ĠWrit":8261,"ĠWant":8262,"ĠWould":8263,"ĠWritten":8264,"tionaries":8265,"estri":8266,"estata":8267,"Ġpredisp":8268,"Ġprezzi":8269,"Ġprecious":8270,"Ġpreced":8271,"Ġpregati":8272,"Ġprelievo":8273,"Ġdoing":8274,"Ġdodici":8275,"Ġdobbiamo":8276,"Ġnever":8277,"Ġnegozi":8278,"Ġnegoti":8279,"endere":8280,"endance":8281,"endered":8282,"Ġexecutive":8283,"Ġextend":8284,"Ġexclu":8285,"Ġexcell":8286,"Ġexternal":8287,"Ġexpens":8288,"Ġexciting":8289,"Ġexempt":8290,"Ġexcept":8291,"Ġexchang":8292,"versali":8293,"ande":8294,"andosi":8295,"Ġaccons":8296,"Ġaccede":8297,"Ġaccanto":8298,"Ġaccogli":8299,"Ġaccordi":8300,"Ġaccrue":8301,"Ġacconto":8302,"ĠDa":8303,"ĠDati":8304,"ĠDates":8305,"ĠDub":8306,"ĠDottor":8307,"ĠDichiarazione":8308,"ĠDigital":8309,"ĠDomestic":8310,"Ġcompone":8311,"Ġcomposed":8312,"Ġcompiuto":8313,"Ġcomponents":8314,"Ġcomprovato":8315,"ithms":8316,"Ġassociation":8317,"Ġasyn":8318,"Ġasinc":8319,"Ġastratto":8320,"Ġascol":8321,"Ġassimil":8322,"forniti":8323,"fornia":8324,"ĠInvo":8325,"ĠIntro":8326,"ĠIngh":8327,"ĠInforma":8328,"ĠInnov":8329,"ĠInvia":8330,"ĠIntegr":8331,"ĠIncoming":8332,"ĠInformatica":8333,"ĠInvest":8334,"ĠHai":8335,"ĠHave":8336,"ĠHunting":8337,"ĠHKUST":8338,"ĠHKD":8339,"Ġquest":8340,"Ġquinqu":8341,"Ġquick":8342,"Ġquarto":8343,"Ġwilling":8344,"acement":8345,"acting":8346,"Ġappare":8347,"Ġappear":8348,"Ġapport":8349,"Ġappieno":8350,"Ġappreci":8351,"Ġhaven":8352,"Ġhaving":8353,"ĠparitÃł":8354,"Ġparts":8355,"Ġparalle":8356,"Ġparzialmente":8357,"Ġparagonabile":8358,"Ġparadisi":8359,"Ġallenarsi":8360,"feriti":8361,"ĠGame":8362,"ĠGui":8363,"ĠGlob":8364,"ĠGener":8365,"ĠGrow":8366,"ĠGuan":8367,"ĠGraduates":8368,"ĠGiov":8369,"ĠGerman":8370,"ĠCompar":8371,"ĠComitato":8372,"Ġdelve":8373,"iration":8374,"irmer":8375,"irical":8376,"tting":8377,"ttare":8378,"utation":8379,"utamente":8380,"uttivo":8381,"utgoing":8382,"ĠFren":8383,"ĠFros":8384,"ĠFailed":8385,"ĠFollow":8386,"ĠFissa":8387,"ĠFirmer":8388,"Ġwhom":8389,"Ġwhatever":8390,"Ġstati":8391,"Ġstations":8392,"Ġstates":8393,"Ġstating":8394,"Ġstands":8395,"Ġstyle":8396,"Ġstretto":8397,"Ġstagista":8398,"Ġstolen":8399,"Ġstesse":8400,"Ġscadu":8401,"Ġscritto":8402,"Ġsconti":8403,"ĠTheory":8404,"perare":8405,"perto":8406,"perty":8407,"ĠAlth":8408,"ĠAltri":8409,"ĠAlessand":8410,"Ġmai":8411,"Ġmax":8412,"Ġmakes":8413,"licit":8414,"lications":8415,"sionare":8416,"Ġinternationalization":8417,"confi":8418,"ĠUSD":8419,"ĠUnion":8420,"orth":8421,"Ġweigh":8422,"Ġweight":8423,"Ġwealth":8424,"Ġweavers":8425,"Ġwelcomes":8426,"Ġyearly":8427,"debitato":8428,"gimento":8429,"bilisce":8430,"ĠNDA":8431,"ĠNAT":8432,"ĠNew":8433,"ĠNelle":8434,"ĠNunn":8435,"ĠNei":8436,"ĠNatural":8437,"ĠNOW":8438,"ĠNamed":8439,"ĠNorth":8440,"impos":8441,"imitato":8442,"importo":8443,"Ġspot":8444,"Ġspur":8445,"Ġspese":8446,"Ġspher":8447,"Ġspost":8448,"Ġspott":8449,"Ġspread":8450,"Ġspirit":8451,"Ġspieg":8452,"Ġspanning":8453,"Ġspaces":8454,"Ġspokes":8455,"Ġsponso":8456,"Ġspariscono":8457,"Ġinforms":8458,"Ġinformatic":8459,"tices":8460,"ticle":8461,"Ġricop":8462,"Ġricco":8463,"Ġricons":8464,"Ġricavi":8465,"Ġricordo":8466,"ĠricettivitÃł":8467,"ecial":8468,"ecially":8469,"Ġusi":8470,"Ġugu":8471,"ĠYoung":8472,"Ġcoach":8473,"Ġcoher":8474,"Ġcogni":8475,"Ġcodes":8476,"Ġcoaches":8477,"Ġcoprire":8478,"Ġcoperto":8479,"Ġcorpor":8480,"Ġcorrel":8481,"Ġdisapp":8482,"Ġdisser":8483,"Ġdissol":8484,"Ġdisadvant":8485,"ĠPropor":8486,"ĠProjects":8487,"ĠPropose":8488,"ĠProvengono":8489,"ĠOR":8490,"ĠOmi":8491,"ĠOffic":8492,"ĠOpening":8493,"ĠOgn":8494,"ĠOutgoing":8495,"Ġesiti":8496,"Ġestive":8497,"Ġespos":8498,"Ġesegu":8499,"Ġesitare":8500,"Ġesterno":8501,"Ġesoner":8502,"ĠesaminerÃł":8503,"Ġesterni":8504,"Ġesibendo":8505,"Ġestabl":8506,"erving":8507,"ervation":8508,"ervata":8509,"raise":8510,"Ġabitative":8511,"Ġabstract":8512,"Ġadop":8513,"Ġadap":8514,"Ġadott":8515,"Ġadatti":8516,"Ġadatt":8517,"Ġaddebitato":8518,"assicur":8519,"Ġpulire":8520,"orizz":8521,"origin":8522,"orientamento":8523,"orientation":8524,"orizzato":8525,"origine":8526,"glie":8527,"ĠItalo":8528,"ĠItaliano":8529,"Ġpresto":8530,"Ġprescri":8531,"Ġprestazioni":8532,"Ġpressure":8533,"Ġpreservation":8534,"Ġfiglio":8535,"Ġfidiamo":8536,"Ġfigure":8537,"Ġfixed":8538,"Ġfinali":8539,"Ġfinestra":8540,"Ġfinalize":8541,"Ġfinalizzare":8542,"Ġcandidarmi":8543,"egoti":8544,"ĠRice":8545,"ĠRect":8546,"ĠRiv":8547,"ĠRetail":8548,"ĠRipar":8549,"ĠReduc":8550,"ĠRettore":8551,"ĠRussian":8552,"anieri":8553,"Ġnota":8554,"ĠProgrammi":8555,"ĠProgramming":8556,"igning":8557,"oghi":8558,"ogue":8559,"Ġaction":8560,"Ġacquisto":8561,"Ġactors":8562,"Ġactual":8563,"Ġtestate":8564,"keholder":8565,"Ġpioniere":8566,"Ġglimps":8567,"Quando":8568,"Quantit":8569,"Quattro":8570,"Questa":8571,"there":8572,"these":8573,"think":8574,"Ġ200":8575,"Ġ210":8576,"Ġunified":8577,"ĠQuante":8578,"ĠQuindi":8579,"ĠQuesti":8580,"ĠQueste":8581,"Ġgran":8582,"Ġgrants":8583,"Ġgrasp":8584,"Ġgrinta":8585,"Ġgrande":8586,"Ġexamine":8587,"Ġexamples":8588,"ĠLavoro":8589,"ĠLauree":8590,"Ġuses":8591,"Ġusando":8592,"Ġuscita":8593,"Ġuscire":8594,"ording":8595,"ordinano":8596,"Ġpartendo":8597,"ondamano":8598,"Ġconstitu":8599,"Ġconstant":8600,"Ġconsenso":8601,"Ġconsolati":8602,"trovi":8603,"elve":8604,"elves":8605,"ourne":8606,"Ġmove":8607,"Ġmotivo":8608,"Ġtipicamente":8609,"Ġtieni":8610,"Ġcreo":8611,"Ġcreation":8612,"Ġcreato":8613,"Ġcreazione":8614,"Ġcreiamo":8615,"Ġcrearne":8616,"Ġfirstcome":8617,"Ġdallo":8618,"choice":8619,"rite":8620,"Ġapplicazione":8621,"Ġapplicable":8622,"Ġapplicant":8623,"Ġapplicabili":8624,"Ġcompletes":8625,"Ġcompletati":8626,"Ġcompletata":8627,"Ġcompletano":8628,"Ġinterazione":8629,"Ġinterdepend":8630,"Ġinterattivo":8631,"Ġintermedi":8632,"Ġintersection":8633,"Ġupgrade":8634,"Ġdurature":8635,"Ġofferto":8636,"Ġrestri":8637,"Ġrestric":8638,"Ġrestaur":8639,"Ġgiuri":8640,"Ġgiurisprudenza":8641,"Ġspeciale":8642,"Ġspecify":8643,"Ġspecializzazione":8644,"Ġspecifies":8645,"Ġessenziale":8646,"Ġtramp":8647,"Ġtrue":8648,"Ġtrattamento":8649,"Ġsix":8650,"ĠPertanto":8651,"zzare":8652,"zzate":8653,"zzera":8654,"Ġtavole":8655,"Ġtailore":8656,"Ġdomestic":8657,"Ġvisite":8658,"Ġvisibili":8659,"cript":8660,"Ġsound":8661,"Ġsopr":8662,"Ġsolide":8663,"Ġsopra":8664,"Ġsolido":8665,"Ġsemestr":8666,"Ġsemestri":8667,"tiveness":8668,"cipata":8669,"cipants":8670,"laureati":8671,"lacious":8672,"lauree":8673,"Ġrigu":8674,"Ġrientra":8675,"Ġriapertura":8676,"Ġrientri":8677,"Ġeven":8678,"Ġteaches":8679,"Ġteorici":8680,"Ġteatro":8681,"Ġdisplay":8682,"Ġagosto":8683,"Ġagonis":8684,"Ġart":8685,"Ġartificial":8686,"Ġarchi":8687,"Ġsettembre":8688,"Ġprocinto":8689,"ologie":8690,"duces":8691,"Ġrequirement":8692,"Ġinspir":8693,"Ġinsolito":8694,"Ġinsurances":8695,"ghua":8696,"antone":8697,"Ġworkpl":8698,"Ġworkload":8699,"Ġsecolo":8700,"Ġsecurity":8701,"Ġpossiede":8702,"political":8703,"Ġenjo":8704,"Ġenrich":8705,"Ġensuring":8706,"Ġenergy":8707,"Ġenrolment":8708,"Ġvivere":8709,"Ġviaggio":8710,"Ġvibr":8711,"Ġvivono":8712,"itevoli":8713,"ostante":8714,"Ġdomandaper":8715,"Ġplus":8716,"ziona":8717,"zionati":8718,"zionando":8719,"Ġlaurearsi":8720,"Ġassister":8721,"Ġassisten":8722,"ĠstarÃł":8723,"Ġsospende":8724,"Ġcaring":8725,"Ġcarry":8726,"Ġcaratteri":8727,"Ġanymore":8728,"Ġemails":8729,"ĠInternet":8730,"Ġinformazione":8731,"ĠOnly":8732,"âĢ¦),":8733,"ishments":8734,"Ġcontare":8735,"Ġcontempor":8736,"Ġcontempo":8737,"Ġentra":8738,"Ġentusias":8739,"Ġenthusias":8740,"ĠConven":8741,"ĠContent":8742,"ĠConvenzioni":8743,"ĠContatta":8744,"ĠConsider":8745,"ĠContact":8746,"Ġimpron":8747,"Ġimpact":8748,"Ġimprove":8749,"Ġimposta":8750,"Ġimplements":8751,"Ġimparare":8752,"Ġimpostazioni":8753,"Ġimpacting":8754,"classi":8755,"closure":8756,"Ġottobre":8757,"Ġunofficial":8758,"mited":8759,"pean":8760,"pecchi":8761,"stantive":8762,"ĠVai":8763,"ĠValore":8764,"ĠVAL":8765,"ĠVoglio":8766,"ĠVengono":8767,"ĠVuol":8768,"ĠVorresti":8769,"ĠVedrai":8770,"tituto":8771,"titution":8772,"orsare":8773,"ĠExtra":8774,"ĠExternal":8775,"ĠDoing":8776,"Ġprofessions":8777,"ffetter":8778,"resa":8779,"ressi":8780,"reserved":8781,"Ġstraight":8782,"Ġstranieri":8783,"Ġtutta":8784,"Ġamericane":8785,"times":8786,"timenti":8787,"alyst":8788,"Ġrecap":8789,"opening":8790,"visa":8791,"viserÃł":8792,"vissimo":8793,"vistoperitalia":8794,"aggiornare":8795,"Ġshape":8796,"Ġshops":8797,"Ġlies":8798,"Ġliabil":8799,"apanese":8800,"aphies":8801,"Ġversion":8802,"ĠverrÃ²":8803,"Ġversione":8804,"Ġverbale":8805,"Ġpratic":8806,"Ġpratiche":8807,"Ġpriced":8808,"University":8809,"bbene":8810,"Ġaccessing":8811,"Ġparties":8812,"Ġpartially":8813,"ĠFind":8814,"Ġsecondary":8815,"Ġsecondaria":8816,"expected":8817,"arda":8818,"ardando":8819,"Ġforms":8820,"Ġformativa":8821,"Ġformalized":8822,"Ġformalization":8823,"Ġformalizzazione":8824,"Ġformalizzato":8825,"Ġrise":8826,"Ġriscritto":8827,"Ġrisiede":8828,"Ġriserva":8829,"Ġrisolvere":8830,"Ġrispecchi":8831,"Ġpartecipante":8832,"ĠEngland":8833,"cked":8834,"mieristico":8835,"Ġkits":8836,"roads":8837,"ĠCosts":8838,"ĠSeveral":8839,"ĠSebbene":8840,"Ġclassmates":8841,"Ġaiuto":8842,"Ġaiuti":8843,"Ġaids":8844,"ĠUnito":8845,"ĠUnlike":8846,"rics":8847,"ricola":8848,"ricontro":8849,"Ġtrovo":8850,"Ġtroverete":8851,"Ġtroppo":8852,"Ġtraits":8853,"Ġtrailbla":8854,"Ġpassed":8855,"Ġpassing":8856,"Ġpassport":8857,"Ġsubire":8858,"Ġsubsidi":8859,"Ġsubstantive":8860,"Ġposseduti":8861,"Ġpossesses":8862,"Ġconsiders":8863,"Ġconsideriamo":8864,"Ġconsiderarsi":8865,"Ġpossibilities":8866,"covery":8867,"venzionando":8868,"Ġpochi":8869,"Ġpoverty":8870,"ĠPossiamo":8871,"Ġquesta":8872,"Ġqueste":8873,"Ġaverlo":8874,"Ġaverne":8875,"Ġautenticazione":8876,"Ġautorizzato":8877,"Ġeducative":8878,"ĠItalians":8879,"ĠJoining":8880,"ĠJapanese":8881,"atically":8882,"Ġspecifics":8883,"Ġspecificare":8884,"Ġspecificamente":8885,"inaia":8886,"Ġpoter":8887,"ĠpotrÃł":8888,"edical":8889,"Ġnotices":8890,"Ġorganizing":8891,"Ġorganizational":8892,"Ġorganizziamo":8893,"Ġparticipates":8894,"Ġparticipant":8895,"Ġparticipating":8896,"anguardi":8897,"allments":8898,"Ġindispens":8899,"Ġinduttivo":8900,"Ġlinked":8901,"Ġmean":8902,"Ġmeans":8903,"Ġmeasur":8904,"ĠComplete":8905,"Ġfinds":8906,"Ġtirocini":8907,"Ġregisterd":8908,"ĠPhDs":8909,"Ġperiodical":8910,"Ġperiodicals":8911,"Ġdestra":8912,"Ġdesgin":8913,"Ġdeserving":8914,"Ġdesigning":8915,"Ġoffrono":8916,"Ġoffrire":8917,"Ġrelative":8918,"Ġrelatori":8919,"Ġrelatore":8920,"olaureato":8921,"Ġattivato":8922,"ĠLeading":8923,"Ġexpiration":8924,"Ġexplicit":8925,"forme":8926,"formative":8927,"Ġpresentati":8928,"Ġpresented":8929,"Ġpresentarti":8930,"Ġpresentarsi":8931,"urriculare":8932,"Ġpagando":8933,"Ġliberi":8934,"Ġelsew":8935,"Ġelaborare":8936,"Ġdirette":8937,"Ġdirection":8938,"Ġreception":8939,"Ġreceptiv":8940,"Ġqualche":8941,"Ġqualcosa":8942,"Ġindividua":8943,"Ġindividuato":8944,"Ġknown":8945,"Ġstai":8946,"Ġstazioni":8947,"Ġstabilisce":8948,"Ġstakeholder":8949,"Ġpunto":8950,"Ġmath":8951,"Ġmatters":8952,"Ġmattina":8953,"Ġmatematiche":8954,"Ġmatricola":8955,"etteremo":8956,"Ġstudiati":8957,"Ġstudied":8958,"Ġstudiare":8959,"Ġstudiano":8960,"privacy":8961,"Ġprocessing":8962,"Ġnecessita":8963,"ĠsarÃ²":8964,"Ġchiare":8965,"Ġchiusa":8966,"Ġchiesta":8967,"Ġchiediamo":8968,"Ġchiuso":8969,"Ġchiudono":8970,"Ġiniziativa":8971,"Ġload":8972,"Ġloans":8973,"Ġlodged":8974,"Ġlinguistico":8975,"Ġfacendo":8976,"Ġfacoltativi":8977,"Ġedge":8978,"Ġprogettazione":8979,"Ġprogettare":8980,"ettarti":8981,"ettarne":8982,"Ġcontains":8983,"Ġcontacts":8984,"Ġgenerations":8985,"Ġgenerazione":8986,"Ġgenerous":8987,"Ġgenerazioni":8988,"Ġgenerico":8989,"ĠgenererÃł":8990,"Ġgenerosa":8991,"notch":8992,"ronti":8993,"rontare":8994,"Ã©lite":8995,"Ġcosta":8996,"ĠcosterÃł":8997,"Ġminuti":8998,"Ġminds":8999,"Ġminutes":9000,"Ġmanaged":9001,"Ġdevices":9002,"ĠChange":9003,"ĠChain":9004,"ĠCharles":9005,"Ġrefers":9006,"Ġreferenze":9007,"Ġreferences":9008,"Ġreferred":9009,"Ġlaws":9010,"Ġscambi":9011,"ĠNonostante":9012,"Ġricezione":9013,"Ġricevo":9014,"Ġdeveloped":9015,"Ġdevelopments":9016,"corsi":9017,"ewals":9018,"fie":9019,"piche":9020,"volta":9021,"Ġjuni":9022,"Ġjournals":9023,"Ġjourne":9024,"Ġsometimes":9025,"Ġinviati":9026,"Ġinviato":9027,"Ġinviante":9028,"istration":9029,"istruzione":9030,"turers":9031,"ĠArchi":9032,"ĠArticoli":9033,"ĠArabic":9034,"ĠArticle":9035,"Ġattended":9036,"Ġattendere":9037,"ĠLawyers":9038,"Ġoutcome":9039,"Ġoutcomes":9040,"ancy":9041,"Ġcertifies":9042,"Ġeconomiche":9043,"Ġeconomical":9044,"Ġbasata":9045,"Ġbasano":9046,"Ġbooked":9047,"Ġbookings":9048,"Ġnetworks":9049,"Ġprestiti":9050,"Ġregistrarti":9051,"Ġregistrarsi":9052,"Ġregistrarmi":9053,"Ġtrovano":9054,"Ġtrovino":9055,"Ġtrovarlo":9056,"porti":9057,"spread":9058,"trienni":9059,"ĠAssol":9060,"ĠAccordo":9061,"ĠAccording":9062,"ĠAccetteremo":9063,"sociazione":9064,"Ġvoler":9065,"Ġvolti":9066,"Ġvaries":9067,"Ġcompete":9068,"Ġcompetent":9069,"Ġcompetenti":9070,"Ġcopra":9071,"Ġrequesting":9072,"Ġnumerico":9073,"appart":9074,"utilizzo":9075,"Ġbottom":9076,"Ġapprovato":9077,"Ġapprovati":9078,"Ġapproxim":9079,"egna":9080,"egnamento":9081,"Ġgiornali":9082,"Ġimportance":9083,"Ġhelping":9084,"Ġhelpful":9085,"âĤ¬.":9086,"âĤ¬?":9087,"Ġ600":9088,"Ġinfine":9089,"Ġinflu":9090,"Ġinfosessions":9091,"atorio":9092,"atoria":9093,"Ġfair":9094,"Ġmetro":9095,"Ġmetrop":9096,"alizing":9097,"ĠvaluterÃł":9098,"Ġvaluteremo":9099,"Ġposted":9100,"Ġpostare":9101,"Ġpostgraduate":9102,"Ġpostpon":9103,"Ġpreparati":9104,"Ġprepararsi":9105,"Ġnews":9106,"stands":9107,"Ġtenere":9108,"Ġtenure":9109,"Ġtenuta":9110,"Ġtenured":9111,"Ġconfronti":9112,"ĠAnche":9113,"ĠAnthropology":9114,"ĠAntoni":9115,"Ġaddice":9116,"Ġprivati":9117,"Ġprivileg":9118,"Ġteams":9119,"Ġenrollment":9120,"Ġunderstanding":9121,"Ġcertifica":9122,"Ġcertification":9123,"Ġcertificates":9124,"There":9125,"dule":9126,"pends":9127,"Ġdedicati":9128,"Ġphoto":9129,"Ġphys":9130,"Ġletterhead":9131,"ĠIsland":9132,"ĠIstruzioni":9133,"Ġvalido":9134,"Ġvalidation":9135,"Ġvalidate":9136,"ability":9137,"abilmente":9138,"Ġgradual":9139,"Ġgraduale":9140,"Ġgraduating":9141,"Ġgraduatoria":9142,"Ġrespective":9143,"Ġconsigliato":9144,"Ġdemanding":9145,"IMPORTANT":9146,"posta":9147,"Ġhey":9148,"Ġheart":9149,"Ġroomm":9150,"Ġrotonde":9151,"Ġsole":9152,"Ġsolve":9153,"Ġsolutions":9154,"Ġpaio":9155,"Ġcultures":9156,"Ġfocalizza":9157,"Ġequo":9158,"Ġequally":9159,"Ġequality":9160,"Ġequipar":9161,"Ġequipp":9162,"Ġequilibr":9163,"Ġmonetary":9164,"ĠIMPORTANT":9165,"Ġtoolbox":9166,"Ġsupportati":9167,"Ġsupportato":9168,"Ġbegins":9169,"Ġbeginner":9170,"Ġmajors":9171,"Ġtransformative":9172,"Ġvisitor":9173,"Ġvisitatore":9174,"bbliche":9175,"provided":9176,"property":9177,"Ġsciogli":9178,"Ġscientific":9179,"Ġlocal":9180,"Ġanalyzing":9181,"Ġanalytically":9182,"Ġanalysed":9183,"Ġeffects":9184,"Ġeffective":9185,"quisites":9186,"Ġfornisc":9187,"Ġlegali":9188,"Ġlegacy":9189,"Ġlegalize":9190,"Ġlegalizzare":9191,"Ġpubblici":9192,"Ġpubblicati":9193,"Ġpubblicare":9194,"Ġpubblicate":9195,"Ġpubblicato":9196,"Ġpubblicano":9197,"Ġcompletely":9198,"ressa":9199,"Ġutilizzati":9200,"Ġutilizzate":9201,"Ġutilizzato":9202,"Ġutilizzarle":9203,"discovery":9204,"Ġtitles":9205,"ennale":9206,"ision":9207,"Ġlogica":9208,"Ġlogged":9209,"Ġoverview":9210,"Ġbuying":9211,"Ġbuilt":9212,"Ġnursing":9213,"ettua":9214,"Ġforniamo":9215,"Ġwherever":9216,"ĠRegno":9217,"ĠRegistration":9218,"Ġselezionati":9219,"Ġselezionarne":9220,"Ġpolizza":9221,"Ġpolizia":9222,"Ġincludono":9223,"final":9224,"plishments":9225,"Ġ59":9226,"Ġtotali":9227,"Ġtotalizz":9228,"Ġfullest":9229,"Ġdiversa":9230,"edificio":9231,"ĠStart":9232,"Ġthirty":9233,"Ġprenotate":9234,"Ġprenotando":9235,"Ġprenotazioni":9236,"Ġtrasformazione":9237,"Ġtrasporto":9238,"Ġtrasversali":9239,"Ġtrasferiti":9240,"Ġtrasporti":9241,"Ġentrando":9242,"Ġverified":9243,"Ġverificata":9244,"Ġindicata":9245,"Ġindications":9246,"Ġindicazioni":9247,"Ġindicator":9248,"Ġindicatori":9249,"Ġindicatore":9250,"Ġindicators":9251,"Ġfrequenta":9252,"Ġfrequentati":9253,"Ġfrequentano":9254,"Ġmultiforme":9255,"Ġmonthly":9256,"Ġeffettuata":9257,"Ġterra":9258,"Ġterranno":9259,"ĠciÃ²":9260,"entry":9261,"Ġopenly":9262,"ĠTramite":9263,"Ġcomune":9264,"Ġcomunicare":9265,"tainability":9266,"Ġaccelerator":9267,"Ġaccettata":9268,"Ġaccettano":9269,"Ġquantitativa":9270,"Ġvistoperitalia":9271,"Ġfounding":9272,"Ġfoundation":9273,"Ġfoundational":9274,"Ġfoundations":9275,"prepare":9276,"scritto":9277,"update":9278,"Ġendowment":9279,"Ġkept":9280,"iniziativa":9281,"Ġportare":9282,"artamento":9283,"Ġopere":9284,"ĠCultura":9285,"Ġcondition":9286,"Ġcondivisione":9287,"Ġsuperati":9288,"Ġsuperato":9289,"Ġcollection":9290,"Ġcollects":9291,"Ġrequisito":9292,"Ġconsultando":9293,"Ġconsultant":9294,"Ġconsultants":9295,"Ġconseguiti":9296,"Ġpersonalize":9297,"Ġcarrier":9298,"Ġcarries":9299,"Ġlavorano":9300,"Ġdirected":9301,"Ġmodeling":9302,"ellente":9303,"serÃł":9304,"Ġaventi":9305,"Ġavranno":9306,"ĠavviserÃł":9307,"Ġaperte":9308,"Ġapertamente":9309,"angano":9310,"Ġsimulation":9311,"Ġsimilar":9312,"Ġinnovativa":9313,"Ġfutures":9314,"Ġfuturo":9315,"Ġdecido":9316,"Ġdecided":9317,"Ġdecidano":9318,"terias":9319,"ĠColla":9320,"ĠCodice":9321,"ĠCoordinano":9322,"ĠSpazi":9323,"ĠSpots":9324,"ĠSpiac":9325,"ĠSpanish":9326,"Ġready":9327,"Ġconfermi":9328,"Ġconferimento":9329,"Ġconferral":9330,"ĠAcronimo":9331,"Ġsupporta":9332,"Ġsupplied":9333,"ĠsupporterÃł":9334,"Ġaccompany":9335,"Ġaccomunati":9336,"Ġaccomplishments":9337,"Ġacceptance":9338,"Ġconsulente":9339,"Ġconsulates":9340,"Ġconsultazione":9341,"Ġricevono":9342,"Ġricevute":9343,"Ġricevuta":9344,"Ġnuove":9345,"Ġobbligatori":9346,"Ġdettaglio":9347,"Ġdettagliato":9348,"They":9349,"Ġdorm":9350,"Ġinvite":9351,"Ġinvitare":9352,"Ġinviting":9353,"Ġludiche":9354,"Ġluxury":9355,"Ġluoghi":9356,"amentale":9357,"Ġannounc":9358,"Ġeccellente":9359,"Ġdimentic":9360,"Ġdiversificato":9361,"Ġdeparting":9362,"Ġdepartment":9363,"Ġoffices":9364,"Ġnorma":9365,"ĠCiÃ²":9366,"ĠCiascun":9367,"ĠChief":9368,"Ġreporting":9369,"Ġhighest":9370,"ĠMake":9371,"ĠMaking":9372,"Ġconnesso":9373,"Ġconnects":9374,"Ġconnessa":9375,"embrac":9376,"Ġgoes":9377,"Ġideal":9378,"ĠWilliams":9379,"Ġweekend":9380,"Ġinterviews":9381,"Ġevaluated":9382,"Ġevaluating":9383,"Ġaggiuntivo":9384,"Ġaggiungo":9385,"ĠConsult":9386,"Ġlikely":9387,"Ġreceiving":9388,"ministrazione":9389,"Ġinstitutional":9390,"Ġscelto":9391,"Ġsvolto":9392,"Ġclicco":9393,"Ġclicking":9394,"Ġclicca":9395,"Ġcliccare":9396,"Ġcliccando":9397,"Ġintroduces":9398,"ĠfarÃł":9399,"Ġmedica":9400,"Ġmedici":9401,"Ġholid":9402,"Ġgrowing":9403,"alizzatore":9404,"Ġsegui":9405,"Ġseguente":9406,"Ġseguire":9407,"Ġseguici":9408,"Ġpartenze":9409,"loyers":9410,"Ġspending":9411,"Ġadvice":9412,"Ġadvance":9413,"ĠRead":9414,"ĠReason":9415,"ĠReading":9416,"ĠRequisites":9417,"Ġactivating":9418,"Ġactivites":9419,"Ġmodificarle":9420,"Ġreserves":9421,"Ġreserved":9422,"Ġassicurazione":9423,"Ġassicurazioni":9424,"Ġassicurarti":9425,"Ġsostengo":9426,"Ġsostenerlo":9427,"Ġsostenibile":9428,"Ġorganizzati":9429,"Ġorganizzato":9430,"Ġorganizzata":9431,"Ġorganizzeremo":9432,"Ġprincipiante":9433,"acceleratore":9434,"Ġrispettive":9435,"Ġrispettarne":9436,"Ġaiutano":9437,"Ġaiutarli":9438,"Ġauthor":9439,"Ġfacilmente":9440,"Ġarrivarci":9441,"Ġresponsabili":9442,"Ġlimitati":9443,"Ġlimitato":9444,"Ġbackgrounds":9445,"neolaureato":9446,"Ġscholars":9447,"Ġpatrimoni":9448,"Ġpatterns":9449,"Ġcitations":9450,"Ġcapable":9451,"Ġcapital":9452,"Ġcapitoli":9453,"Ġcapitolo":9454,"Ġcapillare":9455,"Ġinitial":9456,"Ġfatte":9457,"Ġfatture":9458,"Ġfunziona":9459,"Ġemphasi":9460,"Ġempower":9461,"ĠSempre":9462,"Ġreputation":9463,"ĠMath":9464,"Ġattitude":9465,"Ġattitudinale":9466,"Ġaspettare":9467,"Ġaspetti":9468,"Ġaspiring":9469,"Ġaspettiamo":9470,"Ġaspettarti":9471,"Ġqualities":9472,"Ġqualifica":9473,"Ġqualifiche":9474,"Ġscheda":9475,"person":9476,"persons":9477,"Ġcoordina":9478,"Ġcoordinate":9479,"Ġprofessore":9480,"Ġprofessori":9481,"Ġuploaded":9482,"Ġdisposal":9483,"ambiente":9484,"Ġbookstore":9485,"Ġcopyright":9486,"Ġcomunicando":9487,"Ġaccommodations":9488,"Ġdepartures":9489,"Ġelettronico":9490,"Ġsettimanalmente":9491,"feterias":9492,"Ġaffected":9493,"Ġaffinando":9494,"Ġaffittare":9495,"Ġaffrontare":9496,"Ġtalenti":9497,"Ġtalvolta":9498,"anzia":9499,"Ġpaying":9500,"Ġcurve":9501,"Ġcurva":9502,"Ġoperazioni":9503,"Ġmisto":9504,"Ġmisura":9505,"Ġmistakes":9506,"Ġbecame":9507,"Ġbecomes":9508,"Ġresidente":9509,"Ġresidenze":9510,"Ġresidences":9511,"Ġconcedere":9512,"Ġconcentra":9513,"ĠAgreements":9514,"Ġperforming":9515,"Ġperformances":9516,"Ġguardando":9517,"Ġcombine":9518,"Ġcombining":9519,"Ġcombination":9520,"Ġcombinando":9521,"Ġcombinations":9522,"Ġcombines":9523,"Ġcombined":9524,"Ġraccont":9525,"Ġrapporti":9526,"Ġcompetizioni":9527,"Ġcompetitions":9528,"Ġcovering":9529,"ĠRiccardo":9530,"ĠRiconosci":9531,"ĠRichieste":9532,"Ġusual":9533,"Ġcharity":9534,"Ġcharged":9535,"Ġaggiorni":9536,"Ġinstruct":9537,"Ġassessed":9538,"Ġassessments":9539,"Ġnotifying":9540,"Ġnotificata":9541,"Ġequivalenti":9542,"Ġequivalents":9543,"ĠPolitiche":9544,"Ġdiscussion":9545,"Ġdiscussioni":9546,"Ġdiscussions":9547,"Italy":9548,"aks":9549,"Ġdonare":9550,"Ġdonazioni":9551,"Ġdonne":9552,"Ġstep":9553,"Ġsteal":9554,"Ġsteadily":9555,"Ġpenalized":9556,"ĠpenalitÃł":9557,"Ġpenalizzato":9558,"Ġpenalties":9559,"Ġcinema":9560,"Ġcenter":9561,"Ġcentre":9562,"Ġcentri":9563,"Ġcentres":9564,"Ġcentury":9565,"Ġcentinaia":9566,"Ġincorporate":9567,"Ġincoraggiare":9568,"Ġincoraggiati":9569,"Ġmesse":9570,"Ġmessaggio":9571,"Ġpromosso":9572,"Ġboost":9573,"ribution":9574,"ologia":9575,"ologico":9576,"ological":9577,"Ġprogrammare":9578,"Ġprogrammato":9579,"Ġgestito":9580,"Ġgestisce":9581,"Ġgreatest":9582,"Ġbehind":9583,"Ġaccrediting":9584,"Ġaccreditations":9585,"Ġaccreditamento":9586,"Ġaccreditamenti":9587,"Ġcompila":9588,"Ġcompilati":9589,"Ġcompilato":9590,"Ġcompilando":9591,"ĠInsurance":9592,"ĠFebbraio":9593,"Ġscadenze":9594,"ĠfinalitÃł":9595,"Ġfinanziario":9596,"Ġfinanziaria":9597,"Ġgratuita":9598,"Ġgratuitamente":9599,"Ġmodule":9600,"Ġmodules":9601,"Ġmodular":9602,"Ġmodulare":9603,"Ġinteressati":9604,"Ġinteressate":9605,"Ġsovvenzionando":9606,"Ġstructures":9607,"Ġprestigiose":9608,"Ġprestigiosi":9609,"ĠAccounts":9610,"Ġapproaches":9611,"Ġidentificare":9612,"Ġidentify":9613,"Ġidentification":9614,"Ġsuggested":9615,"Ġpurchased":9616,"Ġauthorized":9617,"Ġpaths":9618,"Ġcoordinato":9619,"Ġcoordinates":9620,"Ġcoordinated":9621,"Ġcoordinatore":9622,"Ġaggiornata":9623,"Ġaggiornamenti":9624,"mathematics":9625,"naire":9626,"selors":9627,"selection":9628,"selected":9629,"ĠKit":9630,"Ġagevola":9631,"Ġample":9632,"institution":9633,"insegnamento":9634,"aneamente":9635,"Ġdesiderano":9636,"Ġsense":9637,"Ġintensive":9638,"Ġfirmare":9639,"Ġfirmato":9640,"Ġfondato":9641,"Ġfondazione":9642,"Ġfondatori":9643,"Ġfondamentale":9644,"Ġmentore":9645,"Ġmentori":9646,"Ġmentors":9647,"Ġbrings":9648,"Ġbringing":9649,"Ġrefining":9650,"Ġrefuse":9651,"Ġreflect":9652,"Ġreductions":9653,"Ġcontenute":9654,"ĠAbsol":9655,"ĠAmong":9656,"ĠAmministrazione":9657,"ĠAttachments":9658,"ĠAttualmente":9659,"ĠPolice":9660,"Ġgames":9661,"Ġrilascia":9662,"Ġorientato":9663,"Ġprende":9664,"Ġprenda":9665,"Ġdovrei":9666,"Ġdovremo":9667,"Ġappartenenti":9668,"Ġparlino":9669,"Ġstampata":9670,"Ġscansionare":9671,"Ġactively":9672,"Ġregularly":9673,"Ġregulatory":9674,"Ġconsentire":9675,"Ġspecialised":9676,"Ġspecialistico":9677,"Ġspecialistiche":9678,"Ġtradizion":9679,"Ġtextbook":9680,"Ġinsegnante":9681,"Ġinsegnamento":9682,"Ġcontributo":9683,"Ġcontribute":9684,"Ġcontributes":9685,"Ġentering":9686,"Ġentertainment":9687,"Ġformats":9688,"firstname":9689,"Ġjoining":9690,"Ġjoint":9691,"Ġmaggioranza":9692,"Ġconfirms":9693,"Ġidonee":9694,"Ġacquired":9695,"Ġbehaviours":9696,"Ġbehaviors":9697,"Ġcolloqui":9698,"ASE":9699,"Finance":9700,"marketing":9701,"pagelle":9702,"studente":9703,"utely":9704,"Ġï¬ģrst":9705,"Ġaptitude":9706,"intera":9707,"Ġcareful":9708,"Ġcercano":9709,"Ġincontri":9710,"Ġincontrarli":9711,"Ġlecturers":9712,"Ġletto":9713,"Ġletture":9714,"Ġfonti":9715,"Ġfossi":9716,"Ġowned":9717,"Ġeveryone":9718,"Ġeverywhere":9719,"ĠBasic":9720,"ĠBased":9721,"ĠBasta":9722,"ĠBasato":9723,"Ġprodurre":9724,"Ġprodotte":9725,"ĠprodurrÃł":9726,"Ġnamely":9727,"economics":9728,"ĠSupply":9729,"ĠSystems":9730,"Ġreasonably":9731,"ĠMeasure":9732,"velopments":9733,"ĠApplications":9734,"ĠAppartamento":9735,"ĠPaolo":9736,"ĠPaesi":9737,"ĠPaola":9738,"ĠPotrebbero":9739,"Ġistituzioni":9740,"Ġexception":9741,"Ġexceptional":9742,"Ġassigns":9743,"Ġscritti":9744,"Ġscritta":9745,"Ġscritte":9746,"Ġsponsors":9747,"Ġsponsorizz":9748,"Ġinformati":9749,"Ġinformato":9750,"Ġesempi":9751,"Ġinterpreting":9752,"Ġvisual":9753,"Ġvisualizza":9754,"Ġinseriti":9755,"Ġinserito":9756,"Ġinserting":9757,"Ġassegnate":9758,"Ġcontinents":9759,"ĠVisitare":9760,"Ġpotenziare":9761,"ĠpotenzialitÃł":9762,"Ġobtained":9763,"ĠAnalysis":9764,"Ġsupervised":9765,"Ġsupervision":9766,"Ġcollega":9767,"Ġcolleges":9768,"Ġcollegare":9769,"ĠCollections":9770,"Ġdormitorio":9771,"Ġalternatively":9772,"Ġdiscussed":9773,"Ġspeaker":9774,"Accedi":9775,"Acceleration":9776,"Accordi":9777,"Executive":9778,"Formalizzazione":9779,"Foundations":9780,"autenticazione":9781,"autolettura":9782,"centric":9783,"centred":9784,"Ġambiti":9785,"Ġsingle":9786,"Ġpictures":9787,"Ġcambiate":9788,"Ġinside":9789,"Ġinsights":9790,"Ġintegrata":9791,"Ġintegrano":9792,"Ġintegralmente":9793,"Ġlargest":9794,"Ġlibreria":9795,"Ġemerge":9796,"Ġemerging":9797,"Ġemergence":9798,"Ġdeposit":9799,"Ġdepositi":9800,"Ġdeposito":9801,"Ġbreed":9802,"Ġbrevissimo":9803,"Ġbreaks":9804,"Ġbroaden":9805,"Ġbroadened":9806,"Ġrent":9807,"Ġrenegoti":9808,"Ġrenewals":9809,"Ġhubs":9810,"Ġlaboratory":9811,"Ġlaboratorio":9812,"ĠEUR":9813,"Ġritenuti":9814,"Ġruns":9815,"Ġoriginal":9816,"Ġseats":9817,"abbonamento":9818,"Ġpreferenze":9819,"Ġpreferisci":9820,"Ġexperiential":9821,"Ġexperienc":9822,"Ġextract":9823,"Ġextracurricular":9824,"Ġextracurriculare":9825,"Ġstatus":9826,"Ġstatements":9827,"depending":9828,"Ġcollezioni":9829,"Ġadvisors":9830,"ĠRooms":9831,"Ġprimario":9832,"Ġchanged":9833,"Ġchanging":9834,"Ġagreeing":9835,"Ġarticle":9836,"Ġarticolo":9837,"Ġargomenti":9838,"Ġclubs":9839,"Ġencyc":9840,"Ġenciclopedi":9841,"Ġviewable":9842,"ĠExams":9843,"Ġrisposta":9844,"Ġtroviate":9845,"Ġ2017":9846,"Ġlibero":9847,"Ġliberalism":9848,"Ġliberalismo":9849,"Ġconflicting":9850,"Ġconflitto":9851,"Ġabbiate":9852,"Ġtrascorsi":9853,"Ġtermina":9854,"Ġkeeping":9855,"Ġoptional":9856,"Ġscrivano":9857,"Ġscriveteci":9858,"Ġeuropea":9859,"Ġcartacei":9860,"Ġrichiederli":9861,"...)":9862,"...).":9863,"Ġrappresentano":9864,"Ġincorpora":9865,"Ġincorporare":9866,"Ġincorporata":9867,"Ġincorporates":9868,"Ġincorporated":9869,"Ġpromote":9870,"Ġpromoted":9871,"Ġpromoting":9872,"Ġpromotore":9873,"Ġpromoters":9874,"ĠInstitute":9875,"ĠInstitution":9876,"Ġerrate":9877,"Ġerrori":9878,"Ġsovrapposte":9879,"Ġsovrapposizione":9880,"Ġï¬ģnance":9881,"Ġinterpretation":9882,"Ġbibliographic":9883,"Ġbibliographies":9884,"ĠStrategic":9885,"Corsi":9886,"Product":9887,"Proposta":9888,"Special":9889,"design":9890,"offered":9891,"offerto":9892,"plica":9893,"solving":9894,"Ġairports":9895,"Ġtables":9896,"Ġtabella":9897,"Ġtassa":9898,"Ġtecnici":9899,"Ġtecnico":9900,"anzato":9901,"Ġdottorati":9902,"Ġsmall":9903,"Ġsmarri":9904,"Ġsector":9905,"Ġstored":9906,"Ġsanitario":9907,"ency":9908,"Ġcaffetter":9909,"Ġcafeterias":9910,"Ġcatalyst":9911,"Ġcatalizzatore":9912,"Ġclean":9913,"Ġintorno":9914,"Ġintestata":9915,"Ġinvestimenti":9916,"istituto":9917,"Ġfisica":9918,"ĠfisserÃł":9919,"Ġfamily":9920,"Ġfalls":9921,"Ġfallisci":9922,"Ġfallisco":9923,"Ġflexibly":9924,"Ġanalitico":9925,"Ġanalitica":9926,"Ġospiti":9927,"Ġospitato":9928,"Ġmensile":9929,"Ġdifficile":9930,"Ġdifficult":9931,"ĠdifficoltÃł":9932,"Ġdifficulties":9933,"Ġprotection":9934,"Ġprotected":9935,"Ġprotetto":9936,"Ġprototype":9937,"Ġprospective":9938,"Ġproposes":9939,"Ġproposal":9940,"Ġproposta":9941,"Ġproposition":9942,"Ġbrand":9943,"Ġbrands":9944,"Ġbenefica":9945,"Ġbenefit":9946,"Ġbeneficio":9947,"Ġbenefits":9948,"Ġbanca":9949,"Ġbancari":9950,"Ġbanks":9951,"aspilio":9952,"ĠCentre":9953,"ĠCentro":9954,"ĠCertificato":9955,"ĠCertificate":9956,"Ġrealms":9957,"Ġreturning":9958,"Ġconverted":9959,"Ġconvertiti":9960,"Ġcontrassegn":9961,"ĠPostale":9962,"Ġgaranzia":9963,"Ġcommonly":9964,"ĠLogic":9965,"Ġvedrai":9966,"Ġvederle":9967,"Ġvalutate":9968,"Ġvalutata":9969,"Ġrule":9970,"Ġseparately":9971,"Ġseparatamente":9972,"Ġposticipata":9973,"Ġpresieduti":9974,"Ġexpertise":9975,"Ġaccedo":9976,"Ġaccedervi":9977,"ĠDeclaration":9978,"ĠDecision":9979,"Ġcomprehen":9980,"Ġcomparable":9981,"ĠcomparirÃł":9982,"ĠFriday":9983,"ĠFridays":9984,"ĠFacoltÃł":9985,"Ġstoria":9986,"Ġstorage":9987,"Ġstorici":9988,"Ġstorico":9989,"Ġcorrette":9990,"Ġcorretto":9991,"Ġdistance":9992,"Ġdistinzione":9993,"Ġesperienziale":9994,"Ġesclusivi":9995,"Ġesclusivamente":9996,"Ġabituale":9997,"Ġabituarsi":9998,"ĠRiservata":9999,"Ġmotivated":10000,"Ġrimborsare":10001,"Ġripetilo":10002,"Ġripetuto":10003,"Ġridotte":10004,"Ġclassificato":10005,"Ġclassificata":10006,"Ġimpostato":10007,"Ġrecuperarli":10008,"Ġrecuperarla":10009,"Ġshared":10010,"Ġstudentesca":10011,"Ġstudenteschi":10012,"Ġautonomia":10013,"Ġautonomamente":10014,"Ġmixture":10015,"ĠJustin":10016,"Ġorganizzazioni":10017,"ĠCompilando":10018,"Ġexploring":10019,"Ġexpired":10020,"Ġexpressly":10021,"Ġcontattaci":10022,"Ġriceveranno":10023,"ĠriceverÃ²":10024,"ĠAnyone":10025,"Ġsuccessful":10026,"Ġsuccessivi":10027,"Ġsuccessiva":10028,"Ġcommunicated":10029,"Ġluggages":10030,"Ġdigitali":10031,"Ġconnecting":10032,"Ġraccoglie":10033,"Ġfavorendo":10034,"Ġriconosciuto":10035,"Ġriconoscimento":10036,"Ġvisualizzati":10037,"Ġvisualizzare":10038,"Ġvisualizzabili":10039,"Ġvisualizzarlo":10040,"Ġpickup":10041,"Ġmicroforms":10042,"Ġmicroformati":10043,"Ġmicroformato":10044,"Ġschermo":10045,"Ġsignifica":10046,"Ġsignificativo":10047,"Ġraggiungere":10048,"Ġraggiungibili":10049,"Ġstrengthen":10050,"Ġstrengthening":10051,"Ġstrengthened":10052,"PORT":10053,"Reference":10054,"USC":10055,"avvio":10056,"avanguardi":10057,"avanzato":10058,"building":10059,"ionevoli":10060,"valutazioni":10061,"Ġengendered":10062,"Ġaderisce":10063,"Ġtwelve":10064,"Ġdammi":10065,"Ġdeduct":10066,"Ġdrive":10067,"Ġdrivers":10068,"Ġdriven":10069,"Ġstop":10070,"Ġstood":10071,"Ġsuspends":10072,"Ġsatisfy":10073,"Ġpoco":10074,"Ġpsychology":10075,"Ġcamere":10076,"organizzazione":10077,"Ġinfermieristico":10078,"Ġincluse":10079,"Ġintended":10080,"Ġintendono":10081,"Ġinvolvement":10082,"Ġingresso":10083,"Ġlatest":10084,"Ġlunga":10085,"Ġlasciato":10086,"Ġforeseen":10087,"Ġfotocopia":10088,"Ġfotocopie":10089,"Ġfotocopiatura":10090,"Ġovvero":10091,"Ġoccupazionali":10092,"Ġmetterti":10093,"Ġmetterli":10094,"ĠmetterÃł":10095,"Ġmembro":10096,"Ġdiventare":10097,"Ġdiplomati":10098,"ĠImpegno":10099,"Ġdefined":10100,"Ġdefinire":10101,"Ġdefinita":10102,"Ġprossimo":10103,"Ġprossimi":10104,"Ġprosperare":10105,"Ġproceeding":10106,"terminato":10107,"associazione":10108,"ĠCARD":10109,"Ġremember":10110,"Ġremoto":10111,"Ġremote":10112,"Ġremains":10113,"Ġreclutare":10114,"Ġhosted":10115,"Ġholders":10116,"Ġconventional":10117,"Ġconvenzionali":10118,"ĠACQUIS":10119,"ĠPlanning":10120,"ĠPrinciples":10121,"ĠPubbliche":10122,"ĠPrima":10123,"Ġcancellation":10124,"ultima":10125,"Ġattesi":10126,"Ġattesta":10127,"Ġattorno":10128,"Ġattenta":10129,"ĠLoan":10130,"ĠLuxury":10131,"Ġvicina":10132,"Ġvacanti":10133,"Ġvacanze":10134,"Ġvacancy":10135,"Ġvalorizzare":10136,"ĠEsame":10137,"ĠEsami":10138,"ĠEssere":10139,"ĠEmployment":10140,"ĠEmpirical":10141,"ĠEmployers":10142,"Ġragionevoli":10143,"Ġposizioni":10144,"Ġprevious":10145,"Ġneolaureato":10146,"Ġcompagnia":10147,"Ġcompagnie":10148,"ĠIncentive":10149,"Ġquadriennali":10150,"ĠFurthermore":10151,"ĠNetworks":10152,"impieg":10153,"impegno":10154,"impresa":10155,"Ġcoinquilino":10156,"Ġcollaboration":10157,"Ġcollaborative":10158,"Ġcollaborativo":10159,"Ġcorrisponde":10160,"ĠOffrite":10161,"Ġespecially":10162,"Ġespressi":10163,"Ġespressa":10164,"Ġesprimo":10165,"Ġpursuing":10166,"ĠRoma":10167,"Ġacquisti":10168,"Ġacquisire":10169,"Ġacquisito":10170,"thropy":10171,"Ġconsumer":10172,"Ġconsumers":10173,"Ġconsumption":10174,"Ġconservation":10175,"Ġconservare":10176,"Ġconservato":10177,"ĠcreativitÃł":10178,"Ġintervallo":10179,"Ġrestituzione":10180,"Ġrimangano":10181,"Ġteacher":10182,"Ġarchitec":10183,"Ġworkstations":10184,"Ġenabling":10185,"Ġplurality":10186,"Ġpluralism":10187,"Ġpluralismo":10188,"Ġsostituire":10189,"Ġsostitutiva":10190,"ĠsostituirÃł":10191,"Ġcarattere":10192,"Ġimpegnate":10193,"Ġimpegnativo":10194,"Ġimpegnarti":10195,"Ġimplementing":10196,"Ġimplementation":10197,"Ġottenuti":10198,"Ġottenga":10199,"Ġottengo":10200,"Ġamministrativa":10201,"Ġrecruiting":10202,"Ġshowing":10203,"ĠaiuterÃł":10204,"Ġaiuteranno":10205,"Ġaiuteremo":10206,"ĠFormalizing":10207,"Ġsubscribe":10208,"Ġquestionario":10209,"Ġquestionnaire":10210,"Ġelemento":10211,"Ġdiretta":10212,"Ġchiama":10213,"ĠAsset":10214,"Ġobjective":10215,"Ġconfigured":10216,"Ġsituate":10217,"Ġphilanthropy":10218,"Ġphotocopy":10219,"Ġphotocopies":10220,"Ġphotocopying":10221,"Ġnullaosta":10222,"Ġterritory":10223,"Ġtermini":10224,"Ġterminare":10225,"Ġterminano":10226,"Ġavanzare":10227,"Ġsimultanee":10228,"Ġmethodology":10229,"Ġmethodological":10230,"Ġuniversitarie":10231,"ĠConsulting":10232,"ĠReporting":10233,"Ġcittadini":10234,"Ġcittadino":10235,"Ġcittadinanza":10236,"Ġfatturazione":10237,"Ġaspirations":10238,"Ġaspiranti":10239,"Ġaspirazioni":10240,"Ġdispositivi":10241,"Ġconcordati":10242,"Ġguests":10243,"Ġboxes":10244,"ĠGiuridiche":10245,"Ġdiscovering":10246,"Ġtraditionally":10247,"Ġrecognition":10248,"Ġfavorisce":10249,"Ġconfirming":10250,"Ġincreased":10251,"Ġflessibili":10252,"ĠProfessors":10253,"Ġencourage":10254,"Ġencouraged":10255,"Ġencouraging":10256,"Ġmultiplies":10257,"Ġguaranteeing":10258,"Ġbibliografica":10259,"Ġbibliografiche":10260,"Ġbibliografie":10261,"Ġinvestite":10262,"Ġfamiliarity":10263,"ĠfamiliaritÃł":10264,"Ġgarantire":10265,"Ġgarantito":10266,"Ġgarantita":10267,"Ġtargets":10268,"Ġtariffe":10269,"Ġcustomer":10270,"Ġfounders":10271,"Ġfilantropicamente":10272,"Ġfilantropia":10273,"Ġfilantropiche":10274,"Ġmacroeconomic":10275,"Ġdirigente":10276,"Ġredirecting":10277,"ĠPASSPORT":10278,"EEA":10279,"Estratto":10280,"Organization":10281,"Organizational":10282,"balance":10283,"colazione":10284,"eccezione":10285,"zerland":10286,"Ġautore":10287,"ereditÃł":10288,"ancient":10289,"Ġdenuncia":10290,"Ġdenunciare":10291,"Ġstill":10292,"Ġstile":10293,"Ġstimolante":10294,"Ġstimulating":10295,"Ġcuore":10296,"Ġcutting":10297,"Ġcerta":10298,"Ġcertain":10299,"attuale":10300,"attutto":10301,"istered":10302,"Ġlasts":10303,"Ġlasting":10304,"Ġfalliti":10305,"Ġfallacious":10306,"Ġfiscali":10307,"Ġfiscalmente":10308,"Ġannuale":10309,"Ġannunci":10310,"Ġanswer":10311,"Ġanswers":10312,"Ġmerchant":10313,"Ġmeritevoli":10314,"Ġmusic":10315,"Ġmusica":10316,"Ġmarchi":10317,"Ġmarchio":10318,"Ġdealing":10319,"Ġdetermined":10320,"Ġdeterminate":10321,"ĠBooking":10322,"Ġprobabile":10323,"Ġprobabilmente":10324,"Ġpromozionali":10325,"Ġpromotional":10326,"Ġblend":10327,"Ġbloccata":10328,"Ġnasce":10329,"Ġnascita":10330,"ĠCorporate":10331,"ĠCorrect":10332,"ĠCirculation":10333,"ĠCircolazione":10334,"ĠSulla":10335,"ĠSecondo":10336,"ĠSecondamano":10337,"ĠSoluzioni":10338,"ĠSolutions":10339,"Ġrealities":10340,"Ġregioni":10341,"Ġregions":10342,"Ġrepeated":10343,"Ġrepeating":10344,"Ġrealistic":10345,"Ġrealistico":10346,"Ġhiya":10347,"ĠModular":10348,"ĠModulare":10349,"Ġconversation":10350,"Ġconversazione":10351,"Ġconducted":10352,"ĠAuthori":10353,"ĠAutoritÃł":10354,"Ġgrounding":10355,"Ġillustr":10356,"Ġillimitato":10357,"Ġattenzione":10358,"Ġattendi":10359,"Ġleggere":10360,"Ġleggendo":10361,"Ġalbergo":10362,"Ġalberghi":10363,"Ġpreliminare":10364,"Ġpreliminary":10365,"Ġdoctor":10366,"Ġdoctors":10367,"Ġexceeding":10368,"Ġaccessible":10369,"Ġaccessibili":10370,"Ġaccumulato":10371,"Ġaccumulated":10372,"ĠDocenti":10373,"ĠDocente":10374,"Ġcompatibility":10375,"ĠcompatibilitÃł":10376,"Ġcompresa":10377,"Ġcomprese":10378,"Ġcomprensione":10379,"Ġcomprendano":10380,"Ġcomplemented":10381,"Ġapposito":10382,"Ġappositamente":10383,"Ġdelayed":10384,"ĠFrance":10385,"ĠFrancia":10386,"ĠUSC":10387,"ĠNorway":10388,"ĠNorvegia":10389,"Ġricreative":10390,"Ġricreativa":10391,"ĠcoprirÃł":10392,"Ġcopriranno":10393,"Ġcookie":10394,"Ġcookies":10395,"ĠProcesses":10396,"ĠOrganization":10397,"ĠOrganizations":10398,"Ġesistenti":10399,"Ġesistente":10400,"Ġadministers":10401,"Ġadministered":10402,"Ġpreselezione":10403,"Ġpreselezionati":10404,"Ġconsentono":10405,"Ġconsegnato":10406,"Ġconsegnata":10407,"Ġconsapevoli":10408,"Ġconsapevole":10409,"Ġchapters":10410,"Ġtipologie":10411,"Ġinteraction":10412,"Ġinteractive":10413,"Ġinterfering":10414,"Ġinterferire":10415,"ĠPeriodici":10416,"ĠPeriodicals":10417,"ĠPersonal":10418,"ĠPersonale":10419,"Ġriunire":10420,"Ġriunisce":10421,"Ġriportati":10422,"Ġriportato":10423,"Ġrimane":10424,"Ġrimanere":10425,"Ġritirate":10426,"Ġritirato":10427,"Ġtelefono":10428,"Ġtelefonia":10429,"Ġinstance":10430,"Ġinstallments":10431,"Ġavailability":10432,"Ġavailabilities":10433,"Ġwebinar":10434,"Ġwebinars":10435,"Ġvideo":10436,"Ġvideos":10437,"Ġcaricate":10438,"Ġcaricando":10439,"Ġstrategies":10440,"Ġstrategie":10441,"Ġsharing":10442,"Ġsharpen":10443,"Ġverticali":10444,"Ġverticals":10445,"Ġriservate":10446,"Ġriservando":10447,"Ġundertake":10448,"Ġundertaking":10449,"ĠPhysical":10450,"ĠPhysics":10451,"lopedias":10452,"Ġmeasures":10453,"ĠAdvisor":10454,"ĠAdvisory":10455,"Ġexplain":10456,"Ġexplains":10457,"Ġmatches":10458,"Ġmatching":10459,"Ġchiederti":10460,"Ġchiederemo":10461,"Ġcontattato":10462,"Ġcontattarci":10463,"Ġricevimento":10464,"approved":10465,"approvati":10466,"Ġmetodi":10467,"Ġmetodo":10468,"Ġcounseling":10469,"Ġcounselors":10470,"Ġheaded":10471,"Ġheadshot":10472,"Ġpaperwork":10473,"Ġculturali":10474,"Ġculturale":10475,"Ġtransfers":10476,"Ġtransferred":10477,"Ġtransportations":10478,"Ġbuongiorno":10479,"Ġfornirti":10480,"Ġfornirci":10481,"Ġtemporary":10482,"Ġtemporaneo":10483,"ĠStatistical":10484,"ĠStatistica":10485,"Ġdiscrezione":10486,"Ġdiscretion":10487,"Ġcondividono":10488,"Ġcondividiamo":10489,"Ġconsultabile":10490,"Ġconsultabili":10491,"Ġinvitati":10492,"Ġinvited":10493,"Ġdimensioni":10494,"Ġdimensions":10495,"Ġultimi":10496,"Ġultimately":10497,"Ġmisurare":10498,"Ġmisurabili":10499,"Ġmoltiplica":10500,"Ġconcentrano":10501,"Ġconcentrandosi":10502,"Ġcombinazioni":10503,"ĠRicorda":10504,"ĠRicordati":10505,"ĠMethods":10506,"ĠMethodology":10507,"Ġfinanziarie":10508,"goziare":10509,"Ġmentorship":10510,"ĠPresident":10511,"ĠPresidente":10512,"Ġcontribuire":10513,"Ġcontribuisce":10514,"incubation":10515,"incubazione":10516,"Ġcirculate":10517,"Ġcircolare":10518,"Ġfostering":10519,"Ġriconoscere":10520,"ĠriconoscerÃł":10521,"Ġcontinuo":10522,"Ġcontinuativa":10523,"Ġpractitioner":10524,"Ġpractitioners":10525,"Performing":10526,"Performance":10527,"Ġincentrate":10528,"Ġincentrato":10529,"Ġfluently":10530,"Ġfluentemente":10531,"Ġcolleague":10532,"Ġcolleagues":10533,"ĠProfessional":10534,"ĠProfessionale":10535,"Ġpublishing":10536,"Ġcatalogo":10537,"Ġcatalogue":10538,"Ġeconometria":10539,"Ġeconometrics":10540,"Ġbranches":10541,"Ġcommerciali":10542,"Ġcommerciante":10543,"Ġdistinction":10544,"Ġdistinctive":10545,"Ġdeducibili":10546,"Ġdeductible":10547,"Ġlateral":10548,"Ġreclutano":10549,"Ġreclutatori":10550,"Ġconvalida":10551,"Ġconvalidare":10552,"Ġcoinvolti":10553,"Ġcoinvolgimento":10554,"Ġcorrisponda":10555,"Ġcorrispondono":10556,"ĠrimarrÃł":10557,"Ġrimarranno":10558,"Ġrecruiters":10559,"Ġconfigurata":10560,"Ġconfigurazione":10561,"Ġphilanthropically":10562,"Ġincreasingly":10563,"Ġiconic":10564,"Ġiconici":10565,"Ġveloci":10566,"Ġvelocemente":10567,"Ġdanneggiato":10568,"Ġsquadre":10569,"Ġsquadra":10570,"Ġcitizenship":10571,"Ġlengthy":10572,"Ġdelegate":10573,"Ġdelegato":10574,"Ġnessuno":10575,"Ġexclusively":10576,"Ġquotidiano":10577,"Ġquotidiani":10578,"Ġscrupolosamente":10579,"Ġscrupulously":10580,"Ġcorresponds":10581,"Ġdistinguono":10582,"Ġdistinguish":10583,"Entrepreneurship":10584,"260":10585,"Abstract":10586,"Academic":10587,"Agenda":10588,"Altri":10589,"Anno":10590,"Associazione":10591,"Area":10592,"Apartment":10593,"Books":10594,"CFO":10595,"CEFR":10596,"Developments":10597,"Disclosure":10598,"December":10599,"Distribution":10600,"Documenti":10601,"Edificio":10602,"European":10603,"Istituto":10604,"IONAL":10605,"Linea":10606,"Lettere":10607,"Moreover":10608,"Mondays":10609,"Marketing":10610,"Orientamento":10611,"Principles":10612,"Pagabile":10613,"Payable":10614,"Punteggio":10615,"QCER":10616,"Research":10617,"Richiedi":10618,"Statement":10619,"Single":10620,"Sustainability":10621,"September":10622,"Saturdays":10623,"Teaching":10624,"Tutti":10625,"Textbooks":10626,"Visual":10627,"awareness":10628,"autore":10629,"apartments":10630,"cicolo":10631,"cognome":10632,"cartaceo":10633,"driven":10634,"denuncia":10635,"equity":10636,"eliminazione":10637,"fania":10638,"faceted":10639,"functions":10640,"garde":10641,"hosting":10642,"lastname":10643,"magazines":10644,"opportunitÃł":10645,"poulos":10646,"temporary":10647,"Ġestendere":10648,"Ġversa":10649,"Ġrolling":10650,"Ġibrido":10651,"ĠZecchina":10652,"Ġaumentando":10653,"Ġamount":10654,"Ġaeroporti":10655,"Ġtouch":10656,"Ġtaste":10657,"Ġtackling":10658,"Ġtreatment":10659,"Ġtrentesim":10660,"erprints":10661,"including":10662,"investimento":10663,"analisi":10664,"Ġdictionaries":10665,"Ġdenaro":10666,"Ġdichiarazioni":10667,"Ġdatasets":10668,"Ġdramatically":10669,"Ġsheets":10670,"Ġsalve":10671,"Ġsought":10672,"Ġsforzo":10673,"Ġsottoscri":10674,"Ġsvantaggiati":10675,"Ġsicuramente":10676,"Ġslides":10677,"Ġsfruttare":10678,"Ġporre":10679,"Ġpillars":10680,"Ġputs":10681,"Ġpackages":10682,"Ġpsicologico":10683,"Ġcalibre":10684,"Ġcouple":10685,"Ġcliente":10686,"Ġcritically":10687,"Ġcitazioni":10688,"Ġcambia":10689,"Ġcronologia":10690,"Ġcrucial":10691,"Ġcrossroads":10692,"Ġcumulabile":10693,"esigenza":10694,"espread":10695,"esplicita":10696,"Ġinvernali":10697,"Ġindeterminato":10698,"Ġinductive":10699,"Ġinception":10700,"Ġintelligenza":10701,"Ġineffective":10702,"Ġtheatre":10703,"Ġtheories":10704,"Ġthemselves":10705,"attribuzione":10706,"argomento":10707,"armonia":10708,"Ġlessons":10709,"Ġlancio":10710,"Ġlistening":10711,"Ġlinchpin":10712,"Ġfingerprints":10713,"Ġfascicolo":10714,"Ġfulcro":10715,"Ġfurto":10716,"Ġfundraise":10717,"Ġferiali":10718,"Ġfamiglia":10719,"Ġfertility":10720,"Ġfront":10721,"Ġfattibile":10722,"ccessfully":10723,"Ġanalizzati":10724,"Ġanagrafica":10725,"Ġoldest":10726,"Ġevidence":10727,"Ġemotions":10728,"Ġecosystem":10729,"Ġeffort":10730,"Ġmostrate":10731,"Ġmonographic":10732,"Ġmarked":10733,"Ġmancato":10734,"Ġmilanesi":10735,"Ġmechanisms":10736,"Ġmagazine":10737,"Ġdipartimento":10738,"Ġdizionari":10739,"Ġdivenne":10740,"Ġwidespread":10741,"Ġwindow":10742,"ilterra":10743,"ĠIceland":10744,"ĠIdentificativo":10745,"Ġdelivered":10746,"Ġdetrarre":10747,"Ġdeclaration":10748,"Ġyields":10749,"ĠBrowse":10750,"ĠBisogna":10751,"ĠBeijing":10752,"ĠBreakdown":10753,"ĠBorghini":10754,"Ġprototipo":10755,"Ġprotezione":10756,"Ġproactiveness":10757,"Ġproficiency":10758,"Ġproiezioni":10759,"Ġproï¬ģt":10760,"Ġprogresso":10761,"ingresso":10762,"Ġbaggage":10763,"Ġblocked":10764,"Ġbeside":10765,"Ġbinding":10766,"Ġbiomedical":10767,"Ġbenvenuto":10768,"Ġbrochure":10769,"Ġnordamericane":10770,"Ġnazionale":10771,"Ġunlimited":10772,"Ġunusual":10773,"Ġunconnected":10774,"Ġunsuccessfully":10775,"Ġunemployment":10776,"Ġunsubscribe":10777,"gratuitamente":10778,"ĠColantone":10779,"ĠCalifornia":10780,"ĠCapitoli":10781,"ĠCounselors":10782,"ĠCredentials":10783,"ĠSaremo":10784,"ĠSvizzera":10785,"ĠStaff":10786,"ĠSentiti":10787,"ĠStefania":10788,"ĠSimulation":10789,"ĠSchedule":10790,"ĠSvolgono":10791,"ĠSfoglia":10792,"ĠScholarships":10793,"ĠSubscriptions":10794,"ĠSwitzerland":10795,"ĠSouthern":10796,"Ġrevenues":10797,"Ġreplacement":10798,"Ġreinforces":10799,"Ġhundreds":10800,"Ġhouse":10801,"Ġhybrid":10802,"Ġharmony":10803,"ĠMirano":10804,"ĠMega":10805,"ĠMarshall":10806,"ĠMicroeconomics":10807,"ĠMechanism":10808,"Ġconducono":10809,"Ġconcluso":10810,"Ġconcludi":10811,"ĠconformitÃł":10812,"Ġconcorso":10813,"Ġconceptual":10814,"Ġcontracts":10815,"ĠAttendance":10816,"ĠAffitti":10817,"ĠAnother":10818,"ĠAziendale":10819,"ĠPadula":10820,"ĠPapaspilio":10821,"ĠParticipants":10822,"ĠPsychology":10823,"ĠPURCHASE":10824,"ĠPiÃ¹Case":10825,"Ġperduto":10826,"olgiti":10827,"adaptive":10828,"Ġgusto":10829,"Ġgovernments":10830,"Ġgiovani":10831,"Ġcancellazione":10832,"ĠTurrini":10833,"ĠTuition":10834,"ĠTechnology":10835,"chronous":10836,"Ġispiratori":10837,"Ġimperfections":10838,"ĠLithuania":10839,"ĠLimita":10840,"ĠLinguistico":10841,"ĠLanguage":10842,"Ġvende":10843,"Ġvantaggi":10844,"Ġvostri":10845,"ĠvenerdÃ¬":10846,"Ġvitality":10847,"Ġvincolanti":10848,"Ġalgorithms":10849,"Ġsuddivisa":10850,"Ġsufficiente":10851,"ĠEthics":10852,"ĠEffettua":10853,"ĠEsiste":10854,"Ġrinegoziare":10855,"Ġristoranti":10856,"Ġrubare":10857,"Ġranks":10858,"transcript":10859,"Ġsegnalare":10860,"ĠWriting":10861,"Ġpredisponendo":10862,"Ġprecedente":10863,"Ġnegotiation":10864,"Ġexcluded":10865,"Ġexcellent":10866,"Ġexpenses":10867,"Ġexempted":10868,"Ġexchanges":10869,"Ġacconsentito":10870,"Ġaccoglie":10871,"ĠDubini":10872,"ĠDottorandi":10873,"Ġasynchronous":10874,"Ġasincrono":10875,"Ġascolto":10876,"Ġassimilated":10877,"ĠInvoices":10878,"ĠIntroduction":10879,"ĠInghilterra":10880,"ĠInformazioni":10881,"ĠInnovation":10882,"ĠIntegrated":10883,"ĠInvestment":10884,"Ġquinquennale":10885,"Ġappears":10886,"Ġapportare":10887,"Ġappreciate":10888,"Ġhavens":10889,"Ġparallelo":10890,"ĠGuidance":10891,"ĠGlobalization":10892,"ĠGenerally":10893,"ĠGrowth":10894,"ĠGuanghua":10895,"ĠGiovanna":10896,"ĠComparative":10897,"ĠFrench":10898,"ĠFrosini":10899,"ĠFollowing":10900,"ĠFirmerai":10901,"Ġscadute":10902,"ĠAlthough":10903,"ĠAltrimenti":10904,"ĠAlessandra":10905,"confidence":10906,"Ġweighting":10907,"Ġwealthy":10908,"ĠNDAs":10909,"ĠNATIONAL":10910,"ĠNunnari":10911,"impostazione":10912,"Ġspheres":10913,"Ġspostamento":10914,"Ġspotted":10915,"Ġspiega":10916,"Ġspokespersons":10917,"Ġsponsored":10918,"Ġinformatica":10919,"Ġricoprono":10920,"Ġriconsegna":10921,"Ġugualmente":10922,"ĠYounger":10923,"Ġcoherent":10924,"Ġcognitive":10925,"Ġcorporations":10926,"Ġcorrelati":10927,"Ġdisappear":10928,"Ġdissertazioni":10929,"Ġdissolved":10930,"Ġdisadvantaged":10931,"ĠProporre":10932,"ĠOmiros":10933,"ĠOfficer":10934,"ĠOgnuna":10935,"Ġesposizione":10936,"Ġeseguito":10937,"Ġesonerato":10938,"Ġestablished":10939,"Ġadopted":10940,"Ġadapt":10941,"Ġadottato":10942,"Ġadattiamo":10943,"Ġadattano":10944,"assicurazione":10945,"originale":10946,"Ġprescribed":10947,"Ġfigures":10948,"ĠRiceverai":10949,"ĠRector":10950,"ĠRivolgiti":10951,"ĠRetailing":10952,"ĠRipartizione":10953,"ĠReduced":10954,"Ġglimpse":10955,"Quantitative":10956,"thinking":10957,"Ġ20000":10958,"Ġconstituted":10959,"Ġconstantly":10960,"Ġinterdependencies":10961,"Ġintermediaries":10962,"Ġrestrizioni":10963,"Ġrestrictions":10964,"Ġrestaurants":10965,"Ġgiuridici":10966,"Ġtrampolino":10967,"Ġtailored":10968,"Ġsoprattutto":10969,"Ġsemestralmente":10970,"Ġriguarda":10971,"Ġdisplayed":10972,"Ġagonistica":10973,"Ġarchivi":10974,"Ġinspirational":10975,"Ġworkplaces":10976,"Ġenjoy":10977,"Ġvibrant":10978,"Ġassistervi":10979,"Ġassistenza":10980,"Ġcaratterizzate":10981,"Ġcontemporaneamente":10982,"Ġentusiasmo":10983,"Ġenthusiasm":10984,"ĠConvenzione":10985,"ĠContattaci":10986,"Ġimpronte":10987,"classificate":10988,"ĠVALID":10989,"Ġrecapiti":10990,"Ġliabilities":10991,"Ġpraticato":10992,"ricontrollalo":10993,"Ġtrailblazer":10994,"Ġsubsidizing":10995,"Ġindispensabile":10996,"Ġmeasurable":10997,"Ġdesgined":10998,"Ġelsewhere":10999,"Ġreceptivity":11000,"Ġmindset":11001,"Ġjunior":11002,"Ġjourney":11003,"ĠArchivio":11004,"triennio":11005,"ĠAssolutamente":11006,"appartamenti":11007,"Ġapproximately":11008,"ĠinfluirÃł":11009,"Ġmetropolitane":11010,"Ġpostponed":11011,"ĠAntonio":11012,"Ġprivileges":11013,"Ġphysics":11014,"ĠIslanda":11015,"Ġroommate":11016,"Ġequiparata":11017,"Ġequipped":11018,"Ġequilibrata":11019,"Ġscioglimento":11020,"Ġforniscano":11021,"Ġtotalizzante":11022,"prepared":11023,"Ġdecidedly":11024,"ĠSpazio":11025,"ĠSpiacente":11026,"Ġannouncements":11027,"Ġdimenticato":11028,"ĠCiascuno":11029,"embracing":11030,"Ġholidays":11031,"ĠReasoning":11032,"Ġemphasize":11033,"Ġraccontami":11034,"ĠRiconosciamo":11035,"Ġinstructors":11036,"Ġagevolazioni":11037,"ĠAbsolutely":11038,"Ġtradizionalmente":11039,"ĠMeasurement":11040,"Ġsponsorizzata":11041,"Ġsupervisionati":11042,"Ġrenegotiate":11043,"Ġexperiencing":11044,"Ġencyclopedias":11045,"Ġenciclopedie":11046,"Ġsmarrimento":11047,"Ġcaffetterie":11048,"Ġcontrassegnati":11049,"Ġcomprehension":11050,"avanguardia":11051,"Ġremotely":11052,"ĠACQUISTA":11053,"impiego":11054,"Ġarchitecture":11055,"ĠAuthorities":11056,"ĠillustrerÃł":11057,"Ġconsapevolezza":11058,"Ġtrentesimi":11059,"Ġsottoscrivere":11060,"ĠPapaspiliopoulos":11061}