#version: 0.2 - Trained by `huggingface/tokenizers`
Ġ t
Ġ a
h e
i n
r e
Ġ s
Ġ o
Ġt he
e n
a n
e r
Ġ w
a t
Ġ c
o n
o u
e s
Ġ f
i s
Ġ b
in g
Ġa n
> :
i t
o r
Ġ p
Ġt o
Ġ m
o t
Ġ d
a l
Ġ in
a r
Ġo f
e d
Ġan d
a s
u m
l e
i on
en t
Ġ is
i c
Ġ g
Ġ h
o m
um an
e t
b ot
h uman
Ġ l
Ġ y
Ġ T
Ġt h
Ġ I
Ġy ou
Ġ n
l l
o w
Ġ e
Ġ re
s t
Ġ Ġ
u t
c t
v e
c e
i d
Ġb e
ĠT he
Ġs t
l y
Ġo n
Ġf or
Ġo r
c h
r o
s e
Ġa re
a y
l d
Ġ u
i m
a m
it h
i r
Ġ A
Ġ it
Ġth at
he r
o o
i v
Ġw ith
i f
es t
Ġ 1
Ġ W
a k
Ġ S
er s
a d
i g
u r
Ġ Y
Ġa s
Ġyou r
at ion
p e
i l
a g
Ġ he
Ġc an
h at
v er
Ġ C
Ġ '
Ġc on
Ġs u
q u
e re
r a
Ġn e
at e
ent en
Ġf r
Ġs e
Ġ H
is t
Ġd o
Ġm o
d s
i ll
n t
Ġ P
iv en
r u
ou ld
ĠY ou
Ġ 2
Ġw as
Ġh a
Ġp ro
Ġs h
c k
Ġd e
Ġw or
an t
u l
a b
r i
c es
o l
Ġw h
Ġf o
Ġ F
t h
Ġ "
in e
Ġc om
a in
ĠĠ ĠĠ
Ġs enten
Ġin t
Ġb y
ak e
Ġc h
p le
Ġg iven
Ġo ut
ig h
Ġfr om
om e
Ġe x
i e
i ve
ll ow
al l
Ġ v
id e
in d
n d
Ġ M
t her
Ġ B
ĠW hat
Ġp l
0 0
ou t
Ġa b
p p
u s
Ġ 3
' ,
p t
re s
Ġ le
Ġa l
Ġt e
o s
Ġ r
Ġa t
Ġ if
Ġha ve
al ly
Ġfo llow
igh t
or t
' s
ar t
Ġth is
ag e
m ent
a ch
as s
Ġn ot
Ġw he
Ġm e
Ġ k
ion s
as k
t er
Ġ G
Ġ (
p ut
oo d
oo k
g et
Ġw e
Ġ D
Ġt ask
x t
Ġsenten ce
r ou
Ġ N
ou r
Ġ qu
Ġs o
u d
re d
Ġc o
en d
Ġfollow ing
i es
at ed
e l
Ġ E
e p
ĠI n
Ġm an
r y
Ġt w
an d
as e
Ġab out
g e
Ġ O
Ġ j
Ġw ill
u n
on e
e m
l o
Ġon e
ir st
Ġu s
es s
ic e
Ġtw o
b le
_ _
Ġ =
â Ģ
it y
Ġs p
Ġne ed
g h
p er
it e
ic h
as t
ĠĠ Ġ
Ġd es
Ġsh ould
Ġh as
Ġ R
ĠI t
Ġe ach
am e
e ct
a ce
k e
Ġb est
ĠH ow
c i
Ġf irst
Ġthe y
Ġcon t
Ġw ay
Ġ 4
u re
Ġu n
b er
Ġm y
Ġa r
Ġ J
on g
Ġa ll
er m
Ġs ome
y pe
d d
Ġl ist
Ġg o
Ġ im
T he
Ġo ther
s o
on d
Ġmo re
ic k
d u
Ġint o
Ġg et
Ġf ind
s w
Ġ L
Ġin c
Ġ en
Ġs c
a ck
in t
ou nt
a ct
Ġp e
Ġan y
l es
Ġthe ir
o re
l p
Ġd et
Ġl o
Ġhe lp
Ġ 5
d er
Ġman y
Ġm ake
Ġl i
Ġ [
Ġu p
or m
a re
Ġthe m
it ion
ar d
Ġp r
Ġthe re
Ġb ut
c ri
i z
ab le
Ġn um
Ġan sw
Ġc l
a il
r ing
ru e
f f
Ġre s
Ġqu est
re e
ers on
im e
Ġal so
a p
Ġwh ich
Ġsu ch
if f
at er
pt ion
o ple
ar k
Ġdes cri
o p
ar get
an g
Ġf e
ĠI s
Ġwor d
v ie
i ld
a u
Ġ ro
ow n
Ġb u
ul t
ent s
Ġse c
a v
ĠI f
Ġe v
d e
Ġansw er
Ġpe ople
Ġs et
Ġw hat
Ġli ke
Ġd is
u st
re at
Ġ -
p l
Ġ her
a c
Ġd iff
f orm
Ġb et
p h
Ġmo st
ou s
ĠYou r
ct ion
ar y
Ġp os
w e
Ġh ow
i le
u e
Ġa c
Ġwh o
erm ine
ur n
al s
Ġh is
Ġim p
Ġo ver
ver y
en e
Ġ U
Ġc or
Ġs he
ation s
Ġpro v
Ġor der
res s
Ġte xt
Ġf l
p en
ĠS t
Ġb l
Ġ 0
Ġcon s
ic al
ar s
vie w
ak ing
en ce
ere ot
ĠH e
i p
Ġsenten ces
Ġs m
re ct
ereot ype
Ġwhe n
Ġne w
l ated
ĠY es
Ġt ime
l ud
ĠT h
Ġwor k
' m
o b
t ing
an ce
Ġdiff ere
Ġs pe
Ġg ood
Ġ *
pe ct
Ġsec ond
an s
g s
Ġu se
Ġp erson
o d
in k
âĢ Ļ
Ġwhe ther
Ġdo es
Ġs a
Ġc ar
r am
s ide
Ġm ay
Ġw ould
i ble
or s
n e
Ġl ook
is e
en er
Ġin st
Ġ 6
Ċ ĠĠĠ
ing s
rou nd
Ġnum ber
Ġa m
Ġw ant
ces s
Ġsu re
f ore
is h
Ġdescri ption
Ġbe c
Ġdet ermine
o g
Ġp re
Ġth an
" ,
Ġquest ion
i al
Ġbe en
Ġde c
Ġp o
ĠF or
Ġk n
Ġit s
au se
] .
w ay
Ġwor ds
ul ar
ou gh
Ġd ay
Ġof f
i a
Ġinc lud
le ase
' .
Ġin form
al se
we en
u p
he s
Ġbet ween
re lated
Ġst ring
Ċ ĠĠĠĠ
Ġp h
it s
dd ition
Ġa pp
at es
e xt
' t
ct ions
Ġc ould
er v
Ġw ater
Ġst art
Ġc ol
al k
Ġl ong
enten ce
Ġd id
" .
Ġc he
Ġinform ation
) .
Ġcom m
T I
or y
Ġp er
Ġw ere
Ġcom p
Ġm u
on s
b s
Ġ* *
ou nd
Ġbe fore
> >
n ing
Ġa d
al th
ĠW h
ot h
l ine
Ġp art
Ġout put
Ġd i
Ġb r
. .
ass age
# #
Ġ <
Ġt arget
f t
ig n
Ġw r
Ġ 8
Ġthe n
Ġpl ace
V E
) ,
Ġa g
ĠTh is
Ġre view
Ġdiffere nt
at ing
Ġh ad
or d
Ġj ob
rou gh
Ġ $
Ġ 7
Ġn o
Ġmu ch
p o
Ġun related
Ġy e
a x
Ġt ry
f ter
ment s
Ġre t
ar ch
Ġsc ene
Ġus ed
Ġt ra
at h
Ġt ake
Ġm in
Ġcor rect
a ir
Ġus ing
Ġg r
c om
j ect
Ġc ount
if y
Ġfor m
Ġ[ '
Ġcont ain
e g
Ġc re
ra ph
Ġs y
Ġ ru
Ġm ed
le ct
Ġf ood
an k
Ġre l
ĠA ddition
Ġlo c
ĠAddition ally
Ġsm all
TI VE
Ġhe alth
o h
f ul
y p
s ible
ot her
re n
oo l
i ly
Ġimp ort
t e
Ġprov id
w n
Ġpro du
Ġm ark
as ed
Ġ1 0
nd er
ĠG iven
Ġ 9
am ple
Ġin v
Ġb ook
Ġch ar
Ġv al
Ġre ad
ad e
ep s
ic t
Ġth rough
Ġe m
Ġk e
i re
t en
Ġh ome
Ġimport ant
ru ctions
Ġp ar
ci al
an ge
ic es
et h
ere d
Ġt r
red i
Ġkn ow
ĠC h
l f
Ġs erv
Ġwh ile
Ġu nder
er t
Ġ âĢ
Ġg ener
ve l
Ġan t
y s
Ġbec ause
Ġas k
Ġre g
ĠP lease
Ġp ie
at ive
Ġon ly
Ġpos sible
ĠC an
if ic
re es
Ġ2 0
er n
it ies
Ġon line
Ġf un
Ġl ar
1 0
Ġfr i
u b
he n
ag raph
ĠA n
ĠThe re
Ġb ack
Ġs l
id er
ra ct
Ġt ype
l ass
Ġw all
Ġs k
Ġret urn
Ġre m
Ġ K
am es
n ce
u ll
i an
Ġ ra
v ing
Ġth ree
Ġd r
ĠR e
Ġre st
c c
Ġn ame
__ __
ĠT rue
a z
m er
pen ds
Ġde pends
1 2
Ġ very
oh n
o ve
Ġsu g
Ġt yp
Ġt rue
Ġst ate
Ġf am
Ġa fter
Ġinclud e
H ow
Ġst ud
Ġa ct
i ous
Ġ {
Ġ +
ut put
Ġs ame
e ll
Ġco de
st ereotype
r ay
Ġd own
Ġchar act
Ġm ain
at her
' ].
it ive
in s
Ġb o
Ġ1 9
Ġar t
one y
Ġc up
Ġout side
en g
Ġac c
Ġthe se
im ent
ĠN o
iz e
en s
Ġch ild
Ġint eg
he d
Ġex per
Ġwhe re
Ġa round
ĠS he
Ġc a
ow er
d ay
Ġbe l
n g
ab les
Ġst ereotype
Ġ ve
Ġc le
p s
Ġcom ple
Ġb re
at s
Ġpar agraph
Ġwe ll
ou n
ĠT hat
ak es
ing redi
Ġa p
Ġev ent
Ġe very
Ġinst ructions
Ġsu b
he re
Ġe g
it her
Ġcl ass
Ġin s
Ġb us
Ġ ingredi
l ic
ag es
Ġdet ail
Ġat t
Ġg reat
b ers
Ġpl ay
Ġquest ions
Ġ1 2
ĠS entence
Ġare a
id ent
v en
Ġw alk
s s
Ġm oney
in es
Ġs al
Ġmin ut
Ġh our
Ġto t
Ġse e
Ġdo g
Ġant i
i ed
iv er
i x
. ,
Ġlook ing
Ġc all
' re
ar n
Ġag ain
Ġg rou
Q u
Ġ< <
se lf
ow s
em s
in ally
ent ial
Ġcomm on
ĠT arget
Ġres pect
ic s
g an
Ġle t
ic ally
it ed
Ġa dd
Ġme an
Ġche ck
ĠM ake
v ed
en ds
Ġc ur
ff ect
or k
Ġa v
Ġre f
u res
ĠThe y
Ġto p
ou se
Ġpo int
ar m
et s
Ġpl an
Ġ ide
Ġprodu ct
Ġn at
Ġe ither
Ġbu ild
an y
Ġtot al
Ġo b
Ġminut es
as h
ĠĠĠĠ ĠĠĠĠ
ur al
get her
ĠU n
Ġ V
Ġst eps
Ġh im
Ġc r
ĊĠĠĠĠ ĠĠĠ
o c
is s
in ess
n er
Ġs um
Ġl ine
Ġre se
h ip
Ġcom put
Ġprov ide
00 00
o k
im al
at t
Ġ ent
Ġex p
ĠD o
ant s
' ve
du ce
Ġl ight
G A
ct or
Ġg re
Ġprovid ed
c ed
eng th
Ġs ur
p ort
Ġwr it
pp ort
Ġ i
Ġp assage
ur ing
Ġwe bs
Ġpro g
Ġin side
2 0
v es
er g
Ġto gether
Ġcons ider
Ġf ound
Ġu nt
r ic
Ġp ot
Ġha pp
Ġgo ing
u es
Ġth ink
Ġcre ate
end ing
Ġe le
Ġm ade
Ġf in
] ,
at ch
iv es
ĠO utput
an ds
u al
5 0
v ers
E GA
Ġunt il
EGA TIVE
com m
Ġad v
est ion
Ġfe el
oo se
Ġa ir
00 0
Ġs ol
Ġd on
ch ool
ĠJ ohn
Ġin d
Ġr ight
Ġm il
ot e
Ġco st
Ġingredi ents
Ġgrou p
e w
Ġcontain s
Ġke ep
Ġst r
e ver
Ġfam ily
Ġe qu
if e
Ġpos itive
en se
a w
Ġbu y
er c
Ġdetail ed
Ġreg ular
Ġc ook
Ġin put
Ġte ll
Ġspe c
Ġb oth
Ġp op
Ġloc al
m at
ĠF inally
way s
e k
Ġev en
Ġdescri b
Ġs it
Ġs om
Ġv ar
im es
Ġbe ing
t y
Ġlar ge
) )
Ġye ars
Ġde g
Ġfun ction
Ġro om
Ġh igh
Ġs ent
Ġpr int
g er
Ġsa f
Ġrese arch
Ġcon c
Ġc are
i red
Ġt est
as es
r ite
Ġre c
Ġway s
a ur
Ġtyp es
al e
Ġwor ld
o st
Ġsh ort
Ġs im
I n
Ġserv ice
Ġe l
Qu estion
c us
Ġp ass
ble m
N o
l ed
Ġ x
o ld
Ġf lo
Ġeg gs
Ġsug ar
ĠF alse
Ġre ci
Ġm on
a h
Ġp res
ere st
Ġbus iness
l ing
o se
ic le
Ġnum bers
- -
Ġ :
Ġs chool
Ġo cc
Ġhour s
Ġs le
Ġinc re
Ġfri ends
Ġpro blem
Ġcall ed
Ġde f
Ġdo ctor
et y
Ġre comm
Ġde p
. "
Ġbet ter
ar ds
Ġm aking
in ed
at a
Ġha ving
Ġ1 8
iv ing
o y
Ġint erest
b r
Ġhe re
Ġide a
Ġp ain
Ġm us
Ġl ength
Ġexper i
t o
Ġact iv
Ġre qu
S I
Ġrecomm end
Ġo pt
ut ion
Ġsent iment
st and
ar r
Ġo wn
ĠF ind
a ces
Ġex t
w ise
mer ic
Ġru n
Ġb ene
S entence
Ġle ft
eth ing
Ġsy st
Ġf act
Ġj ust
Ġcharact er
ar th
u ally
Ġg ive
Ġv is
Ġpro cess
Ġp air
ck s
Ġal ways
Ġl ot
Ġin f
ĠW rite
Ġ end
Ġp ol
on es
Ġs ide
Ġsom ething
Ġo ld
ĠS ome
Ġse qu
Ġprog ram
t s
Ġagain st
od y
c y
lo p
Ġve get
Ġle ad
Ġ1 5
Ġw ent
Ġwith out
am p
Ġd ist
Ġget ting
or n
ĠT o
s h
ĠG ener
Ġval ue
ol og
Ġpie ces
Ġe at
e c
Ġr is
Ġe ffect
Ġo pen
Ġhe ad
Ġob ject
g est
g ative
T rue
ĠA meric
Ġc ent
c hes
if ied
o id
p ar
Ġinv est
Ġpro per
Ġfo re
our ces
re ad
< <
on t
ĠT ext
Ġrest aur
Ġt able
Ġdeg rees
p r
ĠP ro
Ġnat ural
Ġex ample
ĠC om
Ġunder stand
t ed
Ġwall s
a ve
Ġd uring
Ġst re
ang u
ĠW e
ie ld
Ġo il
Ġcom e
Ġbl ack
Ġle arn
1 5
b b
ri es
Ġw ind
n ess
Ġap pe
Ġbook s
v ent
it al
Ġc at
Ġrel ations
Ġcle an
Ġse ver
i qu
Ġt ax
Ġw om
Ġar ray
ar ning
S t
Ġ ____
ve lop
Ġne ver
Ġc al
Ġwe ek
Ġimp ro
Y es
Ġf ill
Ġb lo
Ġs ign
ro ss
re nt
Ġsu pport
Ġf our
iz ed
Ġ ed
Ġpro f
Ġsu n
Ġb ased
i er
ist s
Ġe as
Ġbl ank
ir on
ĠC lass
Ġto o
t he
Ġdr ink
ert ain
e e
Ġo per
Ġb ed
O SI
Ġreview s
Ġsever al
Ġre ally
Ġp ur
Ġcan d
OSI TIVE
Ġres ult
Ġcomple te
Ġg u
w ork
ir d
ro p
Ġl angu
Ġst ay
il ity
Ġflo or
Ġh ouse
Ġdis h
l ish
Ġt ri
Ġrelations hip
Ġqu ick
er r
Ġl ast
Ġinteg ers
at ter
Ġint er
Ġor gan
Ġneed s
F alse
ver age
Ġne ar
Ġt imes
Ġbene f
Ġl it
Ġsle ep
i o
Ġca us
Ġstate ment
Ġas s
Ġhealth y
Ġre p
ult i
ĠE ng
Ġfe w
in ing
Ġt aking
Ġst o
Ġa ut
y th
ill s
Ġre duce
t le
ar ing
Ġwe ight
Ġsp ace
Ġw ood
Ġs ay
Ġd ata
Ġmean ing
## ##
Ġreci pe
i b
Ġs w
ĠClass ify
ch n
Ġtry ing
Ġm ight
Ġfl our
oo ds
Ġne gative
de f
Ġb aking
Ġn ight
Ġsal t
ĠUn ited
a red
Ġst ore
on y
ĠW hen
Ġ3 0
Ġch o
Ġbre ak
Ġsyst em
Ġ ident
Ġg round
Ġye ar
Ġcon d
Ġopt ions
Ġrestaur ant
ick en
Ġl ife
Ġcomp any
Ġm other
Ġit ems
Ġwebs ite
Ġg ram
Ġp ract
Ġb ody
Ġc ap
ion al
Ġspec ific
Ġday s
po on
Ġcur rent
Ġyour self
Ġne xt
Ġgener ate
Ġwh ite
Ġex erc
Ġam ount
Ġle vel
et ic
Ġde velop
Ġa way
Ġth ings
Ġl ab
Ġof ten
Ġlangu age
Ġdiffere nce
ver n
Ġt rees
om s
ĠH ere
Ġp ay
ud get
Ġen ough
e f
Ġt ables
ith m
ĠĠĠĠ ĠĠĠ
ate ly
Ġbuild ing
Ġch oose
Ġpoint s
Ġpie ce
ĠD et
th ing
1 1
e x
Ġs ing
ĠA l
Ġc lo
ĠGener ate
( )
Ġs n
Ġsaf e
Ġtr ans
Ġm ust
Ġte m
Ġneed ed
av or
Ġpr ot
R E
Ġm et
Ġt alk
yth on
Ġc reat
Ġstring s
Ġb udget
el s
Ġc ust
ic ation
Ġp lease
ation al
Ġbr own
ĠP erson
Ġan other
Ġph r
Ġbut ter
Ġp a
Ġdes ign
Ġsa id
Ġm ent
Ġte chn
ĠWh y
Ġpop ular
o es
Ġw ide
Ġth ough
Ġsome one
" "
u ation
7 5
Ġart icle
erg y
Ġother wise
Ġp ut
Ġf ield
ĠW here
ĠO ne
ĠDet ermine
r on
Ġg lass
l iver
Ġth ose
Ġm ar
Ġha ir
ĠWh ich
Ġinclud ing
Ġstud y
ĠA r
) :
Ġ1 1
Ġab le
ru ction
Ġen g
ate g
Ġch ang
is ion
Ġsy m
Ġris k
Ġo ur
i ent
al ity
Ġav ail
Ġfo cus
Ġc ity
E x
ri ble
f ort
Ġa verage
y le
ĠS o
c er
Ġbel ow
Ġt urn
Ġinteg er
e ad
Ġf alse
Ġdi et
Ġst ill
Ġb ro
es e
u c
Ġexperi ence
Ġp ath
Ġre d
or ds
Ġchild ren
j oy
Ġto wn
Ġlong est
Ġt ree
it es
Ġd ark
Ġwrit ten
Ġen ergy
Ġoff er
ĠHow ever
ĠWh o
Ġfri end
Ġk ind
el p
Ġe ating
il ing
Ġwr ite
Ġocc ur
in al
Ġregular ly
3 0
Ġs ense
Ġme m
Ġcomput er
Ġa llow
Ġgre en
pp er
Ġhe ard
Ġavail able
c ing
Ġt er
Ġme ans
le v
Ġar r
Ġo ven
Ġto w
âĢ Ŀ
r it
ĠE arth
T ext
ĠN ew
Ġal ong
pp ing
c o
ĠâĢ ľ
Ġins pect
Ġgr ow
Ġh uman
Ġs qu
Ġmil k
t ers
Ġs er
or ies
Ġcust om
Ġn ow
4 0
Ġg l
Ġch icken
ĠN EGATIVE
Ġf ree
y e
1 9
6 0
Ġt reat
Ġte as
ĠF r
ĠP ython
Ġso ft
ed s
l ight
Ġmon th
ip s
Ġc ase
r al
Ġc ause
Ġe lect
Ġp an
Ġhapp en
Ġlo ve
ĠSt ates
ĠJ ames
Ġh and
Ġle ast
or th
Ġprof ess
Ġe ar
ĠS h
Ġvar i
Ġcol le
Ġbu gs
ut e
Ġveget ables
Ġfr u
Ġm akes
ver t
Ġse arch
al f
Ġh ard
ab c
Ġdi rect
Ġev ents
in ce
nt er
l and
Ġw ild
Ġse lect
Ġ }
ĠA s
Ġdo or
Ġcom b
ot s
le t
Ġcont act
ĠY elp
Ġmark et
Ġl ow
id es
Ġt erm
( (
Ġcol or
ff ic
i um
p lo
Ġcount ry
Ġcharact ers
Ġgo als
ĠS e
as on
cess ary
ub lic
ĠEng lish
Ġc ertain
Ġco ld
ent y
Ġ Question
is m
E S
ou th
Ġres p
Ġm ulti
i k
h or
Ġst ep
Ġso cial
Ġmus ic
Ġf il
Ġpart ic
Ġch ange
Ġask ed
ĠB e
im als
Ġactiv ities
ĠP assage
Ġsing le
in ner
Ġle av
o f
Ġl ess
Ġw arm
2 5
n ot
Ġter rible
em ber
Ġd iv
ĠS p
Ġstart ed
Ġh ist
Ġ1 6
Ġ /
ĠP l
T E
Ġg ot
Ġkn own
b y
Ġph ys
Ġ1 3
Ġres ources
Ġsa w
Ġcont ext
O N
Ġor ig
Ġc e
os s
ra in
ord ing
h ing
r ow
' ]
ent ly
ag ram
ithm etic
at ure
ir t
Ġmo vie
Ġst ory
m an
ab et
re en
Ġspe cial
ull y
Ġ err
Ġre lated
Ġar ithmetic
4 5
is hed
n ect
pr int
u g
Ġm en
Ġp ow
os ed
Ġfin an
Ġident ify
an e
ress ion
ĠM y
Ġtra vel
Ġpot ential
u nd
Ġre al
pp ed
Ġdec imal
c on
Ġen joy
ll ing
P OSITIVE
Ġset ting
Ġan imals
in ation
Ġdo ing
Ġl ower
Ġf all
Ġbe h
ain s
ot t
ĠC on
Ġsh ow
az y
c ul
Ġpre p
it c
Ġke y
Ġlab el
ĠP r
m y
ĠHe ad
w are
Ġhe at
it ions
ĠSt art
Ġbl ue
Ġf avor
Ġimpro ve
Ġproduct s
Ġst and
Ġm at
Ġp ast
Ġs ize
Ġlike ly
Ġpa per
Ġbel ie
um e
Ġdis c
Ġpract ice
b e
ĠIn st
Ġm iss
ĊĠĠĠĠ ĠĠĠĠĠĠĠ
Ġpl enty
i ke
Ġb ow
Ġse par
ĠE nter
Ġl a
am ed
Ġmo ve
t t
Ġpl aces
1 00
m age
Ġ .
Ġp ick
Ġc red
Ġst one
Ġteas poon
Ġg ra
ĠO liver
1 6
um ent
Ġpres ent
1 8
ru ct
ĠC l
v iron
Ġim age
s p
in c
Ġs and
Ġstud ents
Ġg ame
iqu e
Ġinv ol
iz ation
Ġacc ount
S ample
s es
ce pt
Ġre ach
Ġf oods
Ġprot ect
Ġne cessary
Ġ" ""
Ġb as
Ġph one
Ġl ive
ll s
Ġcon f
il ar
Ġ4 0
at ures
en n
Ġw a
Ġsu c
Ġwom an
Ġs ci
Ġv ac
Ġ1 7
N EGATIVE
Ġcon ve
id s
Ġj um
Ġav oid
Ġen viron
Ġb ir
Ġsl ow
w ard
Ċ Ġ
Ġa ge
id ered
Ġm ater
Ġp ower
Ġ1 00
Ġs av
Ġto day
id ed
um n
ĠO nce
Ġre pl
Ġn ut
1 4
Ġme et
g le
Ġread ing
Ġl azy
3 3
Ġadv ice
Ġel se
Ġ ice
Ġh ot
Ġloc ation
ĠA fter
Ġsur f
Ġenviron ment
res p
Ġaut hor
Ġgram mat
Ġwork ing
Ġal ph
are nt
ĠU se
Ġcons idered
Ġcap ital
Ġc our
Ġfavor ite
Ġro ck
a pe
Ġd ig
Ġcom fort
Ġrep res
oun ds
Ġwith in
Ġem plo
Ġlit tle
ĠS et
Ġth ing
Ġhe ld
Ġex pect
ĠThe n
Ġother s
Ġcomm un
ic ult
v al
st ring
iv ed
Ġfl ow
po ons
Ġcre am
Ġsk ills
ĠâĢ ĺ
i als
Ġcons ult
ict ion
m ing
Ġr id
Ġsh op
ony m
iv ers
Ġm ax
Ġbe g
itc hen
Ġle arning
Ġbenef its
ĠP re
Ġo ption
Ġpl ants
Ġac ross
Ġele ments
Ġf re
Ġ2 5
i xt
Ġro ad
Ġlet ter
Ġansw ers
Ġacc ording
Ġsim ilar
Ġpow der
l ess
Ġmo on
Ġapp les
at or
Ġcon st
po se
Ġpl ant
Ġa ddition
ra w
Ġen c
Ġk itchen
Ġbow l
Ġst e
rop ri
s ure
Ġhist ory
Ġan imal
Ġfe et
Ġtem per
Ġdiff icult
ĠU S
O T
Ġequ al
a ut
Ġcor resp
Ġgo vern
t ain
Ġt all
T h
Ġsuc cess
Ġeffect ive
Ġl aw
Ġlet ters
Ġper form
c le
ĠRe view
olog y
Ġhe art
Ġdef in
Ġ1 4
Ġcle ar
it ing
Ġd ry
Ġcon nect
Ġfinan cial
Ġsa ve
Ġsug gest
Ġh ang
z e
Ġwant ed
Ġsequ ence
Ġp ull
Ġrem ove
Ġab ove
or ld
Ġdis e
an a
Ġg ard
Ġex pl
Ġgo ld
a pp
Ġval id
Ġus ually
ĠA dd
Ġm or
Ġn ames
Ġcred it
at ors
J ohn
Ġ2 4
Ġwalk ed
Ġs il
Ġany thing
I t
y es
ĠO n
Ġcount ries
Ġbec ome
Ġre lev
ri ed
on ds
f ully
P assage
Ġf ather
ĠE ach
Ġ ver
Ġs we
Ġh alf
er ing
pt oms
m e
Ġsk in
Ġmulti ple
A L
Ġde ep
Ġg ar
Ġf ace
Ġcont ro
Ġc ard
ĠRe ad
Ġf it
ixt ure
Ġst ress
Ġcup s
Ġwebs ites
Ġon ce
Ġapp ropri
ĠAmeric an
Ġwrit ing
Ġfollow s
ĠI nd
as ing
Ġcont in
Ġis s
Ġl im
Ġtyp ically
ro du
Ġac cess
Ġunderstand ing
Ġm a
Ġf ur
Ġfl u
Ġincre ase
ĠE x
Ġ ,
Ġt ru
b o
Ġchang es
Ġcon vers
in a
Ġf ish
Ġan agram
i or
en cy
Ġl ives
Ġ |
iv id
Ġalph abet
Ġserv ices
our ne
he at
o int
Ġt rou
ri b
id d
ern ess
1 3
Ġphr ase
P E
enten ces
Ġd ate
Ġb ig
Ġeg g
Ġ est
Ġpur ch
Ġwood en
Ġl and
Ġm ixture
Ġstr ong
Ġcont ent
Ġexerc ise
Ġsit uation
Ġs ince
Ġprofess ional
ag n
ĠO ther
Ġdec ide
Ġhe av
Ġlevel s
ĠIn put
Ġclo se
Ġgard en
g es
Ġwalk ing
Ġgovern ment
le y
ll o
sw er
O utput
Ġp ublic
Ġdid n
Ġmo d
ff ee
Ġh ig
Ġpr ice
Ġt att
Ġs ort
Ġappe ar
f l
Ġp at
g ed
se qu
Ġ____ _
ĠA re
Ġfact ors
Ġc ut
Ġ2 00
Ġplay ing
Ġsym ptoms
Ġc ir
Ġw in
Y Y
1 7
Ġint ern
Ġclass ify
Ġwild erness
is on
Ġpo st
in ated
res h
Ġw atch
so ci
au gh
l s
id ge
Ġm eth
Ġce iling
Ġcent er
Ġphys ical
if t
Ġ ess
Ġyou ng
ĠA ll
Ġt akes
Ġsol ution
Ġgo es
Ġ &
Ġex ec
am s
Ġwide ly
Ġme as
Ġf ire
Ġv ide
an ces
Ġex pen
Ġm ix
Ġquick ly
Ġappropri ate
Ġfore st
__ _
Ġg lo
l ist
ri ve
Ġpre vent
et work
ĠC re
Ġmor ning
2 4
p y
ang le
air s
b its
Ġlo g
Ġb al
ĠThe se
ĠPro duce
Ġexper iment
Ġ X
Ġmed ia
Ġhapp y
.. .
Ġlar gest
Ġd ue
im port
ter n
Ġbo x
Ġse eds
m on
Ġen sure
Ġun ique
Ġsequ ential
Ġcol umn
Ġtra ck
Ġ5 0
Ġb ar
Ġfr ont
Ġinterest ed
Ġsm o
Ġp arent
he ad
ac ed
Ġf ile
n ces
id ence
ough t
Ġear ly
Ġpart y
Ġh old
Ġvar ious
) ;
m ed
ĠD e
Ġrun ning
Ġ et
g n
Ġto ol
Ġde v
Ġpre f
Ex ample
Ġtables poons
Ġre du
Ġco ffee
Ġm ind
er y
Ġcreat ing
Ġind ivid
R e
Ġd ress
Ġn oun
ĠC ons
ack s
all ing
Ġfe atures
Ġb an
-- --
Ġt ips
Ġl iving
est er
Ġ z
b ab
Ġc ell
is es
u ck
c ent
Ġqu ality
Ġconve ys
Ġd inner
Ġf ull
Ġpr om
Ġdo gs
Ġn on
Ġfo ot
Ġproblem s
ent le
Ġcl oth
Ġover all
ul ation
iz z
Ġco ver
Ġsp ok
Ġb ad
Ġsub ject
Ġsp end
Ġcomfort able
im pl
az ing
Ġo vers
Ġcand id
Ġl ay
Ġto ok
Ġf ive
Ġtrou ble
Ġth ird
0000 0000
8 0
Ġc ool
Ġrequ ired
Ġn amed
Ġcons ist
Ġfru its
Ġwe ather
H e
lud e
Ġstart ing
Ġsurf ace
Ġr ate
Ġwork s
Ġp ort
ur y
Ġsh o
Ġfollow ed
Ġmed ical
Ġment ion
Ġrel ax
Ġgo al
Ġcom es
Ġr ange
Ġfo x
Ġexec ut
Ġcorresp ond
Ġcustom er
Ġcomput e
Ġvari ety
ĠM ary
+ +
et er
Ġcond ition
Ġext ra
Ġc ra
Ġg entle
Ġle g
Ġrepres ent
Ġcolle ge
Ġb reat
Ġd en
Ġactiv ity
Ġrequ ire
f or
Ġre ce
Ġas soci
Ġ: ),
ie w
Ġsqu are
Ġp red
ĠA f
Ġapp ly
Ġpos ition
a a
m ar
Ġh y
b al
Ġph ot
ite ly
Ġeng ine
Ġpartic ular
Ġpull ed
c ase
Ġe yes
t on
Ġspok en
' ll
ch ie
Ġp ress
l ves
pl ay
Ġcaus ed
S he
p in
it le
Ġin du
ĠSt eps
im um
r ad
ĠA m
Ġele ment
Ġd one
ĠâĢ ¢
Ġh o
Ġr out
c hed
Ġwho le
ĠC ould
Ġperson al
' (
Ġb orn
Ġinst ead
Ġb ase
ĠH is
Ġem ail
Ġval ues
Ġthrough out
Ġeas y
Ġtatt oo
Ġ$ <<
Ġf resh
R em
Ġ _
Ġgener ally
Ġinst ruction
ill ion
u ro
Ġf ar
Ġcal cul
A N
p es
Ġemplo y
Ġwom en
Ġf ig
Ġstre et
ffic ient
Ġleav es
um p
Ġmiss ing
ĊĠĠĠĠ ĠĠĠĠĠĠĠĠ
ĠY ork
Ġdec ided
Ġtr ad
Ġpart s
Ġcho ices
ot ing
ic ate
Ġs ong
Ġman age
con om
Ġdist ance
il s
Ġext ract
p os
b ook
us h
d a
ĠS m
Ġanagram s
Ġcan cer
Ġrem ain
Ġtemper ature
Ġth ick
Ġm ount
ĠCre ate
Ġnot ion
ac her
Ġfre qu
b all
Ċ ĉ
re t
ĠT ake
ĠI nt
am m
Ġar m
Ġindu st
Ġst op
k s
Ġg ir
Ġc ult
Ġprovid es
Ġv iew
Ġmil es
impl ified
Ġstate ments
as ter
' :
n ame
il t
7 0
Ġovers implified
Ġo k
ĠO r
ou d
Ġorig inal
Ġtop ic
ĠE n
Ġtalk ing
= <<
ak en
c l
Ġab s
Ġlo se
Ġin de
Ġcond itions
Ġappe ars
Ġb ab
Ġst ick
Ġwh y
Ġ2 2
Ġingredi ent
ĠPerson X
our ce
Ġk ill
al y
I N
Ġam azing
', '
ĠS entences
ir us
Ġit em
Ġcorrespond ing
Ġus es
Ġjum ps
end er
Ġvis it
as y
ĠA t
Ġst ruct
Ġd re
ag ing
ere nce
a i
f ect
Ġnat ure
Ġp ack
Ġp ark
ĠB l
ĠC he
ĠW orld
Ġref er
ĠC alling
Ġspe ak
a ff
Ġ6 0
Ġfeel ing
Ġn etwork
Ġ3 75
Ġpe pper
Ġpr ices
ĠP ar
im ate
Ġam ong
Ġconvers ation
Ġcan not
il i
o x
ot hes
Ġbl ood
Ġm atch
Ġcol lect
Ġnew s
ĠT w
ĠS c
Rem ember
Ġc ateg
Ġdise ase
ook y
Ġh ands
um b
ĠCons ider
i res
Ġsp ooky
ĠM r
pport un
Ġe conom
Ġn arr
Ġm ach
ĠF irst
Ġs ources
ĠB ourne
Ġed uc
is ing
Ġpro ject
it am
Ġb all
Ġinc ome
Th is
Ġm ot
Ġsp ort
Ġbeg in
ĠPre heat
Ġb ank
Ġn orth
ĠW ar
k en
Ġar g
ck et
inc lude
ĠE m
Ġma j
ĠD od
Ġloc ated
Ġp erm
am b
i ber
O R
Ġo pportun
)) )
d o
Ġa ff
Ġ Z
Ġc ake
Ġre port
Ġterm s
ren ch
Ġexp ress
T ail
ĠAn swer
ĠB rit
ent ion
Ġlist en
Ġle an
ĠAmeric a
Ġsign s
Ġflow ers
Ġse en
In st
ill a
Ġbir th
ur ity
Ġdescrib e
atter n
W hat
Ġim ages
Ġsc ore
os p
Ġexperi en
Ġdescrib ed
Ġtask s
Ġgar lic
i et
ist er
ĠJ ack
Ġl ate
se c
Ġst ands
Ġp al
Ġinf l
Ġso on
Ġgrammat ically
Ġ iron
Ġet c
n o
ple te
Ġinde x
ĠDod ger
ĠT ry
oc ol
9 0
Ġo pin
Ġl ines
Ġst at
Ġs at
Ġs au
Ġassoci ated
ic ed
Ġg ames
a f
ĠP h
idd le
led ge
t ime
Ġare as
Ġpre gn
Ġdo c
Ġstr ateg
p ple
Ġok ay
o red
un ch
3 4
Ġ ill
ond on
Ġw on
( '
ic les
Ġs on
ĠM ar
Ġg ro
d ing
Ġl if
Ġsp l
Ġpr ote
an n
iqu es
Ġcontro l
Ġ= =
m ost
u nt
a im
ĠW ould
Ġser ies
Ġm ist
N O
om es
s ive
Ġmention ed
Ġo dd
Ġp en
Ġphr ases
Ġc ame
Ġp et
Ġmed ic
d r
Ġcook ing
Ġform at
Ġblank s
Ġcost s
Ġf ant
Ġme al
Ġb ring
ĠL ist
Ġm ass
E N
a us
Ġ( '
Ġm ess
ra ction
Ġs or
Ġw ar
ĠI mage
Ġsu pp
Ġerr ors
Ġf at
st r
pl ication
Ġblo g
Ġm ath
Ġsmall er
Ġwant s
ere nces
Ġs ides
uro pe
Ġbe aut
Ġdesign ed
ĠC ity
ĠP art
Ġhappen ed
Ġcom ing
Ġte acher
Ġoper ators
Ġtechn iques
ight ly
or der
Ġcare fully
Ġresult s
Ġc ats
U N
Ġgr ass
Ġa ffect
Ġpass ages
Ġap ple
Ġa chie
or ing
Ġtow ards
Ġ `
Ġsur round
ot es
Ġte am
att le
Ġp ict
P erson
Ġal c
w ards
Ġknow ledge
Ġt ast
Ġel im
Ġthink ing
s ing
Ġper fect
sequ ence
Ġe ver
Ġs ound
Ġdefin itely
Ġfind ing
ĠD es
Ġ- >
om et
Ġg as
Ġgener ation
Ġsk y
Ġv ol
Ġg en
Ġcare er
ĠAf ric
Ġde al
Ġfam ous
Ġincre ased
ĠL ondon
ĠT om
Ġmaj or
ĠN e
Ġsepar ated
Ġsau ce
c at
ĠL e
i od
E R
Ġdrink ing
Ġsor ry
end ed
Ġbuy ing
Ġset s
b it
u red
w ord
Ġ[ "
o ck
un g
Ġexperiment al
an ation
ĠP OSITIVE
m in
Ġsaf ety
ri ef
Ġlong er
Ġp attern
Ġdis cus
Ġdoes n
Ġindivid ual
Ġb ag
Ġd est
Ġl ater
Ġbre ad
Ġdirect ly
Ġt itle
Ġche ese
ĠM s
Ġbr an
Ġbeh av
Ġo pp
Ġb ought
Ġd am
ition al
e ch
ĠG e
ĠT ail
v ious
Ġv an
Ġsp read
Ġb ur
ad d
Ġany one
Ġcaus es
or rect
Ġrepl ace
Ġr at
Ġindust ry
Ġbab y
it ting
um ents
Ġsci ent
y ing
Ġinclud es
ĠE urope
Ġsp ending
Ġs ere
Ġsoft ware
Ġpr on
ĠA d
Ġhelp s
w ood
Ġh or
Ġsn ow
Ġso il
In put
ac hes
Ġbec ame
Ġcho ice
Ġresearch ing
Ġw est
ĠâĢ ĵ
ĠF rench
Ġfe ll
Ġtri p
ivers ity
ap s
Ġdetail s
} .
Ġe arn
A R
Ġexecut ing
Ġex c
ur ance
ru sh
Ġcontain ing
ic ial
Ġmed ium
l t
Ġprodu ce
Ġr ound
Ġre ason
Ġnot hing
u se
u ff
rough t
Ġsere ne
ĠS y
read y
ke y
Ġf em
Ġy og
ive ly
Ġprovid ing
Ġbelie ve
Ġsav ings
. ',
Ġb rief
ĠCh ar
Ġo ak
Ġwa it
Ġpl at
um ber
Ġs ix
Ġf le
Ġb urn
Ġslow ly
3 6
3 2
ab ility
oh ol
Ġra in
Ġst ir
Ġsh oes
iction ary
Ġb ott
Ġprep are
Ġar ch
s ion
Ġsto ck
Ġmain tain
Ġform s
Ġsmall est
Ġl oss
W arning
Ġst ates
un ct
Ġmater ials
Ġcl os
Ġconc ise
Ġwor th
iz ing
Ġtool s
ro om
Ġa ction
Ġb it
Ġal ready
Ġrelev ant
Ġfur ther
Ġhig her
Ġinf ect
Ġsh ad
is ed
Ġthough t
Ġtop ics
er ous
ĠB r
Ġg ain
Ġse a
Ġwind ows
Ġbu ilt
Ġadv ant
Ġd rive
Ġa ud
Ġt aken
Ġpr iv
Ġapp ro
oo gle
Ġdec ision
Ġsim ple
Ġalphabet ical
Ġask ing
Ġwind ow
an ced
f ast
++ )
Ġfl ight
] [
Ġresp ons
s y
Ġpurch ase
Ġm ag
ist ance
7 8
ar ray
i ence
Ġoper ations
ou ch
Ġc ases
Ġdes ired
Ġess ential
ap an
Ġj o
ĠPl ace
p ro
Ġpol ic
Ġfant asy
Ġdescrib es
Ġplat form
ve red
Ġcon vert
Ġevery thing
Ġcr im
Ġmem bers
Ġsmo oth
pt op
Ġro le
[ '
/ /
Ġvide o
it ation
ĠS us
ĠH er
ant i
ĠCh oose
Ġadd ing
ra p
2 2
Ġit self
Ġs outh
ĠCl ick
s c
Ġr ot
Ġj u
ĠA nd
Ġerr or
S TE
Ġinter view
ĠL ast
l ive
] )
Ġl ink
Ġobject s
ern s
Ġnarr ow
P h
ne w
Ġpain t
ĠG et
Ġexp lo
Ġf ro
Ġf ix
Ġheav y
g ing
Ġhelp ful
Ġalc ohol
ĠA v
Ġche m
Ġd ang
un related
Ġc ry
Ġpred ict
Ġ2 7
r ase
Ġv i
Ġd om
ru g
w here
Ġrem o
Ġform ed
Ġredu cing
Ġper iod
ell ig
Ġcons um
Ġse ems
ĠC ar
l er
Ġvac ation
Ġvan illa
ĠP e
ol ution
Ġ es
w ords
Ġh um
Ġon ion
Ġor bits
Re view
Ġm ale
x y
it ch
Ġadd ress
Ġfru it
ar ian
Ġ4 5
Ġsm ell
Ġc ru
og raph
F or
Ġco vered
ĠT r
3 5
Ġcor ner
ĠN orth
9 9
Ġfr idge
Ġbeh ind
Ġf arm
T arget
Ġbel ong
Ġcir c
' )
Ġspe ed
m ary
Ġb ra
Ġb atter
Ġd a
Ġwe ar
Ġdis play
Ġopin ion
Ġl at
ĠJ o
Ġs ource
i ans
Ġc amp
Ġmach ine
Ġt ired
Ġblo ck
Ġli br
' d
l ines
" :
ag on
Ġtr ash
Ġmonth s
Ġbas ic
se x
b on
Ġt ap
Ġgr ad
( "
ist ic
L E
Ġt ank
Ġs ou
Ġstudy ing
Ġf ast
if ul
Ġse ll
Ġsuccess ful
2 00
Ġcar p
Ġincre asing
ĠBrit ish
ut ure
m ade
Ġret ire
Ġeffect s
sec ut
Ġsh ape
Ġqu al
z z
Ġcl aim
L A
ĠJ ones
Ġcorrect ly
Ġaddition al
Ġide as
Ġde lic
Ġmater ial
Ġelect ric
Ġv irus
I mage
Ġo bs
Ġcandid ate
r ist
Ġt un
Ġproper ly
al ing
Ġup on
Ġstruct ure
Ġto mat
p g
pl anation
ast ic
o on
p or
he mat
Ġte a
Ġmet al
Ġleav ing
Ġper cent
ĠDo yle
Ġcand y
Ġpop ulation
du ct
Ġp ers
w w
Ġch ocol
ver se
m a
ĠChe ck
Ġspe ech
Ġclass es
ĠC o
Ġye llow
A ll
Ġtechn ology
in ate
Ġpress ure
Ġcomple x
Ġbre ast
ut ral
Y ES
he st
Ġsec urity
Ġso da
Ġcre ated
U T
Ġacc ur
s on
() ()
il es
int s
v ies
A r
Ġm om
b les
Ġe ast
Ġdo ll
Ġb ird
Ġprog ress
Ġiss ues
or ge
ĠF l
Ġla ptop
Ġ3 6
Ġve h
ĠW ith
Ġk ids
Ġre pe
ep end
Ġsub sequence
Ġc ars
Ġcount er
Ġspe aking
Ġap art
Ġbreak fast
c ending
Ġ2 6
Ġad j
re w
an cy
Ġdescrib ing
Ġ Q
Ġf ly
Ġ3 5
Ġt ail
Ġgentle man
Ġdr iving
in ct
Ġf ail
ove red
Ġtax es
Ġatt ention
Ex planation
Ġbro ken
r ome
Ġr ad
Ġdec or
Ġor d
Ġspec ies
Ġon es
Ġwe b
Ġinv ent
Ġapp lic
Ġelim inated
Y PE
Ġh yp
ĠC al
ell o
r ation
Ġm iddle
g ar
Ġl ed
Ġrecommend ed
ren g
Ġro cks
Ġm illion
ĠC ol
Ġli k
it or
g o
Ġinvest ing
ĠB ut
Ġh all
Ġth in
orm al
Ġpron oun
ut ions
C h
Ġr ice
Ġsci ence
Ġfig ure
i ally
Ġlar ger
2 1
. ".
Ġso ld
Ġ8 0
Ġins urance
Ġweek s
Ġoccur s
or row
Ġhe aring
Ġr iver
Ġproper ty
Ġmount ain
Ġcol ors
ar p
om ing
ĠR o
Ġmax imum
Ġsh are
Ġfil m
Ġp ounds
Ġmeas ure
Ġgener al
Ġpair s
p an
Ġver b
id ing
RE OT
STE REOT
STEREOT YPE
Ġexp ression
H ello
ci pe
Ġf uture
Inst ructions
st ory
Ġim m
Ġev idence
Ġsay s
Ġcl othes
Ġexpen ses
Ġpro bab
ines e
Ġ Qu
ĠT ap
Ġv itam
Ġbehav ior
Ġt re
olog ical
Ġsu it
o ds
Ġcent ury
ĠT V
ĠG r
ĠG erm
Ġh it
Ġt on
ci ent
b a
Ġex ist
Ġstud ent
Ġ #
ĠSt ate
az on
Ġst ri
Ġg ave
Ġdep end
ib ility
Ġsh irt
Ġres ume
Ġ2 8
l ength
Ġeduc ation
Ġopportun ities
ĠB ased
ĊĠĠĠĠĠĠĠĠĠĠĠĠ ĠĠĠ
n y
Ġem ot
Ġtra il
on se
ĠG oogle
Ġcar ry
Ġ Ċ
ĠL et
s et
Ġpol it
Ġinterest s
Ġtrad itional
ĠAr t
Ġplay ed
Ġtw ice
c her
Ġse em
cri ption
Ġse ason
Ġsw im
Ġcustom ers
Ġparent s
Ġsp aces
Ġde ad
Ġpain ting
oc r
Ġoff ice
h ouse
Ġg e
Ġan g
pt ic
E T
A T
Ġprogram s
Ġpre vious
l ike
Ġr ather
Ġfe ed
Ġsu per
Ġo live
Ġgrou ps
Ġmo vies
Ġle ave
Ġcal ories
Ġbo y
ĠFr ance
ĠPr int
i pping
Ġc ast
Ġtrans port
Ġfall s
g y
iv al
ash ing
l us
Ġus ers
Ġtables poon
Ġst reng
Ġde ath
Ġsport s
ĠL ook
ĠAv oid
av es
Ġb and
Ġv ers
ĠU K
Ġevery one
Ġlat est
n ers
Ġlif est
it er
um s
Ġse lf
Ġhang s
Ġeas ier
4 8
ĠN ational
ĠO pen
Ġdisc ount
st er
ĠH ar
ĠCh inese
Ġr ow
ĠJ apan
Ġoff ers
ĠPart y
Ġf urn
Ġbeaut iful
ĠĠĠĠĠĠĠĠ ĠĠĠĠĠĠĠĠ
re st
d ate
Ġtra ining
n onym
Ġbe ach
Ġab c
Ġ20 12
Ġequ ation
Ġtreat ment
Ġent ire
Ġyog a
Ġmeet ing
Ġsh ows
C T
ĠG reen
ĠW ord
Ġstre t
ag ed
Ġ2 1
Ġexplo re
3 9
ll ed
Ġint rodu
od ing
in o
t raction
ag in
ĠSus sex
s ub
Ġment al
Ġexpect ed
Ġexpl ain
act er
al d
Ġg ives
Ġfin al
secut ive
Ġlifest yle
em pt
Ġfin ish
Ġmeth ods
Ġaff ord
Ġgro cer
Ġimpro ved
Ġgrow th
in y
Ġreci pes
ex ic
Ġlead s
Ġto m
abc d
g round
Ġcomp an
un k
Ġh on
Ġdevelop ment
ac y
Ġbe gan
Ġsol ar
Ġretire ment
2 8
ce an
Ġfem ale
Ġcons ists
Ġre ct
Ġcour se
Ġnear by
Ġex act
here nt
Ġpick po
Ġe fficient
ther n
Ġk il
] ;
et urn
Ġhuman s
' ],
Ġte eth
our age
Ġmat hemat
âĢĻ ?
al es
Ġto ld
Ġint ellig
Ġcomp are
he it
ester day
iz es
Ġcloth ing
f act
un e
Ġhe ight
Ġall erg
Ġresp onse
er ve
Ġsyst ems
Ġal most
ues day
Ġd ictionary
ĠA ust
Ġb rought
ol ute
Ġfill ed
Ġed ge
C C
Ġgre ater
Ġden oting
Ġe arth
se ct
Ġbenef icial
b or
b ack
Ġ ri
d og
al t
TI ON
Ġru les
ĠInt ern
b ol
at en
ren heit
ah renheit
b ed
en ed
Ġex ce
Ġpre t
Ġsu bs
ĠW ill
ond ay
Ġshort est
ĠA pp
Ġpol ice
Ġexerc ises
Ġbran ches
A M
Ġf und
Ġopp os
Ġlo ved
A n
t es
Ġt ick
o ice
Ġdam age
il ities
bo ard
< =
b l
Ġon to
ain t
ne y
: //
Ġrisk s
ĠSm ith
Ġ8 6
ĠOther wise
u el
le g
Ġrel ig
r om
Ġch ron
Ġd ro
Ġe ye
Ġmo ist
ĠD ep
Ġt ut
Ġd raw
ĠTw o
Ġd ial
Ġinvol ves
Ġcont rib
Ġsum mary
a el
ĠF ahrenheit
ĠG reat
Ġtri angle
at ic
ĠN ot
ĠSe lect
Ġintern et
Ġcalcul ate
Ġle gs
P ut
Ġcollect ed
Ġan x
Ġse x
Ġbe ans
ĠG o
Ġu r
Ġfor get
ar ies
Ġpres ident
Ġgold en
Ġbr other
Ġc y
Ġh ous
Ġbe ef
Ġfriend ly
B C
ri end
Ġlibr ary
ĠT uesday
Ġprep ared
Ġst ra
Ġgra ins
Ġplan ning
Ġfeel ings
ĠCh rist
Ġallow s
Ġinst all
ĠLast ly
l i
ĠA ss
Ġban ana
Ġchocol ate
o ke
Ġcook ed
it ure
Ġa ctions
ĠM onday
Ġcar ds
im ately
Ġswe et
Ġr an
d om
is a
ĠAm azon
Ġsec ure
ĠM ich
Ġeas ily
Ġme als
ult s
Ġte ach
Ġh ost
ur t
Ġse ptic
ĠD r
g en
Ġorgan ization
ĊĠĠĠĠ ĠĠ
7 6
Ġj ud
Ġtarget s
Ġsun light
Ġl unch
Ġsm ok
Ġsepar ate
b ased
Ġlo st
Ġdre ary
Ġocc as
Ġdist inct
Ġst yle
ant ic
Ġtru st
l ished
Ġton ight
Ġc ro
se lves
Ġb ars
Ġmar ble
c are
h y
Ġf ight
Ġt end
Ġan n
Ġadvant age
ap ple
t ies
Ġpal ind
Ġc art
Ġd ed
Ġp ool
Ġgir l
ĠGe orge
m ulti
Ġm atter
ĠS outh
Ġcomp et
Ġb ask
ĠT im
Ġre arr
Ġgrammat ical
Ġco ast
Ġp izz
Ġjob s
Ġmed ian
Ġfl at
augh t
Ġinc hes
r ight
ac ing
ĠL ab
Ġh arm
Ġcook ies
us ed
Ġcar ved
Ġd ust
ĠR ep
Ġd at
Ġne igh
Ġmed ication
ĠK e
Ġlead ing
Ġabs olute
ĠD em
Ġread y
b an
Ġdec l
Ġgram mar
Ġrelev ance
Ġpregn ant
Ġ ut
Ġco herent
Ġsol ve
lo ad
Ġdoll ars
ĠW ords
ĠS ec
Ġpr im
Ġrec ent
Ġst ars
Ġlist s
og ue
Ġart ist
ad a
â ī
Ġb en
Ġb rain
Ġsh arp
Ġl ic
Ġind epend
ĠN ext
Ġant onym
a per
Ġsub string
Ġbreak s
" ?
Ġatt ack
Ġest ab
Ġh am
ĠC ount
Ġinter act
Ġbro ke
Ġme at
Ġra ining
Ġal tern
Ġr pg
Ġinfl u
Ġremain ing
om y
Ġcon secutive
Ġ2 3
Ġlook s
Ġgr an
ĠCh ina
n el
ĠIn c
The re
Ġglo bal
Ġmess age
i j
Ġstre am
ĠInd ia
ar ah
ag er
Ġdep ending
Ġcomb ined
Ġse lling
Ġdo ors
Ġart icles
Ġme l
ant ly
Ġsit ting
Ġlower case
est s
ĠP at
Ġdes k
Ġdelic ious
g or
Ġlist ed
Ġas cending
Ġr ise
Ġind icate
Ġg iving
ific ations
ĠR ese
Ġca ve
C on
Ġv ote
iss ion
Ċ ĊĠĠĠ
c ount
Ġpret ty
ac hed
multi plication
, "
n am
Ġc ou
Ġr ich
Ġw ed
ject ive
Ġavoid ing
ĠM ad
ĠCom put
m osp
Ġli qu
Y ou
Ġdi ed
âī ¤
ic ing
ĠG ood
Ġbr ight
u ge
and om
Ġbir ds
Ġ< =
Ġcomple ted
Ġn ormal
Ġcol on
Ġs its
Ġget s
ĠUn iversity
Ġsho pping
ĠM on
Ġ ir
redi ents
Ġda ily
Ġc am
Ġch air
5 5
Ġpr in
Ġtast e
ra ints
Ġin j
Ġco ord
Ġinterest ing
R A
Ġw at
ch ant
ud e
Ġmeth od
Ġfurn iture
Ġb rush
o de
Ġst ar
Ġthem selves
d iv
rodu ct
Ġsit es
Ġex am
Ġex ists
Ġwe aring
Ġ3 2
os sible
b oding
Ġs ounds
Ġmove ment
Ġre act
Ġcl imate
Ġcrim inal
Ġcarp et
ri or
ĠM ark
ig er
Ġco ll
Ġfore boding
i ety
Ġat mosp
pl ace
amp les
c he
ang ed
Ġlim it
L ist
Ġass istance
Ġh at
Ġp unct
c ar
Ġb ark
ud d
Ġmarket ing
Ġdevelop ing
re am
pt y
ĠRese arch
Ġle ather
Ġc in
ĠM ay
ĠR em
Ġ9 0
ĠMich ael
? ',
Ġb ill
Ġfl avor
Ġstrateg ies
Ġf its
Ġdeg ree
I D
i us
r or
Ġsto cks
Ġfr ame
ĠSt ring
av a
Ġinvest ments
Ġarg ument
Ġm er
Ġcomplete ly
Ġst ones
Ġprobab ly
c ol
ck ets
Ġclass ified
ĠR ed
Ġwatch ing
ch an
an ish
se m
iv ity
Ġsp ent
Ġpl aced
p ur
Ġqu art
Ġlook ed
ific ation
Ġa w
re me
Ġcom pl
Ġfound ed
Ġ ___
ĠInst ructions
Ġc ross
Ġd ra
Ġsign ific
c ast
Ġ >
er al
Ġsto res
Ġcomp ared
Ġlaw s
iv il
ĠE l
Ġbene ath
Ġre nt
Ġhome made
Ġd ou
Ġn p
Ġ2 9
Ġde b
ĠJ enn
n a
Ġus er
p ath
ĠM exic
in ates
, -
Ġbe er
ĠIn g
Ġrout ine
Ġfr ag
ill ed
Ġdet erm
ĠK ing
ĠJ ew
Ġsal es
Ġchang ing
Ġclean ing
ĠDem ocr
Ġch airs
a pt
Ġp ages
z en
ĠP res
Ġsum mer
Ġprote ins
Ġimp act
Ġsym bol
ĠJ ane
Ġtom orrow
Ġbreat hing
Ġsec onds
Ġcomb ination
Ġiss ue
th ough
pect ed
Ġref lect
ĠL iber
ĠB ake
Ġco vers
ac he
Ġag ree
Ġpot at
Ġmedic ations
ĠM an
Ġt ouch
Ġrem ember
Ġwr ong
Ġag o
Ph one
Ġmo der
Ġhome work
S E
h o
Ġmed itation
Ġf ine
ĠSt ep
ĠSp anish
Ġmod el
Ġatmosp here
I ng
Ġwr ote
Ġperform ance
Ġo un
Ġb ree
Ġmem ber
u ate
Ġb i
Ġd im
Ġdial ogue
Ġapply ing
ĠR eturn
Ġlay er
Ġcommun ication
Ġbreat h
6 6
Ġs ick
il ed
op s
ub e
Ġvi ol
ĠG ree
Ġbuild ings
5 4
pt ions
âĢĿ .
Ġor ange
Ġpalind rome
Ġno vel
aus ible
Ġaud ience
el t
Ġsearch ing
Ġorgan ized
2 3
Ġlo an
Ġstreng th
E vent
ĠAn g
Ġw et
Ġoppos ite
Ġmark ing
Ġspl it
YY YY
Ġexpen sive
Ġbal anced
m it
Ġdet ect
Ġoff ic
ĠP our
Ġsleep ing
div ision
! !
Ġ- -
he t
Ġd irt
ĠM any
Ġwork ed
Ġlik es
Ġrec ord
TE D
is k
I f
19 0
ĠM e
Ġme chan
Ġachie ve
Ġf inally
Ġbott om
gor ithm
A dd
ĠE vent
Ġcl iff
Ġno ise
Ġ' *
ĠR om
Ġwin ter
I P
p ed
Ġse as
Ġ7 0
Ġcommun ity
Ġpos s
Ġem pty
Ġdev ice
Ġm amm
Ġst ain
Ġsl ightly
ik ing
Ġev al
Ġdoc ument
ck ed
Ġdang erous
Ġ3 50
ĠL isa
Ġpur pose
' ),
Ġcompan ies
Ġpizz a
ow ing
ĠF agin
Ġac cept
S et
ĠI m
ĠF ill
Ġplan e
12 0
Ġsp ot
Ġadj ust
ral ia
k n
ĠS arah
er a
Ġb ul
Ġdi agn
Ġi Phone
Ġs ite
Ġch all
un ction
Ġc ities
Ġout do
Ġw ond
Ġveh icle
Ġte en
Ġdiscus s
Ġanx iety
Ġ3 4
Ġb are
ay s
Ġ3 8
ĠL ow
iz ations
Ġrelationship s
Ġb ath
r ick
Ġdis hes
Ġrespect ively
Ġent er
ĠAmeric ans
ĠF orm
us s
l or
Ġst aff
ur s
Ġtra in
le ased
Ġsort ed
Ġlisten ing
l in
Ġsat is
Ġopen ing
Ġturn ed
Ġinvent ed
ir ty
Ġpo ll
ĠAl so
Ġprofess ion
Ġexact ly
Ġass ess
tt ps
Ġphot os
l ace
Ġthe ory
l a
ill ing
Ġbo ard
Ġmo ving
ĠO b
Ġp ub
Ġm ult
Ġinvest ment
Ġdi am
Ġsub st
Ġdep ression
Ġhig hest
Ġbirth day
Ġpict ure
ci ety
Ġinst r
ĠPar is
Ġcaus ing
augh ter
Ġleg al
W e
it ary
Ġcon cept
Ġpl ans
Ġpref er
Ġwas n
ci ally
ĠHe llo
Ġent ity
Ġtun nel
Ġy et
Ġser ious
ra ctions
Ġtransport ation
Ġstra ight
u ous
ut ter
Ġst orm
Ġintellig ence
ol i
Ġocc up
} ,
Ġc ab
Ġp age
Ġin sect
Ġh ob
Ġre verse
Ġis n
Ġv ine
Ġeconom ic
le ts
ĠDo es
Ġcell s
pur pose
" ].
ĠN one
om plete
is ions
Ġp ill
Ġy esterday
Ġcomple tes
c ies
Ġvitam ins
Ġne utral
s u
Ġst y
er als
Ġvac c
re ak
Ġpartic ip
Ġwed ding
Ġcult ure
St ep
a ult
Ġpo or
Ġrec ently
Ġgu it
Ġm agn
Ġtra ffic
Ġrequ ires
Ġwe igh
ĠD on
Ġvari able
Ġl ately
Ġf ab
Ġb acter
Ġsc an
l ies
Ġdoor way
Ġwas te
redi ent
Ġca vern
ĠSh ould
Ġcolumn s
Ġkill ed
Ġhigh light
Ġblo cks
C O
Ġc aught
if orn
Ġat e
Ġadd ed
? .
n ight
Ġprodu ces
Ġact ually
Ġdifficult y
u ed
U n
it ude
Ġcurrent ly
Ġnut s
Ġne ck
y ed
2 6
ag s
Ġcl im
Ġinvol ved
iforn ia
w est
Ġl en
Ġshe et
St ate
le br
ĠY e
Ġg ross
Ġsp ray
Ġcar bon
Ġexc ited
LA TED
Ġatt end
Ġpro ced
Ġconsist ent
Ġw ine
Ġr andom
Ġreg ul
Ġind ic
Ġrelax ation
i ant
p ite
S T
ĠP ark
St eps
r id
ili ar
Ġbask et
hip s
Ġlog ical
w ater
Ġg all
2 7
in ary
Ġn ick
A C
Ġ( -
Ġfrequ ently
o ver
ĠCon vert
t ered
Ġs ister
am a
Ġru g
ĠPe ople
ĠC ont
Ġstart s
i am
Ġtell s
Ġmem ory
Ċĉ ĠĠĠ
Ġcry st
t ype
Ġa st
ĠĠĠĠ ĠĠ
Ġbusiness es
Ġshe lves
Ġvis ible
ĠS am
Ġbec oming
med i
Ġmot iv
ri x
RE LATED
3 45
o llow
ll ent
ĠE d
5 00
Ġinc orrect
Ġd ough
app oint
re ction
le ction
ad es
art ment
ĠE very
Ġconc ent
ace book
Ġdec re
Ġche st
f ile
Ġatt ending
ashing ton
en ces
Ġent ertain
Ġo d
ĠM us
Ġmark s
Ġvide os
i ers
ang es
St ring
Ġtomat oes
ĠAfric an
Ġac com
Ġsee k
Ġveget able
l en
u als
Ġro ot
Ġsy nonym
ic y
ĠE ating
Ġact ive
Ġright s
Ġca pt
Ġdoc uments
i able
st raints
Ġsmok ing
d f
Ċ Ċ
Ġim pl
Ġde m
Ġfo ld
Ġto oth
Ġd rain
Ġtut or
Ġord ered
Ġan cient
Ġch ol
Ġqu ant
Ġcommon ly
Ġgre y
Ġnut ri
ank s
Ġcateg ory
ber t
Ġrece ive
Ġr ates
f riend
Ġt en
ĠB u
Ġdrink s
Ġsil ver
Ġt im
ĠH alf
ĠAs k
Ġpref erences
ĠCal ifornia
r ance
ĠF e
com ing
Ġl oud
Ġab ility
Ġ' /
ester ol
Ġim medi
Ġnoun s
og n
Ġinc omplete
Ġh ung
Ġsc reen
ir ing
Ġcr it
UN RELATED
ĠNo ah
Ġsh ap
Ġen ds
Ġch am
Ġins ert
Ġbro ad
ye es
os is
Ġwalk s
add ition
sy ch
op y
ĠInst ruction
ĠP ract
h ood
Ġh ol
ĠB ill
Ġro of
ie val
2 9
it ution
Ġl ived
Ġhelp ing
Ġru st
Ġdevelop ed
Ġrun s
Ġref erence
Ġa ware
l ined
Ġgran ite
Ġf ert
Ġdev ices
Ġcateg ories
Ġconsider ing
", "
Ġarm s
Ġh uge
Ġrel ie
Ġdig its
I s
z y
Ġc it
or por
ĠT ra
Ġem erg
an c
ĠC ent
ĠEng land
---- ----
Ġabsolute ly
Ġliqu id
Ġr ing
ĠCom p
Ġpickpo cket
b ra
Ġrel ation
Ġhim self
ĠCom plete
w ar
an as
Ġconc aten
Ġscient ific
Ġan aly
Ġmin erals
om b
Ġso ap
ap h
er ful
Ġd ie
Ġsh own
Ġrequire ments
Ġemploy ers
Ġc ert
ĠA c
Ġn or
k ins
Ã ©
Ġ4 4
Ġswim ming
b i
Ġd iced
Ġmed ieval
Ġserv ing
Ġsuit able
Ġher bs
Ġprote in
Ġpolit ical
Ġju ice
Ġrestaur ants
Ġsu pple
Ġtreat ments
4 00
Ġt sp
ĠThere fore
Ġd u
Ġve gan
* /
Ġs ens
Ġconsist ing
ĠForm at
Ġhe ar
Ġchol esterol
S A
a res
ĠPres ident
1 0000
Ġo cean
ic a
P roduct
Ġqu iet
ru s
Ġsh ip
Ġun ex
Ġpa id
le x
ĠAfric a
Ġt or
Ġt iny
ar a
Ġhall way
ter m
Ġorgan izations
ĠJ an
Ġarr ived
ĠPat rick
ut h
kn own
Ġ40 1
ĠW ashington
ĠS ure
os ing
am ent
ist an
ĠF acebook
Ġfact s
Ġemplo yees
als h
Ġdiv is
Ġp u
ig are
Ġint ake
Ġrem ains
PE R
omet ers
Ġg ather
Ġse m
Ġde als
.. ..
qu e
Ġexerc ising
Ġt ur
st em
us ing
ens ity
Ġaut om
ĠIntern et
Ġc ott
Ġp ound
Ġch oo
ĠAn other
00000000 00000000
Ġce lebr
Ġdig ital
v est
Ġth r
ot ic
Ġ19 9
Ġc as
Ġm ut
Ġsu ff
att ered
], [
Ġb ones
ĠCom m
w h
Ġu pper
Ġcandid ates
Ġneigh bor
Ġdef ined
Ġproper ties
Ġho le
Ġpunct uation
Ġse ction
Ġdisc overed
Ġbegin ning
Ġover head
Ġsle pt
Ġexperien ces
in ds
Ġrem ed
v olution
Ġc atch
ĠO ver
Ġcontin ue
ĠDemocr ats
Ġf uel
Ġin ch
ĠI I
ash ion
Ġconnect ed
o le
Ġdec iding
ĠFr om
Ġwork ers
Ġguit ar
d y
Ġe ff
Ġgrow ing
Ġhy dr
ad em
app y
Ġcr ow
ak er
C A
ed ia
ut s
ch ange
ak ed
Ġse lls
uc le
ing er
Ġcomp on
Ġref ers
Ġpattern s
Ġinfect ion
d ed
r ast
ĠT alk
Ġwe ap
Ġqu ite
Ġman sion
Ġpriv ate
ul a
P ar
Ġdefin ition
Ġt our
ab ly
Ġsurround ing
), (
ĠComput e
du le
Ġris es
Ġaccount s
Ġrepres ents
] ]
Ġrespons ible
Ġt u
Ġv otes
Ġdest ination
c ape
ĠT e
Ġcont rad
ĠH uman
Ġhealth care
ĠPro duct
Ġr om
Ġfrequ ent
Ġan al
ct ors
ĠIt em
ail s
Ġnew sp
m ber
Ġto y
ang ing
Ġreg ard
lev ision
Ġex cept
Ġj ew
ĠR es
Ġpict ures
N one
b led
Ġg raph
Ġacc ident
Ġl ack
ĠC at
Ġrepl aced
W ord
c ome
ĠW alsh
Ġspe lling
iver se
Ġallow ed
Ġt err
Ġh ill
ur ch
Ġwor n
ff e
Ġpen c
Ġpat ient
Ġc ash
Ġresult ing
for ce
Ġbal ance
Ġrelig ious
ru pt
ic ro
st one
Ġshort er
( [
lo g
Ġsn acks
ll a
ĠG u
Ġbag s
Ġcoast al
Ġco ins
Ġcomput ers
ific ial
3 00
Ġpl astic
Ġ[ [
E D
Ġb ould
ap ers
Ġm outh
Ġg ift
Ġn ative
ad s
Ġ9 8
Ġconc erns
Ġdise ases
o res
um ps
ĠA pple
os op
y ond
ĠS w
Ġsc r
Ġcar r
Ġallow ing
p re
k y
ĠĠĠĠ Ġ
Ġstret ch
Ġspecific ally
Ġw ife
Ġmar ried
Ġbox es
i ation
Ġs ipping
Ġdec isions
Ġas ide
ĠD is
Ġsom et
Ġeng aging
Ġl ies
Ġsc he
Ġdis appoint
Ġkil ometers
Ġchoo sing
id ay
4 6
n ed
al id
ĠS u
ĠO ff
Ġelect ron
Ġunex pected
Ġsc ent
Ġinvol ve
il osop
Ġr ows
Ġbec omes
he lls
pp ers
up s
ĠRe cipe
. <
Ġtem ple
lt imately
Ġaccur ate
Ġindepend ent
Ġexce llent
Ġfab ric
1 000
Ġu nd
Ġsp ends
Ġplay er
Ġmass ive
Ġdiscount s
er ry
Ġd aughter
r im
ĠS ever
ĠY ES
Ġdi rection
Ġprom ote
Ġsatis f
Ġ6 1
Ġsl ices
ĠH ave
Ġbenef it
Ġhous es
Ġcheck ing
Ġoccur ren
ĠEx erc
Ġgrocer y
" )
Ġeff ort
Ġwas h
Ġrest s
EN T
he ast
Ġapp s
P r
Ġschool s
Ġoun ces
u um
Ġpol ished
Ġmet ers
Ġchem ical
Ġt ren
Ġun c
ĠLow e
Ġnut r
w ith
Ġsand w
Ġpers pect
sub traction
Ġw al
Ġpr ime
Ġtru n
Ġra ce
Ġopt im
. '
Ġ3 7
lo ck
Ġprovid er
ĠBl ack
Ġmus cle
ĠSever al
ĠD ef
our n
Ġprim ary
ĠB attle
ĠS at
Ġk ing
Ġprocess ed
Ġthough ts
Ġrece ived
ĠUn ion
Ġf ats
g ers
Ġp sych
ig ue
sh i
Ġsupp lies
* *
re et
ĠN ote
Ġold er
Ġpre m
ĠLiber al
Ġb attle
Ġg ently
Ġext reme
Ġw id
Ġ' -
ĠB ar
Ġrecommend ations
Ġorgan ic
Ġelect ed
Ġeconom y
Ġill um
Ġpotat oes
Ġsp ir
Ġte levision
ci p
Ġatt ract
Ġmind ful
Ġh omes
ĠP ut
Ġr ating
Ġdress ed
Ġdr iver
ĠTom my
Ġnum py
Ġfill ing
Ġarr ange
. '].
Ġd ru
Ġfam iliar
Ġjud ge
ĠC ut
Ġstand ing
Ġcontain er
f s
he llo
Ġin it
Ġdecl ared
Ġm id
or ough
Ġv ary
Ġsm art
Ġmin imum
Ġ19 6
Ġf est
Ġremed ies
Ġcon ver
Ġwe alth
Ġsmo ke
b and
Ġc oun
Ġco at
at ives
it ter
Ġcolle ction
3 8
Ġ12 0
Ġhand le
Ġreal istic
Ġcour ses
Ġsomet imes
J ames
0 1
Ġrec ogn
Ġgu ide
Ġa head
Ġca ffe
Ġprogram ming
Ġlead er
Ġpregn ancy
Ġshad ows
Ġrearr ange
Ġan gle
Ġ19 8
Ġtren ds
Ġatt empt
Â °
Ġh ar
Ġh ttps
Ġmedic ine
Ġfat igue
Ġintrodu ced
Ġst ories
Ġob tain
ĠAng el
ĠExerc ise
I C
ĠN OT
ne gative
Ġ/ /
4 4
Ġm ur
ĠN O
p ace
Ġde liver
a ul
Ġnot e
Ġro se
Ġfocus ed
le te
ĠWh ite
d ent
h old
ĠGener ally
er ie
Ġk m
Ġ id
ĠF ollow
Ġv ines
ĠAn y
ic ated
R O
Ġp ig
Ġin n
Ġf ashion
Ġp rior
Ġfun ds
br is
S ON
h am
Ġl ant
Ġn ice
ĠJ u
ĠM ed
ĠJenn ie
ĠPerson Y
ĠPract ice
l ands
st ain
Ġapp l
Ġbatter y
1 50
Ġmo ss
Ġvine gar
3 7
ĠM ount
Ġal gorithm
we ll
Ġser ve
Ġpl ain
m ark
s he
ĠA nt
ir m
ĠPro per
Ġla wn
Ġjew el
Ġtemper atures
ou red
Ġint erv
Ġun w
Ġimmedi ately
k er
Ġtest s
Ġed ges
ĠMexic o
Ġto ys
Ġth reat
Ġmil itary
Ġdep ress
Ġpercent age
or age
Ġnum s
Ġp and
f ra
i pe
ru it
Ġbed time
Ġs ink
Ġe ight
et ime
(( ((
ĠA ir
Ġde bris
Ġcab in
T ake
f ind
at ory
Ġn ational
Ġl ie
ra b
ent ially
Ġth orough
ĠR uss
Ġfle x
I T
Ġs ad
ist ics
ĠJapan ese
Ġnick name
r ict
od ies
Ġm ill
Ġfor ward
abet es
ĠLab our
Ġex ten
Ġ7 5
c les
o ot
u is
Ġm ild
Ġro ots
Ġminut e
xy z
ograph y
Ġcaffe ine
Ġl oose
c an
Ġf ed
ĠH igh
q r
i ents
Ġsu shi
Ġme ets
Ġd rug
Ġ3 9
Ġr ough
ci ous
ĠUK IP
ro ll
a ign
os ure
and er
AN TI
Ġb ake
ĠS un
ĠG re
Ġalphabet ically
a e
ĠC ook
Ġ4 8
l m
v il
Ġreturn s
Ġveget arian
Ġdou ble
or ous
Ġv oice
Ġrom antic
Ġp ine
Ġsol utions
Ġhot el
Ġup coming
Ġplan et
Ġho pe
Ġchron ological
ĠDep ending
Ġbacter ia
b ird
Ġn ucle
og ram
Ġele ction
Ġenvironment al
N A
ĠA cc
Ġsal ary
Ġnear ly
Ġbas ics
Ġqual ifications
Ġb oo
pe cially
Ġra bb
ĠAust ralia
Ġbed room
Ġcand les
Ġw inner
Ġbe yond
Ġlean ed
Ar t
Ġspeak er
Ġb ot
Ġst orage
Ġsupport s
Ġsong s
r ical
Ġl ands
as hed
ion ally
ĠP ot
Ġro ast
()() ()()
" ).
Ġent ities
b c
Ġun its
Ġstrateg y
ab ul
Ġmist akes
[ ]
b ur
Ġtell ing
Ġfil ter
n es
ve re
ad o
bb bb
o e
H E
Ġdi abetes
g ot
Ġshe lls
P re
p ly
ĠB y
Ġhow ever
Ġw aves
Ġv ict
Ġbelie ved
ĠJew ish
ĠSt e
Ġhydr ated
Ġes pecially
Ġd irty
Ġpre par
Ġmon itor
Ġtow er
Ġas sem
ick s
iss ors
Ġy ard
ĠS pe
Ġph ilosop
Ġfore ver
5 6
ĊĠĠĠĠ Ġ
Ġappear ance
Ġharm ful
cc er
Ġkeep ing
Ġconc ern
Ġconc lus
. ?
E O
Ġm ort
Ġst ove
Ġst raw
Ġref erences
Ġintern ational
p erson
Ġrel iable
Ġbe ar
ĠP CC
7 2
en ing
l ings
ra ft
ĠH ouse
Ġpain ted
Ġamount s
" ]
or g
Ġrese m
he red
Ġre leased
Ġpe ace
Ġarr anged
tt es
s m
u ations
Ġ3 00
Ġapplic ation
ic ian
Ġfeed back
Ġsignific ant
ĠCan ada
ĠI RA
M P
p ire
Ġf elt
Ġlight s
Ġchall eng
ĠA ct
Ġste ak
Ġmag az
f r
Ġad jective
Ġcomb ine
A re
am ing
ip ment
Ġbr ass
Ġstand ard
Ġcamp aign
Ġbree ze
Ġc m
Ġp ale
Ġst rug
Ġclo ves
Ġappro ach
ĠMad ison
Ġse ed
Ġ3 1
A l
om en
Ġprotect ion
Ġtall er
qu ate
= $
() ;
Ġsou p
Ġvers ion
> <
Ġpl ate
Ġru b
Ġfil es
Ġpast a
Ġpower ful
Ġheav ily
Ġa de
com fort
Ġclos est
ab or
il let
ĠP ol
ph one
Ġhapp ens
aw kins
ol f
Ġdirect ions
Ġremo ved
Ġe erie
u ary
Ġsc issors
we ight
Ġoutput s
Ġbo ld
ri age
igare ttes
y m
Ġsay ing
Ġf aster
Ġp our
Ġburn ing
l im
Ġplay ers
Ġequ ipment
Ġpost s
Ġcarr ots
Ġ1 000
Ġbo il
Ġmanage ment
ĠArt ful
Ġ4 00
Ġcorresp onds
Ġabs or
Ġseas hells
Ġl ake
']. .
Ġfor ce
am ps
ur ies
Ġha bits
âĢ Ķ
ap ital
Ġcham ber
Ġas pect
Ġsw itch
4 2
Ġher self
Con straints
ra z
Ġun it
Ġ >>
ot er
ĠH ill
Ġgir ls
est ions
pp erc
Ġpo ly
Ġmoder n
ĠRom an
b ody
Ġche ap
Ġmod els
Ġpass ed
A B
Ġpay ment
Ġobs erv
l ier
ro at
Ġansw ered
Ġcent ral
Ġmen u
Ġcl oud
Ġrat ings
Ġco py
ĠU ltimately
Ġgr and
ib ly
Ġcir cle
W h
Ġh osp
Ġwin ds
v as
Ġm ap
Ġcr ime
ĠA lex
ĠW est
Ġfore ign
Ġsu sp
art s
Ġplatform s
Ġst d
Ġchang ed
Ġtick ets
ĠS ol
Ġcontrad ict
fra id
Ġa fraid
e at
il k
L O
Ġm is
ch ar
Ġmulti plication
ĠPar agraph
ar ily
Ġwork sh
al ian
Ġ1 50
Ġmathemat ical
b u
re l
ro id
ww w
ĠS ince
in ations
Ġre ve
ĠHalf ling
Ġad vert
y al
ll y
ĠM en
Ġt one
ĠS erv
t ext
ĠD ec
Ġevery day
ĠGerm any
Ġsur pr
Ġenc ount
Ġf ence
Ġl ad
ĠB C
Ġcould n
Ġsurf aces
bab bab
u fact
Ġne ither
Ġsil k
Ġsp r
Ġal one
s um
Ġj ourn
Ġh iking
Ġimp ossible
Ġvis iting
Ġmat ches
Ġbare ly
ug ar
pperc ase
z er
Ġc out
Ġst ack
Ġsk illet
Ġsubs et
Ġwill ing
ino a
us ion
Ġbr and
ox ide
Ġexperien ced
Ġst air
ĠD awkins
Ġpub lished
le ep
Ġtap est
Ġh us
Ġ9 6
Ġbus hes
ĠKe ep
7 9
C ount
Ġwarm ing
enn is
c ont
se par
Ġb odies
Ġm att
Ġmo le
i rect
Ġ5 00
Ġnot ice
Ġsche dule
=$ <<
ĠI dent
Ġcon duct
ĠE ven
ĠTh ai
Ġrep air
Ġhist or
H ead
ber ry
iz er
Ġess ay
ĠRep ublic
an cing
Ġh oney
val ue
Ġenc ourage
Ġjo in
ĠU N
Ġpart ner
v ant
ly ing
Ġhe llo
Ġpro s
Ġex h
Ġoil s
Ġ !
us iness
Ġfew er
Ġfall ing
f er
Ġh und
Ġe ats
Ġadv is
Ġart ificial
Ġrout e
ĠAngel es
Ġprodu ction
Ġent ry
Ġaccording ly
Par agraph
Ġu ppercase
Ġun f
Ġmy st
Ġ13 9
Ġmag ical
Ġcam era
ĠB ates
5 9
ĠSt reet
Ġins ight
Ġle mon
Ġwho se
idd en
Ġhon est
Ġf aint
h and
Ġ er
Ġsee ing
or a
Ġlit er
ĠM in
Ġso ciety
ĠGree k
f all
Ġf air
Ġg ang
il ies
ph ant
xy gen
het ic
0 2
l ook
out s
Ġnutri ents
r an
Ġbr idge
ĠNew s
h appy
Ġwas hing
Ġst om
ĠRem ove
Ġ4 2
Ġpos itions
Ġball s
in st
Ġglo omy
Ġe p
oo p
ĠG od
Ġman ufact
Ġkey words
Ġvac uum
raz il
Ġco bb
Ġex amples
ip edia
pos itive
Ġreason ing
Ġfarm land
D es
ir ts
Ġade quate
Ġpro p
ik ipedia
33 33
Ġm ir
if ts
Ġoffer ing
Ġproced ure
Ġ11 4
* .
2 000
Ġthe ra
Ġmin imal
Ġoper ation
Ġth roat
Ġtow ard
Ġaccom pl
ro oms
Ġunder lined
Ġhold s
Ġse g
." ""
book s
ic ious
Ġfe es
Ġcho pped
ĠJo e
Ġthorough ly
Ġopportun ity
Ing redients
Ġ'* '
r ange
Ġill ness
Ġtutor ials
Ġmo de
Ġtw e
od ay
ĠW ater
Ġsc en
Ġfe ver
Ġshe l
Ġsim ply
Ġhung ry
Ġperspect ive
N E
Ġdis co
Ġcut ting
4 9
f ree
Ġ____ __
ĠH i
Ġsum mar
Ġast ron
t op
gh an
Ġbo iling
ĠBr own
Ġcompon ents
ĠS n
Ġremo ving
Ġorig inally
min ist
Ġcit iz
+ '(
Ġse lection
i ency
Ġth row
ren cy
Ġb at
Ġ5 6
Ġindivid uals
( ))
ĠS im
Ġex change
Ġk inds
Ġpe an
Ġtattoo s
cri be
Ġnutr ition
Ġhealth ier
R U
ci ence
ĠWh ile
Ġsur v
Ġdiv ide
Ġelectric ity
u v
Ġpass eng
ĠEn c
Ġdru gs
ĠP er
Ġso ccer
Ġdark ness
? ,
ĠS an
Ġwor ried
Ġch ips
ĠN ame
Ġus age
ars h
Ġ{ '
Ġlog ically
Ġestab lish
ĠO ut
Ġdiffere nces
ver b
Ġmo ved
ri p
Ġem b
Ġsp ots
Ġmy self
Ġparagraph s
Ġsol id
c raft
y r
Ġs ight
Ġteas poons
Ġrect angle
8 00
in ter
ĠI N
Ġsc attered
Ġcomm it
Ġment ions
Ġtomat o
Ġinstr ument
10000 00
ĠIt alian
Ġreg ion
Ġcoun se
in ch
Ġcl ust
od es
ij k
C om
Ġ ic
Ġa x
Ġdivis ible
! "
p m
Ġb oss
Ġsim pl
Ġoutdo or
ic als
av ig
Ġdeb t
t rue
Ġfl ower
Ġexpect ations
Ġconsum ption
Ġs end
Ġw oods
Ġf an
ĠIdent ify
3 1
g ling
he l
Ġf iber
ate ful
separ ated
l ife
al le
et ch
Ġch ance
ĠB o
Ġchar ge
Ġwa iting
Ġrefer ring
Ġen chant
Ġcor n
Ġclear ly
ĠM oon
Ġlo d
Ġemerg ency
Ġt ight
ĠTr ump
M M
Ġmeas ures
ĠChar ley
in ating
Ġn ic
z ing
id ents
Ġsu stain
Ġwh isk
Ġcont ract
Ġhold ing
Ġbot tle
Ġthe r
Ġh ur
Ġcl ick
ĠMar ia
State ment
u ce
Ġt ent
Ġha bit
at ural
ro ad
Ġun iverse
iss ions
ye ar
Ġweap ons
F O
ag ue
hes is
Ġrel ative
Ġconf ident
Ġc ivil
y er
ĠJ e
Ġsuggest ions
f unction
Ġmo b
Ġmo s
Ġback ground
Ġexp osure
Ġsu s
Ġgl ow
Ġprofession als
Ġshap es
ul ate
Ġstud ies
a id
y on
Ġtravel ing
% .
v an
ed nes
Ġg ate
ĠSt ud
Ġpre c
ret urn
l est
um bers
Ġis land
Ġhang ing
Ġmotiv ated
ednes day
A D
i pped
Ġw ire
as ons
Ġthera py
ek s
Ġhappen ing
C an
m ore
m ax
ers hip
Ġtri ed
g ram
os c
av ing
Ġru le
Ġbus y
Ġyoung er
Ġ eth
ĠB oth
op h
c ular
Ġres idence
Ġuse ful
Ġsy nt
Ġpass word
ĠChar les
. [
Ġad ults
Ġeven ly
Ġass ign
itam in
Ġjewel ry
Ġg oods
Ġb ound
Ġmeaning ful
Ġstom ach
j o
alth y
ism s
du c
Ġcra ft
re ci
Ġre put
ĠN ations
ure r
ell y
Ġfour th
Ġb ills
Ġbrother s
Ġben ches
w orld
ag ers
os itive
Ġshe lf
____ ____
Ġdisappoint ed
6 7
ur day
Ġsc rew
ĠOr gan
Ġenchant ing
Ġresp ond
ĠGerm an
p ers
id ance
rou p
Ġrec ords
Ġturn out
Ġconf l
ĠDe velop
Ġaltern ative
4 7
Ġn est
O ption
a j
v et
at hered
er b
ĠB ob
Ġgu idance
ĠDes cription
Ġd ates
aa aa
Ġne at
Ġrabb it
Ġeven ing
Ġbreast s
Ġconclus ion
Ġst ation
Ġsur ve
s n
ad ed
amm ation
Ġd ent
Ġpick ed
s ol
Ġ __
Ġw ake
Ġh unt
Ġac id
Ġimpro ving
Ġre ward
ag ged
Ġpo ison
Ġprodu ced
ĠAss ign
Ġhus band
u x
Ġsit uations
Ġste el
W ords
m ail
Ġbu ys
Ġra ck
Ġcreat ive
ĠCount ry
Ġex cess
Ġinfl ammation
c u
Ġb le
Ġwe eds
Ġhigh ly
Ġear lier
Ġmat rix
Ġmix ed
= =
Ġg iant
Ġra p
sc reen
Ġevent ually
Ġpolic y
Ġb one
Ġsal e
Ġrec y
pr il
Ġbasket ball
ar cher
ĠD ay
Ġsp ring
ĠJ ul
Ġfield s
Ġn one
Ġor bit
ĠW ind
ĠC O
Ġpo em
Ġoccur red
Ġscient ists
force ment
as m
lo pe
ĠL os
Ġcl osed
Ġfe ar
33 5
ghan istan
Ġw oke
Ġwe ak
ĠJu ly
ot ed
Ġd ried
urn ame
Ġeval uate
Ġl au
ĠW ell
Ġbl ond
ĠCom pose
Ġredu ced
Ġt ennis
Ġp le
al ed
Ġn ause
Ġst uff
un ks
are n
Ġdiv ision
Ġban anas
Ġhosp ital
M y
Ġd ur
ĠE r
Ġinf er
Ġend ed
ĠEn joy
g ive
l ar
Ġqu ery
Ġ6 4
Ġair port
ĠM c
ĠB en
i pp
Ġp ile
Ġk g
Ġno se
Ġstat ue
Ġfro zen
. :
Ġmo ves
Ġv oc
Ġpres ence
Ġrect ang
Ġun e
Ġsupp ly
Ġpoll ution
ourne y
Ġwid th
P ro
Ġor anges
Ġpl ausible
io ds
Ġconst ruct
IN G
Ġ'/ '
Ġfact or
y ard
Ġe ars
ri al
Ġwh om
ress ive
Ġvol ume
5 70
ce mber
fore st
Ġper iods
aw s
ĠA I
est ic
dd en
Ġlab or
Ġb illion
Ġg ender
Ġpro of
Ġeffective ly
Ġafford able
count er
6 5
g i
Ġown er
Ġest ate
o ff
Ġ %
Ġf a
ind ex
Ġtot als
Ġcall s
Inst ruction
Ġconfl ict
Ġ6 5
Ġmu se
G ET
a it
it em
all ow
ĠM o
d es
Ġtr ade
othes is
Ġang ry
N ot
Ġse ven
Ġwhe el
Ġtechn ique
ĠAs ia
Ġhor se
en cies
Ġcont rast
Ġteach ing
Ġstr ange
An swer
Ġdeterm ined
Ġp ump
Ġg un
Ġqu inoa
co de
Ġreal ized
F irst
k a
Ġg one
Ġweek end
pt ed
Ġal though
Ġsc ale
Ġke ys
Ġsal ad
Ġfly ing
Ġcryst al
Ġp ink
Ġre lease
Ġon ions
w o
le an
ĠWill iam
Ġche erful
ten ance
Ġdown load
Ġfocus es
Ġpan el
Person X
Ġround ed
Ġbott les
fl our
ĠS chool
os en
Ġhum id
ĠP eter
Ġ3 3
Ġinflu en
in se
' ).
Ġs urname
Ġl amp
ĠW ednesday
Ġscr atch
um in
ĠP aul
ĠIn vest
ĠJo an
Ġapart ment
l ow
Ġb inary
il ize
Ġsh ot
ĠB BC
ite ct
Ġallerg ic
B ake
Ġo z
Ġinform ed
Ġmonth ly
er ies
Ġup d
Ġjum p
anc is
ĠSat urday
k ick
Ġre asons
ĠS al
ĠIt s
Ġgram s
ĠDe cember
Ġrepe ats
ĠJan uary
M L
M ix
y n
Ġc uis
ĠJ ust
Ġra ise
Ġass ist
0 3
f erence
Ġb onds
ut ed
ĠIng redient
Ġdu pl
vant ages
R I
Ġm ask
Ġre order
Ġbo ys
Ġgreat est
Ġadv ent
Ġstay ing
unt e
i ate
Ġo xygen
Ġgr ows
Ġprof it
f ish
Ġch osen
ĠSm all
. ",
N ame
b ies
f it
Ġre wards
Ġst ro
ne e
Ġenjoy ed
ĠQ ue
c ling
Ġdi oxide
ĠRe volution
Ġallerg ies
Ġaccompl ish
st d
Ġar my
Ġwhen ever
bo x
Ġcirc ular
ĠEnc ourage
it ute
ĠA g
a es
Ġj oint
Ġkn ock
ys is
ĠTr ans
Ġgrocer ies
Ġc ough
ĠL a
Ġemot ional
Ġestab lished
Ġlight ing
Ġdep artment
Ġclim b
re g
ĠIt aly
Ġinst ances
Ġ7 2
Ġcr is
um es
Ġcor ners
Ġtr uth
Ġspecial ize
ĠSy stem
n ds
ĠG old
Ġbre aking
Ġsub traction
Ġcult ural
ĠHar ry
ĠR eg
Ġcomm a
fort un
39 2
Ġoccas ionally
Ġ5 5
are st
Ġoff ered
Ġnames pace
ĠInd ian
Ġfail s
Ġpenc ils
Ġconcern ed
8 5
Ġthe rap
Ġmo ld
ĠFr ancis
Ġsauce pan
Ġcal m
Ġded u
ĠM ost
Ġlo ves
Ġflo ors
Ġside kick
ĠProper ty
g ings
Ġdo ctors
Ġair line
Ġturn ing
Ġfoot ball
lud ed
Ġmar bles
Ġentertain ment
Ġod or
- >
Ġk id
ĠBe at
Ġdiam ond
Ġmyst ical
r ons
Ġt ire
Ġa im
Ġv irt
os ition
Ġapp oint
Ġind ices
Ġbudget s
' +'(
Ġth ous
Ġclass ic
Ġlot s
Ġdom ain
0 17
Ġre in
ak s
Ġse vere
el ine
Ġmaintain ing
Ġcou p
8 9
P lace
e y
g g
en a
om ic
Ġpract ices
Ġham mer
f ol
Ġben ch
Ġoccurren ces
S entences
b ly
c est
ou ds
Ġb ike
ĠS und
Ġal t
Ġr ash
olog ist
gy pt
Ġreact ion
M ary
y nt
Ġf ac
ĠL ar
Ġris ing
Ġcommun icate
urs day
f alse
Ġh idden
ĠW ikipedia
ĠJ im
Ġant s
Ġmom ent
Ġcoord inates
u able
Ġlo yal
Ġchem icals
agon ist
Ġ il
ig r
qu ality
Ġj ourney
Ġpean ut
ĠF in
Ġwhere as
ĠDo e
Ġrepresent ed
ĠEurope an
Ġhor rible
Ġac adem
Ġadv ance
Ġpract icing
Ġcolor ful
vil le
Ġboo st
Ġy es
ort ed
Ġfl ag
Ġexp and
Ġvis ual
Ġtru ck
Ġnucle ar
im ize
ĠIng redients
y o
Ġh ate
Ġfor ces
Ġru de
fl ow
Ġrepresent ing
lus ive
A S
Ġd ance
ag o
Ġde mon
ĠB el
Ġret ain
ĠDr ink
m p
er o
Ġinc orpor
Ġbran ch
Ġbould ers
ĠA M
ĠR ome
eg ative
Ġsl ice
Ġexp osed
ĠBe fore
Ġdiv ided
ut es
n ums
am ous
ul ated
ri a
Ġle af
Ġad ult
Ġserv ed
Ġbo ots
6 00
v in
if ier
Ġcomp ass
Ġmain tenance
Ġpay ing
m as
Ġd er
ĠD id
Ġun s
Ġdist rib
Ġpartic les
Ġarch itect
Ġdepress ing
g reen
Ġ18 0
Ġnetwork ing
Ġmoist ure
Ġp ets
Ġmark ed
ĠBl ue
ĠM ain
Ġfin ished
h t
Ġt ense
Ġin h
Ġde l
form ation
Ġclean er
Ġphot o
D o
T est
ĠI D
ur dy
Ġch illing
ap ed
Ġpar alle
Ġra ised
val id
Ġpolic ing
Ġge omet
ĠSec ond
Ġencount ers
ce l
Ġal b
Ġrese archer
Ġexperien cing
" ],
6 4
R AL
Ġd amp
Ġbe ars
Ġexper t
Ġexist ing
Ġmer chant
A nt
he althy
Ġwor se
Ġnot es
Ġwrit er
Ġhead aches
Ġpresent ation
Ġlod gings
Ġil leg
ĠA rab
Ġsh ore
ens es
Ġconnect ion
Ġcontin ues
Ġcomm as
Ġpar aph
Ġste ep
Ġclose ly
Ġs hat
Ġ( "
Ġequ ival
Th ree
Ġshad ow
Ġinsect s
ĠA b
Ġh ats
ĠT aking
Ġsu dden
ra ined
Ġsp ark
Ġfun ctions
ger y
Ġconst ant
Ġobject ive
Ġsafe ly
Ġconcent ration
Ġinn oc
az e
Ġcour ty
Ġf ully
ap or
pl ane
It em
< /
Ġmin ced
Ġpurch ases
ĠU t
Ġcomp ound
Ġcomp osed
Ġl amb
ĠP M
Ġv ow
ĠN ow
Ġcomple ting
Ġt an
Ġfore cast
abc def
w in
Ġ vert
Ġch ain
Ġinvest ig
ik es
Ġsex ual
ol a
Ġjo ining
m l
Ġsc ar
Ġbr oth
co pe
Ġsav ory
ĠC our
Ġdes pite
ĠV al
Ġselect ing
ĠOb ject
u ated
v is
ĠE ast
ĠO f
Ġfall en
Ġspeak ers
Ġperm ut
war f
Ġn avig
Ġcon ven
Ġsc ru
Ġro pe
Ġlangu ages
Ġdig it
ĠS um
ĠD av
Ġno de
air y
ĠFr iday
Ġcolle ges
Ġpack age
Ġhob by
Ġc ush
Ġat op
Ġturn s
Ġpriv ile
Ġcourty ard
p ir
ĠE at
Ġphys ics
Ġtick et
Ġpasseng ers
ess ert
Ġconc ert
ĠKing dom
f e
h i
Ġt it
Ġl osing
ĠThe ir
ĠB er
I S
Ġs izes
Ġg n
Ġsp ices
Ġun ivers
Ġhead ache
Ġfit ness
1 75
s pe
Ġf if
Ġlength s
Ġinter ior
Ġglass es
Ġless ons
Ġdiv ers
Ġsandw ich
m s
Ġl uck
Ġav oc
Ġtest ing
Ġappro x
Ġvacc ine
Ġnause a
A A
Ġref r
Ġcou ple
Ġneighbor hood
c ers
ĠG al
Ġany where
ar io
ed ing
ch o
ri er
Ġest im
Ġstir ring
ban ana
Ġdem and
Ġaspect s
e en
f ox
Ġan k
els ius
s ize
Ġc ow
ĠG ive
Ġ vel
it ize
ĠA D
Ġph ones
Ġimport ance
Ġshel ter
g r
se ction
Ġcl ouds
ph rase
up unct
Ġgather ing
Ġlant erns
Ġcuis ine
fortun ately
Ġ ending
Ġbe ll
Ġun known
play ing
345 6
Ġcle aring
v able
Ġd ict
om as
nd ry
Ġbl and
Ġadvant ages
Ġcarry ing
Ġmel ted
I I
Ġar rive
Ġperson ality
Ġvi br
Ġrefr iger
I nt
comm od
Ġhead line
Ġtrans fer
p ress
ous ly
Ġfeel s
Ġe ffic
St ir
v ents
ĠD uring
ĠN umber
Ġcobb lest
ig s
Ġsh ower
Ġj e
ĠFr ank
Ġemot ions
Ġf ought
al og
ent iment
ĠH T
ĠB ang
Ġdescri ptions
Ġconst antly
Ġport ion
ynt hesis
ven ue
Ġelect rical
ĠState ments
Ġm al
ber ries
ool s
Ġqual ified
) =
c overed
ens ive
Ġsn ake
. (
Ġb its
Ġ' +
Ġcomm er
Ġsto red
ĠC ivil
ru n
ĠE gypt
Ġ4 6
Ġun iversity
Ġent rance
Ġport fol
Ġportfol io
P S
V oter
Ġs ch
Ġst age
Ġearn ed
friend ly
on ic
Ġst urdy
ĠA tt
ĠD NA
Ġj ack
Ġ20 16
Ġmus cles
Ġfront line
Ġcra ck
Ġcult ures
Ġreport s
Ġhor iz
Ġmut ual
t ains
Ġpay ments
Ġgra v
Ġlink ed
Ġcrit ic
i est
Ġfl av
Ġmot ion
Ġvol unte
Ġflight s
uv w
Ġs lope
ĠR E
âĢĻ ,
Ġsurround ed
d ro
m en
Ġ iv
Ġn ort
Ġste am
ĠUS A
Ġnor thern
Ġc el
Ġd rop
ab b
ĠB razil
Ġtext ure
att y
Ġst uck
est y
Ġhum orous
ĠTh ursday
Ġcomp ress
Ġp it
Ġh urt
ĠT ype
ple ment
ĠG ar
ĠL ee
Ġgr ay
Ġsupple ments
[ "
Ġdes ert
Ġ umb
re ls
ook s
Ġd ense
le vel
ĠSh ow
Ġemploy er
Ġconsum ing
Ġdeliver y
Pre heat
' ?
Ġs ed
ĠYou T
Ġk new
Ġsp in
Ġpe ppers
12 3
Ġtrans l
) /
t est
ĠT urn
ĠB ur
pl it
Ġ+ =
Ġgu ests
Ġflex ibility
N ON
Ġfe ature
Ġbr ightly
____ __
en ame
Ġm ood
ĠP o
Ġ= >
Ġmost ly
Ġprot agonist
Ġinnoc ent
Ġj og
Ġnum erous
Ġcreat ure
ĠState ment
Ġmus h
Ġlim ited
Re cipe
Ġvitam in
Ġst ains
Ġ5 4
Ġcreat es
0 5
v i
ĠA pril
ĠC elsius
ĠG ra
Ġsp ider
Ġeat en
ĠAl though
ĠSp ain
Ġconst ruction
ĠChrist mas
Ġmob ile
y l
ĠM ac
Ġbr ows
Ġrequ est
Ġsupport ed
Ġeng age
Ġdre am
Ġt ag
Ġs ample
ĠE st
Ġag g
Wh ich
in i
on ed
ip ly
Ġapp reci
Ġcomp ost
ify ing
Ġch ann
ĠR iver
au st
Ġenc our
s er
ĠM ars
gh ijk
Ġthem e
Ġpr ison
Ġsec ret
ĠEm pire
c ur
Ġse w
ĠR ight
1000000 1000000
Ġad o
Ġregul ations
Ġmatt ress
Ġdemon str
in put
Ġto ile
Ġre ached
ĠTh ree
Ġpo et
UT RAL
Ġcitiz ens
W E
b es
g age
l am
Ġs ke
Ġvis ion
Ġass ume
Ġhol es
M I
ic ates
ount ain
Ġcr ates
ĠPl ay
Ġpolic ies
Ġtwe et
Ġr ide
Ġsur gery
br own
Ġoper ating
Ġbeg inner
Ġhost ing
Ġp ed
om a
im eter
Ġman ner
ĠSt ar
Ġdest ro
b ling
Ġmechan ic
Ġjourn al
Ġeffic iency
Ġw ings
Ġb order
Ġcra cks
ĠC ong
Ġne arest
Ġv ill
ok yo
to gether
Ġsimilar ity
ĊĠĠĠĠĠĠĠĠĠĠĠĠ ĠĠĠĠĠĠĠ
Ġrat io
Ġlau ndry
f oot
Ġd ot
ĠT it
Ġch ili
Ġso re
Ġbu cket
Ġsav ing
Ġilleg al
w rit
Ġd p
ail and
Ġperform ed
Ġarm or
Ġparticip ants
d own
Ġas leep
end ment
Ġac commod
ink le
Ġreach ing
Ġveh icles
Ġcott on
Ġnewsp apers
ĠYouT ube
Ġtw ist
VE GET
Ġrespect ive
9 8
r as
25 5
Ġapplic ations
h a
Ġcomp re
Ġsug ary
Ġequival ent
Ġm ud
The y
Ġlight ly
Ġvisit ors
Ġmagaz ines
d ata
Ġsou thern
Ġanal ysis
c ity
c od
ĠT oday
Ġr h
ĠN or
Ġatt rib
Ġproject s
Ġresem bles
ĠIn s
âĢ ĵ
che ck
d ict
Ġre new
am ily
Ġfig ures
Ġstat us
ĠNe aring
Ġclos er
Ġoccas ional
ĠK ore
abul ary
Count ry
b ru
Ġw ra
Ġf irm
id ers
ter y
Ġval uable
Ġpack ed
ĠDes cribe
Ġumb re
Ġth read
Ġn erv
Ġst im
ĠM ix
Ġal arm
Ġbo ards
Ġinf amous
Ġhob bies
Ġc ere
YYYY YYYY
Ġtrun k
ĠD ar
Ġun us
Ġdish on
Ġconvers ations
Ġeduc ational
Ġperm it
Ġprin cip
Ġoffic er
as ant
Ġcons ume
Ġlow est
Ġbelie ves
Ġmindful ness
ĠSund ay
M E
Ġm icro
Ġsp oke
Ġshould ers
ac ent
Qu estions
bru ary
\ \
Ġt ro
Ġre v
Ġit er
Ġ4 3
ian o
Ġann ual
. *
Ġch unks
Ġrock y
no on
Ġcontrib ute
g in
Ġmar riage
ĠGr ateful
Ġvict im
om er
ĠSt ir
ĠCom b
Ġeng ines
Ġpronoun s
y y
Ġn ine
Ġfocus ing
Ġri pe
Ġnot iced
par am
Ġsun screen
Ġeas tern
itting ly
Ġcan s
Ġj un
Ġbeaut y
Ġbelong s
Ġconcept s
Ġvirt ual
Ġd airy
ĠRo bert
Ġantonym s
ĠP enn
Ġfl ows
Ġide al
Ġcr iter
no v
Ġrap id
O S
b re
d is
in er
Ġs en
ast e
aw are
Ġdat ab
Ġt a
at o
et ers
ĠD ark
Ġpass ing
Ġsetting s
ĠCent ral
Ġfed eral
Ġprivile ged
Ġmir ror
upunct ure
N OT
X X
c akes
ere nt
Ġco p
ĠSc ott
> .
Ġve ctor
Ġbeg ins
if ting
Ġ4 9
Ġsome where
ren ce
ĠK aren
Ġsun ny
ug ust
Ġemploy ee
Ġnorth west
Ġhon oured
Ġunw ittingly
c a
n op
in itely
Ġl ying
Ġv est
Ġdis comfort
Ġclo ck
r d
ĠS ub
Ġinst ance
Ġequ ations
Ġfert il
Ġw ish
ig ning
ĠD ata
Ġad m
Ġenc l
Ġfix ed
Ing redient
ĠDav id
Ġfe ather
Ġkn ife
Ġ12 3
Ġgall ons
Ġpu pp
Ġconver ted
4 3
C l
t ract
ĠC or
Ġshe ets
Ġem ph
Ġmess ages
Ġpickpo ckets
ĠC r
Ġde lete
ĠU sing
Ġtre ated
8 8
ĠM at
Ġret ail
Ġhistor ical
ĠHT ML
T o
c al
at in
Ġover w
aff ron
Ġsold iers
Ġhund red
A d
o ons
Ġ âī¤
Ġp ond
Ġd essert
Ġch ances
Ġform ing
ict ed
Ġ: /
Ġexpl oring
Ġcondition er
P UT
Ġh op
ĠO cean
Ġsc on
am in
ĠN etwork
Ġun able
Ġsome body
Ġid i
ir ds
ie f
ĠL ou
Ġke pt
Ġequ ally
ĠZ e
Ġstret ches
ĠOff er
r ated
Ġs ib
Ġpur ple
Ġident ity
Ġ_____ .
Ġrole playing
Ġadvis or
Ġbo at
Ġmanage able
l ong
ce ed
Ġst ated
Ġro ll
Ġtra ils
ĠOrgan ization
S e
Ġbe at
Ġtyp ical
Ġmach ines
Ġang les
ĠMus ic
Ġprem ise
Ġalb um
R es
Ġde ck
Ġthere fore
cri pt
n um
Ġb es
Ġj elly
ĠJ une
Ġspec ified
ĠCon nect
Ġmount ains
Ġcabin et
N e
o cc
Ġj ava
Ġreg ist
Ġfam ilies
orn s
e ffect
Ġm ad
ic ide
Ġj ar
Ġ7 8
9 6
g ent
m ount
oo s
ĠR ye
ĠAf ghanistan
Ġpainting s
Ġemph as
Ġt ags
ĠO ct
Ġun healthy
Ġtr im
Ġcur tains
Ġpan els
Ġcompet ition
Ġelectron ic
Ġair plane
Ġpat ches
Ġengine er
ĠDes pite
pt ember
Ġover p
Ġgu ess
Ġstain ed
ĠCat cher
ĠP al
Ġwh ites
VE R
ub a
Ġumbre lla
ĠS and
Ġwork out
Ġm ouse
Ġl un
ap pe
Ġtrans form
ĠInst all
Ġsch ol
ĠC D
Ġpl ot
pp ings
and el
Ġem issions
Ġtr ick
Ġmus ical
Ġtatt ered
S o
b ad
p art
r ating
it tle
ĠB reak
Ġfl ash
)) :
Ġgu ard
rit ious
Ġtrust ing
RU E
2 40
e le
w hat
Ġ ign
ĠP oint
Ġr ank
ook ed
Ġcl ar
Ġpast e
Ġnut ritious
Ġtail ored
Ġhyp othesis
li est
Ġsty les
pers ed
7 4
ian ces
Ġplay s
ven ile
Ġaffect ed
Pr int
Ġdishon esty
ĠTh ink
Ġra w
Ġo s
ĠT ime
Ġst ead
Ġar rest
Ġflu ids
Ġemail s
Ġstruct ures
U L
f ed
u k
ult ure
Ġad minist
Ġ! =
N N
c ba
Ġst airs
ĠB ond
Ġapprox imately
O D
Ġt ie
re m
ed y
ic ations
ol es
Ġpl us
so ft
Ġexpress es
u nder
Ġsh ift
Ġ9 7
Ġcour t
Ġteen agers
ĠFe bruary
ĠRuss ia
Ġprepar ing
F A
ĠN oun
18 0
Ġcirc um
Ġded icated
Ġh orm
Ġform er
Ġinfect ions
go ing
Ġagree ment
Ġextreme ly
fr ame
O G
m et
Ġco pper
Ġank le
Ġf acing
st e
ant a
ĠB ro
ĠGener al
ĠCon st
Ġimpl ies
Ġne cess
Ġbr ands
(" %
u it
hes s
Ġtrans act
Ġcreat ures
ĠSe ptember
Ġfre ed
Ġju venile
Ġfight ing
Ġoutdo ors
Ġneat ly
b rush
Ġsc ul
ĠTh ailand
Ġel ig
be ing
Ġmoon light
ĠServ ice
P our
Ġs out
ce ption
ĠLar ge
Ġt ip
Ġp arch
Ġd ensity
Ġwith d
el ed
Ġ19 5
pos es
Ġcoord inate
h aps
Ġs ail
ĠS affron
Ġblo gs
t xt
Ġc ents
or al
Ġdec ay
ĠCom mon
Ġpat ients
Ġlay ers
Ġmanufact urer
k in
n ic
is hes
The se
âĢĿ ,
Ġmot or
Ġep is
n umber
Ġan cest
Ġe c
Ġse at
ĠU nder
Ġ20 10
Ġput ting
Ġopin ions
Ġsubst ance
Ġlands cape
Ġshat tered
Ġre aches
Ġam b
Ġoff icial
Ġ9 5
Ġprocess es
Ph rase
Ġcry pt
Ġadj acent
Ġinfer red
7 7
ll en
ri an
ĠB et
Ġman ager
Ġsim mer
ĠTw itter
D E
F F
n D
ĠH o
ĠAl ice
Ġintern al
Ġtrack ing
Ġaw ful
r ich
ĠR ich
Ġcl ub
Ġye ast
Ġact or
Ġed it
ĠAt l
Ġvoc abulary
Ġoverw hel
. '.
E nt
c il
ĠS erve
Ġsu its
ĠHe alth
Ġread s
Ġmajor ity
Ġir rit
Ġregard ing
Ġ ...
Ġa er
ig uous
Ġsu fficient
lo se
Ġgra pe
Ġstrug gling
Ġstro ke
Ġg ay
ĠP ay
Ġbut ton
Ġorgan ize
Ġlab els
Ġrad io
Ġfund ament
Ġphotos ynthesis
ĠFrancis co
Ġcompre hen
Ġc ub
et te
Ġsh ut
ĠD og
Ġdi ets
Ġlit ter
th is
Ġdiagn osed
Ġpu zz
t an
Ġt ab
Ġh iring
ĠC apital
ĠD nD
Ġco verage
po int
te a
ens ion
ox id
ĠComp any
Ġappl iances
Ant i
ot ine
as ure
ab a
Ġex cl
Ġac ne
ĠTh us
Ġsequ entially
Ġdesign s
Un related
Ġtooth p
Ġchalleng es
Ġc her
ft s
Ġind o
Ġorig in
y dr
Ġp iano
Ġfl ick
Ġcart ons
Ġweigh s
Ġdecre ase
or ize
as hes
ĠT est
Ġ2 000
Ġsh amp
ĠR est
Ġag es
ĠCh icken
Ġflo at
Ġrepl acing
Ġbase ball
G row
Ġp us
ĠF old
Ġco ding
Ġinclud ed
Ġcur tain
Ġlast ed
Ġlink s
Ġlic ense
Ġwat ers
Ġsynonym s
O P
all s
Ġdep th
Ġ____ ___
Ġposs ibly
sn ared
) ]
1 10
Ġp ython
Ġfo ss
Ġ[ (
iff erent
Ġgr own
p ack
Ġa id
re ens
Ġl air
Ġ5 2
Ġcol ored
St ereotype
RE E
Ġgreen house
Ġcontrib utions
p are
s hed
Ġc igarettes
Ġf ountain
Ġpl anks
Ġro ses
Ġthan k
Ġafter noon
ĠG n
Ġfill s
Ġimm une
Ġnewsp aper
b ac
f rom
ĠE ve
Ġj oy
Ġshould er
Ġsub array
ĠĠĠĠĠĠĠĠ Ġ
Ġhous ing
Ġnort heast
b oh
Ġw ool
Ġcon v
Ġha z
Ġout come
ĠB ring
Ġarray s
Ġnetwork s
Ġwest ern
Ġindic ates
lm nop
w as
Ġs ess
Ġg inger
Ġfo g
Ġex ams
ne cessary
Ġcomm and
Ġgener ated
Ġmiss ion
Ġperm an
Ġinj ured
Ġinstr uments
PER SON
ĠAcc ording
osc opy
Ġsynt hetic
Ġcriter ia
boh ydr
W ho
ut ing
ĠN atural
Ġest imate
Ġes cape
it ating
ĠC ur
Ġmu ff
Ġ20 20
Ġtow el
Ġcover ing
Ġtor ches
WE ET
l van
ra q
ĠD own
Ġtext s
ĠCh urch
Ġprocess ing
Ġsuccess fully
Ġphilosop her
K E
ou nce
Ġpl umber
ĠL oc
Ġatt ractions
ĠBer lin
Ġt iss
ĠW right
Ġman aging
]. .
Ġrem ind
Ġcard io
Ġteacher s
Ġtherap ist
o v
w rite
ĠP ort
Ġcr um
Ġachie vable
y ou
ĠC EO
Ġne got
Ġwor ry
Ġlit ers
Ġclo g
Ġswe lling
Ġvel vet
ĠG roup
Ġtw enty
Ġcru st
Ġabc d
A s
e fficient
Ġs our
Ġd izz
ĠP ass
Ġdis ag
Ġag ency
ĠK ill
ĠV itamin
Ġfrag ment
ol ve
Ġcomput ing
Ġdef ine
Ġpur poses
Ġgrad ually
Ġseg ment
Ġune ven
Ġsib lings
Ġal ign
ac ity
sh aped
Ġmush rooms
en ge
ri e
ĠM iss
Ġanti oxid
Ġflav ors
x ic
Ġ6 6
Ġtoile t
C ont
p ass
it a
Ġl ined
ĠD ick
Ġcar ried
Ġele g
Ġz ero
Ġfro g
Ġaccur ately
. âĢĿ
G e
c re
Ġa th
Ġal ert
Ġen s
ĠDo gs
sequ ences
Ġstick s
Ġsupple ment
ĠQue en
Ġm aster
ĠA llow
ĠP ad
Ġsm ile
Ġviol ence
Ġo w
an es
ing ers
ro f
Ġal together
Ġro bot
ah og
ĠInst agram
Ġord ers
Ġquant ity
Ġrelie ve
Ġprop osed
6 3
9 5
h our
ĠA ut
Ġevery where
Ġpot s
OR D
ĠGr and
Ġabsor b
s entence
w alk
it age
Ġp ants
ar se
ĠB ene
Ġle ak
Ġk it
Ġcor rid
Ġchar ges
Ġcal ming
Ġshow ing
Ġposs ess
G iven
re ed
en ch
Ġre ality
ff y
ree k
ord ers
Ġshop s
Ġpat ri
Ġfrequ ency
Ġaud io
Ġsouth west
f ruit
u ing
Ġp ra
Ġcont ents
eg gs
Ġmon it
plo y
Ġyog urt
sy lvan
Ġspir it
Ġrenew able
Ġunus ual
.* ;
: :
I nd
S um
ur ally
ab ol
Ġread er
port s
Ġlearn ed
Ġinter section
Ġgen etic
78 9
Des cription
sylvan ia
A I
i ost
Ġsh ru
ahog any
f il
Ġth y
ld er
ĠM ore
Ġj son
eg in
Ar ray
Ġcas ual
o ven
qu ick
Ġqu i
Ġform al
Ġreg ister
Ġenjoy able
Ġhy per
Ġinj ury
Ġsymbol s
Ġresearcher s
he tt
ic ip
ĠM arch
Ġspe lled
Ġ6 7
Ġ8 4
Ġele phant
Ġfre el
Ġhy dro
Ġperfect ly
B u
ord ered
ens ions
Ġear liest
Ġ'- '
1 60
Ġopen ed
Ġfish ing
av y
Ġplan ets
amb oo
Ġinsert ed
Ġ'+ '
ĠPenn sylvania
iost ream
? '
Ġv eter
Ġad apt
Ġ8 5
rop ical
cul es
Ġrelax ing
h igh
j i
Ġt ied
Ġm ahogany
ĠU p
Ġper imeter
A ust
ĠM et
Ġcar ries
Ġmark ets
Ġsol ving
Ġcir cul
Ġmist ake
Ġtapest ry
Ġrefriger ator
B l
b utter
Ġb ac
ad vantages
ol it
Ġserv es
Ġpass ion
Ġsupp osed
Ġvirus es
Ġparch ment
ĠH aw
ĠP ositive
ĠD el
Ġman ual
ĠL ine
20 19
Ġfoot print
ĠBrit ain
Ġfest ive
o ber
Ġp ush
ĠTh omas
Ġsign ed
Ġauthor ities
Ġfire place
p ret
Ġc hess
Ġf ake
Ġcan opy
Ġ4 1
eg er
Ġele v
Ġvari ables
Ġcolon oscopy
l st
Ġ \
it z
Ġm ail
ch ing
Ġ20 17
Ġdep os
Ġdig est
Ġfail ed
(((( ((((
] ].
m es
Ġto ler
ĠB ig
Ġgo d
Ġsc ram
ĠSt and
Ġexper ts
ĠAr ray
ĠOn ly
Ġpatri otic
Ġc ouch
Ġb omb
Ġg ap
Ġn et
Ġfor ced
Ġback yard
Ġpath s
lev ant
Ġspecial izes
Ġcrow d
Ġscon ces
Ġf ra
Ġ4 7
Ġreflect s
Ġshamp oo
Ġb un
Ġout line
ens itive
Ġengine ering
Ġhyp ot
Ġmel ting
Ġhighlight ed
v iet
Ġp od
Ġg ases
Ġh ide
Ġup set
au c
Ġ9 3
ĠĠĠĠĠĠĠĠ ĠĠĠ
ric ed
Ġrain forest
Ġalt ar
Ġacadem ic
B B
g ument
Ġg ym
++ ;
ĠFl our
Ġmamm al
Ġadvert ising
ĠS qu
os h
per or
ĠR el
ac ific
____ _
Ġcur rency
ĠPr ice
Ġden otes
Ġrad iation
Ġdat as
Ġsustain able
ĠT okyo
us es
Ġdis appe
Ġpo cket
Ġcontain ers
Ġsk ill
Ġob vious
Ġopen ings
Ġsw ir
Ġsuff ering
. )
b ow
Ġt orn
Ġf u
om eter
ĠT ony
Ġsh ade
Ġint ense
Ġgl ad
Ġbas is
Ġdecor ations
Ġwond ering
ĠPot ter
2 50
Ġha ven
ĠR ock
Ġun necessary
Ġim per
Ġsec luded
Ġloc ations
Ġra il
Ġdepend ent
Ġmill ions
Ġmort gage
ic ago
ĠI raq
Ġn ation
Ġqu it
em ale
ĠIs lam
Ġ0 1
Ġdiscus ses
Ġsummar ize
ĠOct ober
8 4
M s
ess or
ons ense
ĠAr range
Ġgrad es
ĠIntern ational
()()()() ()()()()
Ġcheap est
Ġnecess arily
s ugar
Ġ9 9
ĠSo cial
ĠList en
Ġcart on
Ġje ans
i y
on a
Ġf oli
ir gin
ĠW ork
Ġ2 50
ĠL im
Ġ20 19
Ġatt ach
Ġtreat s
Ġprom ot
Ġvol can
Ġpand as
k ing
Ġwor st
Ġsc ored
Ġ5 9
Ġsuggest s
ĠWind ows
ĠL ord
12 34
Ġincre ases
olog ies
Ġsqu ares
Ġflu ffy
Ġsusp icious
m ap
t hen
Ġp ad
ly mp
il a
un ger
Ġim ag
so le
Ġrem ote
Ġpass port
Ġcharacter istics
Ġident ified
Ġconcaten ate
Ġhur ric
Ġparalle l
ĠComb ine
Ġscul pt
c orn
Ġt iger
Ġimp osed
Ġrest rict
cc oli
ats by
Ġsav ed
Ġstat ic
Ġtur key
P P
ot al
Ġh om
st uvw
ĠG atsby
ĠL u
og y
Ġpres erv
aus es
l ower
Ġatt ached
ad ing
Ġun fortunately
Ġcall ing
Ġperform ing
Ċĉ ĠĠĠĠĠĠĠ
bur g
Ġmole cules
hett i
8 6
N ew
b up
es se
ĠE nt
Ġneed les
Ġcamp ing
Ġinterv als
Ġfoli age
f ield
s plit
Ġb amboo
ar ium
Ġte ams
Ġ6 8
ost on
ec ause
Ġabc def
Ġcy cle
Ġske let
Ġfoss il
rof en
bup rofen
I AN
ag hetti
el ess
ĠSo viet
Ġla unch
Ġinvol ving
Ġconf used
n ow
u bs
Ġt ough
Ġsh ared
Ġv ent
Ġco in
ĠJ erry
Ġworksh op
S S
b orn
i os
Ġn ap
Ġte le
Ġsto pped
ĠSet ting
Ġsurpr ised
Ġreput able
M r
l ers
Ġcan yon
Ġco re
Ġ5 8
Ġapp et
ĠEn snared
look ing
lmnop qr
Ġantioxid ants
' /
id a
ood les
Ġblank et
ĠSe qu
Ġlaw yer
Ġdat etime
Ġther m
O UT
r ant
ĠP ost
os es
Ġvis ited
sh irt
T om
i as
Ġt iles
Ġa qu
Ġp atch
Ġn ails
ĠB usiness
ĠL atin
Ġpre he
Ġreg ards
me let
Ġconduct ed
: '
Ġint ric
Ġal ive
Ġsupport ing
Ġpow ered
Ġobs c
Ġappl ied
ĠA ugust
ĠH ist
Ġdet erg
Ġrepresent ation
Ġmatch ing
Ġanaly ze
f at
m o
p ot
Ġf atty
ve ctor
Ġmeas uring
icro soft
6 9
ĠM il
Ġco co
em ic
ip es
ĠGre ase
F K
Ġs lop
it als
Ġe B
ĠM ass
ĠO R
Ġsc ores
ne xt
ĠCh ange
Ġmar gar
Ġconnect ing
Ġled ge
Ġterr or
Ġlad der
Ġestim ated
P e
Ġ ?
Ġd iving
st art
ĠS aling
Ġche w
Ġwalk way
Ġpass es
ĠMr s
Ġearth qu
ĠCong ress
ĠSaling er
ĠS WEET
Ġdist ractions
Ġic on
Ġrectang ular
Ġschol ars
Ġp iles
ĠO lymp
Ġ20 15
Ġra v
Ġcheck ed
Ġorgan isms
Ġgrass es
Ġstretch ing
Ġsout heast
g l
Ġp hen
ar c
ur ated
ĠE duc
Ġche aper
Ġgr id
Ġunder st
RE CT
ĠAss ume
Ġconcaten ating
Ġscen ario
Ġcorrid or
' -
O b
d en
Ġc os
Ġh arsh
ĠM ale
and a
Ġun sure
Ġ6 3
Ġpresent ed
Ġrelig ion
ĠOb ama
7 1
C ode
f ord
Ġac upuncture
Ġcons erv
Ġbe es
Ġcan vas
ra el
ĠH ind
ĠP acific
Ġadv anced
Ġlabel ed
Ġbase ment
pos sible
Ġparaph rase
A TION
Ġt ang
ist ers
un ched
Ġim plement
Ġexpress ed
Ġneigh b
Ġpill ows
ĠEr ror
r is
or ange
ĠTh ick
Ġoverp riced
Ġb in
Ġfor t
Ġcon ce
Ġbu bb
Ġpart ially
Ġru gs
le ft
Ġl b
ĠS ave
ĠD I
Ġhelp ed
Ġbr on
Ġi buprofen
Ġinfect ed
Ġmoist ur
ĠChrist ian
? "
] );
m m
z a
Ġs nee
Ġl as
Ġsk ull
Ġprof ile
ĠEm ma
ĠUt ilize
Ġbes ide
G et
er ic
Ġch urch
Ġv ice
Ġ5 1
ĠTh ough
Ġprin ter
ĠS alt
Ġres ource
bs p
Ġknow s
Ġdelic ate
Ġut il
Ġquart ers
ĠMus lim
7 3
Ġ â
ic hes
ĠB an
ĠL ong
Ġunder ground
Ġtrun ks
Ġt ropical
Ġs ending
Ġf inger
se y
ĠP ick
Ġch ick
ult ural
Ġafter wards
ious ly
Ġmean ings
Ġexp ans
af e
Ġaccur acy
G erm
O liver
P R
Ġm assage
Ġqu otes
Ġpay s
Ġarch way
ĠKore a
, [
t ra
ing bird
st eps
qu it
Ġab ilities
Ġart ists
Ġcut s
Ġscient ist
ĠGn ome
Ġb er
Ġform ula
oc us
State ments
babbab babbab
ĠCour t
stuvw xyz
G reen
[ [
ent ive
ĠF act
ac b
Ġag ent
ject ives
Ġappe ared
Art icle
Ġcontradict s
A f
Ġat omic
aur ant
fl ies
nam on
Ġcel ery
A G
Ġse ats
Ġout er
Ġper haps
Ġatt acks
Ġproduct ivity
OR RECT
NE UTRAL
Ġtit les
A meric
U S
o ft
Ġp ipe
Ġ1 60
Ġout lines
ĠM ike
C E
c ut
o ices
Ġp ri
Ġl in
ul f
ab lish
ĠL ove
Ġsc reens
Ġ5 3
Ġpres cri
Ġeng aged
Ġmax imize
Ġpoison ing
Ġvill age
Res ults
N I
r ate
Ġt amp
Ġo melet
ĠS l
Ġbu zz
Ġpark s
ĠYe llow
p res
ve lo
ro duce
Ġare n
hes es
Ġinit ial
Art ful
Ġnerv ous
m ith
ab s
Ġsy ll
Ġdro ps
Ġworksh ops
re levant
Ġc hat
or ph
Ġsu ited
ass o
Ġ[ ]
Ġkey word
Ġconf idence
Ġbank s
Ġdatas et
Ġbe ams
ĠS ou
ver ages
Ġv om
ĠB ook
Ġtr ig
Ġroom s
Ġreason able
Ġproced ures
A fter
O n
d ictionary
ĠS il
Ġsl ight
Ġfound er
Ġmet abol
Ġprotect ive
Ġarg uments
Ġsurround ings
Ġbehav i
Ġbra ckets
Ġprogress ive
Ġlic hen
Ġrelie f
Ġprior itize
Ġbound aries
Ġwithd raw
Ġcrum bs
Ġstop s
Ġreplace ment
Ġdisco ver
Ġavoc ado
O ne
b oy
qu ire
ĠPro v
AL SE
Ġbig gest
Ġprobab ility
Ġscrew s
Ġupd ates
9 2
Ġse es
ĠJ ava
ĠSt an
ĠSt one
ob ic
Ġcent uries
ES CO
ĠDef initely
* (
A t
z es
en ry
ĠA ge
Ġ' ,
Ġsy ring
Ġold est
Ġtreat ing
Ġseek ing
Ġphen omen
i i
other ap
te en
Ġbre ed
Ġgen re
Ġclaim s
Ġboy friend
Ġ'* '(
Ġp ens
Ġd ancing
Ġl amps
ĠC ra
Ġli p
Ġwal lets
Ġsurv ive
Ġnic otine
Ġrelative ly
Y Z
i ance
Ġt ightly
Ġh ire
Ġl ion
Ġse ctions
Ġv ast
ĠM ock
Ġus ual
oth ing
Ġra re
ib ilities
Ġfro st
Ġquant um
Ġfert ility
4 1
g re
h ot
Ġf aces
Ġb icy
or gan
Ġp m
Ġn odes
Ġu lt
ĠIs rael
ĠSy nonym
U R
ing u
im ents
ate ll
ĠH ome
ber g
ore m
Ġfl ood
Ġinv alid
']. ,
Ġphot ography
Ġinj uries
Ġthous ands
Ġscru b
Ġrapid ly
Ġelig ible
in ent
Ġg athered
ĠM icrosoft
Ġread ers
ĠV en
Ġfinan ces
ĠChar l
Ġfro gs
Ġintellig ent
Ġregard less
Ġstair case
'/ '(
Ġt ube
qu is
Ġ8 7
Ġno ises
ĠPr ime
Ġchall enge
Ġteen ager
Ġelectron ics
Ġguide lines
Ġdeterg ent
o il
Ġh ut
ĠS entiment
end ar
Ġneed le
Ġac ids
Ġbr ick
Ġweight s
ĠAr my
Ġexecut ed
Ġinflu ence
Ġtouch ing
ĠComm un
Ġblond e
i at
ĠT ower
ĠL ight
Ġcl ues
Ġshe ll
Ġ19 60
Ġcare ful
11 00
Ġhard ware
Ġjum ped
Ġview s
AR IAN
Ġemot ion
5 2
F r
Ġm ic
Ġl av
ĠM art
Ġcontin uation
Ġcra cked
Ġclust er
VEGET ARIAN
Ġf etch
it ory
ist ry
Ġsh allow
Ġj ug
Ġsal mon
Ġprint s
Ġgu ild
Ġcap acity
wh ile
Ġrein forcement
ĠMock ingbird
Ġc ram
Ġn orm
ig ration
ab ilities
ĠF ur
Ġdis persed
Ġcomp ar
az z
Ġhouse hold
i pper
ic it
ir ation
Ġimp ression
ne utral
ĠDep artment
Ġquart er
ĠBu y
Ġgrav ity
Germ any
D D
S ub
Ġt ub
ĠP op
lo ve
orm ous
yp ical
Ġel abor
Ġcal or
Ġcap s
Ġfil ters
Ġaffect s
B A
W W
b at
e an
w ide
Ġp il
Ġat oms
Ġlo ans
Ġ7 6
Ġru sh
Ġsw amp
Ġbar rels
pos ition
Ġdro pped
Ġbark ing
ker chie
Ġstack ed
Ġta vern
/ .
T REE
ra ce
Ġdo zen
Ġab and
rou d
ĠR ound
Ġpart ies
Ġreview er
Ġsub tract
Ġbur ger
Ġeffort s
Ġdupl icates
Ġf iling
Ġm ac
ill y
Ġpl ates
Ġdis g
Ġ{ "
Ġ12 5
Ġsing er
Ġpriv acy
Ġkid ney
b age
g ood
Ġbe aten
ĠW al
Ġdo ck
ĠM ax
Ġad orn
Ġunder lying
oc ur
Ġhead s
Ġbed s
Ġaccept ed
Ġbould er
AB LE
ghijk lmnopqr
! ,
a ic
l ast
um ing
ie l
av ed
reat ing
Ġ8 9
Ġke eps
Ġbig ger
j pg
Ġf raction
ist ent
Ġsh irts
rou nds
Ġsp a
Ġag rees
Ġval ley
Ġra cks
45 6
ĠPr ot
E L
Ġcon j
Ġsp oon
Ġcl auses
Ġcar bohydr
Ġgr ade
bb ing
Ġwild life
Ġroad s
.... -
ĠSu per
h us
t ax
al g
Ġhe d
qu art
Ġen h
Ġ7 4
Ġmamm als
ĠOver all
Ġder ived
Ġb iking
Ġn ur
Ġhe s
ĠN egative
Ġpop corn
Ġopt imal
Ġport ions
ĠEst ablish
1 40
E C
i en
Ġg le
Ġso cks
Ġnat urally
Ġtechn ologies
ĠCo de
Ġber ries
ĠT ur
Ġst able
Ġvis a
Ġshow ed
ĠPh ot
Ġcast ing
Ġmathemat ics
Ġfreed om
Ġcoco a
ĠTh anks
ax y
12 3456
bb ed
Ġhand kerchie
Ġpersonal ized
ĠAnd roid
ĠSec urity
Ġpenc il
ĠJe ff
Ġmargar ine
ĠW all
Ġas h
out put
chn ology
Ġkil ogram
Ġscratch ing
Ġjun gle
ly n
ĠH I
ĠM iddle
Ġdec ent
Ġ8 8
20 18
Ġobtain ed
Ġpand emic
Ġfeather s
? ?
ĠK h
Ġcand le
Ġdata frame
Ġentire ly
ĠeB ay
Ġvom iting
c in
ish ing
vern ment
ane an
Ġrent al
ĠMexic an
Ġtoler ance
Ġfu els
V I
c d
Ġw agon
Ġb ands
ĠW ood
ag ues
Ġcr ash
Ġcook ie
Ġinf est
Ġcompl ain
A nd
Ġthe ater
at ically
Ġp apers
Ġm ow
if orm
ĠB ible
Ġro b
Ġprocess or
Ġstand ards
Ġplant ing
Ġcin namon
Ġqui ets
Ġs an
Ġ5 7
Ġ- ....-
Ġprov en
Ġatt ended
ĠPh rase
Ġsus pect
Ġprincip les
mount er
k es
Ġm art
we et
ĠHe at
ors es
20 15
tt p
Ġmix ing
!! !
ĠComp are
ĠRuss ian
Ġexh aust
= -
b reak
Ġp leased
ĠC am
ĠM a
Ġro lls
Ġbu ll
Ġgener ic
Ġdiv or
Ġlim bs
Ġcommer cial
f ace
m eg
Ġcre v
Ġob st
ĠJohn son
Ġaut o
m ilk
ol ine
Ġinc lusive
Ġclass ical
Ġatt itude
Ġgre w
MP LE
Ġmos quit
i ar
re ds
Ġw oven
Ġbe verages
Ġco gn
Ġset t
Ġcent ers
Ġbro ccoli
Ġreact ions
Ġvolunte er
T H
ad ow
Ġpl ug
Ġalph ab
Ġrecogn ize
er k
Ġp acks
Ġso y
po st
Ġgl im
Ġcertain ly
Ġparent heses
Ġdecor ated
Ġcro cod
P A
c igarettes
s ad
Ġd ating
im age
ep ing
Ġup date
Ġ8 1
Ġ7 9
Ġrot ting
Ġlik ed
l it
r s
Ġs atell
Ġfor k
ĠS T
ĠO ld
Ġun aware
Ġ8 2
Ġsk unk
Ġbo red
Ġcr umb
Ġ18 59
ĠPre pare
Ġsat urated
Ġbring ing
Ġcru shed
Ġdigest ive
J apan
Ġp un
st ep
Ġst rain
ĠR s
Ġreturn ed
ĠV iet
Ġinvest ors
Ġconve ying
Ġdig estion
Ġconst itution
Ġstrong er
ĠCar l
Ġsignific antly
Ġcapt ure
Ġsandw iches
I m
Y our
Ġt ires
Ġo re
ĠM u
ĠG en
Ġcomm onsense
ĠV alid
Ġspecial ized
Ġstri ps
Ġann oun
Ġexten sive
N D
h ow
Ġres idents
Ġ6 2
Ġstre ets
Ġstay ed
ĠPl an
bbbb bbbb
Ġprepar ation
ĠAtl antic
Ġhandkerchie fs
Ġw ound
Ġb on
Ġl ift
ĠP ER
ĠN A
Ġwhat ever
Ġcast le
Ġs in
Ġwe ars
Ġam id
Ġpoint ed
def ine
Ġbelie fs
ĠInst ead
Ġchron ic
Ġillness es
Ġshru bs
ĠFur ther
Ġf airs
Ġb ond
Ġhe ating
ĠF itz
Ġco con
ĠO h
Ġro les
Ġdr ift
ĠAs soci
aut ions
Ġpurch ased
Ġtapest ries
Ġastron aut
Ġdedu ctions
Ġp ier
st ore
Ġde leg
Ġint ended
mer ce
Ġ19 45
Ġveget ation
Ġreport ed
Ġhyp n
Ġaccomplish ments
Ġvow els
0 4
A TE
s ized
t wo
in ished
Ġc umin
ar l
Ġ2 40
ol k
Ġfl ank
Ġ8 3
Ġsand stone
Ġtrad ing
Ġwond erful
ĠDon ald
jo in
Ġmuse um
Ġunivers ities
g estion
y stem
in ition
ru st
Ġ7 7
Ġsub mit
ĠOr well
ĠMon itor
Ġmamm ogram
Ġsens itive
ĠComm ission
adem y
Ġcher ry
G H
S p
Ġp y
Ġor n
em ption
Ġdis order
Ġrepe ated
ĠHar per
Ġcryst als
Ġfa cial
= "
O f
a que
Ġ @
ent ed
Ġg ifts
st orm
Ġall ig
Ġglo ves
Ġdiagn ose
ĠMin ister
ĠReg ular
f irst
t hat
Ġw it
Ġv en
Ġequ als
Ġexpl anation
tern al
Ġbul k
Ġwal let
Aust ralia
c s
m ath
ot ics
ic ting
ol ic
Ġcl ing
od el
Ġpur s
D F
D on
m ond
Ġ1 10
Ġsc ra
Ġoff ensive
Ġobs erve
Ġprec autions
Ġknock ed
Ġarrest ed
C ats
ad ian
ne ath
Ġ6 00
Ġsub m
0000 0
Ġver bs
Ġcross ing
Ġnutri ent
ĠSte ve
ĠBene ath
N T
om an
ĠT or
ĠB oston
Ġpl ural
ĠAn n
Ġdecor ate
Ġmult iply
Ġod ors
Ġf les
ĠS k
Ġfr ying
ĠP en
ĠF our
Ġen ormous
Ġup ward
Ġ7 1
Ġ7 3
Ġatt entive
Ġchocol ates
Ġoccurren ce
5 7
Ġt ou
ĠA BC
ant ed
Ġr inse
ĠG PS
Ġso ci
Ġdes cending
lud ing
Ġapp arent
Ġcharacter ized
Ġattract ive
Ġcircum st
F rance
] :
Ġher bal
Ġsil ent
Ġlim its
ĠCol or
Ġpolit ics
col umn
CA TION
Ġscram bled
re pre
Ġp ap
Ġleg umes
su ch
ĠCent er
Ġstuff ed
Ġpassion ate
repre ne
. ','
6 8
Ġp ul
ro l
ĠH enry
Ġcor on
ob ject
Ġcand ies
Ġhar der
Ġpoly g
flow ers
Ġarchitect ure
or ation
al and
as tern
Ġch andel
Ġsc uba
Ġwould n
ĠV is
Ġstr ict
ex as
ĠSp ace
Ġscan f
E ach
p ublic
he ll
Ġlo ck
12 00
Ġfin ance
Ġpol ar
Ġdist ant
Ġhead ing
Ġsw ing
Ġrespons es
Ġtu ple
Ġoz one
f ather
n on
Ġb orrow
Ġg olf
Ġsh aring
Ġso d
ĠCh icago
ĠReturn s
ĠMed it
gent ina
Ġperman ent
Ġpod cast
r ics
es an
Ġwe l
ang er
Ġag ed
Ġinter pret
Ġmathemat ician
Ġpotat o
D ay
L ine
T urn
r ases
in os
Ġg um
Ġh ills
Ġe bon
Ġst alk
ag le
Ġcom ment
ink ed
Ġru ins
Ġask s
ĠV eg
Ġtem por
Ġkill ing
Ġwat ched
d ig
Ġt bsp
Ġw ave
ĠS cient
ĠB ell
Ġat ypical
Ġk et
Ġsp iders
ĠJ es
Ġ6 9
Ġtra ined
ten ant
12 5
ĠV er
Ġsym ph
Ġcomb ining
Ġclassify ing
Ġdiscus sing
Ġcompet itive
Ġquart z
Ġtim eline
Ġ198 4
Ġax is
Ġassist ant
Ġoverwhel med
Ġp ure
ĠP arm
Ġv apor
Ġwhe els
Ġcont am
Ġshe ep
ĠV irgin
Ġtour ist
ĠHist ory
Ġbron ze
Ġf ingers
Ġres istance
Ġpass ive
err anean
rit is
ĠCal cul
c hest
Ġf erns
st ract
ur tenant
ĠD an
and y
ĠO ption
Ġad jectives
Ġprodu cing
Ġfun gi
Ġprom oting
Ġexpress ing
Ġcough ing
) ?
st ream
ĠA B
ĠW ay
ĠS cience
ĠG er
ast ers
ĠSt ay
Ġcal endar
Ġefficient ly
Ġsharp ly
ĠTra ck
Ġcounse ling
ĠFitz ger
Ġd ri
ĠS anta
Ġhe ated
ĠB est
Ġme ant
Ġag ric
olog ically
fil ename
Ġpurs ue
ĠFitzger ald
et ing
ut en
ĠF ocus
Ġv et
Ġsome what
Ġknow ing
Ġserv ings
Ġfilm s
Ġprevious ly
Ġmer ch
Ġanal ogy
Ġlant ern
Ġspin ach
ĠMedit erranean
J ane
Ġs ap
Ġd ow
Ġsh ining
Ġnum b
Ġcl ause
Ġcontact s
ĠSe a
Ġcontro vers
Ġur ban
ĠMad rid
apt er
= '
t able
Ġ )
ou st
and id
Ġconf erence
acks on
Ċĉ ĉ
rap ed
Ġ q
as c
Ġn oodles
Ġsh ips
Ġv ase
Ġco des
ĠE nd
Ġen em
Ġmin or
Ġ19 70
Ġcur ve
Ġpop ul
Ġexpress ions
Ġhol iday
Ġcash ier
Ġprehe ated
Ġt y
Ġfr amed
Ġr ings
Ġ20 14
Ġ19 90
Ġflu id
Ġpref ix
Ġmeasure ments
ĠJew s
Ġdatab ase
Ġcomprehen sive
y a
ĠC ro
ĠC ath
ĠH y
Ġtra cks
ict ional
Ġ19 80
comm on
Ġprep aid
amb ur
Ġdro ve
Ġdiam onds
vas cular
Ġdestro yed
as p
ĠM el
Ġab use
ke ys
Ġref und
Ġent ered
Ġi P
-- )
vent ion
Ġbudget ing
Ġsuc ceed
Ġconnect ions
tern ative
Ġfresh ly
Ġfle e
Ġcoll abor
Ġoccup ations
5 8
e ar
ĠS ur
ber ra
av irus
ĠâĢ Ķ
Ġra c
Ġkey board
Ġcontin ent
Ġbark ed
Ġconven ient
Ġjack et
Ġcrypt ocur
Ġveter in
A pp
a ud
b ar
l n
re te
Ġp roud
est one
Ġ1 40
Ġcon sequences
Ġent ering
angu age
Ġoccur ring
Ġparticular ly
Ġstream ing
Ġrub ble
Ġexh ib
Ġped est
Ġfles h
ĠParm esan
he nt
ast y
pl ant
up id
Ġdr agon
Ġclass room
Ġprint ed
Ġvis ibility
Ġcolle agues
Ġenc ry
ĠSy m
Ġsatisf ies
he a
Ġch im
Ġapp urtenant
Ġfin ds
Ġsing ing
Ġprot est
Ġbrown ed
ĠDe ep
Ġdeterm ining
Ġsyring e
Ġcogn itive
8 1
G T
j ud
r ans
Ġf iction
Ġn ations
Ġbe ads
ĠS ort
Ġ9 2
Ġfun g
Ġrespect ful
ĠV erb
Ġconve y
Ġland ing
Ġdeal ing
Ġcert ified
Ġstead y
h unt
w all
Ġp ipes
Ġg erm
Ġre vers
ut ch
Ġfor th
ol t
ci ated
Ġsc ales
Ġdec ides
Ġcontin ued
Ġsubject s
78 90
Ġcrim son
Ġincorpor ate
Test case
ĠLou is
Ob ject
Ġcircumst ances
p arent
t ics
Ġw arning
Ġm ile
ĠS EO
ag ger
Ġex ternal
Ġal oud
Ġj agged
Ġun less
Ġinc ent
Ġbu ff
Ġcor d
Ġchar ity
Ġreturn ing
Ġoffic ials
Ġretail ers
Ġcocon ut
) ].
n ia
et ies
Ġse al
Ġpe ak
Ġlo gs
og rap
Ġgre ased
Ġcirc les
ĠYe ar
wh ite
ĠSol ar
! .
c ats
Ġdes c
Ġopen s
Ġgl aes
Ġplant ed
Ġconstruct ed
Ġbrows er
Ġveterin arian
R eturn
p et
Ġsh ark
ĠF A
ĠM or
ĠD u
Ġdiff ers
ove mber
Ġoper ator
Ġpurch asing
ĠĠĠĠĠĠĠĠĠĠĠĠĠĠĠĠ ĠĠĠĠĠĠĠĠĠĠĠĠĠĠĠĠ
ĠRep lace
ĠZe aland
Ġlav ender
" ;
C D
c orrect
i per
s ort
st ones
Ġcom ments
ach ing
ĠJ ackson
Ġent reprene
Ġimm igr
Ġsubstring s
ĠGree ce
Ġbath room
Ġpig s
Ġflex ible
ĠJes us
C ol
v ard
Ġw rought
it t
Ġin ner
Ġg ene
ĠT exas
ĠJ on
ĠV e
stand ing
ĠSp end
Ġcrim in
Ġvers a
bl ue
Ġbul bs
Ġdisag ree
Ġfra ud
, '
O K
Ġt ong
il it
ver ty
Ġint ensity
ĠL aw
Ġover c
ĊĠĠĠĠ ĠĠĠĠ
Ġdist ur
ĠWe b
Ġident ical
Ġgra vel
Ġdeep er
ĠArt icle
Ġgall on
Ġdecre ased
Ġinterv al
Ġagg ressive
n oun
en use
Ġrep airs
ĠEng ine
Ġgl owing
Ġspecial ist
ĠSc an
Ġalgorithm s
Ġmuse ums
9 4
Ġt um
Ġp enn
Ġto ppings
ĠI r
ĠW omen
ĠS up
ĠN az
Ġsw ine
Ġdisc rim
Ġblog ging
bi otics
Ġcardio vascular
G B
L Y
Ġf res
Ġg h
Ġh orses
ru p
Ġfe e
Ġsa us
Ġdr ivers
ĠApp les
ĠKe y
Ġearthqu ake
' ))
5 3
O r
g rad
Ġg rain
Ġpl ank
lp h
Ġev il
Ġam endment
ĠPerson Z
Ġcontin uous
Ġgarden ing
Ġprevent ing
Ġtiss ue
Ġappet ite
Ġmic row
M ike
r at
Ġf av
qu al
ra cy
ĠF ed
ĠR un
ĠL o
ss ss
Ġdent ist
k ok
an ic
or ra
Ġwork er
ertain ment
Ġsqu at
ĠSh op
Ġstick ers
ĠCar ol
Ġinteract ive
ĠInc re
Ġoun ce
Ġple asant
Ġpermut ation
ĠT op
ĠP oss
act s
Ġ19 50
Ġcream y
Ġspeak s
ĠNe ar
Ġincreasing ly
Ġstreng then
Ġhypot enuse
Ġcarbohydr ates
ĠAssoci ation
S ec
r onym
Ġb aked
ĠF emale
ĠO K
Ġchar ged
ĠCh ild
20 20
Ġsle e
agram s
Ġfail ure
Ġshap ed
Ġcelebr ate
Ġidi om
Ġdizz iness
asso ciated
D I
S P
b ell
{ '
Ġcan cers
Ġsc ri
Ġanswer ing
Ġ20 18
arr ange
ĠPro gram
Ġsupport ive
Ġprofess or
Ġwa res
less ly
Ġaff ili
li ament
Ġir relevant
with out
Ġinh ab
hus i
Ġw rap
Ġf auc
Ġd ram
Ġh ood
ru ctor
ant e
ind er
ci pl
ĠJ ill
ac ci
Ġport ra
Ġstick ing
Ġda is
Ġpool s
Ġmur der
Ġ>> >
Ġcounse lor
Ġpupp y
Ġincent ives
( -
8 7
L I
V B
Ġw is
it is
Ġe lder
st ick
Ġor b
ĠF ile
Ġcle ans
ateg ory
Ġrefer red
Ġclos ing
Ġgeomet ric
ĠSetting s
Ġmetabol ism
c ons
Ġp ic
Ġne ur
Ġr ins
ge x
Ġun iform
ob j
Ġpo verty
Ġrout er
Ch ar
ĠRed uce
Ġrecy cling
Ġch op
ĠB egin
ĠJ ose
Ġsug ars
Ġconsult ing
ĠTim my
-------- --------
ĠDar win
C he
m ers
in ion
ĠS ally
int on
Ġ[ ('
Ġ9 4
Ġpost ure
Ġz oo
Ġemploy ment
Ġbreath s
Ġphilosop hy
Ġcampaign s
Ġens uring
Ġb ite
um a
ĠT er
og en
Ġph arm
Ġcontain ed
ific ent
Ġconc rete
Ġpath way
Ġtre nd
Ġtut oring
Ġtor ch
Ġweak ness
Ġaband oned
v ings
ot a
Ġy ield
Ġe ch
st ers
ĠC ase
Ġde velo
ĠN ovember
Ġbl oss
Ġcur ved
Ġmist wood
Ġshad es
Ġunc ertain
Ġmagaz ine
VER B
P ress
Q U
Ġl one
ĠP ossible
Ġab dom
Ġsl ang
Ġdirect ory
Ġpref erence
Ġprom pt
ocol ate
Ġdam aged
col ored
n at
Ġt ort
Ġy ards
os ion
Ġsp an
Ġun ion
ĠL ife
Ġspe ll
lass es
ĠFl or
Ġcompl iment
t ys
se e
ĠP ower
Ġv oid
Ġr ated
Ġqu ote
ci um
Ġmy ster
Ġspe ct
Ġass ets
Ġauthor ity
h ome
ĠM al
Ġab bre
Ġfun ny
Ġpot entially
ĠSp read
Ġbelie f
Ġri bb
Ġlic ens
ĠBu ild
Ġsatisf ied
yr ics
at oes
Ġre cess
Ġfor got
ĠE lect
Ġman aged
Ġinput s
Ġdef ault
Ġexc ise
Ġdang ers
Ġsmell s
Ġconcent rating
Ġsymph ony
2 34
5 1
Ġf ans
Ġp d
ic ol
Ġl augh
if ies
ak i
ig ers
ĠB re
ĠN et
ĠIs land
Ġent husi
Ġtest ed
Ġla unched
Ġrout es
ĠRom ans
Ġweap on
Ġcris is
Ġtransact ions
s ers
Ġ ĊĠĠĠĠĠĠ
re land
Ġo v
es ity
Ġd warf
ol ved
Ġch art
Ġwill ow
ener y
ose x
Ġmet ric
Ġgra ce
Ġfit ting
ĠLab el
Ġhunt ing
Ġcush ions
Ġvibr ant
Ġh ip
Ġbe ast
ĠW ars
Ġun comfort
ĠSo ft
Ġtravel s
Ġfar mer
Ġfast est
Ġrearr anging
Ġcross ed
Ġentertain ed
Ġtro ops
Ġcompar ison
ce ler
Ġch ains
Ġpar am
Ġunder neath
ĠV ac
Ġlight er
Ġtri bal
Ġflow ing
ĠBut ter
ĠGood night
Ġpill ars
Ġliter ature
n ag
t uce
ĠG l
end l
Ġact ual
Ġcr imes
Ġnarr ator
Ġachie ved
Ġcert ific
Ġepis ode
Ġrestrict ions
Pe ople
P oint
w orth
Ġg al
ĠB it
Ġpl aque
lo c
com merce
aes ar
Ġdistrib ution
Ġintric ate
ĠPER SON
L e
c ap
Ġt ac
Ġa ds
Ġre le
ĠS ing
ĠTh ird
Ġaut hent
Ġselect ed
ĠPl ant
ruct ure
Ġdoll ar
Ġcush ion
9 1
D ata
he im
ce ans
Ġst al
Ġfor ums
ir th
ol n
th ritis
ĠB udd
Ġwe ed
Ġcur ves
Ġsoft ened
print ln
sp ace
Ġcapital ized
Ġcert ifications
Ġdisco very
tys burg
st arch
Ġcon sole
Ġru led
Ġ19 78
ens ional
Ġdon ate
ik a
TE R
Ġenjoy ing
Ġmagn ificent
Ġtu ition
Ġfest ival
Ġrub ber
Ġcoup ons
, ,
A X
f ly
v a
ĠC ust
Ġco ck
Ġter rain
ĠInst itute
Ġ| |
Ġchalleng ing
Ġchann el
Ġstim ul
D ef
m ission
ĠH ig
Ġwhe at
ap hor
In valid
Ġown ership
inc oln
Ġindepend ence
Ġsusp ended
ĠDI Y
d p
Ġ Â
Ġm ine
Ġg ust
Ġl yrics
ĠC aesar
ĠH am
Ġsh ield
Ġme ats
Ġbre w
Ġproduct ive
Ġsun set
io let
co in
ĠSe arch
Ġaccess ories
agn a
Ġgen res
Ġflick ering
Ġspirit ual
ĠHaw ai
Ġannoun ced
W ash
Ġc ute
Ġf ictional
is her
Ġh ooks
Ġl ush
Ġe ase
Ġre venue
oo per
Ġac ronym
Ġover night
Ġworld wide
Ġcontext ually
Ġrecord ed
Americ an
ĠFlor ida
i w
he m
ĠP an
Ġex empt
ĠN ap
act ive
Ġunder foot
Ġlarge ly
Ġphys ic
Ġla id
Ġ& &
Ġrepe at
Ġintrodu cing
Ġcro ck
Ġ'- '(
Ġunf inished
Ġther most
cu le
Ġprescri bed
D P
M AL
V al
t arget
v ar
on i
Ġb ay
ĠC A
Ġwr ink
Ġgr ants
Ġart work
Ġsaf er
Ġsubject ive
ann ah
ĠGe org
ĠCol le
ĠCol umb
Ġinstall ed
Ġviol ent
Ġmagn etic
R ead
ĠT imes
Ġmain ly
Ġ18 00
Ġcomb inations
Ġalcohol ic
Ġlibr aries
Ġstri pes
like ly
Ġdim ensions
Ġhoriz on
ĠConst itution
N oun
u rop
Ġt al
ĠD ifferent
Ġqu ad
Ġher b
____ ___
ĠBe ing
bo ards
aa a
ĠGet tysburg
ĠPol ice
Ġeth ical
ĠBang kok
Ġpuzz le
Ġeleg ant
' *
Ġc raw
Ġl ime
ĠT itle
ĠF ood
iz ers
Ġown ed
Ġown ers
Ġobject ives
ann a
Ġburn ed
Ġge ar
Ġcorn starch
Ġchick ens
ĠVirgin ia
Ġre volution
ĠD ou
Ġco zy
Ġbel t
Ġdiet ary
Ġsqu ir
aff e
Ġtrust ed
Ġloud ly
on acci
Ġd ull
Ġin nov
Ġsu ng
ĠP C
ĠD warf
Ġsp am
ard o
ph ones
Ġac hes
Ġact ing
arr ow
Ġcap able
ES C
Ġpark ing
ĠPrint ing
Ġexcess ive
Ġec os
S c
p ired
s im
Ġw are
st airs
Ġv oting
ĠM ath
Ġpan cakes
Ġfant astic
Person Y
Ġrespons ibility
Ġcarp ets
ĠAc ademy
C ity
c lass
g ote
n ormal
Ġt ape
Ġc ed
Ġe cho
ĠW i
ĠR oth
Ġdet er
Ġli ber
Ġno st
Ġmove ments
Ġbar rier
Ġstri p
Ġiv ory
OUT PUT
Ġelabor ate
S h
d at
h ist
h ttps
s alt
im eters
Ġfollow ers
ĠR ob
ĠCan adian
ĠAn ne
Ġacc used
Ġpract ical
Ġsatisf y
Ġrh yth
Ġdivor ce
Ġscri pt
" );
B usiness
R ed
h ib
Ċ ĊĠĠĠĠĠĠĠ
an ing
Ġin ject
Ġl ava
ĠT RUE
ag ons
Ġse ating
Ġout fit
ĠL incoln
op inion
Ġev olution
Ġdis aster
Ġinst ructor
ath on
Ġloc ate
Ġair craft
col or
ht ml
ĠFurther more
ĠScan ner
Ġuncomfort able
E m
Ġc ows
ĠT rad
ĠW ild
Ġde le
ĠD a
Ġar thritis
Ġcl ay
ac les
Ġsho oting
ĠPh il
Ġchron ologically
Ġsudden ly
( ).
n ut
r ine
Ġin k
ĠA C
Ġex ter
ĠJ ason
Ġen forcement
Ġrest ing
arr hea
uc ose
Ġperm its
Ġelim inate
cat alog
Ġrot ation
Ġcru n
epend ence
Ġexten ds
Ġroast ed
Ġpermut ations
b el
l ap
p ie
Ġh ay
Ġab road
un ci
Ġpers u
Ġmoder ate
Ġmos aic
Ġmonit oring
Ġmicrow ave
6 2
K ey
f u
Ġdis sol
Ġtra ps
Ġgr illed
ian a
Ġdep art
"" "
Ġgar bage
Ġexecut ive
Ġcondition ing
Ġhy gi
Ġillum ination
ĠCalcul ate
ĠSup reme
T ime
Ġw ise
Ġd il
ĠI reland
Ġ1 75
ĠS ch
ag iar
ere n
Ġun pro
od ian
Ġart s
Ġfund ing
Ġbree ches
ades h
zy gote
Code hunt
8 3
G o
Ġb rus
Ġh ike
Ġse min
Ġv ia
ĠM ic
Ġal ley
Ġqu een
ĠJ ud
Ġstud ied
Ġfact ory
Ġdist rict
Ġweek ends
Ġsil ence
pos al
ĠQu ora
Ġregul ate
Ġappoint ment
Ġcobblest ones
Ġhydro gen
Sec ond
i ac
Ġt ender
Ġbe aches
Ġwh ale
Ġme adow
ĠL ike
Ġob esity
Ġrec re
Ġdist ract
Ġresult ed
Ġsil very
Ġappropri ately
Ġlim iting
uck ed
ĠEm ily
Ġgas oline
Ġsty ling
Ġlawn s
Ġclar ity
Ġrav ine
I A
i ens
Ġo ats
er ate
ĠF ire
Ġle ct
Ġtri ple
Ġtem p
Ġsuggest ed
do gs
Ġfarm ers
Ġsubm itting
Ġsaus age
E W
W orld
p aper
u a
Ġin e
ay er
Ġso ot
Ġco al
ĠL i
Ġpre y
Ġpo ker
ĠK enn
Ġdr ives
Ġtyp ing
Ġins ult
Ġstre ams
Ġclean ed
Ġidentify ing
Ġprotect ing
Ġjum bled
Ġma ple
ball s
ĠLe arn
Ġdiagn osis
Ġadvert ise
Ġinvestig ate
Ġwra pped
ĠProv ide
Ġkilogram s
U ser
al ph
id en
ĠC art
Ġch i
Ġinc ident
Ġcor por
Ġdi arrhea
Ġ9 1
oc racy
Ġhapp iness
Ġass ass
Ġser ver
Ġaltern atives
Ġdra ined
rupt ed
ĠWest ern
ĠCr ime
Ġtamp on
Ġebon wood
F i
b ut
Ġs amples
Ġc akes
ou l
as ive
Ġh ambur
Ġre pt
ab eth
Ġcomp aring
ĠĠĠĠĠĠĠĠ ĠĠ
Ġ____ .
Ġblank ets
app ropri
ĠIns ert
B e
t ac
Ġo p
Ġo ceans
ak ers
ol ves
red ible
ĠJ er
ib onacci
Ġlim estone
Ġphot ograph
Ġindust rial
Ġcirc uit
Ġdra wn
Com put
Ġclimb ing
Ġhoriz ont
ograp her
Ġo l
Ġw ick
Ġto pped
Ġm ats
iv ia
Ġcomm itting
Ġ19 0
ĠSe ason
Ġanx ious
Pr ice
Ġprem ises
Ġhabit at
Ġcop ies
Ġsemin ars
L D
Ġh iding
ĠH ard
ĠIn formation
Ġj ars
ĠSt ore
Ġpol ite
Ġfree zer
ES S
ĠSp ring
Ġdisplay ed
Ġmechan ics
10000001000000 10000001000000
Ġsen ior
Ġbehavi ors
ĠPoss essor
Ġelder ly
' }
9 3
l azy
p at
st ud
Ġout c
ĠM ah
us ville
ell a
Ġsw ap
Ġmem or
ĠCon straints
ĠInt ellig
Ġblock ing
ĠEl iz
Ġ'/ '(
Ġcompon ent
Ġoptim ize
Ġpus hed
Ġspa cious
P lease
st ate
ck ing
ri ka
Ġar gs
Ġair lines
aw a
Ġpol es
ex ample
Ġtravel ers
Ġhalf ling
Ġdisplay s
Ġcy l
udd y
M exic
W rite
m other
t ion
ĠC ats
ĠF ro
Ġfe at
Ġbl end
Ġho llow
Ġdom estic
ĠHar vard
Ġrectang les
ĠDown load
Ġs ac
Ġf ault
as al
Ġre form
st reak
ay ed
ak istan
ig ure
ĠJ ob
ash ore
ĠWord Press
Ġcobblest one
ĠTit usville
Ġnorm ally
Ġfung us
J FK
j son
Ġt ar
am ic
Ġfr ust
ĠB ay
ĠR AM
Ġmy th
Ġag encies
ĠAn na
., .
Ġline ar
Ġswe at
Ġsho e
ĠDis ney
Ġleaf y
s erv
Ġ 00
Ġst ru
ag g
us able
Ġcr own
ones ia
Ġgu ards
Ġgard ens
Ġdest ruction
Ġcru de
Ġhund reds
Ġencl osed
Ġsculpt ure
Ġcalor ie
! ".
B LE
g ur
Ġ Ã
ing ly
Ġto ast
ic ians
ĠS end
Ġsp ills
ick ing
Ġjust ice
ĠAl bert
Ġtravel ed
Ġcomfort ably
Ġcontro ls
Ġbask ets
Ġstorm y
sol ving
Ġnavig ation
Ġfif th
Ġdemonstr ate
Ġfreel ance
g ment
l ide
s un
et t
ĠT all
am us
ĠS ign
ĠH elp
ul es
Ġintern s
Ġgen et
Ġexist ence
ĠGo vernment
appropri ate
? '.
Ġp ace
ĠI ran
Ġe cl
ĠP ale
ĠF red
ĠF ried
ĠR ow
]. ,
Ġgrou nds
Ġent ers
Ġlot tery
Ġclos et
Ġjo ined
ĠAnd rew
Ġhumid ifier
Ġslop es
Ġbicy cle
Ġchandel ier
f a
ent ials
ĠC lean
Ġall oc
Ġbut t
ress ed
Ġthink s
Ġcare ers
Ġcal cium
Ġsn ack
Ġforest s
34 9
Ġsurve y
Ġiv y
ĠNetwork ing
P ossible
S im
ĠI S
Ġn ail
ir ates
ĠF ound
ind le
Ġsp rained
ĠJ ess
Ġmake up
mat rix
Ġhead quart
Ġdirect ed
Ġdre ams
ĠLe ague
Ġcy ber
hy dr
ĠRich ard
Ġclog ged
Ġfauc et
'* '(
C ORRECT
h ire
it ro
ĠW as
ĠW alk
il ant
Ġcl ients
Ġev apor
Ġbl ended
Ġsl a
Ġsn akes
ĠSc ot
Ġball oons
Ġdeal ers
Ġexc iting
Ġbra ce
LA X
ĠCount y
Ġeval uation
Ġreput ation
YYYYYYYY YYYYYYYY
rem ove
Ġpra ise
ĠCath olic
P ositive
f ess
ad y
ĠH old
Ġ[ -
urn ed
com es
Ġ12 34
Ġsever ity
Ġwarm th
app end
Ġrece iving
Ġscan ner
Ġmole cule
alg ic
9 7
R o
d im
h ol
t ail
ĠT y
ĠS ee
ĠP DF
us ive
Ġcl aws
Ġres olution
Ġdis advantages
No de
Ġrisk y
ann ed
bi ance
sm all
ĠStud ies
std io
ĠNor thern
6 1
I R
Ġs way
Ġp up
Ġm ound
Ġth under
ĠS P
ĠS om
ĠB ecause
ang ered
Ġ10 1
ĠRe ach
Ġcup board
Ġ12 345
Ġopen ly
ĠAs ian
ĠCon fed
Ġachie ving
Ġdead lines
ĠSec ret
Ġprim arily
ĠMay be
mit ted
Ġvolcan o
Ġhurric ane
Ġpic nic
à ¸
Ġt ile
Ġt ension
ĠT HE
ĠA T
ĠC are
ĠG ard
Ġsp on
Ġover weight
Ġmay be
Ġwater fall
ord an
Ġpres cription
Ġtechn ical
Ġimprove ment
ĠEx pl
Ġsem i
Ġcrow ded
ĠMat hemat
ĠHind u
. -
L L
re place
Ġn om
Ġsc hed
Ġshe er
gan o
Ġtable t
Ġsign als
Ġtow ers
Ġprotect ed
Ġtast es
Ġprofession ally
ĠDec lar
Ġattrib ute
Ġf t
ĠS I
pe lled
Ġch ill
Ġlo ad
Ġfri ed
aps ed
Ġhighlight s
ĠMart in
" ),
S cience
l ate
Ġo x
Ġp or
Ġp est
Ġg aps
ĠT em
ut il
Ġv ault
ĠL ittle
up iter
Ġpart ners
Ġsl iced
Ġdown ward
Ġsub sequ
Ġfound ation
Ġmon key
Ġlead ership
ĠAr ch
light s
inc lusive
Ġheav ier
Ġmount ed
Ġdraw ing
Ġparticip ate
Ġthr own
fr ont
3333 3333
ĠSn ow
Ġnost algic
8 2
9 00
Ġl ining
ĠM atch
Ġr ats
Ġam biance
ĠAn aly
oc ument
Ġstre wn
Ġtalk ed
pin ion
ĠComput er
Ġdur able
Ġsod ium
Ġimmigr ants
G ather
om nia
ĠT reat
Ġsu icide
Ġinst itution
up les
ĠV an
#### ####
Ġfle as
Ġstraw berry
olit ics
ĠRel ations
Ġdow nt
) -
Ġl id
ĠS ugar
Ġr ural
ĠN ON
ĠE vents
Ġnum er
ac le
Ġdeep ly
Ġ200 9
Ġfle w
Ġnarrow ed
ache l
Ġvict ory
ĠAlex ander
ĠUN ESCO
Ġfundament al
Ġtele phone
ĠSequ ential
M ost
S mith
g ans
en ly
Ġh al
Ġl iver
Ġl ux
ĠW atch
ab led
ĠM em
os ph
Ġar ched
Ġwork b
Ġem o
Ġed iting
Ġ25 5
Ġpresident ial
Ġwond er
ĠTe chnology
Ġsmart phone
Ġassem bling
Ġsurpr ise
Ġinfest ation
Ġbloss oms
Ġmyster ious
heim er
dat etime
m art
r ors
z ens
Ġs q
Ġm ales
ĠC reating
ĠM ont
Ġwe athered
ĠE th
Ġtri ang
Ġaccount ant
Ġimm un
Ġoccup ation
Ġsess ions
Ġthermost at
in n
Ġp ars
Ġp ix
Ġp iled
Ġbe ard
ĠM att
ĠN ancy
ip se
ink s
Ġown s
Ġcust odian
Ġsoft ly
Ġpron unci
Ġassem bly
Ġchann els
Ġphenomen on
C H
ĠB ank
Ġman ip
Ġcl ubs
Ġorder ing
Ġinst alling
Ġcomp osition
Ġform ation
Ġvis its
St art
Ġtri ps
Ġsqu ee
Ġcommun ities
ĠX YZ
Ġintrodu ction
Ġcompan ions
Ġfrag ments
ĠFin ance
Ġscholars hips
l adesh
p read
is p
ĠI nter
ĠP il
Ġal ter
Ġset tle
Ġpart icle
Ġcount s
ĠAr gument
Ġpick ing
ĠInd ependence
Ġbring s
Ġcapt ures
Ġjog ging
N egative
P M
an se
er as
ar i
ion e
ĠF ore
ĠE lf
Ġpo le
Ġad verb
Ġbr ill
Ġinv iting
lf riend
Ġsw ord
ides pread
Ġpers ists
Ġswitch ing
ĠDec ide
Ġn ull
ra v
ĠF amily
Ġch ords
Ġimp ressive
Ġsy rup
ĠK en
mer se
br id
Ġext ended
<< "
Ġdry er
Ġcontro lled
Ġpack ages
Ġthought ful
Ġinterview s
ĠInc orpor
Ġmechan ical
ĠYe ah
** **
Ġthous and
Ġconven ience
Ġdisg ust
Ġaffili ate
) *
Ġcomp at
Ġag reed
Ġcur ly
Ġcook er
Ġphys ically
Ġcapital ization
Ġwin ning
ĠAd am
ĊĊ ĊĊ
Ġinit i
Ġadvent ure
Ġindo ors
meg a
ĠViet nam
ĠColle ge
A pple
W hen
f ram
r il
ĠS U
Ġse ashore
ĠN on
ci ple
Ġres erv
ĠSt ory
Ġwork place
Ġ19 03
Ġfinan cing
Ġconst raints
rodu ction
Ġspread ing
Ġhum ming
Ġaddress es
qr t
Ġcub es
ĠPort ug
ĠHawai i
urop ath
R L
Ġ ..
Ġo ct
Ġne g
ĠP ress
Ġwas hes
ĠM ess
ĠN ative
end ers
Ġres id
Ġback wards
Ġref used
Ġdep ict
Ġtalk s
Ġcream s
Ġexpl ains
Ġdom inates
ĠSol ve
X OG
] ])
p ow
Ġ ze
Ġw ax
ar ry
le af
st s
Ġne ut
ĠB ah
Ġkn ot
). .
ĠK at
erc ury
Ġlead ers
ĠQu estions
bra ham
occ up
ĠEve rest
Ġnegot iate
Ġcram ped
dig it
Ġw ipe
Ġw idespread
Ġl oop
Ġre usable
am ation
ir cle
ĠM ove
ĠB ow
Ġgo ds
ĠL ake
Ġli z
Ġact ress
Ġbas il
Ġdest inations
Ġinteract ions
Ġcliff s
Ġloyal ty
Ġtherm ometer
A BC
g row
l ib
p it
Ġ ;
id th
ĠS en
Ġent ail
Ġprint f
arth a
(( _
Ġtrou bles
Ġbreat he
ĠAd minist
0000000000000000 0000000000000000
Ġcommit ted
Ġtwist ed
Ġath let
Ġthy roid
otherap y
Ġcrocod ile
Ġstalk s
c ards
re qu
Ġm aker
Ġh its
Ġint erm
Ġar oma
Ġ[ ['
Ġem peror
Ġsl im
Ġsl aves
Ġchild hood
Ġgl ucose
Ġwait er
Ġinteract ion
nam ent
Ġautom atically
Ġhar vest
Ġvert ices
Ġore gano
Ġphysic ist
y an
is l
ĠT otal
Ġor chest
ĠH all
Ġab stract
el f
Ġdis cipl
Ġcro ps
Ġded ication
ĠInc lude
ĠBar ack
mark s
Ġdupl icate
Ġcircul ation
h ors
x x
Ġb ol
it ems
if er
Ġne ural
ol en
th ree
ĠD en
ĠRe order
Ġins omnia
() :
Ġorig inated
Ġcred its
Ġswe ating
Ġpers istent
path y
Ġneighb ors
Ġgh ost
ĠNap ole
] ==
b able
i pt
Ġl st
Ġhe m
get arian
ĠN E
gh i
Ġfl ies
No ah
Ġtri al
Ġtast ed
Ġvers ions
ĠBeat les
ĠiP ad
jud ice
nag r
. ).
P l
b ig
b ound
f ire
u ct
Ġd y
Ġl ent
Ġsh red
Ġhot els
Ġaccess ible
ĠJo in
Ġoffic ers
Ġrecogn ition
Cont ext
Ġlin en
Ġty ph
W ER
Ġor ient
ĠC ulture
Ġsh ipping
Ġwh is
Ġdis k
Ġclo ak
IN D
Ġgrad uate
fact ion
apt ain
66 66
Ġroast ing
Ġsatell ite
Ġsubsequ ent
Ġpronunci ation
C apital
X ED
a ab
re y
Ġw ing
it utions
Ġmo ons
Ġsh ares
ĠF ree
ĠR inse
erm at
Ġpe bb
pl ug
ph ants
ob ia
Ġru ined
Ġmem ories
Ġsmooth ie
Ġfrag rant
Ġpub lish
IC E
Ġcloud y
ĠVen us
Ġorn ate
U M
V OR
c led
d ep
Ġc er
Ġf ractions
Ġb og
Ġp ies
Ġd ut
st ruct
ut ive
Ġbe aring
Ġor ch
ir s
ĠF ibonacci
Ġte les
ĠE xt
ĠR am
Ġun em
Ġra iling
Ġve gg
Ġbus h
Ġgre ens
Ġsqu ats
Ġdisc ard
ghijklmnopqr stuvwxyz
andid ate
j an
r ils
Ġs isters
it ate
Ġp ests
ach us
ge eks
ram ble
Ġmod w
Ġtooth brush
S ports
b t
Ġp i
Ġd ining
et ts
Ġfr ames
ĠP ri
dd ess
act ion
Ġac celer
yp es
10 5
Ġsl ender
Ġsum s
ok ed
Ġvis uals
Ġpaper work
Ġ___ .
Ġaccom pan
Ġund ers
ĠAcc ount
vis or
Ġado pted
Ġworkb ench
XOG EN
T S
j umps
z ed
z heimer
Ġp ines
ĠT able
iv ide
ĠC ost
Ġcom ed
ple x
Ġsp here
Ġinc redible
Ġlet tuce
Ġinf in
Ġdesign er
Ġflavor ful
Ġcott age
Ġdur ation
Ġappreci ate
Ġtong ue
achus etts
a ci
i ams
Ġf et
ir y
Ġex it
Ġle ap
ĠN orm
ĠL og
Ġdec line
Ġbre eds
Ġmus cular
Ġwind ing
Ġbas in
EN D
Ġwaste water
Ġcris p
Ġgrape fruit
H ER
p any
Ġw arn
Ġto ps
Ġh ired
ĠS AT
hat tan
Ġr ivers
un es
ĠJ ordan
pl ate
Ġsm iling
Ġspe eds
Ġinv ention
ĠCan berra
ĠK indle
Ġbo iled
Ġgreat ly
Ġdef ect
Ġed itor
ĠEx per
Ġ200 8
Ġport ray
Ġearn ings
Ġconsum er
Mexic o
C ons
N umber
g gs
n ames
Ġan te
le arning
Ġh int
Ġhe ater
Ġfr ies
Ġres olve
ap se
Ġfl ames
ĠRe ference
Ġend l
ĠAl zheimer
Ġcreat ivity
Ġcontact ing
cl ick
Ġstat ues
32 1
ENT S
ĠCharl ie
Ġalphab ets
Ġrins ed
' '
d rop
h ift
m ad
Ġp ork
Ġd f
iven ess
ab el
rou s
Ġqu e
ĠE le
un ning
Ġall ergy
Ġcomm ands
Ġmin i
Ġgr ated
Ġexp anse
Ġpassage way
Ġfunction ing
Ġpres ents
Ġcool er
Ġrearr anged
ban ia
Ġ> =
etch up
Ġhygi ene
B ob
a way
i op
i bb
m ony
Ġthe ft
Ġf ired
Ġan ger
Ġp ills
Ġd art
Ġh amm
Ġst ability
ĠA R
ĠC orrect
ĠP et
Ġv esse
Ġ( (
Ġdr ank
az ard
Ġcent imeters
Ġtax ation
Ġrep et
Ġinflu ential
Ġindic ated
Ġstraw berries
Ġnavig ate
Ġencour aging
S FO
f un
Ġt id
Ġt act
Ġst amps
Ġst olen
Ġpro hib
Ġde hydr
ĠF lo
Ġle xic
ge bra
erm el
ĠL inked
Ġoutput ting
ĠCan yon
ger ia
par se
Ġblo oming
Ġdevelop ments
Ġdirect or
Ġ200 6
Ġbar rel
Ġdress ing
Ġopp on
Ġpronoun ced
ĠRepublic an
Ġutil izing
pe ction
ĠP akistan
ĠO cc
ater al
ĠSt at
Ġdec ades
Ġins pection
Ġdist ances
Ġavail ability
let ter
Ġmusic ians
Ġconve yed
Ġexpect ancy
Ġprin cess
Ġrevers ed
Ġced ar
Ġsla very
Y e
n s
Ġc reek
or us
oo ps
ĠF ar
Ġch ased
pt om
ĠE ffect
Ġbl ade
Ġem er
Ġcle ft
Ġblo om
Ġsn oring
Ġcust oms
ES T
ĠCre am
Ġpred ators
Ġblock ed
Ġdeath s
udd enly
Ġrhyth m
Ġt ons
Ġis lands
Ġg aze
Ġl akes
Ġst ood
Ġst ub
am i
ĠM artha
ĠE qu
ĠL O
Ġbl ow
Ġph osph
Ġbook store
ĠCan not
0000 00
Ġdef e
Ġmar athon
It aly
ĠRead ing
Ġcool ed
ĠOr der
Ġbur ied
Ġtank s
Ġheight s
Ġlic enses
Ġbi ology
Ġindic ating
'- '(
VI EW
Ġpun ish
. /
g ener
Ġm ing
ĠH el
ine a
ĠM odel
Ġgo ddess
Ġwork outs
oth y
Ġgl uten
Ġfem in
Ġexce ed
ĠRes ults
Ġclust ers
Ġencour ages
Ġpap rika
G E
Ġt ries
on ia
ĠA ri
ĠC le
ide o
Ġal ike
iff el
Ġmu g
Ġad ds
Ġtra ve
Ġob ese
Ġshort ness
ĠPl us
Ġjud gment
Ġdust y
la id
Ġcott ages
ĠRest aurant
ploy ment
ĠSym ptoms
ĠJose ph
Ġorchest ra
C orrect
c ade
t te
Ġd raped
ĠA braham
ĠS olution
ad os
Ġpro port
Ġint roduce
Ġpl ush
Ġtra its
te e
Ġtr ay
ĠK abul
ĠRo ad
ĠMass achusetts
ĠCarol ina
ĠEliz abeth
ĠAdminist ration
o pe
Ġt read
Ġf aded
Ġp ans
st ar
ct ic
ĠW ash
ĠR achel
Ġbu st
Ġcap itals
Ġ16 5
Ġflu ent
Ġrece ives
Ġmeasure ment
Ġsurve ys
ĠMc C
Ġproof read
Ġaer obic
Ġpopul ations
c b
p arts
Ġ ]
Ġs igning
ru ce
Ġout comes
Ġpl agiar
ĠN ER
Ġtrans mission
Ġmakes hift
ĠAm endment
Ġcateg orize
Ġbur gers
Ġbatter ies
Ġcelebr ity
Ġoptim izing
ĠSqu are
Ġhes itating
Ġpy ram
349 76
Z ATION
s orted
Ġs arc
ĠC oun
Ġde bit
red ict
ĠR ice
Ġsc al
Ġany more
Ġac et
Ġacc idents
)) ;
Ġprint ing
Ġend angered
Ġgu y
Ġhand ling
ĠSh aw
Ġrid ing
me al
Ġfoot steps
Ġstrength s
Ġcrit ical
Ġsimpl er
race car
fess ional
Ġlexic ograph
c m
en ities
Ġg in
Ġth ai
ist ant
Ġr um
ask et
op hen
pl ot
ĠSt r
Ġins ul
to pped
Ġlay out
Ġamong st
') ]
Ġmult iv
Ġfold er
Ġwealth y
Ġthreat s
Ġhorm ones
Ġpromot ions
. ']
7 00
? '].
F rom
W here
n atural
ĠI ce
Ġn asal
Ġhe aling
ĠC old
Ġch ip
Ġim merse
Ġadd iction
ok ing
Ġpot ted
Ġpass words
pr inkle
Ġtrans ition
Ġbas alt
He alth
Ġcit rus
Ġpsych ology
Ġreve aling
Ġemb ro
Ġhabit ats
ĠMathemat ics
ĠDeclar ation
D is
re al
Ġc av
Ġre ar
ro g
ĠS ide
Ġpro ve
Ġv s
Ġr ic
Ġco pe
ĠL as
op en
Ġdis asters
eng er
Ġgeomet ry
)/ (
Ġcryptocur rency
ĠCoun cil
5 34976
b n
c lock
e in
p ing
at ile
Ġf er
Ġp ant
Ġm ph
ic o
Ġh ttp
Ġl ender
ĠT ree
Ġr ays
ĠD ead
Ġun sc
ax is
Ġtra p
Ġreg ions
Ġrec ruit
Ġtow ering
ann y
Ġapplic able
Ġcam eras
ĠDemocr atic
Ġspray s
rast ructure
Ġdepress ed
Ġassem ble
Ġlun gs
d ers
m aking
m ise
Ġyou th
ĠW rit
Ġha irst
ri ers
ri ends
ĠM aj
Ġcomp rom
ict ure
Ġsur rounds
Ġrec all
Ġbutter flies
ĠSo ciety
Ġrepe ating
Ġinstall ation
ĠJul ia
Ġdiscrim ination
Ġech oes
D og
Ġa ward
Ġb ough
Ġth irty
Ġre dd
Ġst iff
Ġcon gestion
Ġk ne
ĠO per
Ġcl erk
Ġref res
bo le
izz a
Ġrelax ed
Ġrespons ibilities
ĠHer itage
Ġsecure ly
Ġindo or
Ġpolyg on
f lo
Ġd ome
Ġh ipp
am mat
Ġsh y
Ġr amp
Ġk etchup
Ġbl owing
ĠTh ings
Ġins pired
val ues
AL IND
Ġtrad ition
use um
Ch ina
Ġdim in
Ġseas ons
Ġnutr itional
Ent ertainment
Ġscra ps
V ID
Ġf ier
Ġin quire
Ġis ol
Ġpro pose
Ġv ul
ĠG ames
ĠJ ac
10 10
co ord
ĠPh ys
ĠLe on
Ġcomplex ity
Ġdrain age
Ġreve al
Ġadminist r
Ġunderst ood
osex ual
E r
Ġto ad
ĠT O
st aff
ĠS ample
Ġsh ar
Ġwor s
ant ically
th ur
Ġqu ot
ĠL anguage
av en
Ġher itage
ip her
od or
Ġcomm ission
ĠK im
Ġcur ious
GA NI
Ġbab ies
NO UN
Ġcolon ies
Ġanaly tics
Ġsus pen
Ġimper ative
Ġmodw ir
GANI ZATION
p se
r um
Ġt ack
er ting
on to
ĠT ell
ch ild
ur ities
Ġpl acing
us se
ĠD iet
ect angle
ous es
ĠU RL
Ġpre cip
Ġdr ifts
Ġprot ru
Ġbowl s
++ .
Ġindust ries
Ġ== =
Ġdiscus sion
Ġdecor ative
Ġimm igration
Ġillum inate
Ġattempt s
Pro s
Don ald
Ġbutt ons
c ord
c ony
u gs
Ġw ider
Ġc ray
Ġf i
it arian
Ġd iction
Ġh ues
os ite
ĠG ab
Ġdis orders
Ġdiff er
ĠU V
Ġbl ind
Ġpre ced
cc dd
Ġext end
Ġinf rastructure
oid s
Ġalong side
Ġbal cony
Ġarg ue
Ġgain ed
Ġsmooth ly
Ġrust ed
ĠSpe ak
Ġpeace ful
ĠJim my
pir ation
amin ophen
Ġtoothp ick
(((((((( ((((((((
dim ensional
T RUE
t ab
Ġb is
Ġm ash
Ġd ad
Ġst er
Ġst upid
iv als
Ġde er
Ġat om
Ġso le
ĠE iffel
ĠO ur
ĠR oy
Ġbu g
Ġback pack
amp ions
Ġprof its
ĠAl ong
Ġelect rons
Ġaccount ing
Ġbegin ners
ĠZ ika
ĠDes ign
Ġwait ress
Ġfine ly
RO ME
Ġretain ing
Ġfundament als
Ġlas agna
F L
N ote
S ome
f its
p ush
v y
Ġl ane
Ġbe am
Ġ1 45
ĠD utch
Ġcont iguous
Ġro lling
Ġam enities
Ġ10 5
Ġcr ick
Ġstr ands
sh ank
Ġfloor ing
Ġgl ist
ĠSe ek
add ed
Ġinterview ing
Ġcontrib uting
Ġthrow ing
long est
Ġcoron avirus
Ġcrimin als
Ġacet aminophen
ALIND ROME
V alid
Ġf el
Ġd war
os cope
ĠG ene
ĠO il
Ġdis s
ip ation
Ġgr ill
ĠCh ocolate
ĠV i
Ġver d
Ġver te
Ġgar age
Ġbur nt
ĠAust en
ĠMount ains
c ases
c ost
h ued
n els
p ower
p ression
it ors
Ġm uddy
ar led
Ġj azz
ob e
Ġra ins
Ġra ined
att les
ones ome
Ġblack ened
Ġass ert
Ġgot ten
Ġbal d
Ġfull er
cl usion
Ġbra z
Ġclaim ed
Ġfeed ing
bl ack
Ġoccas ion
Ġtend rils
ĠSn ap
Ġinfluen za
Ġtoothp aste
Bu zz
Ġsyll ables
Ġallig ator
Def inition
4 80
G G
o oth
s k
he astern
Ġto x
Ġg em
qu ered
ĠH u
Ġsh a
ĠF ort
Ġch lor
ĠM aps
ĠD ave
red it
ĠO tt
Ġsp aghetti
ust er
Ġdifferent ly
Ġtow els
Ġconf erences
mon th
dr iver
Ġearn s
ĠCo ll
ij ing
ID S
igare tte
inst ein
ĠLoc ation
Ġtempor ary
Ġc uc
Ġp itch
ĠM RI
Ġab normal
Ġr anging
ight s
ĠG DP
ĠN ob
Ġlo cked
Ġfl akes
Ġprog ression
Ġmon arch
Ġconf irm
Ġconst ipation
Ġdress es
([ [
Ġble eding
Ġappreci ation
ĠStand ing
Ġexhaust ed
Ġhypn osis
ĠIr ish
ĠShaw shank
ammat ory
ĠC ry
ru ption
Ġfo am
Ġk ick
Ġshe d
Ġcomp r
Ġcre w
Ġtop ical
work s
Ġcontin uing
Ġgir lfriend
Ġperm ission
Ġlif es
Ġalc ove
Ġappro ved
Ġadjust ments
Ġperspect ives
Ġado pt
Ġoverc ooked
Ġware house
f are
g ium
o ch
en ess
Ġw art
Ġw and
Ġc ure
es ome
ll er
Ġbe an
Ġfr y
Ġsh ine
ĠM useum
Ġab und
Ġ3 60
Ġle m
Ġme lt
ĠR et
Ġun happy
Ġ8 00
Ġdr iven
Ġcup cakes
Ġplan ned
bb y
Ġmet er
Ġless on
Ġsand box
Ġpack aging
Ġmom ents
Ġ38 4
Un ited
ĠGold en
F amily
r ot
Ġw ars
Ġm ul
Ġl ions
Ġse aled
ĠR ub
Ġ10 2
ern ame
iss ance
Ġdef end
Ġstrong ly
Ġredu ces
Ġknowledge able
Ġdraw er
Ġgraph ics
ĠOff ice
ĠIRA s
ĠRight s
()()()()()()()() ()()()()()()()()
Ġnumb ered
T wo
ĠT uring
ĠW il
ag ment
Ġsc ared
Ġsa ut
Ġ12 8
Ġanti biotics
Ġele phants
Ġpur su
Ġaut hors
Ġnight s
Ġcalcul ated
Ġemploy ed
55 5
Ġimpact s
Ġbul b
Ġinhab it
l ists
m n
Ġa ster
at meal
as ion
ĠA S
ĠH ol
Ġha ph
ĠM ot
Ġte ar
ĠD irect
ĠN um
ult iply
Ġgl oss
Ġexpl icit
Ġphot ographer
umb ered
uff ed
Ġstri ke
ĠRed emption
Ġtur tle
pir in
Ġconserv ation
ĠMuslim s
Ġflee ce
Ġsung lasses
Ġsched ul
Ġhaph azard
) ^
3 000
D A
L et
M O
S pe
V AL
[ -
a ac
b ye
r ig
t ical
y st
Ġc able
ĠC SS
ĠH ot
TI C
az a
rad ually
Ġcollect ing
ĠLe arning
AR T
Ġquant ities
ĠTra il
Ġcoup les
k top
p op
Ġo mega
al i
Ġe agle
ro ck
ĠC up
ĠC aptain
Ġout lets
ĠM ilk
ĠB as
Ġal oe
ask a
ĠR ot
Ġcor al
Ġcount ing
Ġdef ic
Ġsign al
ĠAr m
Ġsym met
Ġarr ow
Ġstat istics
Ġtre asure
ĠGerm ans
Ġmer ge
ĠEd ward
Ġautom atic
rim p
ĠDef ine
Ġpsych ological
std c
So ciety
ĠLinked In
O ther
Ġg au
Ġl onesome
se en
Ġwas hed
Ġab rupt
Ġlo cks
Ġcar n
Ġsub tle
ĠAd vantages
Ġscr at
Ġcere mony
Ġsess ion
Fr ame
Ġconj unction
% ,
4 50
W ater
Ġt uples
at ivity
Ġb orders
Ġto ken
ĠC reek
", &
Ġsy n
ren cies
Ġsk i
Ġra z
Ġ{ }
cer pt
Ġver a
fl ower
Ġpal m
Ġconsum ed
Ġsell er
Ġoccup ied
Ġattempt ing
Ġcertific ate
Comput ers
V D
b ing
an o
er os
Ġw ires
Ġe ll
se ls
ĠP ack
Ġle aking
ry ing
Ġcl ut
ne qu
Ġbr icks
Ġag ing
Ġx y
Ġmet aphor
Ġcolle ctions
Ġremain ed
Ġwar mer
Ġri pp
Ġsatis faction
Ġincorrect ly
Ġer u
Ġvest ed
Ġexpans ion
Ġcontrovers ial
ĠNapole on
Ġtox ins
Ġsaut Ã©
D oes
E nter
E duc
Ġw arr
Ġor gans
ĠF ALSE
ĠB ack
Ġhas h
ure au
ĠJ upiter
Ġstart er
ray s
Ġhead lines
11 1
Ġcalcul ator
Ġgro ve
Ġ36 5
Ġsubst itute
Ġmoistur izer
Ġentreprene urs
Ġabbre vi
itro gen
N G
Ġthe s
Ġp estic
st op
ĠS ales
Ġcon vent
Ġal gebra
ĠG ir
ĠN umbers
ĠL y
Ġover lap
ĠNo de
ix ed
Ġele ctions
ĠAr thur
Ġmaintain ed
Ġexam ine
ĠBet ty
Ġwrink les
Ġinterns hips
D e
c ue
f ound
h ard
u cc
Ġm it
al gorithm
Ġbe e
im a
Ġdo zens
Ġsp illed
ĠJ ay
Ġcl aw
Ġob l
Ġexp iration
Ġbutter fly
Ġfree zing
ĠEx amples
Ġdang er
Ġur l
Ġaccept able
Ġvacc inated
Ġterr itory
Ġvert ical
Ġtransl ation
Ġflash cards
ĠRelations hips
Ġdy nam
m al
n om
n em
Ġm arsh
Ġco ined
Ġsp aced
ĠL eg
Ġsc ents
Ġro lled
Ġsec ured
Ġbl ades
Ġgr ind
Ġ10 8
Ġexper iments
Ġca ption
Ġ200 1
ĠOr ig
Ġinde ed
IN I
do or
Ġcatch ing
Ġterr arium
rel ation
Ġfertil izer
Ġpodcast s
Ġdiction aries
, ...
f illed
} )
Ī Ĵ
Ġf ool
Ġh ue
Ġ1 30
pe at
ĠP ers
ul um
Ġant iv
Ġsk irt
Ġend urance
Ġprin ciple
Ġwat ches
ĠGra ham
Ġportra it
F E
M ad
g u
Ġt ucked
he lp
it zer
Ġg aming
ch ain
ur l
Ġal mond
Ġun ple
Ġen erg
Ġcre ation
Ġins erting
Ġsol ved
uc cess
ĠCl ark
Ġ17 76
Ġliqu ids
Ġwire less
Ġjump ing
ĠSal ad
Ġavoc ados
effect ive
ĠVeg as
ilit ers
M S
f ight
h ab
j ust
s l
Ġh ug
Ġe y
Ġso ck
ci als
ĠL ut
Ġres ident
Ġro d
Ġdi agon
iment ary
Ġcr ashing
Ġpow ers
Ġprotect s
Ġexec ute
Ġban ners
AN T
ĠPar liament
Ġmag ic
Ġsubst ances
Ġdem ocracy
Ġmur m
Ġobserv ed
ĠInvest ing
reg ular
Ġvow el
Ġpri ze
ĠIntellig ence
Ġtroubles ho
/ "
B razil
P ALINDROME
a verage
f ood
re f
Ġc ooper
om ile
am orph
Ġco ach
el ing
Ġlist ing
Ġli ps
Ġev olved
og a
Ġche ating
Ġequ ality
ah oo
Ġdark er
14 4
Ġmeas ured
sec ond
Ġmotiv ate
Ġaware ness
bi otic
Ġdivis or
Ġspir al
Ġnote books
Ġhyper bole
Ġstrict ly
Ġine quality
Educ ation
n umbered
ing ton
Ġan ch
Ġm igr
Ġst em
Ġst ew
am el
ĠU s
ne ous
Ġsl ate
Ġcomput ed
Ġbro ker
Ġcomb ines
Ġland ed
Ġqual ities
Ġang led
bed ded
Ġreflect ing
Ġquiet ly
LO CATION
Ġer as
ĠTit anic
ĠHI V
ĠBit coin
Ġdissol ved
G ood
S cript
j k
z ona
Ġp in
Ġp ione
om in
ĠA ction
Ġpro bable
ul ent
ĠL ED
Ġsm iled
Ġve ctors
old s
Ġrid ge
Ġkill er
Ġseem ed
Ġseason ings
Ġbrush ing
Ġdiam eter
ĠMount ain
Ġincorpor ating
ĠVal ley
Ġcrev ices
Ġbrill iant
L ast
Ġa u
ĠS oph
Ġsh ots
ant y
ass er
ĠD ate
ĠE p
Ġman nequ
ĠRe arrange
Ġclass ification
Ġcr ashed
Ġmon et
Ġ: ).
Ġmind ing
Ġbank ing
Ġgain ing
Ġfail ing
ĠWill iams
Ġmult ip
Ġmill iliters
Ġprec ise
ĠGal axy
Ġdatab ases
ĠPal ace
babbabbabbab babbabbabbab
) +
> ,
S U
l ad
in fl
Ġd iverse
ch at
ĠH aving
Ġmo p
Ġch a
sw ers
Ġbr akes
Ġplace ment
Ġval uation
Ġ19 30
Ġcho res
ik ed
Ġ14 4
Ġconnect s
app ro
me an
ĠQu ick
Ġexten sion
Ġastron omy
Ġgle aming
Ġdeleg ated
ĠCommission er
ĠWrit ing
Er ror
u ates
w ashed
Ġc act
Ġe ager
st ru
ĠM er
ĠN ight
Ġqu eries
ĠR ena
Ġcont ra
Ġun gre
ĠJ am
Ġbu nd
Ġfl ame
Ġperson s
Ġcount ed
Ġ13 2
Ġgra ve
head ed
LE CT
Ġdecl ar
Ġdra ft
Ġstrug gle
Ġcitiz en
Ġassign ment
Ġwis dom
Ġoutc ro
ĠRow ling
Ġpebb les
Ġbough s
M D
M ENT
g iving
w ill
Ġthe at
Ġd ies
Ġl oos
id ian
ch y
am iliar
ĠB ab
Ġso fa
ĠE instein
we ed
Ġthan ks
Ġcomp ression
Ġpart ial
ĠV ict
ee ee
ĠEx cel
Ġcalcul ations
Ċĉ ĠĠĠĠĠĠĠĠĠĠĠ
Ġcoll apsed
ores cent
ĠBar b
Ġnic he
Ġcraft ed
Ġhumid ity
ploy ee
Ġskelet on
ĠEduc ation
Val ue
Ġdele ting
Ġdownt own
Ġcray ons
Ġungre ased
F izz
g oogle
g mail
u ating
Ġl ung
ere my
Ġnot ation
ĠN Y
lo cked
Ġsp ouse
ĠIt ems
hes ive
Ġmin ing
Ġadv ances
Ġgl aci
Ġmusic ian
Ġspread s
Ġfem ales
Ġwait staff
sem ble
Ġimpl ications
Ġancest ors
ĠStan ford
Ġmerch and
Ġteles cope
Ġmultiv itamin
3 60
T hat
p roduct
st ack
ce ll
im gur
Ġfo il
Ġsp ill
Ġcl in
Ġpart ition
hen s
Ġra ising
ĠDo ing
âĢĿ ?
Ġsqu e
string s
Ġlaptop s
abcd abcd
Ġtwe ets
Ġgn arled
3 50
T F
a ire
b et
i ability
at ient
Ġf asc
is ure
ĠT ax
Ġth us
Ġth rew
ĠYou ng
Ġsh ifting
ain st
Ġab ol
ĠO wn
Ġsp oil
ast ing
we bs
ĠSt ock
Ġreview ed
Ġtra ins
Ġinv ited
Ġacc um
Ġrec ording
work ing
ron oun
Ġmiss ed
Ġmiss pelled
Ġpizz as
Ġimmedi ate
ĠBo il
Ġmal icious
ĠKh an
Ġvault ed
Ġredd ish
Ġdimin utive
C re
t ight
w idth
re ts
Ġd ash
ers ion
Ġk nee
get able
Ġar ches
Ġup wards
pl ausible
Ġ20 11
atch ing
Ġban ned
Ġill ust
pro fit
Ġqual ify
hold ers
Ġexpert ise
Ġcomplain ts
Return s
ĠFed eral
Ġunple asant
P art
] =
a ption
c ake
d ir
Ġc ube
Ġm es
al ty
ĠS ir
ur a
ain ted
ask s
lo d
ect ion
Ġim agin
Ġmin eral
Ġsqu ash
Ġwa ited
Ġdisplay ing
Ġgran ulated
Ġparticip ating
ĠBill y
Ġfamiliar ize
Ġplate au
Ġseg ments
ĠJe an
Ġspark ling
writ ten
Ġattrib utes
Ġdepth s
Ge eks
Ġfootprint s
Ġenem y
ĠJess ica
ĠRena issance
: ,
C ar
M A
w ind
am ine
est amp
Ġ4 50
Ġins piration
Ġcur ving
Ġ: (
SI VE
Ġtall est
ĠInd onesia
Ġz one
Ġconsist ency
Rem ove
str ong
ĠBr ight
ĠCar bon
ĠStep hen
Ġthr ows
Ġhop ing
Ġshred ded
/ >
n umbers
o llen
re cipe
ar ly
ch oice
Ġit iner
ĠF ish
Ġ" -
ĠD C
ĠD D
ĠD i
Ġco arse
em an
op ath
ĠK n
Ġspec ifying
ĠPro ject
Ġtax i
Ġinter f
Ġsho ot
ĠInt eger
Ġaffect ing
ĠAd ams
Ġreason ably
Ġcy cling
Ġsuff ix
Ġecl ipse
ĠExpl ain
Ġpars ley
F l
M en
m us
n amed
Ã ¡
Ġ icy
ĠT H
Ġst ark
ch anged
ro lls
ir al
ĠC orpor
ab out
Ġch in
Ġout let
Ġlist ings
In correct
Ġdep icting
Ġfil ename
Ġdefin itions
13 5
ĠSus an
ĠAust ria
ĠInc orrect
ĠStud ent
low ly
yn asty
Ġcritic ism
Ġvictim s
Ġregist ered
Ġath lete
Ġpreserv ing
Ġcollabor ation
Ġemo ji
" }
2 255
= >
f old
m ind
m ates
Ġa wards
Ġw ard
Ġb a
Ġp ou
Ġl az
Ġth irst
Ġbe ings
ro ph
Ġsu cc
Ġint act
Ġun cle
Ġover view
ram bles
Ġ20 13
ĠAn imal
Ġrequ iring
ĠPr ince
Ġwa ist
amb iguous
99 9
Ġgrad uated
Ġimm ense
Ġreve als
Ġstair way
Ġhonest ly
Ġexter ior
Ġspon ge
c bad
h as
l ifting
ĠA ND
Ġout break
ĠM other
un a
iz ard
ang ers
Ġfe llow
Ġover come
Ġcheck ups
Ġadv oc
Ġflo ating
Ġass et
Ġsw ollen
ik i
itc hed
Ġsuccess es
Ġver bal
ĠEn sure
Ġiron y
AR Y
ĠMan hattan
Ġfab rics
Ġcritic ized
Ġadorn ed
ĠDan iel
Ġfres hen
Ġdevelo per
E nd
a fter
m iss
w arm
Ġt aught
ing o
ĠC ru
ĠC IA
Ġal iens
Ġcl ad
op ot
Ġover ly
Ġpo ckets
eng u
cy cle
ĠPerson A
Ġdesign ated
ĠSe attle
inc luding
Ġstress ed
Ġiss ued
zz are
empt y
ĠString s
ĠAc cess
Ġcas ino
Ġbold ed
ĠCO VID
Ġfactor ial
ĠDrink ing
Ġtorn ado
Ġwit ness
ĠKenn edy
b acks
d c
p ol
ic ides
Ġre phrase
ĠA ff
ĠC lose
ĠP rior
Ġsh im
Ġint ru
ĠB i
ep al
ast ed
Ġpre car
oth s
Ġcount ert
Ġrec over
Ġcho pping
ĠAl ternative
Ġ13 5
Ġconf usion
rib ute
Ġleg isl
AN D
Ġcamp us
Ġcoun cil
Ġgun s
Ġunivers al
aud i
\ '
t om
Ġ ....
on na
Ġm ural
il ia
ort s
el ve
ang o
Ġac qu
Ġover t
pen s
Ġem pathy
Ġunder water
Ġdr ill
umb ing
omet imes
Ġrad i
ĠRem ember
Ġhill side
Ġunc ooked
Ġarrange ment
Ġcabin ets
Des ktop
Ġepis odes
Ġthy me
Ġdepos it
Af ric
Ġomelet te
ĠIncorpor ate
Ġdefe ated
Y esterday
he w
an um
Ġc ul
ur ation
ag m
ĠC ultural
res ent
our s
Ġsl ab
Ġreal ize
ĠTw ist
ĠEm peror
Ġafford ances
Ġdru n
bc a
Ġrecy cle
Bl ue
Ġlicens ed
Ġverd ant
zzare lla
M ake
f in
Ġm l
Ġth icken
Ġst oring
ol ks
ĠD ist
Ġhas ht
Ġinst itutions
Ġche f
Ġprep osition
Ġexpect ing
less ness
Ġgovern ments
Ġstick y
Ġtast y
Ġrot ate
Ġchem istry
Ġann oy
Ġcompl icated
Ġvacc ines
>< /
Ġassign ed
Ġassign ments
Ġtrim med
Ġconv icted
Ġtact ics
Ġmerchand ise
( )))
C al
P ick
f ting
Ġs ne
Ġc rop
is y
Ġg ild
Ġor al
ĠA my
ĠY esterday
Ġse p
ĠM ill
ach ine
ĠD ie
ĠR og
Ġfind ings
sw e
Ġcomp ounds
Ġdi pl
ath an
Ġprovid ers
Ġcomple tion
Ġind ig
Ġbooks he
Ġarr ives
Ġwild flowers
ĠPr om
Ġswe pt
char ge
Ġappoint ed
Ġpuzz les
Ġdisgust ing
F ALSE
c all
m ill
he rence
an agram
Ġan im
ĠT re
Ġ1 11
ĠS ams
pe ople
ĠB ra
Ġpr icing
Ġche es
Ġsl ide
abc de
man n
ĠPr in
Ġpost ings
Ġposition ed
Ġson ic
Ġtun e
Ġsem antically
ĠSu pport
Ġking dom
forest ation
Ġmart ial
Ġsoci eties
ĠBuild ing
Ġstru ck
L C
b est
b ase
Ġc ous
Ġp udd
Ġg a
et erm
Ġ" ,
Ġint ent
Ġch asm
ap ore
od ed
ĠFor d
Ġmin im
ub ric
Ġap olog
Ġsequ ences
ĠTo gether
Ġoper a
Ġtown s
Ġste aling
Ġdre amed
urt les
Ġcompet e
ĠGree ks
Ġdocument aries
Ġcham omile
Ġsem icol
ĠSw ed
Ġadvent ures
gr own
ste in
Ġmuff ins
Ġmosquit o
oust ic
grow th
Ġcer amic
T e
e or
f oli
s chool
Ġb rambles
Ġd angle
Ġre ject
Ġfor wards
ĠS ound
Ġ' (
Ġun likely
ĠJ un
op ard
com pass
Ġrun ny
Ġgu ar
Ġput s
Ġswe ep
Ġremain der
Ġthick er
Ġspl int
Ġ45 6
bl ank
utter ing
ĠMed ic
Ġspr inkle
Ġvacuum ing
Af ghanistan
Ġhed ge
iw i
occup ied
al a
ĠS ong
Ġse af
ĠB read
Ġk ale
ĠJ eremy
12 345
arn ished
Ġnat uropath
Ġcand el
Ġsym ptom
Ġcustom ize
ĠCl inton
Ġ17 0
ĠOr ange
pro gram
Ġtun nels
Ġtre acher
Ġstri king
Ġdiscount ed
umin um
ĠMah al
serv ice
Ġgenet ics
ĠVict or
$ $
S ER
b ble
l amb
ar gs
et ed
ĠS er
ere s
ĠM aur
Ġr ig
Ġco ats
ĠO s
Ġthem es
Ġper f
Ġinv asion
ĠCh oice
sh irts
ĠPl ausible
Ġwat ermel
AC ESC
Ġcapt ured
Ġrespond ing
ĠVal ue
inos aur
Ġagric ultural
Ġenthusi asm
Ġinsul in
Ġbis cu
G O
S entiment
S ystem
V erb
h is
n et
Ġo atmeal
Ġb end
Ġh itting
id o
ĠP y
Ġv ot
Ġpl unger
ĠR ay
ĠR ose
ĠL ower
ĊĠĠĠĠ ĊĠĠĠ
com put
Ġrel iability
ĠK ent
Ġ12 3456
Ġcur ry
Ġrun ner
Ġappe aring
enn a
Ġut ens
Ġdeb ate
ĠMe an
Ġbacter ial
Ġjoint s
ĠTrans late
Ġow ning
ĠIslam ic
Ġcandel ab
. ),
A ge
B I
a pping
n p
t r
Ġt igers
Ġp ome
Ġp el
ĠI ron
ĠG ary
ĠR os
ke ep
Ġag ents
Ġsl ings
Ġins ulation
Ġref eren
Ġgre ase
Ġrec o
Ġdef ense
Ġhard wood
ĠBe ijing
ĠSp aghetti
con nect
Ġste al
YY Y
Ġpost ed
Ġgrass y
min ute
Ġdou bt
Ġfrag rance
Ġaqu arium
Ġenh ance
ĠNaz i
Ġshar pen
P olitics
g ran
à ¤
Ġg orge
Ġl u
im m
ĠS prinkle
Ġv ivid
ĠB ern
Ġle aks
Ġqu itting
Ġsp ine
ĠL and
ang ar
Ġro pes
Ġbl ender
Ġind ication
Ġcap abilities
Ġgra pes
Ġsand y
sequ ential
ump ed
ĠQu ery
ĠEd it
Ġresem ble
ĠSum mar
Ġdivers ify
ĠPop ular
Ġrac ist
Ġnumer ical
ĠNob el
A P
H O
W ORD
e lect
an i
Ġw ins
Ġm ashed
if ted
Ġout standing
igh th
Ġk iss
ĠG lass
get s
ĠD ish
ĠR on
ĠR yan
Ġen ro
int erest
Ġfl oods
Ġinform ative
Ġra ces
Ġstr and
Ġoper ate
Ġresp ir
Ġsav es
Ġcontro lling
Ġflu or
Ġhy brid
umb led
ĠFl ies
Ġexce ption
Ġdu cks
Ġmid night
ĠBel ow
Ġtransact ion
quis ition
ĠNA SA
Ġhambur ger
Ġdehydr ation
INI ON
Ġmurm ur
P ass
U SE
r and
in th
Ġo val
Ġb ins
Ġp ru
ar ians
Ġre gex
ir teen
Ġex cerpt
Ġim pe
The Given
ĠL I
ark s
pl ed
ph rases
ink ing
ful ness
Ġeas iest
Ġorgan izing
Ġfree ze
Ġexpl oration
Ġwar rior
Ġrain y
Ġrain bow
Ġpoison ous
Ġwhites pace
Ġbac on
ĠScient ific
Ġlent ils
1 30
P U
c r
{ "
Ġw olf
it able
Ġm L
Ġd ip
Ġd ermat
ar g
Ġl ug
Ġl ubric
Ġst ench
ay ers
Ġcan n
Ġcom ic
ĠB road
ĠG i
ĠE ner
Ġsc ream
ob ile
Ġbefore hand
ign ed
ins ensitive
Ġ19 2
ĠShe l
Ġtax ed
Ġinter sect
Ġass um
Ġsing ular
Ġmiss ions
pro of
rest rial
Ġdro ple
Ġcivil ization
jo ys
Ġexpand ing
ĠAtt end
MI XED
Ġancest or
ĠEduc ational
Ġsnee zing
Ġnur se
Ġpharm ac
Ġaccompan ied
ĠAri zona
Ġrecruit ers
Ġantiv irus
ACESC ENTS
D O
g ender
s il
t a
u le
is er
Ġb arn
Ġm nem
Ġd ye
ĠP ublic
ĠF le
ĠM P
out ing
ĠG lo
ĠG ather
Ġsp arse
Ġsc am
we ek
ile y
Ġrest art
Ġ12 6
Ġgre enery
Ġadv ise
Ġind irect
Ġgl itter
plo yed
ane ously
Ġbad ly
Ġiron wood
Ġburn s
ĠBr idge
Ġhaz ard
Ġcontinuous ly
fram ed
B ur
C ON
d ough
Ġt ill
ot ion
ĠW he
ĠY oga
Ġhe arth
ĠB ureau
ge e
Ġper pet
Ġrec on
Ġrecomm ends
Ġstay s
Ġgl ue
Ġenvironment ally
Ġparent ing
Ġpet als
Ġrad ius
cur ric
Ġiter ate
Ġtrig gers
234 15
ĠSummar ize
TheGiven Word
M an
t u
Ġm aze
ĠS E
un icip
ĠR ain
Ġpar as
Ġ20 21
ĠAn cient
Ġbo ot
Ġvar ies
Ġgu est
ĠPr ide
ĠInd ust
Ġ200 3
AN S
ĠSy ria
Ġfle a
sc ale
Ar gentina
Ġfif ty
ĠOlymp ics
Ġcos ine
Ġbuzz ing
2 20
j amin
Ġd iver
Ġg ates
ll is
her ical
ĠH an
ĠD VD
ud es
ĠO l
ĠFor ce
Ġsl ick
ens us
iss ipp
Ġear ring
Ġmen stru
Ġpull s
Ġcompl ications
Ġoptim ization
bu ild
Ġscrew driver
Ġfier ce
Ġf aced
Ġb ou
Ġl ilies
ĠI ll
Ġre eds
ro s
ĠA st
Ġhe lm
Ġout ward
ĠE gg
Ġj ail
Ġ4 25
Ġun ambiguous
ĠJ r
so red
ĠL ily
Ġen joys
own ed
Ġfl oral
Ġret rie
Ġact ors
ins on
Ġappe aling
Ġ____ ________
atter ing
impl ify
Ġdeb ts
Ġrandom ly
Ġnucle us
Ġboo lean
zer o
Ġmatt ers
Ġfac ilities
Ne utral
Ġemer ald
ĠMaj or
itzer land
Ġrespir atory
b urn
p age
Ġthe ories
Ġto fu
ot te
Ġh ides
ch icken
hat e
ĠC all
Ġmo zzarella
Ġ2 10
ĠB h
ĠB eth
Ġimp ul
yp othesis
Ġrem n
ĠRe peat
Ġlight ning
Ġass ort
Ġ16 8
OT HER
Ġconsist ently
Ġfig uring
ĠChe ese
Ġopp osed
Ġfix ing
Ġsubs ets
Ġdistrib uted
Ġtang led
ĠHig gs
mad am
yst ems
4 000
U RE
Ġth orn
Ġst ations
Ġpl umbing
op ic
Ġam ber
Ġbr ow
Ġmin imize
Ġloc als
ĠK ate
Ġoak s
Ġsou l
Ġsubs cription
Ġir regular
Do gs
ĠAb ove
PR P
ĠSoft ware
Ġquot ation
Ġpestic ides
) ',
B an
H arry
M ed
b read
m ate
Ġf ulf
Ġn th
th ird
Ġcom edy
ĠB rian
ĠG ulf
Ġpe aks
ĠTh rough
Ġra cial
Ġcur ling
Ġside walk
Ġed ible
Ġfit ted
Ġlog ic
ĠCons erv
uck y
Ġeconom ics
Ġappro aches
Ġgrad uation
HE L
Ġobserv ation
Ġdent al
Ġdedu ct
Ġsnee ze
ĠWal mart
aab bb
Cre ate
mind ed
Ġtreacher ous
. #
_ .
m ain
es ium
es la
Ġb ru
ĠThe ory
Ġon going
ĠW ide
ĠS uddenly
ĠC ities
ĠH at
ĠH it
ĠP age
ĠP ole
Ġv oted
Ġr im
ĠG h
âĢ ¦
Ġres et
Ġcar riage
Ġoff ices
Ġinter pre
Ġ/ >
ĠDe ath
Ġcool ing
Ġreport ing
ĠAnd orra
ĠCount ries
Ġbath ing
Ġillum inated
Ġsad ness
Ġinfluen cers
Ġengage ment
Ġtransform ed
ĠCD s
Ġadminist ration
Ġforgot ten
ĠScot land
ĠEth iop
ĠPil ates
Ġante ced
? ".
H i
] +
p end
in f
an ations
ou ched
Ġm aps
Ġin ver
Ġsu lf
Ġsh rine
ĠO k
em b
der n
Ġfl ush
ren s
Ġdef eat
Ġorgan ism
Ġur ine
Ġnovel s
Ġund rained
ĠFrank lin
Ġterror ist
Ġpedest al
ogen ic
ĠGeorg ia
ĠConfed erate
Ġassort ment
) {
Ġh ated
id ays
ĠA po
ĠS A
pe ar
il le
Ġse ated
Ġv end
ĠE ric
Ġar ise
Ġdis ability
Ġem it
Ġel if
uc lide
Ġgl and
Ġ200 4
Ġsho ck
Ġdom in
go v
Ġtim er
ĠAir port
Ġstrug g
ĠPhot os
GB T
worth y
Ġthes is
uclide an
E X
E CT
F old
R S
R ON
[ (
h ind
n one
u ana
y d
Ġ era
es ian
or ient
ic he
Ġy arn
ĠT rip
ow ed
Ġor bs
Ġas pirin
Ġha w
ĠF O
Ġle ans
Ġte ch
Ġshould n
ĠR ail
Ġimp atient
Ġtext books
Ġcre ase
Ġinv aded
Ġref uge
br idge
let ters
Ġland marks
Ġview ed
ĠSc ore
Ġgen us
iter ation
Ġdistinct ive
RO M
ym ph
Ġinsight s
writ ing
ĠSou thern
ilant ro
Ġze bra
Ġgloss y
Ġloos en
Ġlaz ily
Ġgild ed
curric ular
a ine
Ð °
Ġg rip
st icks
ĠY YYY
ag u
Ġpro ceed
Ġpro posal
Ġsh all
Ġle isure
ĠD ress
ĠN ick
Ġj ut
ĠL in
Ġwork space
Ġno on
Ġtr illion
Ġact ively
Ġdown stairs
Ġgu il
ĠSh o
Ġorig inate
Ġloss es
Ġspot ted
Ġ199 5
Al ice
Ġreward ing
ĠGold ing
ĠJava Script
ĠTur key
ĠRoy al
Ġreco very
ĠEner gy
( ),
m ist
u ine
ĠS eries
Ġsh iny
all ic
ĠM ur
ĠM ind
Ġco ated
Ġdis rupt
ĠSt ereotype
ĠTh ank
Ġam ple
Ġsl ipper
Ġcur ls
pr ice
Ġmet eor
Ġdiv iding
Ġma pping
Ġban ner
Ġspl inter
ĠApp ly
ĠJenn ifer
Ġillum inating
Ġvary ing
ĠBen jamin
Ġclock wise
Ġhurric anes
Ġwound ed
Ġven ue
Ġslee ves
Ġhorizont ally
Ġtoad st
D ict
Ġ ips
Ġt ends
re r
an z
Ġb iod
Ġto dd
ar ia
et he
Ġl ac
ĠN ever
ĠR h
Ġun re
ĠJ ake
The n
Ġpos es
Ġac orns
Ġbr im
ĠRe ward
ĠV ideo
Ġfunction al
Ġfore head
rop ract
ĠAr gentina
Ġexpl osion
Ġseem ingly
Ġhost ed
Ġassess ed
ĠCont in
Ġsuff er
Ġnutrition ist
Ġtan ning
Ġgn ome
ele phant
Ġswir ling
Ġexpans ive
anum eric
- $
E n
c ific
h ma
} :
it ches
Ġto ss
Ġd ous
est e
ĠW ales
Ġv ig
Ġal uminum
el se
Ġbu ckets
pl aces
Ġover h
Ġconc luded
SI BLE
TE N
Ġmor al
Ġz ip
Ġut er
Ġpoll en
wh ich
Ġeth nic
Ġcompost ing
Ġstead ily
Ġrush ing
Ġcontam inated
Ġslim y
Ġoppon ent
H ere
S arah
b irth
Ġt ies
or ney
Ġto xic
Ġm all
ic ating
Ġg est
Ġst unning
ad or
Ġhe x
Ġso othing
Ġsp ans
Ġsc or
Ġsc rap
Ġbl ot
Ġye lling
10 8
Ġra ft
Ġ12 00
Ġcur r
Ġser ial
ik u
Ġmountain side
Ġallerg ens
Ġut ilities
Ġcontrad iction
sm ith
Can ada
Ent ity
ĠVis it
Ġdri pping
Ġcomprom ise
lamb da
F act
T itle
c ore
c ard
p air
he art
om ers
om atic
ig an
Ġcan al
Ġha ck
Ġch ief
ĠB ad
ĠB ol
ĠB uff
ĠG ame
end o
Ġpe ers
Ġcomm od
Ġsy s
mer ing
Ġref use
ĠUn fortunately
oc ation
ok es
Ġinter rupted
Ġident ification
uc ch
Ġconve x
Ġleg it
ĠCo ver
Ġflat ten
Ġcoord ination
Ġlabor atory
VEGET ABLE
Ġcasual ties
Ġcock ro
Ġecos ystems
Ġphosph orescent
ĠSnap chat
ĠAlternative ly
Ġpome gran
issipp i
Ġguil ty
r andom
t em
Ġ Ð
ot o
al so
Ġl is
st yle
Ġst ages
ro ot
oo f
ag an
ĠC ard
Ġsc ams
Ġbl own
Ġcons cious
-- -
Ġ15 00
the y
Ġpick s
Ġswe ets
Ġlean ing
Ġconsum ers
Ġcarpet ing
Ġthr ift
Ġmir rors
ĠPer form
Ġrecy cled
Ġexcl amation
Ġkit ten
ĠOlymp ic
ĠBan ana
Ġparam eters
ĠSecret ary
ĠCorpor ation
B ut
b d
b irds
f our
g ie
m able
u an
Ċ ĠĠ
ĠT iny
est ine
pe are
ra ine
ĠH ad
Ġch ills
Ġv amp
Ġal right
ass y
Ġbl ows
Ġru ler
Ġsto pping
ĠAl ways
Ġarm ory
Ġpack ing
Ġbit ter
Ġrot ated
Ġham ster
Ġcoll apse
Ġpill ow
ĠCont ext
Ġdecre ases
Ġcapt ain
Ġflower ing
writ er
ĠNor way
ĠHo ly
Ġpersu asive
Ġimmun ity
0 9
j ob
n uts
in ction
Ġb om
or se
Ġd inosaur
Ġn itrogen
ve y
if iers
ag a
Ġhe ro
ĠC her
ĠC AT
pp osite
ĠD rive
Ġcont est
ne ll
Ġwr ist
ĠRe al
Ġbed ding
Ġblue berries
Ġ_____ ,
Ġglo be
---- -
ograph ic
Ġfarm ing
Ġbra ve
Ġtre m
ocr ates
Ġaw esome
ĠGu ard
Ġscen es
FO OD
ĠArab ia
Ġflood ing
ĠTor onto
Ġmul ch
M o
P al
c or
Ġf oul
it ty
Ġp added
Ġm ant
al ia
um my
Ġl att
ĠA lf
Ġse ar
Ġsh rimp
ĠF arm
ĠB on
ĠB ase
Ġte h
ĠR ectangle
op her
ĠU ser
Ġwater ing
eth od
redi bly
ĠK ay
ull s
Ġcr ate
Ġsim ult
Ġlast s
ĠAl an
ĠEx press
Ġsport ing
log ram
Ġclick ing
Ġfa ith
ĠEnt ity
ĠSou p
Ġmosquit oes
Ġlaugh ing
Ġcomed ic
Ye llow
Ġfer ment
) (
C ook
F ind
h ave
m ouse
r in
Ġa ids
Ġw ages
Ġw itch
at on
ro le
Ġu ltimately
am as
ĠA IDS
ĠS ud
ĠS av
ĠS audi
ag en
Ġ2 20
ĠG ates
ĠJ osh
ĠL ex
iz able
Ġfl oured
ĠV ar
Ġprogram mer
Ġcond ens
RE S
Ġmeet ings
Ġcard board
Ġextra curricular
Ġpark ed
Ġdrive way
Ġju ices
ĠCar ibb
Ġcast s
ĠDep ression
ij uana
Ġposs ibilities
0000000000000000 00000000
Ġlad en
Ġspr int
Ġconflict s
Ġupd ated
Ġirrit ation
ĠBan anas
ĠSil ver
Ġmac ar
Ġcrumb ling
Ġsquir rels
Ġheadquart ers
Ġvesse ls
Ġcact us
ĠCaribb ean
F C
an cer
Ġin ex
ĠT oy
ĠP icture
th an
ĠB log
Ġpl aster
us er
ass ium
ĠE ggs
ĠR ick
Ġro yal
Ġover looking
ĠU FO
Ġprov ince
Ġem an
Ġair tight
Ġ: )
Ġmem br
Ġhuman oid
Ġreach the
Ġconvers ion
Ġmod ified
Ġrot ary
ĠAnd y
Ġremo val
Ġdesert ed
ĠYellow stone
Ġdrift wood
Ġcleans er
Ġrecess ion
Ġauthent ic
ĠGard en
Ġlifes pan
Ġfluor ide
ĠHit ler
Ġips um
S implify
en ne
Ġw aking
Ġw ww
on ing
on om
ro gative
ag ging
ck led
ab ac
ĠF oot
Ġout numbered
Ġte aches
ĠL GBT
Ġinc redibly
Ġac oustic
Ġ10 6
Ġprogram mable
15 00
Ġrep ublic
Ġcomb at
Ġdry ing
ĠNe il
Ġinterview er
Ġneck lace
cont ains
()) ;
ĠMc Donald
ĠSum mer
Ġdesc end
rav iolet
ĠApo llo
O C
P N
g od
j a
r ows
Ġw ore
Ġd ive
Ġd well
Ġg el
Ġy olks
Ġst acks
ĠS ometimes
ess ential
ĠL ew
Ġen zy
eth zen
akes peare
be at
Ġelse where
Ġpat rons
Ġgen uine
pro per
Ġdom ed
Ġsuper v
ĠNO UN
she et
Ġfair ly
ĠBo ard
ĠJul ius
Ġinfluen ced
ĠBel gium
gr ade
Ġtwist ing
ele ment
cre asing
ĠNE UTRAL
ĠLut her
H A
U SA
Ġs ig
Ġf ires
ent h
her s
ad el
ĠC T
ra ck
ĠH and
Ġch apter
Ġk iwi
ĠN epal
ĠL ead
Ġup hol
Ġimp ly
Ġcar go
Ġ10 4
Ġlight weight
Ġmar ine
Ġarr ival
Ġcred entials
Ġpull ing
Ġcra vings
ĠAm ong
Ġsmooth ies
Ġrot ating
Ġbelong ing
Ġcarp ool
Ġobs idian
ĠCol umn
Ġseason ing
Ġbi as
Ġinsect icide
Ġlad y
inst all
Ġsurv ival
Ġunpro fessional
ĠBah rain
ĠOwn er
Ġslings hot
S alt
Ġ ĊĠĠĠĠĠĠĠĠĠĠĠĠ
Ġw iry
Ġm ounds
ot hed
Ġh unger
ig e
ur red
ab ba
ĠF all
ĠE conom
Ġman or
Ġsp ite
Ġ5 55
Ġper ce
Ġrel ate
ĠCh rome
Ġent ails
Ġrec ur
Ġpain ts
11 11
Ġsort ing
Ġextract ed
Ġlif etime
ĠWith out
Ġsex ist
Ġmel an
ĠIm possible
Ġoccup ies
Ġmut ed
Ġgrand father
Ġpump kin
Ġprincip al
ĠSub ject
Ġdecay ing
ĠLim ited
Ġneur ons
ĠTreat y
Ġenerg ized
Ġsemicol on
Ġdrople ts
Ġuphol st
. ;
C o
H I
N on
f uck
Ġt angle
re asing
Ġo ste
Ġw rench
ic ular
Ġbe lly
ĠS ky
ad jective
Ġdo lph
Ġtw elve
pl ants
Ġtext ures
ne um
Ġph obia
Ġgener ations
Ġsl ave
Ġ19 48
Ġhead ed
Ġbody weight
Ġdev ast
Ġtail or
Ġcoll ar
ĠII I
Ġthreat ened
Ġsimpl ified
ras ive
Ġregist ration
Ġimag ine
123456 7890
Che ck
ĠSP AM
Ġliz ard
Ġutens ils
0 6
A tt
B J
F ill
d istance
l ia
Ġt urtles
Ġc asser
Ġf ont
it ative
Ġl um
Ġcon e
ate board
ĠP a
Ġlo af
Ġcar ing
Ġpre heat
Ġsl abs
Ġ19 3
Ġanti que
fl ix
Ġ== >
AM E
Ġindepend ently
Ġaw ake
Ġpros pect
ĠRE AL
Ġnegot i
next Int
iat ric
Ġcrev ice
Ġrele asing
pow ered
Ġdeclar ative
ĠDie go
0 7
V ICE
] ))
c ab
k g
Ġp inch
Ġd rought
ĠT ri
ĠIn valid
Ġdes ire
Ġen able
Ġcl utter
Ġcor relation
Ġkn ives
Ġunder brush
Ġ19 12
Ġbus es
arm s
Ġgre asy
Ġpres erve
olog ists
Ġexpl anations
Ġglo om
Ġfoot ing
ĠCo ast
ĠMark et
Ġposs ibility
Par is
Ġic onic
Ġdot ted
Ġchew ing
Ġskull s
ĠOh io
ĠSing apore
ĠOcc as
Ġabbrevi ations
infl ammatory
Ġga ethzen
Ġseaf ood
B ang
T Y
s ensitive
Ġd imes
Ġn our
Ġst ool
ay ing
Ġ" "
ĠM ultiply
Ġr hy
Ġ( !
ĠO F
Ġsp are
Ġpe er
Ġ15 6
ĠPre judice
Ġpat ience
ĠDe v
Ġpen alty
lt ry
Ġbra cket
ĠKe vin
Ġguit ars
Ġinit ially
Ġobserv ing
Ġgrand mother
RU IT
Ġscar f
Ġaccommod ations
Ġlas er
EC TIVE
Ġpix els
ĠPrior itize
A ction
M ean
Q L
W alk
b ee
t here
Ġt ones
at ar
her lands
ĠS leep
ver bs
ĠF ive
Ġpl um
Ġcl umps
Ġam ph
Ġ10 3
Ġmust ard
Ġment or
18 00
ĠInd ex
Ġden oted
Ġcalcul ating
Ġpack ets
Ġcollect s
Ġaffect ion
Ġcry ing
Ġcru ise
Ġinvent or
Ġtrain er
ĠPract icing
Ġabsor bed
Ġpoly nom
ĠBro ok
ĠJob s
ĠFore st
Ġcompat ible
Ġinhabit ants
Ġabrupt ly
Ġpomegran ate
C ut
E F
R ep
g ly
g lass
h ou
k w
Ġa est
Ġe arning
id ae
Ġfor ge
ĠS her
il ted
qu et
nd rome
ĠG av
ĠE TF
Ġun plug
Ġar med
Ġmed itating
Ġem pire
ĠAn swers
Ġca ul
Ġconsider ation
Ġel astic
Ġdist ingu
def ined
Ġmet als
ĠSh ort
ĠSp ot
ĠHead line
Ġdisc ol
Ġexpen se
for ced
": "
ĠMon th
Ġteen age
Ġcelebr ated
Ġrough ly
Ġsed imentary
Ġaccommod ating
Ġcomprehen sion
Ġtiss ues
ĠRegular ly
Ġwel come
Ġribb on
Ġstal act
ĠJac ob
ANS WER
, .
A ng
B D
a pped
f ry
o pt
Ġd ying
um ble
ent ine
ĠT ay
iv ate
ag us
Ġde forestation
Ġman d
em ail
Ġsp erm
Ġen compass
Ġem bra
Ġsl ot
att ed
ĠSh akespeare
Ġsepar ates
Ġz ipper
Ġbab ys
Ġlif ting
Ġrect um
ache lor
Ġdim ly
Ġdiscuss ed
Ġcrit ics
ĠSat urn
oph one
vet op
Ġsew er
Ge orge
Ġribb ons
Ġcompanions hip
Ġvul ner
Ġsuspen se
Ġfi bers
HEL LO
B ook
b ul
Ġt ed
Ġt roll
Ġc ables
Ġb unch
Ġn ob
Ġst out
Ġst ems
Ġhe ap
Ġcan ned
ind en
ĠR ab
ĠR io
ond ition
ans as
ĠCh ris
10 1
ues e
Ġhigh way
Ġreci pro
ĠPr ices
Ġhands ome
Ġge ars
Ġbi ased
Ġassess ment
Ġmagn esium
Ġrecogn ized
osc ow
Ġemphas ize
Ġhorm one
Ind ia
Ġenh anced
Ġitiner ary
Ġsimult aneously
A ir
D ate
Ġc ider
on al
Ġm i
Ġth ief
id al
Ġse ctor
ill as
Ġha on
ĠF at
ĠB B
Ġen um
Ġpo se
Ġcol ony
Ġact s
br ary
Ġblo ating
the m
Ġsw ings
Ġvari ation
Ġcolor ing
Ġbir ch
Ġpress ing
Ġsnow fl
Ġstir red
cher ry
Ġprefer red
Ġpill ar
Ġcert ification
ĠSw itzerland
Ġ196 9
Ġgrand parent
lly wood
Ġpasseng er
Ġcontract or
Se qu
Ġhaz ards
Ġflank ed
Ġphotograph s
Ġque ue
amorph ic
ĠLew is
F e
G en
H D
L P
n i
o en
p ng
Ġ ig
Ġb ent
Ġin appropriate
ow ers
Ġ1 15
ur ious
ill es
Ġsh ards
ul u
Ġch ir
Ġch unk
ind rome
os on
Ġr agged
age ment
Ġk angar
ĠG ay
ĠN at
Ġdis put
ĠHe avy
Ġgr ateful
ĠCh ile
Ġ12 1
Ġbuy ers
Ġcap ita
Ġglo bes
Ġbank rupt
new line
ĠJan et
Ġpour ing
Ġparalle logram
Ġcompress ed
Ġmad am
DE F
Ġapparent ly
App les
Ġlect ures
Ġhasht ags
ĠRog er
+ $
2 10
= [
C AT
y our
Ġhe al
Ġse vent
and al
lo gy
ber y
Ġpe ek
Ġres cue
form ed
Ġdr um
Ġ19 20
Ġwell being
Ġ15 5
Ġsto vetop
Ġprot ocol
Ġprom inent
Person A
Ġgen es
ĠTr ade
Ġhyp not
Ġfund ed
Ġcy cl
Ġdeterm ination
ĠCont rol
stain ed
ĠAg ainst
Ġoverwhel ming
Ġbac cc
ĠStand ard
Ġobvious ly
Ġhom osexual
Ġagric ulture
ĠColumb ia
Ġadvertise ment
ĠBow l
Ġunem ployment
Ġhaphazard ly
cbad cbad
c os
m all
t ask
t itle
Ġc ilantro
Ġg ains
ĠT esla
ĠI P
ak ery
ĠC ap
ĠH anging
ĠP u
ol ent
Ġco herence
Ġany way
Ġstud io
20 17
ĠSome one
Ġass ault
Ġtem plate
Ġgl ade
Ġ} .
ĠEx ample
Ġbar ren
ili pp
Ġhum or
Ġcounter parts
Ġut ility
ĠMan ama
Ġachieve ments
Ġaccept ing
Ġscent ed
.< /
Ġlamb da
Ġhop es
Ġign ore
Ġsour dough
ĠCommun ist
Ġabdom en
Ġcyl inder
Ġtriang ular
Ġhumming bird
Ġtrave lling
5 000
S u
b ec
c ence
t aking
Ġh ikes
Ġl ingu
Ġ1 12
ĠC ool
ĠC redit
Ġ2 13
ab aster
ĠB irds
Ġpe eled
ĊĠĠĠĠ ĠĠĠĠĠ
Ġprodu cer
az ed
Ġref resh
Ġref lection
erc ing
ĠSh are
Ġenviron ments
fl u
Ġperm e
ĠCo ffee
Ġreflect ed
Ġrecord ings
ĠRes p
Ġfest ivals
ĠPol it
Ġreve aled
Ġshadow y
Ġmal ware
Ġsew age
Ġwool en
Ġweakness es
Ġabdom inal
sim ilar
Ġrept iles
Ġbol ts
ĠPri ze
p ound
an swer
Ġb ats
Ġm erg
Ġin her
Ġit ching
ĠC ast
Ġse ag
Ġwor ms
pp y
Ġte ab
ĠD or
ĠD al
ang led
ĠIs lands
urn al
Ġinform al
Ġtra vers
Ġreg ional
Ġsl ipped
Ġsle eps
Ġinter face
Ġprot ons
16 00
Ġsand bl
Ġwa fts
ĠUS D
Ġcalcul us
Ġill usion
ĠQu ant
ĠAust ral
Ġexam ination
Ġbree zes
Ġconver ting
Ġunf amiliar
Ġconcert s
Ġfif teen
ĠPass ages
ĠProgram ming
Ġdut y
Ġexplicit ly
comput er
ucch ini
B oth
d em
d ney
s ided
Ĩ Ĵ
Ġb attered
Ġto bac
Ġm ast
ic on
et ah
Ġl ending
Ġth irteen
Ġe rect
ĠH em
ĠH ub
Ġch asing
Ġv on
ĠR ising
Ġpe el
Ġcheck s
Ġcat ches
Ġhair cut
ĠCl imate
ixt ures
Ġenc ir
Ġhang over
Ġcompet itors
Ġoffic ially
Ġmanufact uring
Ġvert ically
Ġdisappe ar
Ġvent ure
MAL E
Ġraz or
Ġtobac co
F OR
T oday
d ered
es b
Ġm ice
al ted
Ġst ab
ain ed
ĠM aking
Ġqu aint
Ġman go
ĠJ FK
Ġbook ing
Ġwrit ers
cat en
ĠAd jective
Ġhon or
ĠAss uming
Ġpoll ut
Ġassess ing
Ġstorm s
Ġdecre asing
Ġ196 1
Al bania
yy yy
Ġult raviolet
ĠST D
Ġamid st
Ġchi ropract
Ġfrust rated
Ġalter ing
Ġresident ial
role um
! =
7 79
B ring
h an
r ances
Ġw ines
at itude
it utes
ay enne
Ġcon secut
Ġde live
ul ating
ĠF riends
Ġex otic
Ġsc ars
Ġres on
we ar
Ġinst ant
Ġ10 9
Ġdr illing
Ġacc ent
Ġsum mit
Ġmon keys
Ġarg uing
Ġspread sheet
pro cess
Ġsou ps
Ġrad ar
fact or
ĠChrist opher
ĠRem ind
Ġwal nut
Ġoptim ized
Ġattract ed
Ġrabb its
ĠSim on
Ġcraft s
Ġmask s
Ġelev ator
Ġdepos its
Ġhed ges
ĠIncre ased
Ġrele ases
pie ce
Ġtid y
Ġsarc astic
Ġclut tered
Ġcountert op
Ban ana
Ġslipper y
Ġbaccc ca
Ġdelive red
F ood
l inks
m ic
â ĪĴ
Ġw agons
Ġc ues
Ġb oring
Ġh ing
ve getarian
ĠS ed
ĠC ON
Ġmo l
ĠB rad
Ġr ival
ĠD ry
Ġsp at
Ġtra ce
ĠK night
ĠRe f
Ġcle ared
Ġcomple ment
ĠĠĠĠĠĠĠĠ ĠĠĠĠĠĠĠ
Ġexp osing
Ġpot assium
Ġpain ful
ĠPerson B
Ġmar ijuana
14 7
Ġlim b
aim ed
ĠSy dney
Ġpredict ions
Ġdom inated
Ġaddress ed
ĠJenn y
Ġhol idays
ĠSpe aker
Ġcopy right
spe ech
Ġfirm ly
ĠLim it
Ġtou ches
ĠElect ric
Ġprecip itation
C II
c ook
e ven
f ix
o ire
t ree
u et
Ġa le
Ġs am
Ġf iss
Ġm ars
Ġin verse
Ġg ut
Ġg ig
ĠT ina
ĠW ond
ĠS ay
ĠS af
Ġsh ack
Ġr ides
Ġwe aken
Ġhas n
Ġover grown
Ġmin ds
Ġgr asp
com press
Ġ19 00
Ġmother s
Ġ11 3
be ans
Ġfire fight
Ġet ched
Ġassoci ation
Ġspl ash
ĠPe el
Ġdead ly
Ġdraw ers
ĠChrist ians
Ġsty lish
bc d
ĠLu cy
Ġencry ption
ĠTer rible
ĠCust omer
Ġdefect s
Ġremn ants
Ġanteced ent
ĠTay lor
' ;
O ptions
d it
w ing
z o
ar on
Ġg ru
ĠA venue
Ġhe l
Ġde odor
ĠF ruit
ĠM oh
ĠB ul
Ġ3 000
Ġr iv
Ġj igs
Ġus ername
ang s
Ġbus hy
Ġatt orney
ĠĠĠĠĠĠĠĠ ĠĠĠĠ
mat ic
ĠWe ather
uc ent
ĠFr ont
ĠOn line
Ġfinish ing
Ġcam ps
Ġmort al
Ġspr ink
Ġestablish ing
ĠMo vie
Ġcub ic
ĠSequ ence
Ġwick er
Ġmini ature
Ġobl ig
Ġpollut ants
) [
C ategory
E vents
g ir
u w
Ġt et
Ġs ixt
Ġc ayenne
it ivity
iv ated
Ġch arts
ĠM ag
Ġal abaster
Ġman g
em ia
Ġpe ar
Ġcl ient
Ġpo ems
Ġper ch
Ġform ulation
Ġhome less
ĠCh op
Ġdr ills
Ġbo ats
Ġcur ric
Ġref err
Ġequ ipped
Ġcook books
Ġflo ats
Ġblo oms
Ġred irect
co ver
Ġhand made
Ġ16 2
Ġtru cks
Ġarg ues
Ġpredict ed
Ġpolit ician
ĠEl m
ĠEd win
Can not
Ġcow boy
yl on
Ġobst acles
TH Y
Ġgal axy
ĠPortug uese
swe et
A ss
D r
T able
b in
Ġc iv
Ġl ace
Ġre ly
Ġas c
Ġcan ce
ĠH as
ck now
ĠB a
ĠB abb
Ġ3 20
Ġco hesive
ĠO N
Ġj ohn
Ġlo ving
ĠTh r
Ġam use
Ġsl am
ĠV oice
Ġext r
Ġ15 3
Ġweek ly
ĠAl geria
Ġtrans mitted
ye llow
str ich
ĠPart icip
Ġstock y
Ġperiod ically
Ġimm ers
Ġsubs cri
Ġaltern ately
There fore
Ġflavor ings
Ġserious ly
Ġimpl ied
Ġconcaten ated
ĠGre g
ĠHill ary
Ġsimpl ify
ĠMoon light
.: )
Ġpupp ies
Ġemphas is
Ġadapt ed
Ġglim pse
ĠChild ren
Ġassass inated
ĠAR V
Ġbraz ier
Ġcuc umbers
engu ins
ĠAlf red
B ar
R Y
d el
f iction
s qrt
Ġl enders
ir med
ĠA P
ĠC ind
ĠH annah
ĠP A
ĠP and
Ġex agger
ĠG il
ĠN a
our se
ĠE llen
ĠR ad
Ġcons on
Ġnew ly
ne ver
Ġcomm ander
Ġcomp os
Qu ery
rent s
Ġspace craft
Ġste amed
Ġhalf way
Ġrepresent ative
Ġinstruction al
AR V
ĠCol omb
back ed
ĠAb out
run ning
Ġiter able
Ġbubb les
Ġfault y
Ġathlet es
Ġski ing
Ġannoy ing
Ġconsecut ively
7 50
d am
f ull
g all
k i
o ption
s ome
Ċ ĊĠ
Ġb ikes
it udes
Ġp H
ot ch
Ġl ig
se as
ĠC ake
ĠC PU
ist ical
ĠP sych
ĠP OS
ul as
Ġv oices
ud a
em en
ĠL AX
Ġsc rolls
Ġpr iced
Ġac ute
Ġbl ues
Ġcar vings
com plex
Ġtr icks
Ġgener ous
ĠAn imals
Ġve ins
Ġatt ire
Ġexp ed
Ġreci p
ĠCom mit
abc xyz
Ġdifficult ies
ĠNe ither
ĠGo ing
hold er
ĠSun light
Ġcontradict ory
igs list
Ġsett led
ĠNet flix
Data Frame
Ġinnov ative
Ġpou ltry
oen ix
1 12
: [
H ypothesis
S od
U K
w ashing
Ã Ń
in ity
Ġw ip
Ġf ract
Ġd rip
Ġin laid
ch a
if ully
ĠW y
ĠC ars
Ġqu ilt
Ġdes igning
ĠR ating
Ġcorrect ed
Ġ9 11
12 8
Ġtyp os
iss a
ĠAr ctic
Ġdig ging
Ġtrou sers
AT O
Ġbark s
Ġdetect ive
su pport
Ġclim bs
Ġgall ery
Ġcelebr ities
ĠGu ild
Ġer osion
Ġcommit ment
Ġpoet ry
Ġhaz el
ĠCra igslist
Im possible
Ġmerch ants
Ġorient ation
Ġdiscard ed
Mad ison
Ġimagin ary
ĠGlo bal
Ġteab ag
/ (
A Z
C at
C andidate
S us
h ttp
s afe
w at
en os
Ġm ere
Ġd unes
Ġh atch
ĠI Q
Ġe co
ĠS aint
all ine
ind a
ĠE U
Ġtw ins
Ġun seen
Ġpre cious
Ġret ains
ps es
ĠV ol
Ġinput ted
Ġel ven
ĠPro f
Ġgu ides
Ġ11 6
Ġmulti pl
Ġdisc ourage
Ġpost ing
uro s
ann el
zz le
Ġtrust worthy
Ġwat ered
ĠSam uel
Ġsens ors
Ġconclus ions
Head line
Ġdel ayed
ĠMiss issippi
Bl ack
ĠRock y
Ġtac os
1000000100000010000001000000 1000000100000010000001000000
Ġdealers hips
isp here
Ġvot ers
fuck in
" <<
P RO
b ro
e asy
m ake
Ġt ing
Ġb c
om o
Ġth umb
ak a
ist ine
ĠP ronoun
ĠM es
Ġcont em
ĠHe y
od ka
Ġdec om
Ġno ct
com plete
Ġform ations
Ġrel ativity
Ġunder growth
Ġsk irts
Ġrem ark
Ġsn out
Ġver ified
ils on
Ġbra id
iter able
Ġattack ed
Ġsche me
Ġobtain ing
Ġdeliver ing
Ġpros per
ĠBrown low
ĠSim ps
Pro per
ĠAtt ach
Ġdestro y
Ġpil ot
Ġcontam ination
Ġgene alog
Ġbrus hed
Ġdermat ologist
Ġjigs aw
* $
l ord
t rans
Ġl ens
Ġl inden
st an
ur ous
Ġpro st
ĠM oney
ĠD om
Ġinc line
op us
Ġfe ars
10 2
Ġsk illed
ian e
cc c
Ġblack s
Ġlit eral
Ġsn ug
Ġhand led
Ġvari eties
umb ling
Ġcru el
Ġsuper ior
Ġrust ling
ĠPer u
Ġnest ed
Ġappoint ments
Ġbubb ly
ĠWal ter
ĠColor ado
flo at
Ġlu ke
ĠIndust rial
e ach
g gy
l an
l isher
p a
p al
t imes
Ġ ing
Ġt ents
Ġp oured
ĠC ORRECT
Ġme and
ĠG ord
ĠL uc
av al
form at
Ġover fl
round ed
Ġpre vents
Ġsl ing
Ġstr anger
Ġrecommend ation
Ġpast ry
Ġdisc ern
Ġsau ces
ĠPh ilipp
Ġes pres
Ġdesk top
Ġhighlight ing
Ġmotiv ation
Ġforecast s
Ġswir ls
Ġunderst ands
Ġbubb ling
Ġchim ney
Ġportray ed
neum onia
Ġamuse ment
Ġespres so
D T
E urope
W N
l aces
Ġ ĊĠĠĠ
Ġb ordered
ar at
Ġg amb
il is
ĠH ence
Ġdo lor
Ġint erc
ĠM ine
ĠB at
ĠE asy
Ġinc ons
au ce
pen sive
Ġchar red
Ġchar ging
Ġem bedded
Ġ12 2
ĠĠĠĠĠĠĠĠ ĠĠĠĠĠ
Ġdep icted
Ġcent ered
Ġaut umn
Ġsand paper
raw berry
Ġstress ful
ĠEm ail
ĠEm irates
++) {
ĠCol on
Ch oices
het ically
ĠGod father
Ġdivers ity
ĠEgypt ian
Ġmattress es
ĠChristian ity
Ġallig ators
Ġdais ies
ĠNet herlands
Ġpor ch
Ġwarr anty
Ġt in
Ġm arch
Ġm owing
Ġl oses
Ġst ereot
Ġst aring
se a
se g
ra int
ĠF el
ĠB ron
Ġab ort
art er
ĠO ptions
Ġget away
ob y
Ġsk ins
Ġplan es
ĠV iew
Ġgroup ed
Ġtable ts
err or
Ġfil med
ĠBe aut
ĠUS B
Ġperform s
ze ch
AL THY
Ġbur st
ĠBr other
Ġsmok ed
Ġcarr ot
inst ance
reg ation
Ġuns afe
Ġcow ork
Cl oud
ĠJeff erson
Ġdram a
Ġstal agm
ĠDou ble
Ġrecre ation
Ġxy z
A m
B S
O M
R est
in is
is ible
ĠT a
Ġe lf
Ġbe ating
if lower
ĠW inter
ĠP ast
Ġ" .
Ġim aging
.. .,
Ġrel ates
Ġadd ict
Ġleft over
Ġhead er
RE VIEW
Ġpick led
val uate
Ġsil hou
Ġengine ers
rad iction
OR GANIZATION
Ġpal ate
Ġgro om
Ġrain fall
sc ar
Ġaltern ate
ĠMon ica
Ġbi ological
elt a
ĠEvery thing
Ġfold ed
rus sels
.... ....
Ġ199 2
Ġ199 7
Ġ196 3
ĠAnt ar
Ġspr outs
ĠAg ency
Ġdel iber
cel ona
ĠBur ger
GH T
ante ed
Ġcrock pot
YYYYYYYYYYYYYYYY YYYYYYYYYYYYYYYY
P LE
U se
c ross
y les
ĠT ask
am ber
ĠA N
ĠA ld
ĠH ung
ĠP iper
Ġint ention
Ġv oter
ĠM ir
ood le
ĠO UT
ĠO pinion
ĠU ber
po ints
Ġhealth iest
12 6
Ġvar ied
Ġassoci ations
Ġdang ling
ĠRo om
Ġcoast line
Ġdra pe
Ġentertain ing
Ġautom ated
Ġjourn aling
Ġadm ission
ĠAut hor
olit an
Ġimplement ing
Ġcraw l
Ġlux ury
Ġpunish ment
Ġscal p
Ġcurric ulum
Ġnoct urnal
Ġluke warm
3 20
A b
C omb
P op
S erv
b egin
h ouses
l oo
p qr
he nd
re verse
at is
Ġb ass
Ġm m
if th
ĠW or
ĠW ilson
pe z
Ġse am
Ġsh ifts
Ġex pose
ĠM ercury
Ġk ills
Ġman agers
Ġj am
Ġsp icy
Ġar c
Ġgo ats
Ġsure ly
Ġcount ers
Ġback up
Ġpot tery
Ġ18 65
Ġcurrent s
izz y
ĠMar g
EN TI
EN TEN
Ġwar ped
Ġblock chain
ĠRo ll
Ġsex ually
Ġrent ing
ĠLiber ty
ĠIm m
Ġbul let
Ġprem ium
.: ).
ĠRevolution ary
ĠAg ree
Ġtransfer ring
Ġcere al
Ġirrit ability
pres ent
Ġyield s
ĠLi brary
ĠKat y
Ġlem ons
sil ent
tu ple
ĠBrook lyn
A pril
L os
W ith
p aid
t im
y x
Ġt xt
Ġs ized
Ġthe orem
Ġb ob
Ġb ites
Ġb oson
Ġre nov
Ġst ools
Ġcan e
ĠC ross
ĠH appy
ĠF ox
Ġv ag
ĠB aking
ust omer
urn ing
ise ase
ĠK arl
Ġ19 99
Ġwrit es
Ġmil it
In formation
Ġpass ers
Ġprogram med
ĠBe ach
inc reasing
Ġroad way
ĠReview s
Ġswe ats
for geeks
Ġrece ption
Ġfar ther
Ġball oon
Ġvacc inations
Ġpoor ly
Ġgall eries
Ġmur ky
Ġdivers ified
Ġtransl ucent
AG E
Ġinterpret ation
Ġvegg ies
Ġunsc ramble
Ġmash up
ucc o
Ġdrun k
ĠMaur ice
Ġearring s
Ġlatt ice
0 8
O UN
g roup
g rounds
h op
k m
Ã ³
Ġw aved
ou p
it ories
Ġm ith
Ġm int
as o
Ġg ly
ĠT rees
im p
ĠA ud
Ġdo lls
ĠP izza
ĠD am
ĠD rain
ĠD raw
ĠE li
Ġsp rain
Ġsp herical
Ġfloor boards
Ġsto le
RE AL
ĠBe an
ĠCon vention
Ġ14 6
Ġpublic ly
Ġsho vel
UN ESCO
Ġbott led
Ġinvent ory
Ġstret ched
Ġut ter
Ġsignific ance
ĠLiber ation
CO MM
Ġimpl ausible
Ġanaly st
Ġ199 4
Ġconver ts
Al ternative
Ad visor
FA KE
ĠDel hi
Ġsett lers
Ġdistur b
Ġpyram id
Ġsplint ered
aabbb ccdd
B r
C I
O pinion
T im
W hy
x it
y ers
Ġb ind
ot to
Ġd ots
ut an
Ġst ake
ver ning
ĠC S
Ġcon vin
Ġpro x
ĠB ody
ĠWhat ever
Ġ3 45
ĠG radually
Ġj et
ast s
ci a
ond a
Ġro de
als a
Ġsa x
Ġtra pped
ĠV in
Ġappe al
Ġwhite washed
Ġsn ipp
Ġtrans f
It ems
13 2
agn etic
Ġpublic ation
Ġcell ar
Ġfig ur
Ġtrad ed
Ch oice
ĠQu inoa
Ġrelig ions
sem bly
Ġast hma
Ġ199 8
Ġhar ass
Ġmort ar
Ġdur ability
ĠSal mon
ĠPo pe
Ġaccommod ate
Ġroll er
UL L
Ġpromot ion
Ġobsc ured
And orra
Ġpenn ies
ĠColumb us
Key words
Ġdepict s
Ġlegit imate
U D
a ver
p ool
} ;
Ġ ĊĠĠĠĠĠĠĠ
Ġd agger
ĠT en
Ġn in
Ġst ucco
Ġde light
Ġout l
Ġsp inal
Ġ4 20
Ġsc oop
Ġup right
au ld
Ġfl ags
Ġam et
Ġwant ing
Ġcomp act
Ġca ut
Ġca ution
Ġlight headed
aw ed
Ġend less
ĠWe ar
Ġpopular ity
Ġ11 8
ĠNew ton
Ġmeth ane
Ġet ern
sub string
Ġinsect icides
Ġbroad cast
Ġanaly zing
Ġtour nament
Ġgraph ic
Ġpsych ologist
sm art
Ġliter acy
Ġemb assy
Ġbrus hes
Ġpublish ing
ĠLO CATION
Fl our
Ġig neous
N ext
R OR
g ae
w ent
Ġa z
Ġc udd
Ġb attles
it ational
Ġg ur
ĠI RS
Ġst umps
ur is
Ġse aling
ĠP ie
ĠF light
ĠB al
ĠG ram
el lect
ĠJ oh
Ġup load
ĠHe art
Ġmed itate
Ġmark ers
Ġacc red
ingredi ent
Ġfriends hip
Ġment ors
'] ]
Ġland locked
Ġess ays
Ġprevent ion
Person Z
Ġarch ives
sub sequence
Ġcompan ion
Ġoppos ition
Ġdial og
Ġcontrib ution
Ġseas hell
Ġadvis able
Ġfaint ly
Ġsew ing
Ġvolcan ic
Ġskelet al
Ġslop ing
ĠTop ic
Ġdiscipl ine
VOR Y
Ġpi ercing
VAL ID
Ġmannequ ins
ĠTrip Advisor
Ġtodd ler
Bang ladesh
) *(
L ocation
O pen
l ump
Ġf en
ĠT own
ĠA sh
ĠS ocrates
ĠC ause
Ġ2 16
Ġsh ake
Ġint u
ĠM aster
res pect
el come
em a
ke es
Ġpe as
Ġpr ince
Ġbu bble
Ġev olve
pl um
Ġbl uff
Ġmed als
Ġ10 7
Ġsl ower
Ġsal ads
br ows
Ġext inct
Ġmet allic
Ġnow here
Ġsand ing
Ġperform ances
Ġ200 5
uck le
cl osed
ĠDes ert
ĠAd obe
Ġcro pped
Ġbill ions
Ġmagn et
Ġtim bers
Ġobserv ations
aaaa aa
Ġple asure
Ġrein force
ĠBang ladesh
Ġdemonstr ated
Ġexcl usive
Ġjoy ful
AI L
123456 789
Sp ain
ĠScient ists
Ġfeat ured
Ġhairst yle
Ġcarn iv
Ġmultip lying
Ġprecar iously
J an
P er
T AR
U sers
f ive
l ikes
z one
Ġt ul
Ġf ixture
Ġb io
or ical
Ġl on
Ġst agn
am azon
her ic
est ones
ĠW OR
pe l
Ġsh aking
ĠB ruce
Ġpl ast
pp erm
Ġle ver
ĠD ust
Ġman e
Ġj unk
Ġlo oms
op les
Ġreg ret
Ġsl ides
ĠRe c
eng ers
Ġsal ine
Ġlit tered
Ġdev iation
Ġz inc
Ġovers ized
Ġcalcul ators
ĠBl ood
Ġgro oming
Ġfeed er
ĠSec ure
Ġaltern ating
Ġtu fts
Ġmid point
ĠAnt i
ĠAnt on
Ġcontract s
Ġvolunte ering
Ġtub es
Ġecos ystem
Ġcyl ind
Ġfool ish
Ġmnem onic
( ['
g ra
r omes
Ð ¸
Ġt ram
is sible
Ġp uff
Ġd yed
ent al
Ġl int
ĠT ai
Ġth orns
Ġn erve
id i
ĠA lp
ĠA ges
ak h
ur ry
Ġyour s
ĠP erc
Ġsh ines
Ġex emption
Ġv ital
us al
ĠD ivide
ĠN iger
erm an
are t
ob ias
Ġtra ct
Ġsal aries
Ġbusiness man
ĠAl che
Ġimprove ments
ivers ary
Ġfoot path
Ġcalcul ation
IN T
Ġstruct ured
Ġtail s
Ġcompl aint
Ġadjust able
ays ia
ĠServ es
ĠLa ure
Ġfertil ization
Ġcircum ference
Ġelev ation
ĠCharl otte
Ġauthent ication
Read er
Ġsoot he
Ġhazard ous
Ġpolynom ial
Ġsuspense ful
ĠCommit tee
o cks
v ia
v irus
w s
Ġp ads
Ġd ign
et ur
Ġl enses
Ġre ef
Ġbe ats
Ġst alls
ro be
ir it
ag ree
ĠC e
ist ing
Ġ2 80
ol is
ol ving
Ġfo oth
Ġr anges
ĠD iff
Ġev ident
ĠSt op
Ġtarget ed
Ġtra iling
ats on
ĠV II
Ġhapp ily
ost er
Ġ18 76
Ġtri be
Ġsn ap
Ġbrown ies
ĠSe uss
Ġtravel er
16 8
Ġsort s
Ġinfl ation
Ġcro iss
ĠMon a
iam i
ĠFe ature
Ġcrow ds
ĠPot ential
Ġjourn als
Ġscru bbing
otherap ist
Ġalphab etic
Ġgrace ful
Ġsquir rel
Ġtyph oid
ĠGab ri
Ġtroublesho ot
Ġgrandparent s
Comb ine
B oil
[ :
b aking
b rew
c ohol
e ed
e vent
m aster
o om
p attern
z an
Ġm im
Ġh ull
ĠC amp
ĠF ield
ĠM oscow
Ġal lev
un ge
Ġ4 80
Ġun changed
Ġinc ense
Ġsc enery
Ġcar ving
10 4
ell ing
ins ula
Ġ19 72
day s
Ġ: |
Ġ18 63
arr ows
ĠAl gorithm
ĠAl aska
Ġprot ests
Ġfree ly
Ġelect rom
Ġcred ited
Ġrid d
Ġmod est
Ġsho ppers
Ġstat istical
Ġdecor ation
Ġthin ly
Ġstri ped
Ġseason al
ĠOver head
ĠGu ide
ĠBar celona
Ġmyst ery
Ġperman ently
Ġbon eless
ĠJer sey
stud ent
Ġsway ing
Ġorch ard
Ġstub born
ĠLeon ardo
Ġamph ib
Ġspat ula
gall on
TAR GET
A cc
H R
O L
T oy
U C
al amus
ay a
ĠS ift
ĠS weet
il ation
ĠC ategory
Ġsu ed
ĠF air
Ġv ague
ĠB or
ĠB ot
00 1
Ġte ak
Ġnot icing
ĠG ump
Ġtw igs
ĠO pt
int o
ne a
Ġstart up
Ġper ched
Ġval ve
ĠK el
Ġ12 7
Ġdon uts
Ġcold er
Ġbeg un
app les
Ġdeal ership
Ġaud i
Ar gument
Ġclim ates
Ġ199 6
Ġprior ity
Ġestablish ment
Ġdessert s
Ġwithdraw al
Ġfrost ing
Ġastronaut s
Ġrac ism
lph abet
Dis advantages
Ġtradition ally
Ġinterf ere
Med ian
Ġmembr ane
esb ian
ĠColomb ia
Ġrecip ient
C ream
P OS
i h
Ġ ĉ
Ġs ought
Ġw akes
Ġf ixtures
it o
ĠT ed
Ġbe verage
ro se
am er
ĠW ORD
ak y
ĠF igure
ĠF BI
ine ma
Ġout going
art hen
Ġev ac
Ġcre st
Ġback drop
ĠDo ctor
ĠJohn ny
Ġtri bes
Ġmust y
Ġtechn ician
Ġdark ened
Ġhuman ity
ĠBe hind
Ġ13 6
Ġshow ers
Ġconf irmed
Ġalph anumeric
augh ters
Ġassoci ate
Ġpolit icians
ĠDr ake
ĠIm per
Ġthreat ening
Ġstro kes
cur rent
Ġencl osure
ĠMat rix
Ġidi ots
ĠPoint s
ĠBet ter
OP TION
Ġdisappe ars
Ġhousehold s
Ġcherry wood
ĠBudd h
Ġrecre ational
Ġol le
Ġwhis per
dep th
Ġinfin ite
ĠFlo rence
Ġcrick et
Ġscrat ches
Ġdynam ic
" >
D irect
M e
Ġb atch
ĠT erm
ĠT aj
Ġe arthen
Ġst ray
Ġare na
ĠY ahoo
ĠP RO
Ġ2 25
Ġfo rens
ĠB russels
ĠD ur
Ġco b
ĠIn v
op or
Ġform ulas
Ġpar se
vel ed
Ġ19 47
ss ential
Ġel bow
Ġ18 4
Ġ____ ______
Ġsleep y
11 100
Ġ16 7
Ġcommun icating
uck ing
Ġprom otes
Ġhor ror
Ġbra ided
Ġrepe ll
Ġapart ments
Ġsales person
Ġmoder ation
Ġ198 9
ĠProper ties
cont ent
Ġpean uts
ĠArab ic
Ġgrav itational
Ġeleg antly
Bu y
Ġbull ying
bbbbbbbb bbbbbbbb
Ġcling ing
ĠNaz is
Ġfav our
Ġiniti ative
coord inates
Ġglist ening
Ġconvent ional
ĠSams ung
este em
ĠBB Q
Ġexped ition
ĠVin ci
. ]
G R
N ow
O U
a ired
m or
o vers
Ġo int
Ġw aving
Ġan est
or i
Ġd ug
Ġe f
Ġst itch
if est
ig inal
qu estion
Ġch orus
Ġch ampions
ĠB ing
ĠN ike
Ġall iteration
Ġpr ayer
Ġset up
Ġam pl
Ġph on
Ġcount less
Ġinv ade
Ġ19 40
ĠPro cess
yth ag
Ġbreak up
Ġtrans gender
Ġ11 7
ane ous
Ġgold fish
Ġspok es
Ġeduc ated
ĠNe cessary
Ġrot ten
ĠFl u
Ġvers us
Ġfurn ish
Ġri pped
Ġhost el
appoint ed
ĠHuman s
ĠRes pect
ĠServ ices
Ġnic hes
Ġhur ry
Ġnest led
Ġairport s
part y
Ġhorm onal
iy aki
quis ite
Ġnur sing
Ġbrace lets
ĠSI MPLE
Ġresid ue
ĠSen ate
Ġaward ed
Ġschedul ed
Ġmes h
opot amus
Ġwatermel on
Ġmenstru al
opor osis
? :
E very
E ven
F ile
g reat
h ile
l ives
Ġ ^
is cing
ĠH E
Ġv odka
Ġ3 24
Ġpe oples
Ġcl ings
Ġimp osing
Ġcons erve
ip iscing
Ġday light
Ġapp end
Ġcorrect ions
Ġsug gestion
hed ral
Ġve lo
ĠAmeric as
ĠWe ight
Ġred ness
Ġtreat y
Ġpan ic
Ġhard ly
Ġdiv ides
Ġ13 8
Ġgra b
list en
Ġden om
ĠTom atoes
Ġdra pes
asm ine
Ġuns alted
Ġaqu atic
ĠHI IT
column s
Col umn
Ġsha ft
Ġabund ance
unicip al
Ġtoadst ools
ĠLex ington
Ġlum ines
Ġstalact ites
2 25
A K
B ill
H appy
T A
b us
s en
s qu
Ġf olk
ĠT roll
Ġu gly
ĠW ait
ĠY an
ĠH ay
Ġsh uff
Ġtw ists
un ordered
em et
Ġdes per
Ġup stairs
de creasing
Ġimp ressed
Ġfl oss
Ġbr ittle
yp ress
Ġ19 71
Ġart if
Ġclass mates
Ġsal ty
Ġ15 4
sh ine
Ġinvest or
Ġhand les
Ġterm inal
Ġ13 7
Ġfinan cially
Ġenc lose
Ġ14 2
Ġ200 7
Ġrepresent atives
Ġpress ed
Ġarm oire
ĠEm ployee
Ġodd ly
leg raph
Ġaw hile
Ġcross es
ĠIm pro
la pping
Ġaccom pany
Ġsens es
Ġ[[ "
ĠDef ense
Ġsmart phones
mark et
Ġpine apple
Ġsurpr ising
Ġtit led
Ġspin ning
Ġpus hing
Ġconv ince
Ġremind er
PP OR
Ġencry pted
Ġlone ly
Ġfeat uring
######## ########
ĊĊĊĊ ĊĊĊĊ
ĠMot or
Ġpudd les
Ġraft ers
Ġrecipro city
ĠGord on
Ġvelo city
- %
B y
P CC
S ource
Ġin qu
Ġg ou
Ġh ook
ĠC ell
ĠC amb
ĠP redict
Ġ" /
ide press
ĠB ird
Ġso cket
em on
Ġsp ire
Ġen abled
Ġpe aches
ff le
op es
ord able
Ġgr in
Ġgr ime
Ġbook case
ĠK now
arn ish
Ġsaf est
Ġgu ided
Ġpath ways
pos ing
Ġpen et
ĠWith in
gar lic
Ġthin ning
bor ne
Ġann iversary
Ġstar red
Ġnick els
ĠEd ison
Ġemerg ed
aph rase
Ġdownload ing
Ġthread s
Ġrev olves
ĠHo llywood
Ġdisag rees
ĠVac ant
ĠExper iment
Ġrepet ition
Ġdefic iency
ĠOrig in
Afric an
Ġbookshe lves
ĠMean while
pend icular
orient ed
Ġaccred ited
2 80
6 000
B ER
D ocument
P ython
e ff
p ots
r ations
u its
Ġp erv
Ġl ymph
ct ica
ĠA im
ĠC y
ĠP aper
Ġch is
ĠM iami
ĠB udget
ass es
ĠD isease
ĠIn n
Ġj uts
Ġover look
Ġshe en
od ia
Ġapp lies
Ġad ipiscing
Ġrel atives
Ġgener ator
cc a
Ġap nea
Ġinf erence
Ġlast ing
Ġrep roduction
Ġbro om
Ġarr iving
Ġsepar ately
ĠCl oud
Ġ14 7
Ġ14 8
Ġtru ly
ĠDe lete
ĠSm art
ĠAt hens
Ġaff air
ĠPh one
ĠAd v
ĠBr as
Ġrot ates
Ġoccup y
Un known
Ġneck laces
Ġtur b
Ġcas c
Ġspir its
Ġ196 5
Ġcobb led
Ġaim s
Ġestim ates
Ġtransl ate
Ġalign ed
Ġ\ "
Ġbun s
inent al
ĠHig her
Ġsac r
ĠExt ract
Ġtread mill
Ġperf ume
Ġbiod iversity
ĠETF s
D ivide
E ffect
T ype
e very
p uma
s ix
Ġw ives
Ġc age
Ġc auld
es ame
Ġf isher
or b
Ġd orm
Ġd uck
le ys
ĠT al
ĠT am
Ġn ests
Ġre un
ĠA ward
ĠA aron
ĠS on
ĠC ob
Ġha ze
Ġch ose
ĠB ec
Ġte e
ĠG and
ĠN ic
Ġco ating
ĠO P
ĠL ater
ĠL enn
Ġsc ope
cess ed
Ġru shed
Ġel it
angu ages
Ġfil ed
Ġ16 4
Ġ14 3
ĠAdd ing
ĠSc ar
Ġspl its
Ġelim inating
Ġsky light
Ġdeal er
ocr atic
ĠIm ages
Ġpub lisher
Ġast ro
que ue
Ġvoc al
Ġparaph r
Ġagg ression
FA CT
Ġremind ers
Ġrail ings
PP Y
Ġrept ile
Ġneg lect
child ren
ĠNum erous
ĠArm strong
ĠSwed en
Ġpharmac ist
Ġmacar oni
caten ate
Ġrepell ents
Ġfurnish ings
D ash
E ng
I V
L ondon
d ings
h oods
Ġe po
Ġhe ter
ĠC as
ĠP ru
Ġ2 34
Ġsh aken
ri et
Ġint ellect
Ġch rom
Ġle ague
art ender
ĠN avy
ĠE astern
Ġtw in
pl icates
oth alamus
Ġant idepress
Ġback ing
ĠRe write
rop olitan
Ġpract iced
Ġ14 1
ĠEx pected
fl ag
17 0
Ġyoung est
___ .
Ġmaj ors
Ġspl itting
Ġpron ounce
ĠTV s
Ġmagn itude
ĠDef inition
Ġillum inates
Ġinit ials
ĠSpe cies
Ġsustain ed
________ ________
Ġmold s
spe cific
Ġcrack ers
ĠKore an
ĠCor on
Ġlun ges
Ġsatell ites
Ġket tle
Ġsap lings
Ġdevelo ps
Ġbeast s
ĠVac uum
Ġdwar ves
Ġpione er
Ġspoil age
Ġstrugg les
ĠContin ue
Rest aurant
ENTEN CE
ĠBec ome
B utter
T okyo
h r
u ity
x ed
Ġs ends
ed ged
Ġth rive
im ity
ĠW atson
ĠS S
ĠS el
ere r
Ġ2 70
Ġde lim
Ġwh ist
ĠM od
ĠN est
ĠN ature
Ġqu izz
ĠL ack
int eger
Ġcor rupt
Ġph ase
Ġca f
Ġsub sequences
Ġ18 3
ody nam
Ġ15 8
ex c
Ġgl int
Ġfil tered
Ġphys ician
ape l
onym s
ĠOther s
ĠDe Gen
Ġport able
ĠGet ting
Ġaw a
ĠIm plement
Ġclim bed
Ġrust y
ĠAc upuncture
Ġdisappoint ing
ĠBC E
ĠStud y
cho ly
ĠGra ce
Ġmotor cycle
Ġcircul ate
Ġgerm s
ĠFA KE
Ġtemp les
fun c
Ġembro idered
ĠRail road
ĠToy ota
ĠBlog ger
ĠPhilipp ines
ĠDeGen eres
A ut
A UR
W ait
p id
Ġ ð
Ġ VERB
er d
Ġp aws
Ġm as
Ġd ynasty
Ġd aughters
um er
le ctions
ĠT iger
Ġre write
st rip
Ġor ph
Ġor nament
ch air
Ġ2 12
Ġ" <
ĠM ust
ĠB rain
ĠB aked
Ġle opard
Ġal ien
ĠD iv
Ġtext book
Ġgr atitude
Ġform atted
ĠUn sc
ok u
Ġexp end
Ġsit uated
ĠAl i
abc abc
ully ing
ott led
ĠEx change
Ġpet roleum
ĠQ U
sect etur
An agrams
roduct ive
ĠPres ent
Ġwid ens
Ġnote book
Ġsynt ax
Ġemphas izes
Ġsyll able
MPLE X
Ġshark s
Ġentreprene ur
ssss ssss
Ġstimul ating
ĠÃ Ĺ
Ġalloc ate
Ġsquee ze
ĠMove ment
Ġcooper ation
Ġeras ers
Ġuncle ar
ĠAustral ian
Ġmol ten
Ġsax ophone
E E
e ye
k ens
m outh
r ices
Ġo y
Ġc igarette
Ġb akery
Ġp neumonia
ve ined
est ination
ĠS i
ill er
ĠP anc
Ġha cked
ment al
Ġ( /
Ġso ak
el ia
un ds
Ġun st
Ġlo ading
iz ational
Ġad verbs
Ġsy ndrome
Ġsl ouched
Ġ12 4
Ġref ined
Ġ18 5
arr ass
Ġext inction
Ġrun es
Ġgu inea
Ġkind erg
con f
Ġ17 7
Ġexpl os
Ġbar ley
Ġstop words
Ġmaj estic
Ġvol atile
Ġhyp othalamus
ĠArt ificial
Ġge ography
rom ic
Ġbrain storm
Ġwond ered
Ġfold s
rim inal
Ġrose mary
ĠAir lines
bu ilt
Ġhistor ic
Ġder iv
fe eding
Ġstim ulation
Ġcop ing
ĠUnder ground
Ġtou ched
ĠEngine ering
Ġvegg ie
asket ball
Ġward robe
Ġuter us
Ġmelan choly
Ġextr ater
Ġprox imity
Ġforens ic
J K
J ack
t rad
Ġt art
Ġt iled
he res
Ġo o
an ium
or ial
Ġto kens
Ġh udd
ĠI V
ct omy
Ġcan cel
Ġ' +'(
ĠH EL
Ġde let
ĠF il
ĠM O
Ġpl aus
ĠG a
Ġso fter
ĠE ts
ast ically
Ġsc av
Ġli ability
ph ia
Ġ12 9
Ġadd icted
Ġris en
the ning
Ġrep roduce
Ġspecific ations
Ġarr ows
Ġste pping
Ġ14 9
rad ict
ĠLe ft
Ġattend ance
ucle ar
ĠSim ilar
ĠLar ry
ĠPlay er
Ġfertil izers
ĠCam er
Ġmemor able
Ġentail ment
ĠCle ar
Ġplagiar ized
Ġrefres hing
call ed
Mo vie
option al
Sod as
ĠEts y
M ode
N umbers
s ur
z ip
Ġa pe
Ġo t
Ġis instance
Ġre nd
Ġst all
am ole
iv a
ĠS or
ĠS ep
Ġfo ster
ie ce
res cent
ud ge
int age
Ġpe ck
ac amole
Ġapp rent
20 10
20 12
Ġext ending
Ġquick est
Ġrep roductive
Ġsqu id
Ġser p
Ġ13 1
Ġgra bbed
14 2
Ġma oral
Ġlog o
Ġnarr ows
ĠMar x
Ġbur g
Ġchem ist
Ġsem ester
Ġfilter ing
HE RE
Ġstandard ized
hand ed
lar gest
Ġtherap ies
ĠFin n
Ġow l
acb g
Ġdisg u
Ġbon us
Ġexhib it
ĠTrad itional
Ġoct opus
]== '
Ġlexicograph ically
Ġpursu ing
Ġripp les
Ġovert urned
Ġapolog ize
Ġscream ing
kw seg
ĠSpot ify
ĠHub ble
" /"
) ).
C P
K ate
M on
p ython
Ġan vil
Ġg ems
ll ib
ĠS ue
ĠC oc
Ġ2 60
ri ly
res ult
ĠE uclidean
ĠO dd
Ġj okes
Ġcl er
iff s
Ġdis in
Ġ* /
Ġper pendicular
Ġ7 00
Ġform ats
Ġru bbing
te br
ĠK ong
Ġsol ids
Ġlength wise
Ġclo ve
Ġbutter milk
co al
Ġcontext s
Ġprep os
Ġconf ig
head s
Ġthick ness
Ġaff airs
Ġpal ette
Ġformat ting
Ġjo ke
Ġpolic eman
ĠPe pper
Ġaddress ing
Ġcru c
Ġcryst alline
Ġaccident ally
ĠAnt h
Ġconduct ing
Ġemb ry
Ġsustain ability
Ġconfident ly
Ġvisual ization
ĠThanks giving
Ġcontrovers y
Le ave
cap ing
Ġaster oid
Ġoutcro pping
adel phia
Ġmultipl ied
Ġextrater restrial
( *
1 45
F agin
M AT
T otal
W ork
c rew
n or
p her
Ð ½
Ġs ons
Ġc ypress
Ġb oun
Ġb ait
le e
Ġre ven
ir a
ĠS ame
Ġcon sectetur
Ġsu cks
Ġsu itc
ĠH on
ĠP ythag
Ġ2 30
Ġfo yer
ĠM M
ĠM ulti
ĠM achine
art icle
ĠG in
ĠD ig
Ġdes erve
Ġun common
Ġcre ep
Ġinv ite
Ġpar liament
Ġsk ateboard
Ġra pe
Ġplay ground
Ġpoint ing
Ġshort s
Ġpain ter
work er
Ġpay check
Ġ16 00
Ġ13 3
print s
Ġshow case
Ġmat ched
Ġmat urity
Ġextract ing
IN E
Ġpal ace
add le
Ġsnow y
Ġdom est
Ġapplic ants
ĠMich igan
Ġdivis ors
Pre mise
ĠAD HD
ĠPo or
Ġrank ed
Ġdizz y
Ġmonit ored
Ġswir l
ĠPop ulation
ĠTy ler
Ġneut rons
Ġthirst y
ĠCru ise
Ġlac quered
Ġvulner able
Ġted dy
' }.
( {'
B ah
C TION
b ank
w ax
Ġw iring
Ġw ishes
Ġf eline
or ie
Ġto es
ot le
ĠI T
ag gy
ĠC it
Ġcon sequence
Ġfr aming
ĠP ier
Ġsh rou
ĠF re
Ġint ro
ĠD rop
ĠD OG
Ġ= "
iz a
op o
âĢĻ .
Ġchar ities
ĠCh ron
Ġsol itary
Ġ18 6
Ġconf using
Ġpat ent
new w
Ġaccept ance
Ġencount er
occ ur
Ġign ored
pack ed
Ġrobot s
Ġwithdraw als
boy friend
WW WW
Ġchim pan
Ġhorizont al
Ġol ives
ESS ARY
Ġwors hip
(((((((((((((((( ((((((((((((((((
Ġanch or
Ġglaci er
Ġcandelab ra
Ġdous h
uet ooth
Ġreferr als
abcxyz uvw
Ġoverfl owing
2 0000
J J
L AR
P H
R ome
S ugar
W ill
r ont
s al
s age
Ġ ].
Ġt us
Ġs qrt
Ġo strich
an ch
et a
Ġth inner
ĠA lphabet
ĠW is
ĠS a
il ings
Ġhe nce
Ġsh ing
ĠF OR
Ġint im
pt une
ĠG ently
ĠN ames
Ġso aps
ĠJ SON
Ġlo b
Ġlo om
ap art
Ġdis posal
Ġimp ress
ram s
Ġapp ra
Ġbr id
Ġtra uma
ĠCh annel
Ġsl ed
ĠRe qu
Ġlet ting
Ġsur re
Ġ15 9
Ġaut ism
Ġdevelop ers
RE DI
Ġelect ro
Ġcomb ust
ES TION
itc hell
Ġ17 89
Ġthick et
Ġarg ued
Ġdam aging
Ġcolon ial
Ġbacter ium
Ġroof s
),( -
ĠSw itch
Ġ39 2
Ġabsor bs
ĠWater loo
urer s
Ġign oring
Ġlaunch ing
Ġintric ately
Ġobst acle
Ġwel coming
ĠMic hel
Ġwarn ings
Ġhipp opotamus
Ġisol ation
usse in
keep er
aton in
Ġcaul iflower
1 15
3 25
A ugust
d ense
n ie
r ity
Ġa unt
in etic
Ġw rest
or illa
Ġp ir
Ġl ur
Ġl ap
Ġst ance
am ents
ĠA ires
ĠS plit
ad oes
ĠC arr
Ġal gae
Ġte ars
ĠG ate
ĠN ad
Ġtime ly
ĠTh in
Ġsa pp
Ġcount y
Ġant icip
Ġref in
Ġequ ity
Ġrequ ests
Sentence B
Ġ15 7
15 6
Ġbro ok
ĠSp icy
Ġcour age
ĠInd eed
Ġmod ify
Ġtrad itions
Ġperm issible
Ġbeaut ifully
UN T
ĠNe utral
acter ia
Ġtom es
Ġcontrib uted
dom ain
car ved
Ã© e
Ġsens ation
Ġtor so
ĠGu inea
Ġarrange ments
Ġdel ay
Ġ195 3
ĠUp on
Ġabcdef ghijklmnopqrstuvwxyz
arc iss
oft ext
OK ING
ĠPortug al
Ġmonarch y
ĠDist rict
Ġnaturopath ic
ĠKent ucky
ĠAntar ctica
Pop ulation
Ġmith ril
2 70
B el
Ð ¾
he id
Ġthe steps
en ous
Ġw ander
Ġp av
al o
Ġh ips
Ġl aps
Ġre n
Ġst ump
ĠC zech
Ġha unt
Ġsh r
ri ad
Ġex ting
ĠM ong
Ġle ase
ĠG row
end oftext
Ġdes ks
Ġsome how
ail ing
Ġdis miss
Ġsm ashed
). ,
Ġad oles
eg g
Ġrest ore
Ġfam ine
Ġbo oth
Ġatt ic
Ġatt raction
ĠUn known
ok er
Ġrun ners
Ġeffect iveness
iqu ette
Ġtri o
Ġmet a
ĠBe yond
Ġ13 4
Ġ17 2
Ġrock et
ĠAdd ress
bo at
Ġfire works
uck et
lt ered
ĠChar acter
Ġdraw s
Ġbright er
Ġfamiliar izing
bur gh
Ġpanel ed
ĠBrazil ian
Ġjog ged
Ġ:/ ,
Ġphenomen a
Ġcalor ic
Ġcushion ing
ĠWalk ing
ĠAS CII
Ġmonet ize
ĠVictor ia
.# .#
Ġcockro aches
Ġsnowfl akes
ĠAlche mist
S outh
W S
e qual
r ison
w ho
{ }
Ġ rib
Ġt arts
er ation
ar ate
ic an
Ġh orn
et on
ĠT igers
am azing
il ateral
Ġcon not
Ġde ple
ĠF est
ĠF iction
ĠM edia
ĠB ush
out e
Ġar rog
Ġen roll
Ġup lifting
Ġpr ide
Ġres ort
ult y
Ġwork load
Ġbr ake
ax ies
Ġsl ime
Ġsl icing
20 11
the ir
Ġ17 1
Ġsuggest ing
Ġfur ry
Ġfire wall
Ġz ucchini
cl oth
ĠPh ilosop
Ġever green
Ġsea weed
Ġdom inate
Ġes c
ĠFl ip
ĠLook ing
Ġvers atile
AM PLE
An na
ĠIm plausible
Ġtutor ial
ĠRes erve
IT Y
Ġseed lings
ĠJust ice
Int eger
Ġstim ulate
Ġelig ibility
Ġancest ry
ĠBet ween
Ġalert s
osh op
Ġbehavi our
ĠTur k
Ġcomplain ing
ĠGer ald
Ċĉĉ ĉ
ĠPan ama
Ġproport ion
Ġpant ry
ĠVi enna
Ġgau ge
Geeks for
Ġacqu ired
Ġbrow se
Ġinex pensive
Ġbankrupt cy
Ġallev iate
ĠAlgorithm s
Ġepo ch
G u
H is
I M
X YZ
f ires
g rim
l ay
m oon
w ich
| >
on ts
is ation
Ġd um
Ġh omet
ro it
Ġha iku
Ġex ch
Ġ3 40
Ġr it
ment ia
ĠD j
ĠD im
ĠD ad
ĠN eg
el i
ac c
Ġcor rection
Ġfl ip
Ġwork force
Ġsecond hand
Ġmu ck
Ġhad n
Ġpar lor
ĠCh i
Ġbo om
Ġsal on
Ġrespect ed
Ġref ract
Ġcr ashes
Ġfact ual
Ġinf ant
15 9
St ory
Ġ____ _______
Ġdish was
Ġinter rogative
Ġpan es
abc da
Ġce ilings
100 1
aut hor
Ġstrong est
ĠBl uetooth
rest ing
ĠDr agon
count ry
ĠAng ola
ĠEvery one
Ġtour ists
ĠFollow ing
Ġabsor ption
Ġhosp itals
Ġscen ic
Ġsurve yed
Ġble w
Ġsteep ly
Ġamb ience
ĠBene fits
Ġbomb ing
Ġtamp ons
Ġportra its
Ġacronym s
Ġunders core
Ġbust le
Ġplagiar ism
plot lib
Ġrefres hed
Ġverte x
ĠAff ordable
Ġcarpool ing
Ġoste oporosis
Direct ions
Ġhomet own
D ish
J im
M arch
] ],
c lose
n ob
o ves
p ick
Ġa cknow
an imal
al ous
Ġl ingers
st ere
id uous
Ġst ern
Ġfor cing
ir ana
Ġ1 0000
Ġ' [
qu er
ra c
Ġfr onds
ĠH ob
Ġsh outing
ri ors
Ġch ase
ĠD O
ĠE valuate
Ġsp y
ĠR u
Ġbu ck
ram a
Ġgr im
Ġgener ating
ĠK id
Ġ19 18
Ġins pire
Ġanti b
ĠV ik
Ġ18 2
St ud
Ġed its
Ġrep ay
Ġsw ift
Ġbeh ave
ott est
Ġdefin ite
Ġfire flies
Ġfire pit
import ant
Ġview ing
ĠMar ie
ĠMar io
Ġoppos ing
ĠGu y
Ġlemon ade
Ġemb arrass
Ġsight s
ĠPaul o
Ġexpand ed
Ġinvestig ation
Ġalign s
ĠMil ky
ĠSuper man
Ġket ogenic
Char acter
Ġheadquart ered
()()()()()()()()()()()()()()()() ()()()()()()()()()()()()()()()()
ĠSoph ia
onom ous
Ġnob ody
Ġgamb ling
ĠMine craft
ĠWOR LD
AUR ANT
. _
Q R
S am
[ ('
b ecause
h ash
j ah
m od
v ation
or r
ar us
Ġh ottest
Ġl ye
ĠT ro
ĠI d
Ġst ony
am an
ĠA CT
ĠS ix
il ion
ĠH ussein
ĠP ic
ant age
Ġv antage
ĠB ru
ĠB ox
el le
ĠE X
ĠO x
Ġsp oons
ĠR ings
Ġun used
Ġfl ipping
ĠHe brew
Ġinst ruct
Ġcol our
Ġche er
Ġinv isible
Ġchar coal
Ġback links
Ġ19 73
Ġcr iss
Ġair y
Ġ18 8
Ġ15 2
Ġgu acamole
Ġcreat or
Ġ11 9
ĠSe ven
Ġ16 6
Ġorig ins
Ġ17 6
Ġste aming
ĊĠĠĠĠĠĠĠĠĠĠĠĠ ĠĠĠĠĠĠĠĠĠĠĠ
Ġblood stream
Ġdocument ation
Ġpoly ps
ĠMo dern
Ġadvent urous
Ġspark le
ĠGal ile
ĠNoun s
ĠLoc al
Ġabcdef g
ĠCro cod
Ġdistur bed
ĠNear by
Ġdram atic
Ġshim mering
ĠFle ming
Ġrestart ing
ĠBuddh ism
Ġplaus ibly
Ġdisin fect
stere ctomy
K abul
S an
S ame
d ot
e v
h art
l u
m el
t yp
Ġt sun
Ġs i
Ġs age
Ġc ater
le ans
et tes
Ġl am
Ġre b
Ġst roll
ĠS ara
ver ing
ra wn
Ġne uro
ĠH og
Ġmo dule
Ġv intage
ĠB ert
ĠR a
ĠJ en
du st
are r
ff ff
op hy
ĠIs aac
Ġdis abilities
reat h
ac o
ne ed
erv al
Ġbook cases
ĠK iy
Ġ{ (
ins ert
Ġanti biotic
Ġ: :
Ġpol io
'] ].
con st
ĠCl aus
Ġegg plant
ĠOr ville
Ġabs ent
Ġaff ixed
Ġsix th
Ġrepe llent
Ġtut ors
ĠLab or
HE ALTHY
Ġax e
ĠJul ian
Ġalt itude
ĠEgypt ians
Ġaccommod ation
Ġ:/ .
ĠLoc ate
Ġfreel ancing
Ġscholars hip
gl as
ĠWay ne
ĠHy per
ĠPhil adelphia
ipt ical
Ġacceler ation
Ġvend ors
Ġperme ates
ĠQuant um
Ġquizz es
|> |
+ (
M ilk
T C
T ask
d l
h ad
h ield
n ity
r ice
t rim
u pper
w oman
Ġf art
Ġb erry
Ġb achelor
Ġp int
Ġin ward
ed a
Ġl umber
Ġl aughter
Ġy olk
ĠH ur
ĠP ap
ĠP ull
Ġex foli
ĠM itchell
os aki
art a
ĠG ob
ĠD oc
Ġj uris
un s
Ġsp raw
sw ord
Ġlo ll
Ġres ign
Ġhome own
ĠCh apter
oun ge
Ġsur g
Ġroom mate
Ġsim ile
Ġtrans mit
Ġvari ations
ĠAs sembly
Ġ17 3
Ġland lord
Ġpred icting
Ġtast ing
Ġlibr arian
ĠMan ager
log ical
Ġunc overed
Ġfashion ed
char At
cont ain
ĠJust in
ĠAut om
Ġcryptocur rencies
Ġgal axies
ĠÂ ½
Ġcorpor ate
Ġsettle ment
Ġbiscu its
iche ver
Ġdinosaur s
ĠOccas ionally
Ġlightheaded ness
pperm int
Ġorph an
Ġkinderg art
ĠKiy osaki
! ",
4 70
; ;
A g
N P
O nce
V e
f izz
i ered
s or
Ġc ot
Ġc uff
Ġf ib
Ġh ind
Ġl ounge
ĠS it
Ġ' )
Ġcon g
Ġfr ing
ru its
Ġwor m
ĠM E
ĠM ia
ĠB enn
ĠB irth
Ġpl aza
Ġab rasive
Ġ3 12
os a
Ġr ounds
ĠN BA
ĠR ows
Ġlo ads
Ġpr istine
Ġover time
Ġdi agram
ign on
Ġ19 1
Ġdon ating
Ġshort ly
cus sion
Ġmon ument
SI NE
cy c
Ġpur ifier
Ġpract ition
Ġ16 3
ott a
Ġ17 4
Ġ17 32
Ġ25 6
Ġheart s
Ġgar ments
Ġfur s
Ġbar riers
Ġleg end
Ġgir affe
sec urity
ĠNe ptune
Ġpattern ed
ĠAd vent
Ġexplain ing
Ġcro oked
Ġpalind romic
Ġgran ola
Ġfrag ile
Ġthr one
Ġjudge ment
IC AL
Ġsimpl est
avig ate
Ġvibr ations
Ġcompress es
Ġbrows ers
ĠAut o
Ġskelet ons
ĠColl ins
Ġdiagon ally
L U
b ullying
h irt
m aker
r age
w orm
Ġo we
an cial
Ġc ipher
Ġb od
Ġp ist
Ġd ys
Ġl ou
id ated
ĠS add
ĠS QL
ers persed
Ġ' %
Ġpro c
Ġpro biotics
ĠF ido
ĠM I
ĠB E
Ġ3 30
Ġr am
int endo
act ers
Ġdis pose
Ġbr ide
Ġbr isk
VE NT
rough ts
Ġ9 00
Ġtr ays
ĠCh oices
Ġart istic
Ġsub list
20 16
ost ed
sh ape
Ġcat ac
ex ists
Ġtrans lated
Ġment ally
Ġoffer ings
Ġgl ance
Ġ17 8
Ġma iden
24 00
---- --
Ġpred iction
amm ad
Ġnews letters
Ġrot ted
Ġadjust ing
su per
Ġchest s
Ġtim ber
ĠComm and
Ġterr itories
bu gs
Ġscar red
Ġtrick les
Ġchick pe
ĠPhot oshop
ĠIncre ase
Ġdistract ed
Ġcorpor ation
leaf ed
Ġathlet ic
Ġchees ec
ĠMedic ine
Ġdomin ant
tem p
ĠProf essor
Ġstereot ypes
Ġabort ion
ĠMarg aret
2 45
G reat
J oe
R B
g a
z ema
he ight
Ġo aken
ot ive
Ġd in
Ġd ens
ar re
ĠI an
pe lling
Ġwor ries
Ġv iral
ĠG B
Ġso aking
Ġsp o
ke ley
Ġun int
ong est
dd ar
ond itional
Ġlo ft
ap ing
Ġro oft
we b
ĠSt ret
ish ment
Ġbr ut
Ġmin ister
Ġgr ant
ĠCh ampions
Ġsub t
Ġdon ations
Ġcharacter istic
ĠSp irit
ĠCon catenate
ĠStart ing
umn i
Ġenc oding
ze es
Ġswe eping
Ġgar ment
ĠAre a
Ġexec ution
Ġtom b
Ġeye brows
Ġpalind romes
Ġwed dings
!! !!
Ġeval uating
ĠAc ross
Wh ile
Ġwinds hield
.: ),
Ġfac ility
ĠGar lic
ĠPay Pal
Ġalign ment
Ġelev ated
Ġdisappe aring
Ġult ras
Ġchop sticks
Ġquad r
ĠCart esian
ĠTem ple
Ġtriang les
Ġcous in
Ġinterpre ted
Ġoblig ations
C ase
C lass
D ifferent
G roup
J une
M ar
T RA
b ourne
h im
h ill
k ina
r ise
w he
ã ģ
ĉ ĠĠ
Ġb ure
Ġm ous
Ġd ances
um ming
Ġth igh
Ġe b
Ġbe et
ir able
il ton
Ġsu nd
ra ved
ĠH or
ab ama
ol ate
ĠF aso
ĠB oy
ĠD ale
ĠO NE
ĠO scar
ess ed
Ġcont ag
Ġun p
Ġun ru
ĠL ion
ĠL ines
ore an
Ġac res
ĠTh ose
Ġspe ckled
Ġgood night
Ġsecond ary
Ġem pt
Ġfun c
Ġrest ed
ĠĠĠĠĠĠĠĠ ĠĠĠĠĠĠ
Ġind ent
ĠAr c
ateg ories
Ġbro cade
Ġphys i
Ġ. -
Ġste pped
Ġsil ently
Ġet iquette
Ġprom ise
IN PUT
Ġopp ose
Ġwait ers
zz y
ĠĊ Ċ
Ġinteract ing
Ġachieve ment
Ġtur meric
Ġtour ism
Ġrose wood
Ġunw anted
Ġpand a
ĠGre y
ĠDevelop ment
Ġstuff y
XX X
cre te
Ġobsc uring
ĠLaw rence
ĠDou glas
Ġwise ly
names e
Ġcav ities
ĠWil bur
imm une
elect ed
Ġhelm et
Ġvamp ire
Ġriv u
Ġpassers by
ĠSadd am
B er
D id
J erry
T opic
l anguage
s ame
Ġa ug
re view
Ġs ab
Ġs ands
or ic
um py
Ġh u
ĠA z
ad ows
ig ua
Ġde ce
ant h
ri um
th irds
ĠM ail
Ġ3 80
Ġ3 90
Ġr ick
Ġnot ifications
ĠD one
Ġneed ing
ĠR usse
ĠL ess
ĠL ady
Ġup grad
Ġtext ing
Ġfl ora
ne ad
Ġam ino
ĠFor rest
". .
Ġcomm ute
Ġbr ist
Ġret reat
ĠCan al
Ġsk ip
ĠRe vere
ĠV ill
ĠPro of
ĠBe ck
ug g
be fore
Ġcred ible
sp ring
33 3
Ġver ify
Ġmix er
ai ro
ĠSc he
Ġvol t
Ġremo ves
35 4
An imal
Ġattack ing
su fficient
Ġfert ile
ara oh
Ġ'- ',
Ġapproach ing
ĠRepublic ans
Ġble ach
Ġpump ing
ĠIns urance
ĠCur ry
Ġrail road
Ġearthqu akes
ĠProt est
Ġgle am
ĠDu ke
Ġparam eter
Ġtal ented
ĠFro st
UM BER
Ġkick ed
lad en
ĠLenn on
ĠScar let
, âĢĿ
4 20
A F
D ec
M ay
O ver
d b
d ist
w atch
Ġs ard
Ġs acks
Ġh uts
ut o
ĠH omo
ĠP osition
ĠF resh
th rough
ĠM IT
ĠB lock
Ġpl t
Ġab ac
Ġme lod
Ġ( *
ĠD E
ĠD ocument
ĠN ile
ess age
ĠJ oy
ĠL LC
ack ing
Ġreview ing
eg ers
Ġdr ag
Ġanti hist
ĠV ery
Ġpositive ly
Ġsim ulate
bb b
ĠAr k
(( ))
ĠSe an
Ġresp onds
ĠPre mise
Ġplant ers
Ġlaw yers
Ġpublic ations
Ġcool s
Ġport al
Ġgen ius
Ġdecor ating
bol a
Ġdraw backs
Ġcompet ing
Ġdetect ion
Ġmult itude
Ġfac ulty
Ġuns uccess
Ġtransfer red
Ad jective
ĠAtl anta
Ġsculpt ures
Ġobsc ure
ĠCra ck
Or der
Ġdil ig
Ġunpro cessed
ĠDen mark
coord inate
ĠOtt oman
babbabbabbabbabbabbabbab babbabbabbabbabbabbabbab
Ġgrave yard
ĠFoot ball
Ġupholst ery
Ġdiscol oration
Ġkangar oo
Ġcob webs
eli hood
Ġcontag ious
A E
B M
M us
T OP
f requ
l ors
p osed
s hes
Ã ¨
Ġ ion
Ġ iced
Ġt ens
en c
Ġc rescent
Ġm ower
Ġd ank
Ġof the
Ġh orns
ĠI MD
Ġst ye
Ġst rive
ĠC aption
ĠH arr
ab ad
Ġv iolet
ĠM ap
ĠB ooks
Ġr ags
ĠE aster
Ġar tery
Ġpe ars
Ġsec urities
Ġover he
Ġcor ruption
Ġdec ade
Ġdec iduous
ĠK itty
Ġbo ils
Ġ19 55
Ġele ven
Ġ18 9
Ġdist ress
Ġinvest ed
Ġrep aired
co res
Ġmarket place
Ġmat plotlib
Ġpresent ing
Ġ17 9
Ġenc ro
Ġess entials
Ġrece ipt
Ġhy sterectomy
ĠBr and
Ġmembers hip
STE N
ĠCar ne
pan eled
Ġsick ly
ĠYe ars
ĠPark er
ourn al
Ġprec ision
Ġinfluen cer
Ġclar ify
ĠHaw k
ĠLu ke
Ġpreserv ed
Ġcrocod iles
Ġhypn otherapist
Ġhambur gers
ĠMess age
Ġadministr ator
Ġsole ly
Ġenro lled
ĠOl ivia
Ġsulf ur
ĠSud an
Ġstalagm ites
Ġartif acts
Ġprepos itions
1 00000000
: {
O range
R uss
b lock
f ill
g her
h d
i ary
i ors
o z
Ġs alsa
Ġm ottled
ot he
Ġd roughts
as ible
Ġg own
Ġl oops
Ġre ass
if ice
if iable
ĠS ah
ad ium
ĠC ass
ra ble
ĠF riend
Ġint estine
ĠB os
us ually
Ġsp ikes
Ġdes cent
Ġmy riad
Ġen velop
Ġsc ans
Ġli ly
ene z
Ġcor ro
Ġbl ouse
Ġspe cials
Ġcar riers
ank a
Ġrel ies
12 2
Ġexp ired
Ġi Cloud
Ġstr angers
Ġpop s
Ġfact ories
Ġsun shine
ĠDet roit
Ġce ment
Ġview ers
Ġfat al
Ġbur sts
ĠRo asted
Ġexist ed
Ġang ular
ĠRep resent
Ġmeat balls
Ġinflu ences
ĠSw iss
Ġ196 4
Ġpig gy
Al geria
Ġpour s
Ġmob ility
Ġeth ics
ĠBob by
Ġinvestig ating
Ġadm issions
Ġtrick le
Ġradio active
Ġimag ery
SP AM
ĠMal aysia
Ġabbre v
ĠDa isy
Ġcrun ch
Ġalley way
Ġinterm ed
ĠHol mes
Ġthicken ed
emb ered
Ġhing es
ĠPand as
' );
3 75
F RUIT
d on
e es
p rodu
w iki
re a
an ity
is en
Ġto ll
Ġd ual
ll ers
ch ron
est ial
qu es
Ġ2 35
ol ith
Ġch amp
ĠB and
Ġ3 10
ter ing
ĠG O
get ic
Ġso aked
ud ding
ĠO p
Ġcont amin
ong y
ĠL am
ail ment
Ġcar rier
Ġ< /
Ġtra ction
vel ess
Ġ19 7
Ġ19 75
Ġins ensitive
Ġcomput ation
Ġent ries
-- >
Ġvis ually
Ġ15 1
Ġprof ic
Ġmar in
Ġmar ry
Ex amples
con ds
16 5
Ġmax imal
Ġconst it
omet ry
ĠQ atar
Ġ28 8
olute ly
Ġsmok er
ĠMus k
Ġrace car
Ġpsych iat
Ġsummar izes
Ġcalm ly
abcdef ghijklmnopqr
Ġank les
Ġbrows ing
Ġmicro phone
Ne ither
Ġrank ing
Ġconserv ative
Ġlin ens
ĠAnn ie
oust on
Ġorb iting
Ġuncertain ty
cap es
nagr m
nagr ma
Ġabnormal ities
Ġell iptical
ĠSho pping
ĠRab bit
uw ait
Ġsnipp et
Ġloll ip
Ġunru ly
! ',
C S
C aption
U V
a abb
n ative
Ġo ve
Ġc rush
on sored
Ġm ercury
Ġh oop
im ming
ĠS ri
ad er
ad der
Ġmo les
Ġpro cl
ri ages
Ġwh ales
Ġcom pens
ĠB arn
ĠB EST
ĠWhat s
ĠIn it
ĠR aj
Ġun ic
Ġro bbed
ac ular
Ġhow ling
Ġgr illing
vel t
Ġra ven
ell er
Ġsur ge
Ġdep lo
sh ort
Ġcent re
Ġtax p
Ġorgan izational
Ġnegative ly
def ault
'] )
inc ent
Ġskin ny
Ġaccess ed
Ġfur iously
ĠEx pression
Ġlay s
ĠZ oo
Ġbur den
ograph ics
reng th
Ġweigh ing
Ġrust le
Ġconcaten ation
Ġsem ic
Ġmild ew
reci pes
Ġpanel ing
abcdef g
Ġnort heastern
Ġtoile ts
FF EN
Ġexcl us
Ġhyper ny
Ġterror ism
ĠVen ice
Ġdecent ral
cs v
Ġprompt ly
Ġlicens ing
Ġecho ing
Ġdepart ure
ĠPale o
ĠSom ething
Ġlux urious
Ġfet us
Ġpyram ids
ĠOper ation
ĠOtt awa
Ġba its
Ġdolph ins
Ġsandbl aster
ĠJoh ann
enez uel
Ġcontamin ants
8 000
= ['
A v
b ath
f oo
i ot
m i
m and
r ary
r ade
w oods
re ference
re gex
Ġw olves
Ġc ages
Ġc att
Ġb out
or ious
Ġp ause
ent er
Ġl ing
Ġre charge
Ġst aph
ro d
ĠS itting
pe pper
ĠC lo
Ġcon es
ĠP ant
Ġwh ir
Ġv arnished
ĠB iden
Ġso ph
Ġman ages
un ique
ĠR oose
Ġall oy
Ġro bes
Ġbl u
Ġ0 2
Ġday time
Ġmark er
Ġserv iced
Ġdr ifting
Ġdr astically
Ġ+ +
Ġap ron
Ġav iation
arm a
att ers
Ġspec ify
Ġ18 1
Ġappe als
Ġlove ly
Ġmax im
Th ird
Ġver se
ĠInd ians
Ġprom ised
Ġpred ator
sec ution
ĠGr illed
ster dam
Ġsubs id
Ġut ilize
Ġframe work
ĠComm ons
ĠHigh way
Ġshel ters
ĠObject s
Ġrequest ed
Ġsen sible
Ġ_______ .
Ġshru b
ĠUp date
Ġimag ination
Ġremote ly
ĠStan ley
ĠViet namese
Ġmile age
Ġtum or
Ġliz ards
ĠJam ie
ĠShel ley
Ġassum ptions
ĠBabb age
emet ery
ĠGand hi
ĠPanc akes
ĠRoose velt
T T
c up
g iers
i ppers
l on
w orn
Ġb other
Ġp ang
Ġto pping
Ġd andel
Ġh ose
Ġl ag
ĠT enn
Ġst are
ld s
ĠA round
il izing
Ġ' .
ĠP ub
Ġde mentia
ab ab
ri zz
ĠF reed
Ġint ert
Ġch alk
ĠG ray
el es
Ġtw ine
Ġro dent
Ġdis like
we lling
ĠU nt
ish able
Ġplace holder
ert ools
Ġ20 4
ĠK ansas
ell s
Ġacc osted
ote in
Ġsent ine
ips es
ĠSe al
Ġ16 9
Ġdisc our
Ġconf ront
ĠPre vention
Ġ25 2
Ġparent hesis
Ġcra fting
Ġlat itude
ĠCol lect
Ġlik elihood
Ch icago
Ġemot ionally
Ġstreng thening
iter ator
Ġur llib
Ġpunct uated
ĠMe asure
Ġneutral ize
Ġindic ators
ĠMed itation
index ed
Ġmush room
Ġprison ers
Ġadm iration
Ġjelly beans
Ġdepos ited
Ġborrow ed
ĠJon athan
Ġslee veless
Ġinnov ation
Ġmyth ology
Ġinterm itt
ĠProm ote
SER VICE
Ġreferen ced
job a
Ġmand atory
ĠSaf ety
Ġcaut ious
Ġolle H
ĠOP INION
ĠMong ol
Ġdishwas her
- .
D C
F ollow
R el
S te
\ "
b ool
d irect
s cope
Ġf ad
Ġp ouch
ot on
as a
om ical
Ġst ing
se ed
se ud
oo oo
pe fruit
Ġhe lic
ist ically
ill ance
ĠF I
Ġsenten ced
Ġint ently
ple ments
ĠM id
Ġte legraph
lo dy
ĠL orem
Ġpe ppermint
Ġup front
ac cur
Ġ20 50
Ġsl ip
Ġrem embered
Ġcook s
Ġprof use
Ġpur se
Ġdirect ors
ik er
Ġ16 1
ĠEx plo
ĠEn closed
ĠChe m
Ġbur gl
ĠResearch ing
Ġbath s
ĠCont inental
ĠTra ining
Ġremed y
mark ed
LO C
Ġunf old
ĠSim ple
lar ge
Ġ'+ ',
Ġmicro scope
dis appointed
ĠScott ish
Ġsail ed
Ġshut tle
ĠMel bourne
Ġorb ital
Point s
Ġgust s
Ġdut ies
Ġunem ployed
ĠPhys ical
Ġschedul ing
ĠVar ious
Ġembra ce
Ġstagn ant
ĠFest ival
ĠHur ric
FFEN SIVE
) }
) _____
C ause
I MP
J ob
U P
d ou
e ffic
i ro
k raine
l ion
Ġd us
Ġst ature
Ġfor ty
am ines
ĠA h
ĠS ports
ĠC ab
Ġcon du
ra ins
ist a
Ġdo sage
ru ff
ul s
ri ans
ĠF aint
ĠB ald
ĠN SA
ry pt
ĠO nt
Ġun k
ĠL anguages
Ġpe gs
Ġlo aded
pl ates
ac on
Ġfl ap
ish op
Ġmark ings
Ġra ises
Ġsol o
Ġleft overs
Ġclean ers
St r
Ġresult ant
Ġground water
Ġtrans formation
Ġinspect ed
Ġfavor ites
Ġbow ling
Th ank
Ġess ence
Ġparent al
Ġleg ally
Ġcateg or
Ġmach in
Ġdang les
Ġbelong ings
Ġbra ids
UT URE
Ġstri kes
Ġoccas ions
ĠRed u
10000 0
Ġcelebr ation
Ġrearrange ment
Ġassem bled
Ġwhisk ing
Ġbound ary
Ġdownload s
Ġupd ating
ĠFin ancial
gr ass
Ġcel estial
Ġado ption
Ġiter ator
ĠCD C
ĠCur rent
Ġpossess ion
Ġmail man
orph ins
ĠProt ocol
ĠWood en
Ġenem ies
loc ation
Ġiniti atives
Ġknot ted
Ġhamm ers
Ġprotru de
Ġfreshen er
Ġprospect s
- (
G re
P ot
j ack
s in
} ?
Â ł
re ated
Ġo min
as ian
et ops
ĠT ale
Ġst ared
ĠA p
ĠW ow
qu ila
ĠH imal
ĠP attern
os ol
ĠE v
ĠIn quisition
Ġlo aves
are nd
ĠSt ack
Ġcons ulate
po x
Ġru in
Ġru shes
ĠCh ip
Ġunder go
ĠK elly
Ġbuild up
ĠV incent
Ġstr ides
Ġ18 67
pr on
ĠAl bania
19 2
Ġcertain ty
ON E
Ġla ure
inc ome
14 3
Ġskin less
Ġgar g
Ġcontin ents
Ġthick ly
ino is
76 54
Ġharm ony
Con clusion
Ġconcent rate
SA GE
ĠTe am
Ġinvolve ment
ĠJu an
âĢĶ âĢĶ
Ġaccompl ished
Ġnest ing
Ġaccomplish ment
Ġcris py
Ġje alous
Ġencour aged
Ġaer osol
Ġleak y
ĠWork ing
esse e
Sub ject
ĠLouis iana
Ġdesc ends
---------------- ----------------
ĠBre xit
Ġcertific ates
Ġabund ant
Ġperce ived
ĠCoron avirus
ĠProof read
Ġdecentral ized
J ECTIVE
c apital
h h
w ere
| |
Ġ VEGETARIAN
Ġt ide
re ne
Ġre bell
ro sey
ag les
ĠH ash
Ġ2 75
Ġ2 24
ul ously
ĠF izz
th a
ĠM AT
Ġle ash
Ġal umni
Ġme lody
ter ies
ĠD ictionary
ĠN othing
ĠN ATO
ĠIn flu
int ensity
Ġlo bby
Ġbu lly
Ġimp rison
ans hip
Ġgr anted
Ġ19 4
Ġinteg rity
ĠV AL
0000 000
Ġdesign ers
Ġdiv id
oss ibly
Ġsepar ating
16 4
Ġ40 3
Ġz oos
Ġstrateg ic
Ġshad ed
Ġpers ist
Ġinvent ors
Ġband age
Ġcrit ically
Can berra
Ġspring s
std lib
Ġcoup on
Ġcompass ion
Ġnorthwest ern
Sum mary
Ġvent ilation
ĠOR GANIZATION
organ ic
Ġuniform s
Ġdepart ments
Ġthunder storm
ĠCry st
Ġau ction
ĠPhotos ynthesis
Ġcasser ole
ĠNiger ia
Ġaudi ences
Ġfavour ite
Ġsuitc ase
Ġcombust ion
E arth
L a
a wn
f o
f itting
g ency
n c
re ams
en o
Ġc ba
Ġb artender
Ġto ads
Ġl ump
ĠI de
ĠW W
ĠS ites
ĠC BD
ĠP ose
Ġde af
Ġout look
all as
ĠB MI
Ġman ure
Ġj er
un ches
ke let
Ġen er
Ġro be
ĠU r
ĠSt ars
Ġnew born
Ġinst inct
Ġper oxide
Ġ20 6
10 9
ell ed
ĠUn plug
Ġ18 7
SI MPLE
Ġend orphins
Ġlab ore
Ġhand ful
sp onsored
Ġenc oded
Ġgovern or
Ġredu nd
Ġden ote
ĠAm sterdam
ĠOr leans
Ġ22 1
Ġcollect ive
Ġproject ions
ĠPart hen
Ġsmell ing
Ġbehavior al
ĠHar bor
ĠĠĠĠĠĠĠĠĠĠĠĠĠĠĠĠ Ġ
Ġdial ect
Ġmel atonin
ĠMan agement
Ġdetect ed
Ġdiagn ost
Ġrug ged
Ġfold ing
Ġtim estamp
Ġneighbor hoods
Ġsmart er
itter ing
ĠSte ak
ĠSte ven
Ġphilosop h
Ġic icles
ĠJul ie
RI END
Ġprofit able
Ġparaph rases
ĠPo ly
Ġjournal ist
Ġsail or
Aust ria
Ġâ ĨĴ
ĠFA CT
Col or
ĠTer iyaki
Ġshield s
Ġnom inated
ĠEle phant
ĠStat ue
ĠNY C
Ġvig orous
Ġdwell ings
Ġcycl one
Ġsweats hirt
Ġcylind rical
ĠBras ilia
Ġcauld ron
ĠAnth ony
Ġbod ily
Ġhu nter
Ġintert w
B en
B eat
D et
L M
X T
b one
c reat
c ups
p on
r idge
s aw
v id
Ï Ģ
Ġc ries
Ġb ases
it ness
ar o
Ġh ust
Ġn urs
ct ar
ĠA bu
ĠS O
pe red
ĠC and
ĠH D
ĠP ur
Ġ2 36
Ġint imate
Ġout s
ĠM elt
ĠM arsh
ĠB AC
Ġk ay
ĠN uclear
ĠN intendo
per m
Ġpr ism
Ġnum eric
ail able
Ġfe ared
au nt
Ġsm iles
Ġcar c
ne ys
po le
Ġru ling
Ġchar ger
ĠK ath
ĠRe verse
Ġsub mar
ĠV enezuel
Ġpres cribe
Ġpain s
ĠFind ing
Ġinf o
Ġveget arians
orn ed
Ġmet amorphic
ĠPerson al
Ġcold s
Ġ/ *
Ġdisc re
Ġsimilar ities
resh old
ĠDe an
Ġcell ular
Ġden ied
Ġbreast feeding
li ance
Ġcart s
Ġmel ts
ĠEl ven
Ġbreath taking
Ġmechan ism
Ġjew els
urch ase
Ġrecogn izing
ĠPol ished
ĠKeep ing
Ġunf air
Ġseg regation
abcdef ghijklmnopqrstuvwxyz
ĠRE VIEW
Ġrank ings
Ġprehe ating
gre y
andid ates
Ġassass ination
Ġox ide
Ġisol ated
ĠPers ian
ĠQuick ly
Ġanim ated
Ġguar anteed
Ġthorn y
Ġimpatient ly
Att ribute
Ang ola
Ġhypnot ist
Ġplast ics
ĠYan kees
Ġkindergart en
pron oun
= (
B BC
B MI
E mail
c arr
f light
Ġt anned
Ġs ings
Ġl esbian
est ed
ĠH yp
ab ling
th al
Ġint erspersed
Ġte ens
Ġr att
ĠD elta
Ġco ils
ĠE ND
Ġj ade
ond es
Ġsc ary
Ġres istant
Ġbet ray
Ġover seas
Ġprov ed
ĠSt ra
lud es
Ġru bb
Ġpar ap
Ġwall paper
Ġcr ater
att s
Ġsupport ers
Ġass orted
Ġtechn ological
Ġnut meg
Ġglo b
Ġfresh water
IN CORRECT
Ġsat in
anti ago
Ġperiod ic
') ].
abcd ab
alt ies
Ġdro ppings
Ġeval uates
Ġregul ates
ĠTe a
Ġpig e
ĠHigh light
bc f
Ġflag stones
Ġtro ph
Ġec zema
Ġimplement ed
Ġconce iving
Ġtrig ger
Ġmart ini
Ġauto immune
Ġtum ors
Ġpharm acy
Ġspect acular
Sim on
ĠPhys ics
Ġglaci ers
Ġclin ical
ĠBol ivia
Ġfirefight ers
Br own
Ġchrom os
Ġdomest icated
Bah rain
Ġshing les
Ġarrog ant
3 30
7 20
= {
A Y
A CT
C G
C omplete
E d
E l
f ollow
k ers
w ash
Ġ 000
in oc
re pe
er obic
Ġb ool
Ġm ate
Ġd yes
ar b
Ġg am
Ġl end
Ġl umps
ll ar
ĠS ad
Ġ' \
Ġne ctar
ĠH H
ĠH ong
ĠP ink
ĠP ix
ab y
ol er
ĠD iam
el ho
ĠO ffic
Ġar bit
Ġim plements
Ġsc attering
Ġdescri pt
ial ogue
Ġval ued
Ġsk ies
Ġ19 33
ĠV ella
mat ched
Ġrep ly
Ġsw ords
19 99
ĠSp ray
my Dict
Ġsil t
Ġmod em
Ġpat io
uck er
Ġcra b
Ġpack et
ĠEurope ans
ĠAd just
22 2
new t
agon al
ĠCo elho
ĠGr ant
Ġintrodu ces
li ers
Ġcou ches
Ġcam el
Ġassess ments
Ġod ds
Ġfert ilize
Ġautom ation
],[ "
Ġprior ities
Ġinterv ention
Ġprop riet
Ġalarm s
Ġjun iper
Ġ195 7
Ġshut ters
Ġrob ust
Ġbull ied
Ġdri ps
Ġbrew ing
stud y
ĠRot ten
Ġsymmet ry
Ġprecise ly
Ġreferen cing
Ġweaken ed
Ġamphib ians
cyc lop
Ġrick ety
N S
N orth
S ENTENCE
b g
f iber
h ammad
l is
p iring
s v
t or
t ake
Ë Ī
Ġa is
an imate
Ġc erv
ou ri
es is
it uting
Ġp ung
ĠT our
st ores
Ġfor give
if erous
pe es
ĠH ost
ĠF ROM
Ġv ents
pp ies
Ġr ag
Ġr ang
Ġnot able
ĠE llis
Ġsp ice
Ġun important
ĠL iving
pl aced
Ġimp urities
Ġ0 9
Ġcar av
Ġpart ly
Ġag ility
Ġdr own
Ġbuild s
oc ide
Ġ18 12
sh ore
read er
Ġprof ound
Ġoper ational
Ġsw all
Ġnight time
11 6
Ġeng raved
Ġour selves
Ġjum ble
Ġswe ater
Ġflu ct
Ġ200 2
Ġport ability
Ġho ck
Ġthick ens
Ġwar riors
ĠLe o
Ġbur row
ĠSy nt
Ġrespons ibly
epend ent
Ġur ination
ID ENT
Ġaw ning
cast le
Ġviol ation
ĠMe eting
Ġunc ons
cu ador
Ġgiant man
Ġrein forced
Ġdistrib ute
Ġinh ib
Ġappreci ated
Ġnerv es
Ġsail ing
FF ECT
Ġcher ries
Ġabcd ab
Ġlock er
ĠMor se
ĠSend ak
Ġevapor ation
Ġdwar ven
Ġrod ents
ĠBab y
Ġglitter ing
Ġparas ites
ĠMind fulness
Ġgest ures
Ġdevast ating
Ġrhy me
ĠWond er
usal em
Ġembry o
ĠCrocod iles
Ġrubb ish
- '
G rab
S k
b lo
k ind
l oss
o is
r ish
re v
on omic
Ġp ins
ar in
am l
ĠW ere
ĠC E
ra bb
ĠH A
ĠH op
Ġdo ses
ant ha
Ġout right
ie ve
Ġv ases
ĠM ack
Ġ3 25
Ġal le
Ġme owed
Ġwe ird
ĠN ort
Ġ= <<
ĠR ene
so ever
Ġsc oops
Ġcl ips
Ġcl oned
av ers
Ġdis pers
Ġdis connect
Ġbl ending
Ġbl urred
Ġwater proof
Ġloc ally
Ġtr il
Ġ20 1
Ġ20 9
Ġref ere
Ġpot ty
Ġair s
mat ure
Ġsle ek
Ġ18 48
Ġlot ion
Ġpol ish
Ġgu ill
work ers
Ġtri als
ik h
Ġ17 75
ivers al
Ġgar gling
ĠAll recipes
Ġdress er
Ġfoot fall
ĠInt roduction
Ġsound ed
AR D
Ġju icy
Ġda wn
Ġweb in
Ch oose
ĠGr an
Ġjud ging
ĠTim othy
Ġmult it
ĠRes ult
Ġnotice able
Ġentry way
Ġsurve illance
Ġpump ed
ĠCour se
ĠDar cy
OP INION
Ġbicy cles
Ġven ues
Ġov ens
Ġcushion ed
ĠCA USE
ĠArch ive
Ġsq l
**** ****
VOR ABLE
Ġlegisl ation
Ġsne akers
Ġreject ed
Ġstrand ed
Ġpru ne
Ġimpul se
ĠEthiop ian
Ġdisput e
Ġtransf ers
Ġintu itive
Jan uary
opo ly
Ġpav ilion
Ġchickpe as
Russ ia
Ġcatt ails
, ...,
? ",
A ct
b ows
c ause
l r
l ab
l ink
n n
o in
p ages
s entences
Ð »
Ġt ai
en ers
Ġw age
Ġb ends
Ġb aker
Ġto e
uman n
Ġn arciss
st rawberry
Ġbe lls
ak ota
ver bal
ĠH oney
Ġ2 99
Ġsh ave
Ġ3 36
Ġk icks
Ġj aw
per ature
ĠL aur
de c
Ġwhat soever
Ġover th
Ġkn ob
Ġform ulated
ire ment
Ġ20 8
Ġback ed
Ġra cing
Ġdr ums
Ġrest ful
Ġmil estones
Ġfunction ality
Ġstre aks
iqu id
Ġsun ken
abc ba
und i
Ġfavor able
Ġice berg
Ġsil ken
Ġflu ently
Ġhold er
Re ach
Ġextra ction
rad ar
Ġmag ma
Ġord inal
Ġdepend ence
Ġgrowth s
Ġdecl ining
ĠMon te
Ġdeterm ines
ĠEvent ually
Ġeval uated
-------- -
Ġjewel er
ĠCook ies
Ġspr out
Ġstair well
Ġastron omer
Ġshore line
Ġsexual ity
ĠBer keley
Ġcommer cially
Ġretail er
Se arch
Ġtrick y
Ġflick er
Ġattach ment
Ġpopul ous
Ġgenet ically
ĠNorm an
'' '
onna ise
ighth ouse
Ġbom bs
ĠBase ball
Rep lace
Ġaddict ive
Ġmane u
Ġbrid ges
ĠRusse ll
ĠVill age
Ġuncons cious
3 40
G ener
G ER
M ark
P aul
c igarette
d t
l ie
l aw
Ã ±
Ã Ĺ
Ð ´
â Ĥ
Ġw ounds
Ġc inema
ou fl
is ons
Ġm ature
Ġd unk
ic ity
Ġre ed
ro ke
ĠC ub
ĠC orn
ra ining
ĠH ang
ĠH unger
ĠF und
ĠM amm
ĠB olt
ĠD rew
ĠR ie
Ġ4 000
ĠL es
act ic
Ġ5 000
Ġro l
Ġdis abled
Ġfl it
Ġcons ent
Ġdec ode
Ġoff set
Ġche eks
Ġwere n
Ġinv al
Ġreg ulation
arn ation
Ġref ute
Ġref uses
Ġplan ner
Ġgre eted
vers ion
Ġdef ines
par agus
ĠWe aring
Ġsalt water
ex ec
ĠAl abama
ĠSo ccer
25 00
Ġspecial ty
45 67
Ġsand als
Ġsho ots
ump ing
ĠBl air
do ardo
Ġvol umes
sy nonym
Ġjo joba
ĠCar la
Ġtun a
AT A
Ġstra ps
Ġdetect ors
Ġ38 2
la very
Ġscreen ing
Ġring ing
Ġunc log
Ġ198 8
ĠAir line
Ġmild ly
Ġfair y
ĠIN PUT
Ġtight en
Ġstrange ly
Ġped iatric
occ o
Ġsan it
ĠMu hammad
grad uate
Ġgrace fully
Ġpersu ade
Ġbrace let
ĠMatt hew
Ġabol ition
Ġperpet ual
ĠEthiop ia
Ġinver tebr
ĠOk ay
Ġmerg ed
tim estamp
Ġelectrom agnetic
eff g
Aut hor
Ġtus ks
Ġsubsid ies
Ġunk empt
% )
2 60
G radually
M V
R ef
S av
b as
m ay
o pposite
s ky
t ie
w ikipedia
Ġt enses
an qu
Ġf ir
or as
Ġp aw
Ġp ave
Ġp ints
Ġp seud
al ysis
et c
Ġthat ched
ĠW itch
ĠW olf
ĠS lowly
ad ic
ĠC row
Ġcon quered
ĠH air
ĠH omer
ĠP ed
Ġ2 15
Ġ2 45
Ġpro state
ri pe
ol le
Ġwh ipped
ĠM ouse
ass ert
ĠG amb
ĠD rug
per t
ĠR NA
ĠJ ournal
Ġsc roll
Ġsc otch
Ġover flow
Ġshe ltered
Ġprov in
Ġgood bye
Ġperson ally
Ġperson nel
Ġwater y
Ġmu gs
Ġpar ad
Ġsl ots
ĠV B
ĠV old
Ġconsider ably
Ġel ves
rop olis
und y
Ġprevent ive
Ġz eros
Ġeconom ies
ĠNe umann
Ġbur rit
Ġwest ward
Ġhum mus
ograph ies
ĠCheck ing
Ġlimit ations
Ġ-- >
icy lic
Ġbroad leaf
rus hes
Ġmur als
Ġdedu ction
Ġlun ar
ĠMet al
Tom ato
Ġbuff et
Ġdele ted
Ġexter min
Ġstru ng
Ġpix el
6666 6666
Ġric hest
Ġgrind ing
Ġey el
ĠLin ux
Ġchiropract or
Ġfiss ure
Ġmere ly
ĠSimps ons
Ġmeand ers
Ġmim ic
Ber lin
ĠCarne gie
effic ients
Ġmachin ery
2 35
: "
C R
C rack
F acts
G oogle
H igh
L S
P T
a ple
g ame
r type
Ġo xy
er by
Ġc ried
Ġc ured
Ġh one
Ġl bs
Ġe ater
id as
se arch
iv ic
ad vant
Ġhe els
ĠP ine
Ġpro ce
ul us
ul ance
ol id
ol ite
ol utions
Ġle v
Ġal leg
Ġr ut
ĠG arr
Ġco ff
ĠO xygen
sw ana
Ġac quire
Ġnew est
Ġmay onnaise
Ġpre v
Ġret ired
ĠRe cord
Ġexp on
Ġconc lude
Ġblack ness
Ġsw allow
ef ined
ĠAr n
ĠFr agment
ĠSh ah
Ġsaw dust
ĠCl ub
Ġsci ences
Ġheart y
Ġdefin itive
ĠEx ped
ley ball
bab a
Ġpersonal ities
Ġexplore r
ĠIntern al
Ġann ounce
ĠJenn a
Ġsuff ered
Ġ196 7
ĠAlex and
bu cks
inst on
ĠSim mer
ĠMost ly
AS K
AS SAGE
Ġscar let
Ġbees wax
Ġpri est
Ġdiscover ies
ĠFour th
Ġhood ie
Ġenthusi astic
ĠBudd ha
sim ple
33333333 3333
ĠAnaly tics
Ġlexicograph ical
Ġcrick ets
ĠHot el
ĠGir affe
ĠTH IS
ĠIll inois
Ġvag ina
Ġharass ment
ĠCe lebr
ĠPythag orean
Ġfart hest
Ġling ering
Ġprofuse ly
Ġguill otine
6 40
E doardo
W omen
] })
b usiness
o ise
s aving
Ð µ
Ġ ~
Ġa po
he ro
Ġo mn
Ġw y
Ġw ary
on ies
Ġb akes
Ġm g
Ġm ig
Ġm alf
Ġd d
Ġd ips
ar ios
le m
Ġl atter
ĠT u
ĠT att
Ġst ating
ĠW inston
ĠS ounds
pe h
ĠP aste
Ġwas her
ul ed
ab lo
ĠF ather
ĠF DA
ain ting
Ġab a
Ġ3 21
Ġr asp
el a
ect or
Ġun ordered
ĠL ila
Ġres ist
au x
Ġro ar
Ġorder ly
ĠSt u
ĠHe ll
Ġmay or
Ġhome opath
Ġpar mes
ĠCh ief
Ġ20 2
Ġcur rencies
Ġbuild ers
Ġsum m
Ġconsider ations
oy age
the less
Ġelect oral
Ġsocial ization
Ġlog ging
Ġdev oid
Ġredu ction
Ġprom pted
ĠMary land
ush i
ĠSm ooth
Ġfrequ encies
ĠInt erval
ĠSc attered
Ġindex es
ĠPh D
AR K
ĠAnd erson
Ġtend erness
Ġann ually
Ġir rig
"]. .
Ġattend ees
ĠEd m
ĠTra vel
Ġautom ate
Ġ199 1
ĠMed ical
Ġblond es
Ġshat ters
Ġtrick ling
pass word
GH I
ĠTrad ing
Ġcrun chy
Ġtriple ts
Ġwick ed
ĠHindu ism
Ġdiscipl ined
Ġfemin ist
Ġdiagon al
jk l
ĠSoph ie
Ġtheat ers
program ming
ĠEconom ic
Ġencompass es
ĠCind y
Ġcler ks
Ġconnot ation
arend ra
Ġinval uable
Ġparmes an
. ].
C ustomer
F UL
L ength
O dd
S y
S ince
] ).
i encies
k h
p ainted
r ates
Ġa post
re ck
Ġn an
ch airs
ĠW r
ur pose
ver ted
ĠC opy
ĠH inton
ĠP urchase
ĠF ant
Ġ" );
ĠM oo
ĠM illion
ĠB ou
Ġpl ump
Ġk ern
and ruff
op last
ĠSt rength
Ġwork house
Ġwork table
ors hip
Ġpre judice
Ġapp liance
Ġper cussion
ank ing
Ġ9 99
Ġval u
Ġread able
Ġdr ows
Ġ19 79
Ġart is
Ġsub mer
Ġstr at
Ġhead ings
ĠPro blem
St ar
Ġed ition
ĠEng age
ĠAl cohol
ĠCon clusion
resp ons
Ġconst raint
Ġ22 2
Ġmass es
Ġgrass lands
Ġappro ached
ĠAv oc
Ġcounter part
ĠBut t
Ġsuper visor
Ġexplain ed
CC IDENT
Ġur inary
AC TION
Ġsens itivity
ĠPot ato
person al
Ġstd out
ĠMin istry
Ġax es
Ġcontract ors
ĠDevelop ing
Ġstuff ing
ĠID s
ĠSum mary
ĠSub tract
cal orie
Ġemphas izing
ios ity
Ġsap ling
Ġcraw ling
alph abet
found er
Ġfreshen ers
ĠOs lo
Ġenro lling
ĠConserv ative
BJ ECT
Ġrefresh ments
ĠAnton io
ĠImper ial
ĠWhats App
ĠTenn essee
Ġhelic opt
Ġhock ey
" }.
" ]]
B E
H S
R ight
S w
Y ear
a o
c out
c uts
d ry
d cba
m ite
m onds
à ¦
Ġs ank
er te
Ġw avy
Ġm etic
al in
bot tle
ĠS antiago
ĠH ab
ul ations
ĠF ine
em ed
em ort
ĠR andy
ĠR alph
ĠL ad
ĠL anka
Ġlo am
Ġfe eds
Ġph obias
ĠWh isk
Ġdi agrams
Ġtr ump
Ġserv ers
Ġback ward
ĠK y
ĠRe venue
Ġ19 16
Ġbuild er
Ġactiv ist
Ġsign ature
Ġoper ates
Ġcaus al
Ġtrans plant
uc aly
Ġhand ed
Ġprofess ions
ĠSh owing
Ġhard y
Ġ} ,
itc her
Ġpast ries
Ġpick les
inc eton
Ġmoon lit
Ġsuccess ive
Ġpat ron
ĠMar vel
Ġbra ces
Ġord inary
cher s
leg ged
Ġcy cles
ĠRep ort
ĠComput ers
Ġsty list
Ġattend ant
Ġcas inos
Ġtu xed
Ġanal og
Ġ198 6
Ġeight een
Ġadvis ors
Ġscen arios
ĠPer haps
Ġrespond ents
ĠUt ilizing
ĠAD D
Ġcommer ce
aware ness
ĠBro ken
Ġtab s
Ġfrost ed
Ġtou gher
Ġswing ing
ĠDa ily
Ġsac red
Ġmanip ulation
ĠCost a
Ġembro ider
bn b
Fizz Buzz
Ġabol ished
ĠSA VORY
ĠFO OD
Ġconscious ness
ĠLGBT Q
mall ows
ĠHEL LO
Ġchimpan zees
Ġsapp hire
Ġproc rast
Ġmous se
Ġaug ment
Ġantihist amines
TOP IC
ĠSah ara
dou ble
Ġener getic
Ġpung ent
ucaly pt
D u
L ove
p i
p he
r isk
t ar
u i
w hen
Ġt ides
in et
it i
it an
Ġp ony
Ġp unch
Ġp aved
al ur
ent ity
ve c
ve lope
ĠA bb
ĠW at
ĠC uba
ĠC ircle
ĠC andidate
ĠP un
ĠYou th
ant ine
ĠM uff
res istant
os se
ort is
Ġ( +
ĠE uro
ĠIn fin
Ġman ually
Ġtw ent
un ctions
ĠR ough
Ġun like
Ġar teries
ĠL D
Ġup side
Ġcl ue
Ġcor ds
Ġnew er
ĠFor ge
Ġno ble
Ġ20 5
Ġcur l
ĠUn related
port ation
Ġdist raction
Ġsun k
ib et
Ġsw at
ĠAl ain
Ġtrans parent
Ġmem orize
Ġreal izes
Ġbeh alf
Ġcomfort er
ivid ual
ĠX XX
Ġ22 8
ĠPar aphrase
iber n
aus s
22 22
ĠGo gh
Ġfight s
Ġcarpet ed
ĠEl on
ĠBu zz
ĠHalf way
Ġemerg encies
Ġhydr ation
Ġhop ed
ele ments
Ġhypot hetically
ĠIsrael ites
1100 1000000
Ġexhib its
Ġwrink led
Ġtal ent
Sim one
ĠIS O
Ġevapor ates
ĠSU V
Ġtyph oon
gener ated
Ġcommission er
Ġindig enous
Ġbiscu it
Ġlug gage
Ġrefuge es
Ġnegoti ating
Ġaest hetic
Ġunplug ging
Ġenum erate
Ġlingu istics
Ġcowork ers
author ized
typ ed
Ġpsychiat rist
Ġtaxp ayers
ĠRie mann
2 75
: ['
S lowly
e ating
f d
j umped
m atch
n orm
p us
t own
Ġt ale
Ġs aint
Ġw ished
Ġw izard
Ġan th
Ġg oss
om ed
Ġl y
Ġth rust
Ġn w
Ġst ere
Ġst unt
iv est
ĠB its
ĠG all
ĠN FL
Ġwill ows
lo re
Ġsp illing
ĠL ive
ĠL iver
Ġnum eral
av is
ary otic
Ġpo ke
Ġgr ate
ered Reader
ert o
Ġ20 7
Ġra ils
How ever
Ġwell ness
Ġsub ord
Ġlet s
ash a
Ġcr an
pr ise
Ġwood ed
Ġnight stand
Ġcap ac
Ġallow ance
light en
Ġprofess ors
Ġorig ami
Ġaccount able
Ġcapital ize
Ġrid ic
llo qu
ĠAll ig
Ġeyes ight
ĠAm anda
ĠAt hen
Ġnarr ative
Ġpal ms
ĠMar c
Ġrespons ive
Ġ36 6
ĠQ in
Ġsuper market
Ġfurn ace
Ġfund ra
ĠMon ster
Ġspray ing
Ġsens ations
band ed
Ġmis car
Ġcommit tee
Ġrespond ed
Ġstation ary
Ġconstruct ive
ĠSund ays
Ġdel ivers
Ne cessary
Ġscram ble
Ġgap ing
Ġorn ately
Ġfraud ulent
Sc ore
ĠAnaly ze
ĠTreat ment
Ġhairst yles
Ġverte br
ĠEp is
ĠPy ram
Ġjut ting
Ass uming
ĠPA ST
Ġconvin cing
ĠAlp ha
ĠSche dule
Ġabbrev iation
ucalypt us
' },
* "
: ],
I F
L ay
b ag
c ream
d iff
g iven
o i
} {
Ġt agged
at omic
Ġc aves
Ġf are
it led
as is
Ġh ic
Ġh ints
Ġn aked
Ġon yx
ro v
Ġwith stand
ĠS ER
ig ma
ver ts
Ġcon duc
Ġcon vention
qu ant
Ġdo d
ĠP it
Ġ2 14
ol ar
Ġch ore
Ġv a
ĠB ull
Ġpl ains
Ġ3 15
Ġr uts
ĠD ynasty
ĠE ll
ĠO live
__ .
ĠR ing
ĠR isk
dd ing
op ause
av ier
Ġover lapping
ĠSt ill
od iac
Ġlong itude
Ġback s
ĠK ar
Ġca fe
Ġtot ally
Ġob el
Ġ18 69
Ġprogram mers
Ġstre p
Ġweek days
ee f
Ġcond om
Ġtem pt
Ġdoor ways
hor se
ruct ive
ĠCl ay
Ġheav iest
Ġpref ers
Ġmess aging
Ġwar fare
Ġdeal t
add y
Ġremo ver
Ġtun ic
Ġsold ier
car b
Ġregul ating
Ġindic ator
Ġcham bers
Ġwal nuts
Ġsus pected
ĠLa ptop
Ġadvance ment
Ġgeomet rical
Ġshadow ed
Ġwra pping
Ġcere mon
Ġunus ually
ĠMet ropolitan
Ġtorn adoes
Sub sequence
Ġcoron ary
Ġpenn y
ĠPower Point
ĠPhil ip
pie ces
ĠLike ly
Ġming le
Spe aker
Ġalgebra ic
Ġmarsh mallows
Ġimpe ach
Ġcann ab
build ing
heart ed
Ġenzy mes
Sequ ence
Ġreson ates
Ġwip ing
Ġintellect ual
Ġawa iting
ophy ll
Ġ(* )
Ġlollip ops
ĠOnt ario
Ġgarg oy
Ġconduc ive
! :
W as
c am
c old
c ogn
c math
d iving
f amily
h um
m id
p olitics
s cience
w olf
x iety
re ach
an ut
Ġc ens
on ly
om ething
st uffed
id get
iv ore
ĠC ape
Ġ2 90
ol in
ĠM eg
Ġwe lf
ĠD iner
Ġj asmine
Ġun authorized
Ġen velope
Ġpe ach
Ġpr one
ang a
ĠSt ones
Ġper secution
po in
ĠCh ili
Ġback grounds
Ġsl ung
ĠK yle
az es
ather ine
Ġshort age
Ġdef ensive
Ġfew est
ĠAl b
ĠAr ts
19 6
ĠAll ied
for cing
Ġlisten ed
Ġtast eless
Ġshad y
Ġ26 4
Ġ23 1
Ġ32 7
Ġcas cade
Ġresem bling
MI LAR
ĠZe us
Ġwithd rawn
Ġamb ulance
ĠMiss ouri
ĠDick ens
Ġslight est
ĠVe getable
Ġlect ure
ĠFro gs
Ġmyth ical
agg ly
ĠCare fully
Ġhal ves
Ġghost s
Ġadministr ative
Ġtroublesho oting
Ġtheat re
Ġdies el
ĠBarb uda
1234567890 1234567890
ĠSher lock
Ġcompos er
ENTI AL
grim s
ĠOx ford
trim med
ĠVenezuel a
typed ef
Ġwelf are
: (
M ax
N Y
R eg
S AMPLE
v ada
he lm
en stein
on ics
Ġf use
Ġb iked
Ġin au
ĠI gn
Ġn ug
iv ation
ĠW end
ak arta
ĠS ab
ĠS elf
ag as
Ġhe wn
Ġcan ine
ĠP R
Ġwh it
ain able
Ġr ational
art i
ĠD akota
ĠN i
ĠN ULL
Ġco efficients
ĠE ls
ĠO pposite
ĠL yn
Ġcor pses
Ġread ings
ĠCan cer
12 000
Ġ19 29
Ġwalk ways
ix on
aur us
Ġshort ened
Ġmus k
Ġinf lated
cy cling
Ġtax able
Ġident ifies
RE NT
ĠAr r
ĠSh ard
Ġdirect ories
ĠCon secutive
ĠCl aire
Ġavoid ed
Ġrepl ied
14 8
13 4
Ġess entially
Ġhy alur
ĠMar cus
sc he
Ġgrad uates
istic ated
Ġstra ins
Ġ34 2
Ġgather ings
Ġattempt ed
Ġthreat ens
ĠGre gor
Ġbat ches
ĠOrgan ic
Ġvisual ize
ĠStar bucks
Ġnur ses
Ġplug ged
ĠPen insula
Ġproud ly
Ġprotest ers
ĠVe getarian
Ġcrun ches
IR ST
Ġcompat ibility
Ġvesse l
Ġkne es
Ġprotru ding
ĠAst ron
Ġcommod ities
ĠBon apart
Ġprotocol s
ĠLuc as
Ġpremium s
ĠDiff icult
pher d
Ġultras ound
Ġexclus ively
Ġphilosoph ical
ucker berg
rabb it
Ġvalu ables
E le
a eda
e yed
e enth
j u
m ale
t urn
u fficient
Ġt rough
er ick
Ġm ica
Ġg i
Ġh oo
Ġst ap
Ġst amp
Ġst ares
ch anging
am atory
ĠW in
ad orned
ĠH O
ĠP ul
Ġ2 18
Ġsh ifted
ant ing
Ġch apel
ĠM ut
ĠB acteria
Ġwe ave
ĠD iane
ĠN P
Ġun ident
Ġsc uff
Ġsc andal
ress es
Ġfl ax
Ġbl ast
Ġbl adder
hes ia
Ġche etah
Ġche ddar
Ġ7 50
ath a
Ġmin us
Ġmed al
ank ed
Ġrel iance
other mal
Ġsal icylic
Ġpot ting
Ġsom bre
to othed
Ġfill ings
Ġsun flowers
Ġnight life
ef g
Ġlower ing
ĠPr inceton
be es
Ġconst ell
Ġ24 3
Ġz omb
Ġcra zy
Ġelement ary
Ġarm chairs
Ġstick er
Ġblog gers
Ġgen ocide
Ġ27 6
ograph ical
ma id
Ġweb page
Ġfight er
Ġbright ness
Ġfrag rances
apt ers
Ġviol ates
Ġwond ers
Ġrust ic
Ġnational ity
Are a
Ġune qual
Ġcontrast ing
Ġdesert s
Ġscon ce
Ġamb ient
Ġmuff led
Ġabsorb ing
Ind ex
ĠMass ive
Ġfort ified
Ġlichen s
rust ed
Ġnumb ness
Ġglaes ine
Ġhood ed
Ġliber al
ĠCart er
Ġox id
ril ateral
Ġripp ling
End ing
Ġcondens ed
Ġhomosexual ity
ĠResp onse
ĠBa iley
pal indrome
Ġlumines cent
Ġastro logy
Ġvolt age
Ġintermed iate
Ġconstit u
Ġdescript ive
Ġwy vern
Ġtuxed o
Ġnug gets
B ased
G I
G X
] >
d iction
f ied
h av
n own
s ed
s ac
Ġa ph
Ġo mitted
Ġan s
Ġan emia
it ives
it ters
bot h
Ġl icking
ĠT ibet
ll us
ĠĠ Ċ
Ġit ertools
ig hed
Ġsu llen
Ġse als
ĠH onda
ĠP att
ĠP iles
Ġ2 32
Ġde ception
th od
Ġch uck
Ġch apters
ĠM om
ĠB ag
ĠB asketball
Ġal iqu
Ġte quila
Ġk at
ĠG M
Ġwe aker
ĠN avigate
Ġqu iz
ĠE cuador
ĠR and
ond u
Ġup grade
Ġcl own
Ġcl icks
de ep
Ġcar bs
Ġper ception
Ġtra it
Ġcount erc
nder ing
Ġchar ming
Ġtr anqu
ĠCh amber
Ġunder graduate
10 6
Ġ19 49
Ġchild care
Ġtest case
Ġrec ru
Ġ18 15
Ġext rem
Ġlearn ers
avor ite
Ġpa wn
Ġhuman itarian
Ġgl ands
Ġmarket places
Ġcountry side
con sole
Ġsimilar ly
app iness
Ġfoot age
Ġabs ence
ĠSc ru
Ġstrateg ically
Ġspl ashes
EN CE
str om
Ġvol leyball
unct uation
Ġappro val
Ġgrad ual
Ġones elf
iter ate
Ġkil ometer
bl ance
Con secutive
Ġnormal ize
Ġclassified s
Ġtim ing
Ġautom obile
ĠSw ift
ĠAngel a
Ġpig ment
ĠAir bnb
ĠCook ing
Ġchalleng ed
Ġencourage ment
Ġdownload ed
box es
Ġfac ilit
Ġdict ator
Ġvolunte ers
ĠCong o
Cl aim
Ġpil ings
Ġrob bery
Ġscrat ched
ĠPrin cess
Ġkitten s
Ġdign ity
Ġdesper ate
Ġchis eled
ĠPhilosop her
Ġexch anges
dl row
ĠRepresent atives
lds par
ĠVold emort
D el
E ggs
F ruit
G C
O ut
V P
d ah
k c
l ittle
Ġt ensions
Ġo ily
Ġw reath
Ġf ade
Ġf ading
Ġb ri
Ġg rief
Ġth reshold
ĠS low
ur i
ĠY ose
ĠH erm
Ġ2 19
ol ingo
Ġab usive
get ables
Ġsp ind
ĠL azy
Ġpe els
ful s
ĠK l
ok en
Ġpop ulated
Ġ18 61
Ġstre ak
Ġbed rooms
Ġpa ired
ĠAr gs
joy ful
Ġkind ness
ĠSh ut
ĠSh adows
ĠCon f
Ġlabel ing
Ġstone work
Ġemplo ys
Ġ24 6
Ġland mark
bal anced
ĠTw ain
ĠPh oenix
Ġsnow man
Ġbrief ly
ĠCar ved
ĠCo al
Ġlik ing
Ġsweet ener
ĠDr ag
Ġcam oufl
Ġatmosp heric
Ġinsert ion
Ġmut ually
Ġexcept ions
Ġdisappoint ment
Ġadvert ised
Ġshel ving
Ġhunt ers
ĠEr rors
Ġaim ed
Ġmoment um
II I
NON E
Ġwra ps
Ġrev ise
Ġsout heastern
ĠTest ament
Ġabcd abcdab
Ġpossess ions
Ġtherm al
Ġmoistur ize
Ġdivor ced
Ġdeleg ate
Ġchandel iers
Ġtum ble
ĠRun ning
ĠNear ly
Ġdistract ing
Ġtriple t
ĠJer usalem
ĠKen ya
Ġreserv ed
Ġrhythm ic
Ġ{} ;
appro ved
Ġcann ons
Ġscor ched
Ġinher it
Ġconson ants
Ġparaphr asing
trad ed
Ġquadr atic
Ġeb ony
Ġsoph isticated
ĠArn old
ĠYose mite
2 16
: %
B oston
L orem
T O
U AL
e ur
s q
s ions
v o
Ġt ended
Ġc emetery
it ic
Ġd ice
Ġd une
Ġh i
ĠT ik
ĠI SI
Ġn ook
Ġre use
Ġst ale
ig uity
Ġpro secut
Ġfo cal
ĠF alls
Ġch illy
ĠG RE
ĠG iant
Ġman ic
ci ble
Ġgo verning
Ġinc omes
Ġinc lus
Ġ[ ("
iz ards
pl ing
Ġac quisition
Ġfl utter
Ġkn itting
com b
Ġclass ifier
Ġplay time
Ġass igning
Ġwood working
Ġtem plates
RE D
Ġter ra
Ġvac ant
Ġcapital ism
17 7
Ġprom ises
Ġport s
Ġcra bs
ĠBl acks
ĠZ uckerberg
Ġsoon er
Ġsky diving
Ġgen ome
ĠSy rian
Ġ27 3
Ġfarm s
Ġ35 6
Ġinvent ions
Ġtre as
Ġcro s
Ġcolon ists
Ġexam ining
Ġpunct uations
Ġviol in
Ġcab bage
Ġrelie ved
Ġcas ually
Ġunc onditional
Ġunw ind
Ġunw ary
ĠSpe cial
ĠMen u
Ġble m
reg on
spe aking
Ġdestro ying
ĠUnder stand
Ġimper ial
Ġobsc ures
Fr agment
last ing
Ġextensive ly
ĠVis ual
ĠVe h
cons in
Ġneur on
Ġtort illas
ĠÂ £
Ġstiff ness
Ġbraz iers
Ġdefic iencies
Ġmannequ in
Ġbund les
Ġfasc inated
Ġbru ises
Ġemit ted
ĠAgree ment
Ġgou ges
JK LM
ĠWis consin
Ġspo iled
ĠParthen on
Ġmultit ask
Ġmalf unction
ĠMoo re
ĠBonapart e
) "
2 30
F I
L isa
l av
s it
w a
Ġt v
in als
on str
Ġb umps
Ġd itch
Ġd ancer
Ġd welling
Ġg hi
Ġh ates
ĠT oo
Ġe ucalyptus
Ġbe ck
ay as
am is
ir ie
ĠA bby
ĠS ac
ur b
ĠP ai
ie ves
ĠB es
ĠG au
ĠG mail
ĠN ixon
Ġco efficient
and es
Ġsp rains
Ġdes irable
Ġgo bl
Ġim bal
ĠL A
ĠL ay
ĠSt ation
VE N
Ġtra ces
Ġcre amed
Ġbook stores
Ġsl it
Ġsl its
Ġsl iding
Ġsk etch
Ġplay ful
Ġob ed
ĠV lad
Ġadv ised
Ġdon eness
par agraph
Ġimpro per
Ġdish washing
Ġ30 6
Ġpa uses
ĠAr men
Ġwild ly
Ġfil th
Ġbow el
Ġslow ing
14 6
Ġcommun ications
Ġlay ered
Ġcondition ers
Ġalc hem
pro v
Ġblock age
Ġled ges
ba it
ĠPat ri
Ġrich ly
che t
ĠMay a
ĠRed dit
Ġdou bled
Ġmechan isms
Ġsens or
Ġpound ing
Ġpsych ic
Ġattract ing
Ġ198 1
Ġhar bor
char ged
Ġple as
ĠFin ish
Ġdel ays
Ġcitizens hip
cript s
Ġ195 8
Ġamb iguity
Ġrobot ics
Ġfort une
Ġlip stick
Ġflood ed
Ġsan ctions
Ġpier ced
olk ien
ĠPen h
Ro ll
ĠConfed er
Ġentail ed
Ġprohib ited
ĠStat istics
Ġbust ling
Ġcuc umber
Ġwand ering
Ġstew s
Ġmang oes
squ are
Ġð Ł
Ġ(/ ).
Ġlur king
ĠTurk ish
ĠMAT CH
Ġhust le
Ġextermin ator
! '
6 50
: -
S at
V ac
g on
h aka
k ay
t w
t ru
Ġs ender
en ario
at omy
on nect
Ġf angs
is al
Ġb iting
Ġin accur
as ma
um ph
um atic
Ġn ylon
Ġre loc
st upid
ch ay
ro lling
Ġ' @
ul o
Ġv aping
ĠG oth
Ġso ggy
Ġun ified
ĠL inda
Ġ[ ];
Ġro ds
Ġdis respect
ĠSt ick
ĠSt ew
ĠSt range
Ġsm ith
Ġno isy
Ġreg ression
ĠAn cest
Ġsl ipping
Ġdr ake
Ġrest less
Ġsub atomic
Ġsee ks
any a
ĠV PN
comm un
Ġdep r
Ġfact ually
sh aring
Ġ30 4
ĠAl together
ĠWho le
Ġwild fires
be ck
Ġsurf ing
Ġland f
24 6
Ġbal let
Ġdev oted
cl im
ĠNe ed
ĠNe vada
Ġbit ten
Ġbra ins
200 1
Ġ36 8
Ġri pen
atic an
Ġur ns
Ġjud ged
Ġham sters
ĠInc ome
Ġcoord inating
Ġdra ins
Ġremember ing
Ġbi ologist
Ġbreath able
ĠMe at
ĠCont est
ĠSam antha
Ġsem antic
pre m
Ġsurv ived
ĠBo ys
AS H
down s
Ġcurtain ed
ĠChurch ill
Ġpra ised
Ind onesia
Ġveter inary
Ġfort ress
Ġâ Ī
Ġmetabol ic
Ġsubtract ing
Ġcandle light
ĠCarl os
ĠVeg an
Ġurban ization
LI ST
ĠJud a
Ġspon sored
Ġbol ted
ĠRet irement
Ġeras er
Ġcul inary
Ġdeduct ible
Ġhaw k
Proper ty
ĠGabri el
Ġbure aus
Ġhyperny m
ĠUnt il
ĠVAL ID
Ġembroider y
chay at
" ],["
, &
E val
U MP
W XYZ
c ous
f ar
n est
r ising
t alk
v ous
w arts
w atching
Ġt as
re ly
Ġb unk
Ġm erc
ĠI M
ve getable
Ġu k
im en
ĠW et
ĠW arm
ĠS id
Ġhe mp
ĠC ir
ra h
Ġne c
Ġfr ayed
ĠP ush
ĠP enguins
ru de
Ġ2 11
Ġfo ll
ĠB rush
out heast
us sion
Ġ3 78
ĠG iza
Ġtask ed
ĠE R
ĠE ug
ess ion
Ġun an
Ġun att
Ġen list
Ġsc ree
ac cept
Ġcor i
Ġbl aze
ĠHe aven
Ġcar amel
Ġam bit
Ġpo lls
Ġcomm em
TI NG
ĠWh it
ĠK uwait
Ġref lections
ĠV oter
20 13
Ġfound ing
Ġair fare
Ġshort ening
Ġmon ir
Ġdef ended
br ist
15 4
15 5
Ġprof anity
Ġsto ves
Ġgreen ish
ĠBe ar
ĠPl ato
Ġmiss ile
val ent
Ġsmo other
Ġprom oted
Ġcool ant
osp ital
Ġiron ic
ung al
Ġexc luding
ĠPe ace
Ġ45 00
Ġfast ened
Ġswim s
Ġharm less
Ġbi ographies
ĠAng lo
Ġlack ing
Ġspir aling
ham mer
bur ger
ĠSte el
Ġclust ered
Ġeth ic
Ġpit ted
Ġmuff in
ĠPass ive
Ġalert ness
Ġow ed
Ġdisappe ared
Ġrail way
Ġpromot ional
Ġconj ug
Ġcrumb led
Ġspan ning
Ġoutc rop
ĠIntellig ent
Ġfrust rating
geeks forgeeks
Ġchlor ine
TIC AL
ĠRot ate
tom ato
Ġsear ches
Ġsevent h
ĠCast le
Ġprosper ity
Ġoutl ining
Ġtul ips
Ġunp redict
ĠFreed om
ĠCryst al
Ġoxy mor
Ġmetic ulously
Ġhyalur onic
C ap
E at
E qu
I GHT
P air
P QR
R IP
S al
c ot
e ither
f ig
g hed
h ack
m u
n ings
o dd
t ag
v olt
Ġt ad
Ġt arnished
Ġthe ore
an agrams
Ġc d
Ġc ots
Ġc sv
Ġf onts
ed uc
ent ry
Ġl ust
ĠT erry
Ġn avy
st atic
ĠA bs
il ts
ag ic
qu ery
Ġse iz
Ġse ctors
ĠH P
Ġsh ale
ul ous
ol ph
ĠM alt
ĠB are
Ġal monds
Ġr ally
Ġk ings
Ġwe ary
ĠD at
ĠE mer
em ployed
Ġsp ruce
ĠR ica
Ġlist ener
ĠL ength
ĠL ock
int ed
cri bed
de velop
Ġpos ed
Ġcor pse
ĠSt ark
Ġkn ots
ĊĠĠĠĠ ĠĠĠĠĠĠ
erv es
Ġsl ats
Ġart ich
Ġref ine
Ġgre eting
Ġfin ishes
)) ))
Ġ18 71
Ġmus hy
Ġprogram me
ec hes
Ġmar red
Ġpan cake
ĠPl ants
ĠCl ara
Ġrid ges
PE N
Ġbal es
Ġmount ing
ret ched
ĠEn viron
Ġ22 3
Ġpal is
(' \
dr iving
Ġfle et
36 5
Ġinfect ious
Ġju icing
Ġsell ers
Ġ35 2
Ch icken
Ġshare holders
Ġton ic
ĠĠĠĠĠĠĠĠĠĠĠĠĠĠĠĠ ĠĠĠ
acter ial
ĠAust in
Ġexce eding
Ġdro pping
ĠAmazon ia
Ġquart s
Ġdra fts
Ġsty l
Ġconcent rated
ĠBu enos
Ġ196 2
Ġple asing
fe ar
AA A
Ġvibr ation
OS SIBLE
Ġens ures
stuvwxyz abcdefghijklmnopqr
US AL
ĠCommun ity
chest er
Ġcrimin ology
Ġcyber bullying
Most ly
ĠMem orial
Ġoppon ents
Ġric her
Ġentrepreneurs hip
Ġadvoc ate
Afric a
Ġflatten ed
Ġsear ched
Ġnour ish
Sequ ential
ĠThr ones
ĠCars on
Ġinterc onnect
ĠBrother s
Ġdenom inations
Ġexpend iture
Ġburg undy
Ġwebin ars
Ġrol ton
auss ian
Ġobel isk
Ġgi ants
4 40
B O
H ouse
I nter
d ies
d ark
k ed
l iving
o an
s ource
s era
v w
Ġ ).
Ġ VEGETABLE
Ġt yr
Ġc ensus
Ġf ist
it ations
Ġp aving
Ġh ives
om ish
ĠT err
ĠT olkien
st re
se lling
im ar
ĠW ix
ĠW izard
ĠS FO
ĠH a
ĠH ans
Ġ2 33
ĠM A
ĠM ort
ĠM andy
ĠG un
Ġwe ighed
ĠD hab
ĠN ik
el iness
em in
Ġ5 11
Ġres ides
ap idated
Ġro ach
ult an
de grad
Ġdis pos
Ġover l
Ġ0 6
Ġad or
arch y
Ġtra pez
Ġgr iddle
ade quate
Ġ20 3
ĠRe agan
Ġ19 37
ĠV atican
Ġcr aggy
Ġactiv ation
Ġed ited
Ġsw apping
Ġsw itches
19 5
vert ise
Ġresp iration
ĠCon c
Ġgra ves
Ġconf igure
Ġwa ffle
ĠEn able
ili ans
Ġeduc ate
ĠJack ie
ĠTom orrow
Ġbur ial
Ġrain water
gar ia
Ġforget s
Ġprim itive
Ġ23 7
che ese
Ġcompl iance
ho le
Ġdim ension
We ather
Ġshap ing
ĠTalk ing
can ner
Ġmis chie
ĠCour sera
Ġcrack ing
ĠGra pes
Ġattrib uted
Ġbes ides
:: -
den oted
Ġconce ive
Ġinfest ations
Ġpolar ity
Ġborrow ing
Ġorch ids
Ġhamm ered
Ġsuspen sion
Ġmigr ate
bet ter
Ġ:( .
Ġindig o
ĠWhe ther
Ġbou quet
Ġoverh anging
Ġeman ates
ĠHem isphere
Ġexagger ated
Ġevac uation
Ġoint ment
ĠCamb odia
Ġperv ades
Ġdelim iter
odynam ics
Ġconfig uration
Ġexting uis
Ġsurg ical
Ġredund ant
B ody
D EN
P y
P eter
R ose
U I
U SI
V en
e qu
i u
j is
p ossibly
Ġs ways
an u
is se
Ġb ounce
Ġd read
Ġg ad
Ġn ag
Ġe uros
Ġre he
ĠA ch
ĠA ra
ĠS ell
il ting
ĠC H
ĠC ome
ĠC ateg
ĠC ooper
ĠH itch
ĠP S
Ġsh ook
ĠF a
ĠF ly
ĠF ries
ĠM ach
ĠM ans
ĠB eng
Ġ3 48
Ġr ay
art ificial
ĠD ub
ĠIn side
ĠO FFENSIVE
un c
âĢ ¢
Ġ4 15
Ġun lock
Ġar ist
ong ated
Ġall ies
ĠL izzy
ap ult
Ġ- =
ac ies
Ġinst ability
arm ed
ĠUn like
Ġcr ane
Ġequ ator
Ġconc ussion
br as
Ġopt ical
Ġhead phones
vent h
Ġaut onomous
Ġmar gin
Ġgl ows
Ġcolor ation
ĠSp ider
ĠPl ush
ĠPr ague
Ġskills et
Ġ25 1
Ġ25 7
Ġenc ircle
Ġ24 2
Ġbal ances
play er
Ġjumps uit
ĠSus ie
por ary
.". .
Ġ28 2
aged y
ĠMan or
Ġboard ing
Ġparticip ation
CO MPLEX
ST UV
ĠCont rib
war gs
ĠTe ach
hold s
Ġmoss es
Ġloose ly
bu y
off s
allow een
Ġtruth ful
Ġkid na
KE LY
ĠSl ide
Fr ank
Ġnorm s
alg ia
Ġsin us
Ġsin ister
Ġbond ing
Ġinhab ited
ĠAnaly tical
ABC D
Ġinfin itive
Ġcav ity
rot ate
Ġoutcro ppings
Ġminim izing
ĠMedic are
Ġtrem end
Ġlig aments
Ġcudd ly
Ġcroiss ants
Ġsued e
ĠImpro ved
Ġscav enger
Ġdisgu ise
Ġesc aped
Ġcriss cross
Ġlag oon
ĠStu art
lighten ment
Ġcori ander
3 12
= .
A verage
B h
C M
D own
F our
I L
L R
N UMBER
P s
b ie
c oding
g neous
j c
m unicipal
v re
Â ²
Ġs ails
Ġc attle
Ġf ences
Ġb red
Ġp ail
Ġp its
Ġto pp
Ġg asket
Ġh arn
ce lled
ro st
im on
Ġit al
ĠW ire
ĠS ew
ĠS auce
ig en
ur ist
Ġhe ns
ĠH al
ĠP P
Ġpro pped
ol s
ĠF E
Ġ" $
Ġ" *"
Ġch ia
ĠM ush
ĠB alt
Ġ3 70
res a
ĠE agle
Ġsp ires
gh al
Ġ4 10
Ġun well
Ġun adorned
ĠJ umps
Ġsc are
act ivity
Ġpe g
ac re
Ġ7 89
Ġmed i
Ġem its
ĠAn gle
Ġra is
Ġ19 41
ĠSentence A
ĠUn cle
ĠUn iversal
Ġexp orts
Ġtell er
Ġx i
Ġed ged
ib an
Ġpay roll
Ex ception
ye ars
Ġmen opause
Ġsepar ation
inc orrect
Ġconsult ant
Ġheav en
Ġprevent ed
ĠLe ave
Ġbread s
Ġrat ified
ĠBr ightly
sc ore
LE D
Ch apter
Ġtransport ed
Ġabc de
ald ives
Ġir ons
ĠMark eting
Ġaw k
Ġ29 7
ĠJane iro
ĠMe aning
Ġ38 5
Ġsubst itution
Ġfold ers
anas off
Ġgraph s
ĠPol and
Ġsummar izing
ĠPer fect
Com pany
gram s
ĠCO OKING
Ġcuis ines
Ġuns orted
Ġscar ce
ĠVal entine
ĠFrank enstein
ĠLou ise
Ġregist ering
Ġleak age
ĠHind us
Ġconce al
ĠCode Eval
ĠCam bridge
Ġrecess ed
ĠHard y
ĠFred erick
ĠEle ments
Ġfemin ine
Ġpursu it
Ġcontra cept
opot am
Ġbookshe lf
ĠTre k
ĠSE LECT
Ġfierce ly
Ġretrie ve
cook ing
Ġutter ance
Ġtram pled
001 000000000000000000000000
REDI ENT
Ġhomeown ers
ĠStret ching
ugg ish
Ġdiagnost ic
repe ating
Ġlev ied
Ġmiscar riage
Ġpalis ade
) ___
) }.
A arti
L AN
T rans
] (
a cious
e cess
f aced
g one
p d
t oday
u id
v otes
x ious
y ahoo
} ..
at ility
Ġf oo
Ġf ern
Ġp umps
Ġl l
ĠT ag
Ġe u
se ason
ur d
Ġmo ck
ĠP arent
Ġ2 39
ĠF iles
Ġ" _
Ġv oyage
Ġ3 11
Ġ3 17
Ġ3 28
ĠG az
ĠN N
ĠN ation
ĠN amed
Ġman ned
ĠO bs
ĠR ate
ĠR ush
ĠHow ard
Ġany time
Ġlo ver
Ġ5 60
are a
ard v
Ġfe asible
Ġdis charge
Ġ0 7
od a
od i
ne ither
ath s
Ġcre eping
ten ds
ys ics
ern et
ĠK rist
Ġdown wards
Ġve in
Ġins ufficient
Ġconsider able
Ġrec l
Ġext ent
Ġcond oms
Ġmet rics
rit er
ĠSe b
ĠPl ain
be aut
ĠCl aim
Ġcommun ist
Ġ24 8
Ġcontro ller
Ġiss u
Ġ22 7
ĠWar ren
Ġpet ite
Ġspeed ing
Ġsou ven
Ġled ger
pan chayat
Ġstream ers
count able
Ġpunct ual
ĠEl se
Ġstraight ener
Ġcab ins
ĠTra ffic
Ġtor rents
Ġoptim istic
Ġ37 2
Ġrecogn izable
Ġmur ders
Ġbot an
Ġobserv ers
Ġhistor ians
Ġprop ag
aaaa aaaa
Ġnause ous
ait lyn
ĠInvest or
Ġacadem ically
ĠData Frame
Ġpupp et
Ġmotor cy
ĠDog g
Ġflick ers
Ġcos m
Ġneighb oring
ĠLong est
Ġket o
Ġsucceed ed
Ġpedest als
ĠDu olingo
Ġdistur bing
cons cious
Char ley
Ġspect rum
Ġquad rant
Ġecl ipses
ĠVan illa
ĠBah amas
Pl ausible
gener al
Ġtack le
Ġsha fts
Ġcompr ises
ĠBarb ara
Ġsque aky
Ġillust rate
Pass ages
Ġlubric ant
Ġsparse ly
ethe less
ĠDor othy
ĠSTD OUT
Ġdelight ed
ĠCamer on
Ġdiscour aged
Ġparap et
Ġsanit izer
Ġlandf ills
Ġoxymor on
Ġstyl ized
degrad able
ĠAch illes
) ______
A be
B o
D uring
D oe
F light
J s
M IT
N et
P ost
P resent
] ),
b f
f emale
g rain
r ina
w an
he ld
Ġb ows
it ian
Ġd andruff
al one
om on
Ġst eth
se ven
im med
ĠA LL
Ġ1 000000
il ian
ĠC reat
ist ered
ĠP ent
ul sion
ab i
Ġ" (
Ġch ipped
ĠM oss
ĠB all
ĠN LP
Ġso vere
ĠE lection
ĠO regon
Ġj al
ke eping
ci er
Ġ4 13
Ġinc ur
Ġinc oming
Ġen ables
Ġlo oming
ail ed
pl icate
Ġinst antly
Ġmu cus
ĠK u
Ġdr one
Ġdr agons
Ġstate ly
Ġbre eding
Ġent itled
ual a
Ġdon ated
Ġrec overed
Ġmon ster
Sentence A
Ġjust ify
Ġend ings
ĠCom post
Ġ30 8
Ġmar ig
19 94
Ġlow ered
ĠCon crete
Ġauthor itative
Ġcommun ism
app ly
Ġfire wood
Ġz ones
bab ly
ĠSc ots
osp here
Ġmist aken
sc ape
ĠFl at
ĠQ R
ĠRo lling
Ġseason ed
Ġfeed ers
Ġstra pped
Ġded icate
Ġdra ining
Ġreflect ive
Ġdetect or
ĠCent ers
Ġspir als
Ġintroduced in
Ġcommit ments
Ġble ached
ĠLa os
Ġvirt ually
ĠAb ility
Ġcrypt ography
Ġphilosopher s
Ġrare ly
ĠColor ful
Ġencry pt
Ġgerm inate
icol ored
ett a
ĠDen ver
Ġhem isphere
ĠNorm andy
Ġconfirm ation
Ġfasc inating
inf o
RON IC
Ġdistingu ish
Ġbabys itting
Ġchir ping
Ġsixt y
Bar ack
ĠBat man
ĠBron ze
ĠImm igration
Ġreven ge
ĠNeg ot
ĠIMD b
Ġove reating
Ġsubmar ine
Ġglob ally
cyclop edia
Ġprovin cial
ĠEpis ode
ĠJuda ism
Ġcommem or
Ġsteth oscope
D raw
E RENT
H T
M al
T V
\ .
f ries
l abel
n ull
o per
t ub
v ana
w ife
in laid
re aching
Ġs addle
at i
Ġf al
Ġb ib
ot rans
Ġh ub
Ġn urt
Ġfor um
ch uck
ĠS lo
ĠS pl
ad h
Ġhe aps
ĠC os
Ġ' .'
ĠH und
ĠH ouston
ĠP H
ĠP el
ĠP ets
ul ates
ĠF err
ĠF unction
ĠB ed
Ġ3 18
ĠD istance
ace ous
ĠJ azz
Ġgo gg
Ġ[ {'
Ġres igned
Ġcons pir
Ġcons olid
od ied
te ch
ĠCh all
Ġ19 14
Ġacc us
Ġacc ord
Ġwhere ver
ĠShe lly
Ġve il
Ġins et
ĠUn install
Ġgre et
-- ;
Ġ18 85
ĠCom plex
Ġlearn s
ier ra
Ġinter personal
ib ia
ĠAl giers
RE ST
75 4
Ġmen us
100 11
16 2
onym ous
tain ed
Ġ24 9
mon ia
ĠSm ok
umb les
ann ers
min ster
Ġexplo ded
ĠFl owers
Ġ36 3
ĠRo ast
pan cies
Ġ28 5
Ġang el
Ġintrodu ct
unk nown
multi ple
Ġdou bles
ĠSu pp
Ġmid st
Ġfashion able
Ġmoss y
"] ].
Ġencount ered
Ġfair ground
!" );
Ġdent ists
Ġknock ing
Ġtherap ists
Ġencl osing
ĠSand wich
FF ERENT
abs orb
Ġsan ct
Ġrins ing
Val ues
var iable
ĠRob in
Ġadvertise ments
small est
Ġmanip ulate
Ġwhis key
Ġtrap door
Ġyouth ful
Ġpreced ing
Ġsymmet ric
ĠSwed ish
Ġoverh ang
Ġgig antic
Ġcance lled
Ġimmers ive
10000001000000100000010000001000000100000010000001000000 10000001000000100000010000001000000100000010000001000000
conf idence
Ġape x
Ġapprent ices
Ġrit ual
Jim my
ĠMI XED
Ġcondu ctor
Ġpediatric ian
Ġirrig ation
Ġhoo ves
Ġambit ious
ĠDhab i
ĠCateg orize
Ġawk ward
5 40
6 0000
B est
c ondition
g lo
l iness
m ethod
o a
p df
r ag
Ġs ack
Ġo liver
Ġw ipes
on omy
Ġb ison
it izing
Ġp oo
Ġp att
Ġp itcher
Ġm ists
Ġin adequate
ar ithm
ic idal
om i
ĠT weet
Ġfor b
im ore
ĠA verage
ĠS outheast
ag ne
ĠC rick
ĠP ainted
Ġ2 17
Ġsh ipped
Ġch ases
ide l
ĠB un
ĠB og
Ġr anks
Ġk inetic
ĠG am
ĠG ret
ĠN iet
ĠE NI
Ġman ifest
ĠR aven
Ġar cs
ĠL IS
Ġdis appro
Ġac orn
Ġsm ud
ram bled
Ġam end
Ġad verse
Ġgr otto
ten sion
Ġacc ents
Ġchild birth
Ġinteg rated
Ġcur led
Ġinput ting
Ġel ongated
ah an
Ġinf erences
Ġunderstand able
Ġtem peh
rit ic
19 8
ĠCl an
Ġlog in
Ġhold ers
acher s
Ġblood y
Ġmot ions
Ġreport er
no de
Ġdest ructive
Ġsouth ward
go ers
Ch rist
pan ed
Ġtre llis
Ġteach ings
Ġ29 1
Ġclim bers
rid ay
Ġsoap y
lock wise
Ġmis er
FO RE
Ġacid ic
ĠMo z
ĠMo lly
Ġinh al
Ġdivers ifying
alog y
ĠHo pe
As ia
ĠLu anda
PR ON
ĠCra ig
organ ized
TH ER
Ġtort ure
Ġtac o
Ġdil apidated
ĠFried rich
ĠFound ation
requ est
Ġcha os
eterm ined
Ġfulf ill
Ġhack ers
Ġmant le
Ġdescend ants
Ġsuperv ision
Ġrecur sive
Ġdeodor ant
UK IP
ĠBeaut y
ĠHung ary
COMM END
zan ne
Ġlob ster
Ġsurre nder
Ġdismiss ed
Stud ent
Ġrepay ment
Ġtsun ami
Ġjuris diction
Ġdiscre pancies
brist led
ardv ark
Ġpatt ies
ĠENI AC
+ =
: ]
C lean
F T
M B
N ames
[ ][
b ags
b arrow
b rushes
f as
h alf
h iker
l iter
m g
m achine
w aring
z u
ã Ĥ
Ġ ith
re pres
Ġs lud
Ġs illy
Ġf ame
Ġm ating
Ġd type
ic one
Ġh arp
bot s
Ġy elp
Ġy ummy
ĠT un
id ency
ly ss
ĠA ce
ad ays
ur ai
Ġ' ',
ĠP as
Ġ2 78
ĠF ast
Ġ" /"
Ġout lined
ie ge
ĠB ach
Ġpl iers
Ġ3 22
Ġ3 76
Ġle ach
Ġal tered
ĠD un
ĠN ina
ĠE ck
ĠO ak
âĢ ľ
ĠR od
ĠJ esse
ĠL at
ĠL lo
ĠL ump
Ġinc om
Ġover and
ĠU kraine
ob ar
Ġcomp artment
Ġcomp ares
Ġloc ating
10 3
ĠK a
Ġ19 46
Ġacc ented
Ġplay list
ner y
Ġent rances
Ġgroup ing
Ġ18 14
Ġ18 89
Ġlot ions
ĠTo ast
15 3
ex cept
ron ics
Ġ25 8
Ġflu ency
Ġfire arms
Ġexperiment ing
Ġindivid ually
ĠCons ult
Ġnon etheless
Ġcloth s
Ġcult ivated
ĠTw in
Ġarg parse
OR Y
Ġsnow ing
Ġjo ins
Ġ27 2
Ġfast ing
Ġ26 6
Ġ35 7
Ġsuper natural
Ġmathemat icians
Ġdraw ings
Ġ23 8
car bohydr
Ġ29 4
su it
Ġdem ocratic
ĠProduct s
Al though
ĠHill for
ĠIN CORRECT
Ġcivil izations
Ġexcess ively
ĠMain waring
Ġluck y
Ġdemand ing
Ġborder ing
Ġpra irie
ĠArray s
Ġpod ium
Ġterror ists
Americ a
oft he
Ġsyring es
Ġelabor ately
Ġpier ce
Ġsubmit ted
Ġrepeated ly
Ġwit hered
ĠMel issa
Ġgerm inates
Ġdesc ended
ĠMor occo
Ġcock tail
Ġrevolution ary
Ġdeter rents
Ġcorpor ations
ĠSpring field
BLE M
ĠAT M
ĠSU PPOR
Ġproport ions
Ġgem stones
Ġclin ic
Ġaccum ulated
Ġillust rations
Ġcous ins
Ġcasser oles
DEF GHI
sweet ened
Ġaz ure
Ġfen cing
ĠBor is
ĠUnsc rew
Ġthigh s
Ġoverhe ating
ĠRedu ced
Ġkat ana
Ġcamoufl age
STUV WXYZ
Ġtremend ous
ĠSeb ast
Ġmarig olds
Ġgogg les
ĠLump ur
M ain
N ESS
S n
S olution
S uddenly
b ark
b ai
c ull
d ifferent
f iles
m un
n an
p our
s ports
t use
Ġf ancy
is i
Ġan ne
Ġp id
Ġp ension
Ġn ets
ow l
Ġbe ers
ro lled
iv ities
ig ate
il er
ĠC el
Ġsu prem
ĠH ospital
ĠP interest
ĠP ablo
ant ial
ul ents
ol ence
ĠF erd
ĠM ethod
ĠM aldives
ĠB us
Ġab ba
Ġr ou
Ġnot ices
ĠD ream
ĠD estination
ĠE ssential
Ġ4 30
Ġ4 19
ph ilis
Ġtext ured
ia h
Ġph ishing
Ġche at
Ġtra ff
ire ction
Ġtr agedy
ert ation
ĠAn xiety
Ġrest lessness
ps y
Ġob j
Ġcomput ational
Ġstr umming
mat ical
Ġshort en
Ġpass ions
Ġflo ck
br aska
ĠCom ics
Ġmight y
Ġ30 5
Ġident ifier
els on
ĠAr ist
Ġsym biotic
co ffee
Ġgl ory
Ġgl azed
plo ad
Ġresp ite
ĠPl uto
cul ine
Ġmat rices
Ġ40 8
Ġauthor ized
Ġmod es
ĠAll en
He y
Ġport cull
Ġdre w
Ġaff irm
Ġlate x
ĠAd verb
Ġexc use
LE AR
ĠCo ke
Ġ26 2
Ġ35 4
Ġriver bank
Ġ28 4
Ġ28 6
Ġdead line
rest ed
Ġri ots
nam ents
Ġ32 3
Ġcoll ision
ĠRem ain
Ġanaly zed
.']. .
Ġ39 6
ĠAct ive
Ġsummar ies
ĠIN G
Ġcraft sm
ĠJul iet
ĠUt ah
Ġapprox imate
Ġjack ets
Ġvill ain
Ġcompre hend
Ġscul pted
110 11
Ġpreserv es
Ġrob ber
Ġconstitution al
Ġdisagree ment
QU ESTION
Ġdeter ior
Em ma
ĠAC TION
Ġdistrict s
Ġrepet itive
Ġraz ors
Ġinher ited
Ġciv ilians
ĠRad io
ĠPronoun s
ĠBeaut iful
YYYYYYYYYYYYYYYYYYYYYYYYYYYYYYYY YYYYYYYYYYYYYYYYYYYYYYYYYYYYYYYY
Ġlever aging
ĠAdv anced
Ġantib odies
Ġcatac omb
Ġtril ogy
dah lia
Ġinterconnect ed
Ven us
Ġintroduct ory
ĠLlo yd
5 60
D ESC
F riday
S ales
T or
W ar
Y P
c ir
[...]
