{"<|endoftext|>":0,"!":1,"\"":2,"#":3,"$":4,"%":5,"&":6,"'":7,"(":8,")":9,"*":10,"+":11,",":12,"-":13,".":14,"/":15,"0":16,"1":17,"2":18,"3":19,"4":20,"5":21,"6":22,"7":23,"8":24,"9":25,":":26,";":27,"<":28,"=":29,">":30,"?":31,"@":32,"A":33,"B":34,"C":35,"D":36,"E":37,"F":38,"G":39,"H":40,"I":41,"J":42,"K":43,"L":44,"M":45,"N":46,"O":47,"P":48,"Q":49,"R":50,"S":51,"T":52,"U":53,"V":54,"W":55,"X":56,"Y":57,"Z":58,"[":59,"\\":60,"]":61,"^":62,"_":63,"`":64,"a":65,"b":66,"c":67,"d":68,"e":69,"f":70,"g":71,"h":72,"i":73,"j":74,"k":75,"l":76,"m":77,"n":78,"o":79,"p":80,"q":81,"r":82,"s":83,"t":84,"u":85,"v":86,"w":87,"x":88,"y":89,"z":90,"{":91,"|":92,"}":93,"~":94,"¡":95,"¢":96,"£":97,"¤":98,"¥":99,"¦":100,"§":101,"¨":102,"©":103,"ª":104,"«":105,"¬":106,"®":107,"¯":108,"°":109,"±":110,"²":111,"³":112,"´":113,"µ":114,"¶":115,"·":116,"¸":117,"¹":118,"º":119,"»":120,"¼":121,"½":122,"¾":123,"¿":124,"À":125,"Á":126,"Â":127,"Ã":128,"Ä":129,"Å":130,"Æ":131,"Ç":132,"È":133,"É":134,"Ê":135,"Ë":136,"Ì":137,"Í":138,"Î":139,"Ï":140,"Ð":141,"Ñ":142,"Ò":143,"Ó":144,"Ô":145,"Õ":146,"Ö":147,"×":148,"Ø":149,"Ù":150,"Ú":151,"Û":152,"Ü":153,"Ý":154,"Þ":155,"ß":156,"à":157,"á":158,"â":159,"ã":160,"ä":161,"å":162,"æ":163,"ç":164,"è":165,"é":166,"ê":167,"ë":168,"ì":169,"í":170,"î":171,"ï":172,"ð":173,"ñ":174,"ò":175,"ó":176,"ô":177,"õ":178,"ö":179,"÷":180,"ø":181,"ù":182,"ú":183,"û":184,"ü":185,"ý":186,"þ":187,"ÿ":188,"Ā":189,"ā":190,"Ă":191,"ă":192,"Ą":193,"ą":194,"Ć":195,"ć":196,"Ĉ":197,"ĉ":198,"Ċ":199,"ċ":200,"Č":201,"č":202,"Ď":203,"ď":204,"Đ":205,"đ":206,"Ē":207,"ē":208,"Ĕ":209,"ĕ":210,"Ė":211,"ė":212,"Ę":213,"ę":214,"Ě":215,"ě":216,"Ĝ":217,"ĝ":218,"Ğ":219,"ğ":220,"Ġ":221,"ġ":222,"Ģ":223,"ģ":224,"Ĥ":225,"ĥ":226,"Ħ":227,"ħ":228,"Ĩ":229,"ĩ":230,"Ī":231,"ī":232,"Ĭ":233,"ĭ":234,"Į":235,"į":236,"İ":237,"ı":238,"Ĳ":239,"ĳ":240,"Ĵ":241,"ĵ":242,"Ķ":243,"ķ":244,"ĸ":245,"Ĺ":246,"ĺ":247,"Ļ":248,"ļ":249,"Ľ":250,"ľ":251,"Ŀ":252,"ŀ":253,"Ł":254,"ł":255,"Ń":256,"Ġt":257,"Ġa":258,"he":259,"in":260,"re":261,"Ġs":262,"Ġo":263,"Ġthe":264,"en":265,"an":266,"er":267,"Ġw":268,"at":269,"Ġc":270,"on":271,"ou":272,"es":273,"Ġf":274,"is":275,"Ġb":276,"ing":277,"Ġan":278,">:":279,"it":280,"or":281,"Ġp":282,"Ġto":283,"Ġm":284,"ot":285,"Ġd":286,"al":287,"Ġin":288,"ar":289,"Ġof":290,"ed":291,"Ġand":292,"as":293,"um":294,"le":295,"ion":296,"ent":297,"Ġis":298,"ic":299,"Ġg":300,"Ġh":301,"om":302,"uman":303,"et":304,"bot":305,"human":306,"Ġl":307,"Ġy":308,"ĠT":309,"Ġth":310,"ĠI":311,"Ġyou":312,"Ġn":313,"ll":314,"ow":315,"Ġe":316,"Ġre":317,"st":318,"ĠĠ":319,"ut":320,"ct":321,"ve":322,"ce":323,"id":324,"Ġbe":325,"ĠThe":326,"Ġst":327,"ly":328,"Ġon":329,"Ġfor":330,"Ġor":331,"ch":332,"ro":333,"se":334,"Ġare":335,"ay":336,"ld":337,"Ġu":338,"im":339,"am":340,"ith":341,"ir":342,"ĠA":343,"Ġit":344,"Ġthat":345,"her":346,"oo":347,"iv":348,"Ġwith":349,"if":350,"est":351,"Ġ1":352,"ĠW":353,"ak":354,"ĠS":355,"ers":356,"ad":357,"ig":358,"ur":359,"ĠY":360,"Ġas":361,"Ġyour":362,"ation":363,"pe":364,"il":365,"ag":366,"Ġhe":367,"Ġcan":368,"hat":369,"ver":370,"ĠC":371,"Ġ'":372,"Ġcon":373,"Ġsu":374,"qu":375,"ere":376,"ra":377,"Ġne":378,"ate":379,"enten":380,"Ġfr":381,"Ġse":382,"ĠH":383,"ist":384,"Ġdo":385,"Ġmo":386,"ds":387,"ill":388,"nt":389,"ĠP":390,"iven":391,"ru":392,"ould":393,"ĠYou":394,"Ġ2":395,"Ġwas":396,"Ġha":397,"Ġpro":398,"Ġsh":399,"ck":400,"Ġde":401,"Ġwor":402,"ant":403,"ul":404,"ab":405,"ri":406,"ces":407,"ol":408,"Ġwh":409,"Ġfo":410,"ĠF":411,"th":412,"Ġ\"":413,"ine":414,"Ġcom":415,"ain":416,"ĠĠĠĠ":417,"Ġsenten":418,"Ġint":419,"Ġby":420,"ake":421,"Ġch":422,"ple":423,"Ġgiven":424,"Ġout":425,"igh":426,"Ġfrom":427,"ome":428,"Ġex":429,"ie":430,"ive":431,"llow":432,"all":433,"Ġv":434,"ide":435,"ind":436,"nd":437,"ĠM":438,"ther":439,"ĠB":440,"ĠWhat":441,"Ġpl":442,"00":443,"out":444,"Ġab":445,"pp":446,"us":447,"Ġ3":448,"',":449,"pt":450,"res":451,"Ġle":452,"Ġal":453,"Ġte":454,"os":455,"Ġr":456,"Ġat":457,"Ġif":458,"Ġhave":459,"ally":460,"Ġfollow":461,"ight":462,"ort":463,"'s":464,"art":465,"Ġthis":466,"age":467,"ment":468,"ach":469,"ass":470,"Ġnot":471,"Ġwhe":472,"Ġme":473,"Ġk":474,"ions":475,"ask":476,"ter":477,"ĠG":478,"Ġ(":479,"put":480,"ood":481,"ook":482,"get":483,"Ġwe":484,"ĠD":485,"Ġtask":486,"xt":487,"Ġsentence":488,"rou":489,"ĠN":490,"our":491,"Ġqu":492,"Ġso":493,"ud":494,"red":495,"Ġco":496,"end":497,"Ġfollowing":498,"ies":499,"ated":500,"el":501,"ĠE":502,"ep":503,"ĠIn":504,"Ġman":505,"ry":506,"Ġtw":507,"and":508,"ase":509,"Ġabout":510,"ge":511,"ĠO":512,"Ġj":513,"Ġwill":514,"un":515,"one":516,"em":517,"lo":518,"Ġone":519,"irst":520,"Ġus":521,"ess":522,"ice":523,"Ġtwo":524,"ble":525,"__":526,"Ġ=":527,"âĢ":528,"ity":529,"Ġsp":530,"Ġneed":531,"gh":532,"per":533,"ite":534,"ich":535,"ast":536,"ĠĠĠ":537,"Ġdes":538,"Ġshould":539,"Ġhas":540,"ĠR":541,"ĠIt":542,"Ġeach":543,"ame":544,"ect":545,"ace":546,"ke":547,"Ġbest":548,"ĠHow":549,"ci":550,"Ġfirst":551,"Ġthey":552,"Ġcont":553,"Ġway":554,"Ġ4":555,"ure":556,"Ġun":557,"ber":558,"Ġmy":559,"Ġar":560,"ĠJ":561,"ong":562,"Ġall":563,"erm":564,"Ġsome":565,"ype":566,"dd":567,"Ġlist":568,"Ġgo":569,"Ġim":570,"The":571,"Ġother":572,"so":573,"ond":574,"Ġmore":575,"ick":576,"du":577,"Ġinto":578,"Ġget":579,"Ġfind":580,"sw":581,"ĠL":582,"Ġinc":583,"Ġen":584,"Ġsc":585,"ack":586,"int":587,"ount":588,"act":589,"Ġpe":590,"Ġany":591,"les":592,"Ġtheir":593,"ore":594,"lp":595,"Ġdet":596,"Ġlo":597,"Ġhelp":598,"Ġ5":599,"der":600,"Ġmany":601,"Ġmake":602,"Ġli":603,"Ġ[":604,"Ġup":605,"orm":606,"are":607,"Ġthem":608,"ition":609,"ard":610,"Ġpr":611,"Ġthere":612,"Ġbut":613,"cri":614,"iz":615,"able":616,"Ġnum":617,"Ġansw":618,"Ġcl":619,"ail":620,"ring":621,"rue":622,"ff":623,"Ġres":624,"Ġquest":625,"ree":626,"erson":627,"ime":628,"Ġalso":629,"ap":630,"Ġwhich":631,"Ġsuch":632,"iff":633,"ater":634,"ption":635,"ople":636,"ark":637,"Ġdescri":638,"op":639,"arget":640,"ang":641,"Ġfe":642,"ĠIs":643,"Ġword":644,"vie":645,"ild":646,"au":647,"Ġro":648,"own":649,"Ġbu":650,"ult":651,"ents":652,"Ġsec":653,"av":654,"ĠIf":655,"Ġev":656,"de":657,"Ġanswer":658,"Ġpeople":659,"Ġset":660,"Ġwhat":661,"Ġlike":662,"Ġdis":663,"ust":664,"reat":665,"Ġ-":666,"pl":667,"Ġher":668,"ac":669,"Ġdiff":670,"form":671,"Ġbet":672,"ph":673,"Ġmost":674,"ous":675,"ĠYour":676,"ction":677,"ary":678,"Ġpos":679,"we":680,"Ġhow":681,"ile":682,"ue":683,"Ġac":684,"Ġwho":685,"ermine":686,"urn":687,"als":688,"Ġhis":689,"Ġimp":690,"Ġover":691,"very":692,"ene":693,"ĠU":694,"Ġcor":695,"Ġshe":696,"ations":697,"Ġprov":698,"Ġorder":699,"ress":700,"Ġtext":701,"Ġfl":702,"pen":703,"ĠSt":704,"Ġbl":705,"Ġ0":706,"Ġcons":707,"ical":708,"ars":709,"view":710,"aking":711,"ence":712,"ereot":713,"ĠHe":714,"ip":715,"Ġsentences":716,"Ġsm":717,"rect":718,"ereotype":719,"Ġwhen":720,"Ġnew":721,"lated":722,"ĠYes":723,"Ġtime":724,"lud":725,"ĠTh":726,"Ġwork":727,"'m":728,"ob":729,"ting":730,"ance":731,"Ġdiffere":732,"Ġspe":733,"Ġgood":734,"Ġ*":735,"pect":736,"Ġsecond":737,"ans":738,"gs":739,"Ġuse":740,"Ġperson":741,"od":742,"ink":743,"âĢĻ":744,"Ġwhether":745,"Ġdoes":746,"Ġsa":747,"Ġcar":748,"ram":749,"side":750,"Ġmay":751,"Ġwould":752,"ible":753,"ors":754,"ne":755,"Ġlook":756,"ise":757,"ener":758,"Ġinst":759,"Ġ6":760,"ĊĠĠĠ":761,"ings":762,"round":763,"Ġnumber":764,"Ġam":765,"Ġwant":766,"cess":767,"Ġsure":768,"fore":769,"ish":770,"Ġdescription":771,"Ġbec":772,"Ġdetermine":773,"og":774,"Ġpre":775,"Ġthan":776,"\",":777,"Ġquestion":778,"ial":779,"Ġbeen":780,"Ġdec":781,"Ġpo":782,"ĠFor":783,"Ġkn":784,"Ġits":785,"ause":786,"].":787,"way":788,"Ġwords":789,"ular":790,"ough":791,"Ġday":792,"Ġoff":793,"ia":794,"Ġinclud":795,"lease":796,"'.":797,"Ġinform":798,"alse":799,"ween":800,"up":801,"hes":802,"Ġbetween":803,"related":804,"Ġstring":805,"ĊĠĠĠĠ":806,"Ġph":807,"its":808,"ddition":809,"Ġapp":810,"ates":811,"ext":812,"'t":813,"ctions":814,"Ġcould":815,"erv":816,"Ġwater":817,"Ġstart":818,"Ġcol":819,"alk":820,"Ġlong":821,"entence":822,"Ġdid":823,"\".":824,"Ġche":825,"Ġinformation":826,").":827,"Ġcomm":828,"TI":829,"ory":830,"Ġper":831,"Ġwere":832,"Ġcomp":833,"Ġmu":834,"ons":835,"bs":836,"Ġ**":837,"ound":838,"Ġbefore":839,">>":840,"ning":841,"Ġad":842,"alth":843,"ĠWh":844,"oth":845,"line":846,"Ġpart":847,"Ġoutput":848,"Ġdi":849,"Ġbr":850,"..":851,"assage":852,"##":853,"Ġ<":854,"Ġtarget":855,"ft":856,"ign":857,"Ġwr":858,"Ġ8":859,"Ġthen":860,"Ġplace":861,"VE":862,"),":863,"Ġag":864,"ĠThis":865,"Ġreview":866,"Ġdifferent":867,"ating":868,"Ġhad":869,"ord":870,"Ġjob":871,"rough":872,"Ġ$":873,"Ġ7":874,"Ġno":875,"Ġmuch":876,"po":877,"Ġunrelated":878,"Ġye":879,"ax":880,"Ġtry":881,"fter":882,"ments":883,"Ġret":884,"arch":885,"Ġscene":886,"Ġused":887,"Ġtra":888,"ath":889,"Ġtake":890,"Ġmin":891,"Ġcorrect":892,"air":893,"Ġusing":894,"Ġgr":895,"com":896,"ject":897,"Ġcount":898,"ify":899,"Ġform":900,"Ġ['":901,"Ġcontain":902,"eg":903,"Ġcre":904,"raph":905,"Ġsy":906,"Ġru":907,"Ġmed":908,"lect":909,"Ġfood":910,"ank":911,"Ġrel":912,"ĠAddition":913,"Ġloc":914,"ĠAdditionally":915,"Ġsmall":916,"TIVE":917,"Ġhealth":918,"oh":919,"ful":920,"yp":921,"sible":922,"other":923,"ren":924,"ool":925,"ily":926,"Ġimport":927,"te":928,"Ġprovid":929,"wn":930,"Ġprodu":931,"Ġmark":932,"ased":933,"Ġ10":934,"nder":935,"ĠGiven":936,"Ġ9":937,"ample":938,"Ġinv":939,"Ġbook":940,"Ġchar":941,"Ġval":942,"Ġread":943,"ade":944,"eps":945,"ict":946,"Ġthrough":947,"Ġem":948,"Ġke":949,"ire":950,"ten":951,"Ġhome":952,"Ġimportant":953,"ructions":954,"Ġpar":955,"cial":956,"ange":957,"ices":958,"eth":959,"ered":960,"Ġtr":961,"redi":962,"Ġknow":963,"ĠCh":964,"lf":965,"Ġserv":966,"Ġwhile":967,"Ġunder":968,"ert":969,"ĠâĢ":970,"Ġgener":971,"vel":972,"Ġant":973,"ys":974,"Ġbecause":975,"Ġask":976,"Ġreg":977,"ĠPlease":978,"Ġpie":979,"ative":980,"Ġonly":981,"Ġpossible":982,"ĠCan":983,"ific":984,"rees":985,"Ġ20":986,"ern":987,"ities":988,"Ġonline":989,"Ġfun":990,"Ġlar":991,"10":992,"Ġfri":993,"ub":994,"hen":995,"agraph":996,"ĠAn":997,"ĠThere":998,"Ġback":999,"Ġsl":1000,"ider":1001,"ract":1002,"Ġtype":1003,"lass":1004,"Ġwall":1005,"Ġsk":1006,"Ġreturn":1007,"Ġrem":1008,"ĠK":1009,"ames":1010,"nce":1011,"ull":1012,"ian":1013,"Ġra":1014,"ving":1015,"Ġthree":1016,"Ġdr":1017,"ĠRe":1018,"Ġrest":1019,"cc":1020,"Ġname":1021,"____":1022,"ĠTrue":1023,"az":1024,"mer":1025,"pends":1026,"Ġdepends":1027,"12":1028,"Ġvery":1029,"ohn":1030,"ove":1031,"Ġsug":1032,"Ġtyp":1033,"Ġtrue":1034,"Ġstate":1035,"Ġfam":1036,"Ġafter":1037,"Ġinclude":1038,"How":1039,"Ġstud":1040,"Ġact":1041,"ious":1042,"Ġ{":1043,"Ġ+":1044,"utput":1045,"Ġsame":1046,"ell":1047,"Ġcode":1048,"stereotype":1049,"ray":1050,"Ġdown":1051,"Ġcharact":1052,"Ġmain":1053,"ather":1054,"'].":1055,"itive":1056,"ins":1057,"Ġbo":1058,"Ġ19":1059,"Ġart":1060,"oney":1061,"Ġcup":1062,"Ġoutside":1063,"eng":1064,"Ġacc":1065,"Ġthese":1066,"iment":1067,"ĠNo":1068,"ize":1069,"ens":1070,"Ġchild":1071,"Ġinteg":1072,"hed":1073,"Ġexper":1074,"Ġwhere":1075,"Ġaround":1076,"ĠShe":1077,"Ġca":1078,"ower":1079,"day":1080,"Ġbel":1081,"ng":1082,"ables":1083,"Ġstereotype":1084,"Ġve":1085,"Ġcle":1086,"ps":1087,"Ġcomple":1088,"Ġbre":1089,"ats":1090,"Ġparagraph":1091,"Ġwell":1092,"oun":1093,"ĠThat":1094,"akes":1095,"ingredi":1096,"Ġap":1097,"Ġevent":1098,"Ġevery":1099,"Ġinstructions":1100,"Ġsub":1101,"here":1102,"Ġeg":1103,"ither":1104,"Ġclass":1105,"Ġins":1106,"Ġbus":1107,"Ġingredi":1108,"lic":1109,"ages":1110,"Ġdetail":1111,"Ġatt":1112,"Ġgreat":1113,"bers":1114,"Ġplay":1115,"Ġquestions":1116,"Ġ12":1117,"ĠSentence":1118,"Ġarea":1119,"ident":1120,"ven":1121,"Ġwalk":1122,"ss":1123,"Ġmoney":1124,"ines":1125,"Ġsal":1126,"Ġminut":1127,"Ġhour":1128,"Ġtot":1129,"Ġsee":1130,"Ġdog":1131,"Ġanti":1132,"ied":1133,"iver":1134,"ix":1135,".,":1136,"Ġlooking":1137,"Ġcall":1138,"'re":1139,"arn":1140,"Ġagain":1141,"Ġgrou":1142,"Qu":1143,"Ġ<<":1144,"self":1145,"ows":1146,"ems":1147,"inally":1148,"ential":1149,"Ġcommon":1150,"ĠTarget":1151,"Ġrespect":1152,"ics":1153,"gan":1154,"Ġlet":1155,"ically":1156,"ited":1157,"Ġadd":1158,"Ġmean":1159,"Ġcheck":1160,"ĠMake":1161,"ved":1162,"ends":1163,"Ġcur":1164,"ffect":1165,"ork":1166,"Ġav":1167,"Ġref":1168,"ures":1169,"ĠThey":1170,"Ġtop":1171,"ouse":1172,"Ġpoint":1173,"arm":1174,"ets":1175,"Ġplan":1176,"Ġide":1177,"Ġproduct":1178,"Ġnat":1179,"Ġeither":1180,"Ġbuild":1181,"any":1182,"Ġtotal":1183,"Ġob":1184,"Ġminutes":1185,"ash":1186,"ĠĠĠĠĠĠĠĠ":1187,"ural":1188,"gether":1189,"ĠUn":1190,"ĠV":1191,"Ġsteps":1192,"Ġhim":1193,"Ġcr":1194,"ĊĠĠĠĠĠĠĠ":1195,"oc":1196,"iss":1197,"iness":1198,"ner":1199,"Ġsum":1200,"Ġline":1201,"Ġrese":1202,"hip":1203,"Ġcomput":1204,"Ġprovide":1205,"0000":1206,"ok":1207,"imal":1208,"att":1209,"Ġent":1210,"Ġexp":1211,"ĠDo":1212,"ants":1213,"'ve":1214,"duce":1215,"Ġlight":1216,"GA":1217,"ctor":1218,"Ġgre":1219,"Ġprovided":1220,"ced":1221,"ength":1222,"Ġsur":1223,"port":1224,"Ġwrit":1225,"pport":1226,"Ġi":1227,"Ġpassage":1228,"uring":1229,"Ġwebs":1230,"Ġprog":1231,"Ġinside":1232,"20":1233,"ves":1234,"erg":1235,"Ġtogether":1236,"Ġconsider":1237,"Ġfound":1238,"Ġunt":1239,"ric":1240,"Ġpot":1241,"Ġhapp":1242,"Ġgoing":1243,"ues":1244,"Ġthink":1245,"Ġcreate":1246,"ending":1247,"Ġele":1248,"Ġmade":1249,"Ġfin":1250,"],":1251,"atch":1252,"ives":1253,"ĠOutput":1254,"ands":1255,"ual":1256,"50":1257,"vers":1258,"EGA":1259,"Ġuntil":1260,"EGATIVE":1261,"comm":1262,"Ġadv":1263,"estion":1264,"Ġfeel":1265,"oose":1266,"Ġair":1267,"000":1268,"Ġsol":1269,"Ġdon":1270,"chool":1271,"ĠJohn":1272,"Ġind":1273,"Ġright":1274,"Ġmil":1275,"ote":1276,"Ġcost":1277,"Ġingredients":1278,"Ġgroup":1279,"ew":1280,"Ġcontains":1281,"Ġkeep":1282,"Ġstr":1283,"ever":1284,"Ġfamily":1285,"Ġequ":1286,"ife":1287,"Ġpositive":1288,"ense":1289,"aw":1290,"Ġbuy":1291,"erc":1292,"Ġdetailed":1293,"Ġregular":1294,"Ġcook":1295,"Ġinput":1296,"Ġtell":1297,"Ġspec":1298,"Ġboth":1299,"Ġpop":1300,"Ġlocal":1301,"mat":1302,"ĠFinally":1303,"ways":1304,"ek":1305,"Ġeven":1306,"Ġdescrib":1307,"Ġsit":1308,"Ġsom":1309,"Ġvar":1310,"imes":1311,"Ġbeing":1312,"ty":1313,"Ġlarge":1314,"))":1315,"Ġyears":1316,"Ġdeg":1317,"Ġfunction":1318,"Ġroom":1319,"Ġhigh":1320,"Ġsent":1321,"Ġprint":1322,"ger":1323,"Ġsaf":1324,"Ġresearch":1325,"Ġconc":1326,"Ġcare":1327,"ired":1328,"Ġtest":1329,"ases":1330,"rite":1331,"Ġrec":1332,"Ġways":1333,"aur":1334,"Ġtypes":1335,"ale":1336,"Ġworld":1337,"ost":1338,"Ġshort":1339,"Ġsim":1340,"In":1341,"Ġservice":1342,"Ġel":1343,"Question":1344,"cus":1345,"Ġpass":1346,"blem":1347,"No":1348,"led":1349,"Ġx":1350,"old":1351,"Ġflo":1352,"Ġeggs":1353,"Ġsugar":1354,"ĠFalse":1355,"Ġreci":1356,"Ġmon":1357,"ah":1358,"Ġpres":1359,"erest":1360,"Ġbusiness":1361,"ling":1362,"ose":1363,"icle":1364,"Ġnumbers":1365,"--":1366,"Ġ:":1367,"Ġschool":1368,"Ġocc":1369,"Ġhours":1370,"Ġsle":1371,"Ġincre":1372,"Ġfriends":1373,"Ġproblem":1374,"Ġcalled":1375,"Ġdef":1376,"Ġdoctor":1377,"ety":1378,"Ġrecomm":1379,"Ġdep":1380,".\"":1381,"Ġbetter":1382,"ards":1383,"Ġmaking":1384,"ined":1385,"ata":1386,"Ġhaving":1387,"Ġ18":1388,"iving":1389,"oy":1390,"Ġinterest":1391,"br":1392,"Ġhere":1393,"Ġidea":1394,"Ġpain":1395,"Ġmus":1396,"Ġlength":1397,"Ġexperi":1398,"to":1399,"Ġactiv":1400,"Ġrequ":1401,"SI":1402,"Ġrecommend":1403,"Ġopt":1404,"ution":1405,"Ġsentiment":1406,"stand":1407,"arr":1408,"Ġown":1409,"ĠFind":1410,"aces":1411,"Ġext":1412,"wise":1413,"meric":1414,"Ġrun":1415,"Ġbene":1416,"Sentence":1417,"Ġleft":1418,"ething":1419,"Ġsyst":1420,"Ġfact":1421,"Ġjust":1422,"Ġcharacter":1423,"arth":1424,"ually":1425,"Ġgive":1426,"Ġvis":1427,"Ġprocess":1428,"Ġpair":1429,"cks":1430,"Ġalways":1431,"Ġlot":1432,"Ġinf":1433,"ĠWrite":1434,"Ġend":1435,"Ġpol":1436,"ones":1437,"Ġside":1438,"Ġsomething":1439,"Ġold":1440,"ĠSome":1441,"Ġsequ":1442,"Ġprogram":1443,"ts":1444,"Ġagainst":1445,"ody":1446,"cy":1447,"lop":1448,"Ġveget":1449,"Ġlead":1450,"Ġ15":1451,"Ġwent":1452,"Ġwithout":1453,"amp":1454,"Ġdist":1455,"Ġgetting":1456,"orn":1457,"ĠTo":1458,"sh":1459,"ĠGener":1460,"Ġvalue":1461,"olog":1462,"Ġpieces":1463,"Ġeat":1464,"ec":1465,"Ġris":1466,"Ġeffect":1467,"Ġopen":1468,"Ġhead":1469,"Ġobject":1470,"gest":1471,"gative":1472,"True":1473,"ĠAmeric":1474,"Ġcent":1475,"ches":1476,"ified":1477,"oid":1478,"par":1479,"Ġinvest":1480,"Ġproper":1481,"Ġfore":1482,"ources":1483,"read":1484,"<<":1485,"ont":1486,"ĠText":1487,"Ġrestaur":1488,"Ġtable":1489,"Ġdegrees":1490,"pr":1491,"ĠPro":1492,"Ġnatural":1493,"Ġexample":1494,"ĠCom":1495,"Ġunderstand":1496,"ted":1497,"Ġwalls":1498,"ave":1499,"Ġduring":1500,"Ġstre":1501,"angu":1502,"ĠWe":1503,"ield":1504,"Ġoil":1505,"Ġcome":1506,"Ġblack":1507,"Ġlearn":1508,"15":1509,"bb":1510,"ries":1511,"Ġwind":1512,"ness":1513,"Ġappe":1514,"Ġbooks":1515,"vent":1516,"ital":1517,"Ġcat":1518,"Ġrelations":1519,"Ġclean":1520,"Ġsever":1521,"iqu":1522,"Ġtax":1523,"Ġwom":1524,"Ġarray":1525,"arning":1526,"St":1527,"Ġ____":1528,"velop":1529,"Ġnever":1530,"Ġcal":1531,"Ġweek":1532,"Ġimpro":1533,"Yes":1534,"Ġfill":1535,"Ġblo":1536,"Ġsign":1537,"ross":1538,"rent":1539,"Ġsupport":1540,"Ġfour":1541,"ized":1542,"Ġed":1543,"Ġprof":1544,"Ġsun":1545,"Ġbased":1546,"ier":1547,"ists":1548,"Ġeas":1549,"Ġblank":1550,"iron":1551,"ĠClass":1552,"Ġtoo":1553,"the":1554,"Ġdrink":1555,"ertain":1556,"ee":1557,"Ġoper":1558,"Ġbed":1559,"OSI":1560,"Ġreviews":1561,"Ġseveral":1562,"Ġreally":1563,"Ġpur":1564,"Ġcand":1565,"OSITIVE":1566,"Ġresult":1567,"Ġcomplete":1568,"Ġgu":1569,"work":1570,"ird":1571,"rop":1572,"Ġlangu":1573,"Ġstay":1574,"ility":1575,"Ġfloor":1576,"Ġhouse":1577,"Ġdish":1578,"lish":1579,"Ġtri":1580,"Ġrelationship":1581,"Ġquick":1582,"err":1583,"Ġlast":1584,"Ġintegers":1585,"atter":1586,"Ġinter":1587,"Ġorgan":1588,"Ġneeds":1589,"False":1590,"verage":1591,"Ġnear":1592,"Ġtimes":1593,"Ġbenef":1594,"Ġlit":1595,"Ġsleep":1596,"io":1597,"Ġcaus":1598,"Ġstatement":1599,"Ġass":1600,"Ġhealthy":1601,"Ġrep":1602,"ulti":1603,"ĠEng":1604,"Ġfew":1605,"ining":1606,"Ġtaking":1607,"Ġsto":1608,"Ġaut":1609,"yth":1610,"ills":1611,"Ġreduce":1612,"tle":1613,"aring":1614,"Ġweight":1615,"Ġspace":1616,"Ġwood":1617,"Ġsay":1618,"Ġdata":1619,"Ġmeaning":1620,"####":1621,"Ġrecipe":1622,"ib":1623,"Ġsw":1624,"ĠClassify":1625,"chn":1626,"Ġtrying":1627,"Ġmight":1628,"Ġflour":1629,"oods":1630,"Ġnegative":1631,"def":1632,"Ġbaking":1633,"Ġnight":1634,"Ġsalt":1635,"ĠUnited":1636,"ared":1637,"Ġstore":1638,"ony":1639,"ĠWhen":1640,"Ġ30":1641,"Ġcho":1642,"Ġbreak":1643,"Ġsystem":1644,"Ġident":1645,"Ġground":1646,"Ġyear":1647,"Ġcond":1648,"Ġoptions":1649,"Ġrestaurant":1650,"icken":1651,"Ġlife":1652,"Ġcompany":1653,"Ġmother":1654,"Ġitems":1655,"Ġwebsite":1656,"Ġgram":1657,"Ġpract":1658,"Ġbody":1659,"Ġcap":1660,"ional":1661,"Ġspecific":1662,"Ġdays":1663,"poon":1664,"Ġcurrent":1665,"Ġyourself":1666,"Ġnext":1667,"Ġgenerate":1668,"Ġwhite":1669,"Ġexerc":1670,"Ġamount":1671,"Ġlevel":1672,"etic":1673,"Ġdevelop":1674,"Ġaway":1675,"Ġthings":1676,"Ġlab":1677,"Ġoften":1678,"Ġlanguage":1679,"Ġdifference":1680,"vern":1681,"Ġtrees":1682,"oms":1683,"ĠHere":1684,"Ġpay":1685,"udget":1686,"Ġenough":1687,"ef":1688,"Ġtables":1689,"ithm":1690,"ĠĠĠĠĠĠĠ":1691,"ately":1692,"Ġbuilding":1693,"Ġchoose":1694,"Ġpoints":1695,"Ġpiece":1696,"ĠDet":1697,"thing":1698,"11":1699,"ex":1700,"Ġsing":1701,"ĠAl":1702,"Ġclo":1703,"ĠGenerate":1704,"()":1705,"Ġsn":1706,"Ġsafe":1707,"Ġtrans":1708,"Ġmust":1709,"Ġtem":1710,"Ġneeded":1711,"avor":1712,"Ġprot":1713,"RE":1714,"Ġmet":1715,"Ġtalk":1716,"ython":1717,"Ġcreat":1718,"Ġstrings":1719,"Ġbudget":1720,"els":1721,"Ġcust":1722,"ication":1723,"Ġplease":1724,"ational":1725,"Ġbrown":1726,"ĠPerson":1727,"Ġanother":1728,"Ġphr":1729,"Ġbutter":1730,"Ġpa":1731,"Ġdesign":1732,"Ġsaid":1733,"Ġment":1734,"Ġtechn":1735,"ĠWhy":1736,"Ġpopular":1737,"oes":1738,"Ġwide":1739,"Ġthough":1740,"Ġsomeone":1741,"\"\"":1742,"uation":1743,"75":1744,"Ġarticle":1745,"ergy":1746,"Ġotherwise":1747,"Ġput":1748,"Ġfield":1749,"ĠWhere":1750,"ĠOne":1751,"ĠDetermine":1752,"ron":1753,"Ġglass":1754,"liver":1755,"Ġthose":1756,"Ġmar":1757,"Ġhair":1758,"ĠWhich":1759,"Ġincluding":1760,"Ġstudy":1761,"ĠAr":1762,"):":1763,"Ġ11":1764,"Ġable":1765,"ruction":1766,"Ġeng":1767,"ateg":1768,"Ġchang":1769,"ision":1770,"Ġsym":1771,"Ġrisk":1772,"Ġour":1773,"ient":1774,"ality":1775,"Ġavail":1776,"Ġfocus":1777,"Ġcity":1778,"Ex":1779,"rible":1780,"fort":1781,"Ġaverage":1782,"yle":1783,"ĠSo":1784,"cer":1785,"Ġbelow":1786,"Ġturn":1787,"Ġinteger":1788,"ead":1789,"Ġfalse":1790,"Ġdiet":1791,"Ġstill":1792,"Ġbro":1793,"ese":1794,"uc":1795,"Ġexperience":1796,"Ġpath":1797,"Ġred":1798,"ords":1799,"Ġchildren":1800,"joy":1801,"Ġtown":1802,"Ġlongest":1803,"Ġtree":1804,"ites":1805,"Ġdark":1806,"Ġwritten":1807,"Ġenergy":1808,"Ġoffer":1809,"ĠHowever":1810,"ĠWho":1811,"Ġfriend":1812,"Ġkind":1813,"elp":1814,"Ġeating":1815,"iling":1816,"Ġwrite":1817,"Ġoccur":1818,"inal":1819,"Ġregularly":1820,"30":1821,"Ġsense":1822,"Ġmem":1823,"Ġcomputer":1824,"Ġallow":1825,"Ġgreen":1826,"pper":1827,"Ġheard":1828,"Ġavailable":1829,"cing":1830,"Ġter":1831,"Ġmeans":1832,"lev":1833,"Ġarr":1834,"Ġoven":1835,"Ġtow":1836,"âĢĿ":1837,"rit":1838,"ĠEarth":1839,"Text":1840,"ĠNew":1841,"Ġalong":1842,"pping":1843,"co":1844,"ĠâĢľ":1845,"Ġinspect":1846,"Ġgrow":1847,"Ġhuman":1848,"Ġsqu":1849,"Ġmilk":1850,"ters":1851,"Ġser":1852,"ories":1853,"Ġcustom":1854,"Ġnow":1855,"40":1856,"Ġgl":1857,"Ġchicken":1858,"ĠNEGATIVE":1859,"Ġfree":1860,"ye":1861,"19":1862,"60":1863,"Ġtreat":1864,"Ġteas":1865,"ĠFr":1866,"ĠPython":1867,"Ġsoft":1868,"eds":1869,"light":1870,"Ġmonth":1871,"ips":1872,"Ġcase":1873,"ral":1874,"Ġcause":1875,"Ġelect":1876,"Ġpan":1877,"Ġhappen":1878,"Ġlove":1879,"ĠStates":1880,"ĠJames":1881,"Ġhand":1882,"Ġleast":1883,"orth":1884,"Ġprofess":1885,"Ġear":1886,"ĠSh":1887,"Ġvari":1888,"Ġcolle":1889,"Ġbugs":1890,"ute":1891,"Ġvegetables":1892,"Ġfru":1893,"Ġmakes":1894,"vert":1895,"Ġsearch":1896,"alf":1897,"Ġhard":1898,"abc":1899,"Ġdirect":1900,"Ġevents":1901,"ince":1902,"nter":1903,"land":1904,"Ġwild":1905,"Ġselect":1906,"Ġ}":1907,"ĠAs":1908,"Ġdoor":1909,"Ġcomb":1910,"ots":1911,"let":1912,"Ġcontact":1913,"ĠYelp":1914,"Ġmarket":1915,"Ġlow":1916,"ides":1917,"Ġterm":1918,"((":1919,"Ġcolor":1920,"ffic":1921,"ium":1922,"plo":1923,"Ġcountry":1924,"Ġcharacters":1925,"Ġgoals":1926,"ĠSe":1927,"ason":1928,"cessary":1929,"ublic":1930,"ĠEnglish":1931,"Ġcertain":1932,"Ġcold":1933,"enty":1934,"ĠQuestion":1935,"ism":1936,"ES":1937,"outh":1938,"Ġresp":1939,"Ġmulti":1940,"ik":1941,"hor":1942,"Ġstep":1943,"Ġsocial":1944,"Ġmusic":1945,"Ġfil":1946,"Ġpartic":1947,"Ġchange":1948,"Ġasked":1949,"ĠBe":1950,"imals":1951,"Ġactivities":1952,"ĠPassage":1953,"Ġsingle":1954,"inner":1955,"Ġleav":1956,"of":1957,"Ġless":1958,"Ġwarm":1959,"25":1960,"not":1961,"Ġterrible":1962,"ember":1963,"Ġdiv":1964,"ĠSp":1965,"Ġstarted":1966,"Ġhist":1967,"Ġ16":1968,"Ġ/":1969,"ĠPl":1970,"TE":1971,"Ġgot":1972,"Ġknown":1973,"by":1974,"Ġphys":1975,"Ġ13":1976,"Ġresources":1977,"Ġsaw":1978,"Ġcontext":1979,"ON":1980,"Ġorig":1981,"Ġce":1982,"oss":1983,"rain":1984,"ording":1985,"hing":1986,"row":1987,"']":1988,"ently":1989,"agram":1990,"ithmetic":1991,"ature":1992,"irt":1993,"Ġmovie":1994,"Ġstory":1995,"man":1996,"abet":1997,"reen":1998,"Ġspecial":1999,"ully":2000,"Ġerr":2001,"Ġrelated":2002,"Ġarithmetic":2003,"45":2004,"ished":2005,"nect":2006,"print":2007,"ug":2008,"Ġmen":2009,"Ġpow":2010,"osed":2011,"Ġfinan":2012,"Ġidentify":2013,"ane":2014,"ression":2015,"ĠMy":2016,"Ġtravel":2017,"Ġpotential":2018,"und":2019,"Ġreal":2020,"pped":2021,"Ġdecimal":2022,"con":2023,"Ġenjoy":2024,"lling":2025,"POSITIVE":2026,"Ġsetting":2027,"Ġanimals":2028,"ination":2029,"Ġdoing":2030,"Ġlower":2031,"Ġfall":2032,"Ġbeh":2033,"ains":2034,"ott":2035,"ĠCon":2036,"Ġshow":2037,"azy":2038,"cul":2039,"Ġprep":2040,"itc":2041,"Ġkey":2042,"Ġlabel":2043,"ĠPr":2044,"my":2045,"ĠHead":2046,"ware":2047,"Ġheat":2048,"itions":2049,"ĠStart":2050,"Ġblue":2051,"Ġfavor":2052,"Ġimprove":2053,"Ġproducts":2054,"Ġstand":2055,"Ġmat":2056,"Ġpast":2057,"Ġsize":2058,"Ġlikely":2059,"Ġpaper":2060,"Ġbelie":2061,"ume":2062,"Ġdisc":2063,"Ġpractice":2064,"be":2065,"ĠInst":2066,"Ġmiss":2067,"ĊĠĠĠĠĠĠĠĠĠĠĠ":2068,"Ġplenty":2069,"ike":2070,"Ġbow":2071,"Ġsepar":2072,"ĠEnter":2073,"Ġla":2074,"amed":2075,"Ġmove":2076,"tt":2077,"Ġplaces":2078,"100":2079,"mage":2080,"Ġ.":2081,"Ġpick":2082,"Ġcred":2083,"Ġstone":2084,"Ġteaspoon":2085,"Ġgra":2086,"ĠOliver":2087,"16":2088,"ument":2089,"Ġpresent":2090,"18":2091,"ruct":2092,"ĠCl":2093,"viron":2094,"Ġimage":2095,"sp":2096,"inc":2097,"Ġsand":2098,"Ġstudents":2099,"Ġgame":2100,"ique":2101,"Ġinvol":2102,"ization":2103,"Ġaccount":2104,"Sample":2105,"ses":2106,"cept":2107,"Ġreach":2108,"Ġfoods":2109,"Ġprotect":2110,"Ġnecessary":2111,"Ġ\"\"\"":2112,"Ġbas":2113,"Ġphone":2114,"Ġlive":2115,"lls":2116,"Ġconf":2117,"ilar":2118,"Ġ40":2119,"atures":2120,"enn":2121,"Ġwa":2122,"Ġsuc":2123,"Ġwoman":2124,"Ġsci":2125,"Ġvac":2126,"Ġ17":2127,"NEGATIVE":2128,"Ġconve":2129,"ids":2130,"Ġjum":2131,"Ġavoid":2132,"Ġenviron":2133,"Ġbir":2134,"Ġslow":2135,"ward":2136,"ĊĠ":2137,"Ġage":2138,"idered":2139,"Ġmater":2140,"Ġpower":2141,"Ġ100":2142,"Ġsav":2143,"Ġtoday":2144,"ided":2145,"umn":2146,"ĠOnce":2147,"Ġrepl":2148,"Ġnut":2149,"14":2150,"Ġmeet":2151,"gle":2152,"Ġreading":2153,"Ġlazy":2154,"33":2155,"Ġadvice":2156,"Ġelse":2157,"Ġice":2158,"Ġhot":2159,"Ġlocation":2160,"ĠAfter":2161,"Ġsurf":2162,"Ġenvironment":2163,"resp":2164,"Ġauthor":2165,"Ġgrammat":2166,"Ġworking":2167,"Ġalph":2168,"arent":2169,"ĠUse":2170,"Ġconsidered":2171,"Ġcapital":2172,"Ġcour":2173,"Ġfavorite":2174,"Ġrock":2175,"ape":2176,"Ġdig":2177,"Ġcomfort":2178,"Ġrepres":2179,"ounds":2180,"Ġwithin":2181,"Ġemplo":2182,"Ġlittle":2183,"ĠSet":2184,"Ġthing":2185,"Ġheld":2186,"Ġexpect":2187,"ĠThen":2188,"Ġothers":2189,"Ġcommun":2190,"icult":2191,"val":2192,"string":2193,"ived":2194,"Ġflow":2195,"poons":2196,"Ġcream":2197,"Ġskills":2198,"ĠâĢĺ":2199,"ials":2200,"Ġconsult":2201,"iction":2202,"ming":2203,"Ġrid":2204,"Ġshop":2205,"onym":2206,"ivers":2207,"Ġmax":2208,"Ġbeg":2209,"itchen":2210,"Ġlearning":2211,"Ġbenefits":2212,"ĠPre":2213,"Ġoption":2214,"Ġplants":2215,"Ġacross":2216,"Ġelements":2217,"Ġfre":2218,"Ġ25":2219,"ixt":2220,"Ġroad":2221,"Ġletter":2222,"Ġanswers":2223,"Ġaccording":2224,"Ġsimilar":2225,"Ġpowder":2226,"less":2227,"Ġmoon":2228,"Ġapples":2229,"ator":2230,"Ġconst":2231,"pose":2232,"Ġplant":2233,"Ġaddition":2234,"raw":2235,"Ġenc":2236,"Ġkitchen":2237,"Ġbowl":2238,"Ġste":2239,"ropri":2240,"sure":2241,"Ġhistory":2242,"Ġanimal":2243,"Ġfeet":2244,"Ġtemper":2245,"Ġdifficult":2246,"ĠUS":2247,"OT":2248,"Ġequal":2249,"aut":2250,"Ġcorresp":2251,"Ġgovern":2252,"tain":2253,"Ġtall":2254,"Th":2255,"Ġsuccess":2256,"Ġeffective":2257,"Ġlaw":2258,"Ġletters":2259,"Ġperform":2260,"cle":2261,"ĠReview":2262,"ology":2263,"Ġheart":2264,"Ġdefin":2265,"Ġ14":2266,"Ġclear":2267,"iting":2268,"Ġdry":2269,"Ġconnect":2270,"Ġfinancial":2271,"Ġsave":2272,"Ġsuggest":2273,"Ġhang":2274,"ze":2275,"Ġwanted":2276,"Ġsequence":2277,"Ġpull":2278,"Ġremove":2279,"Ġabove":2280,"orld":2281,"Ġdise":2282,"ana":2283,"Ġgard":2284,"Ġexpl":2285,"Ġgold":2286,"app":2287,"Ġvalid":2288,"Ġusually":2289,"ĠAdd":2290,"Ġmor":2291,"Ġnames":2292,"Ġcredit":2293,"ators":2294,"John":2295,"Ġ24":2296,"Ġwalked":2297,"Ġsil":2298,"Ġanything":2299,"It":2300,"yes":2301,"ĠOn":2302,"Ġcountries":2303,"Ġbecome":2304,"Ġrelev":2305,"ried":2306,"onds":2307,"fully":2308,"Passage":2309,"Ġfather":2310,"ĠEach":2311,"Ġver":2312,"Ġswe":2313,"Ġhalf":2314,"ering":2315,"ptoms":2316,"me":2317,"Ġskin":2318,"Ġmultiple":2319,"AL":2320,"Ġdeep":2321,"Ġgar":2322,"Ġface":2323,"Ġcontro":2324,"Ġcard":2325,"ĠRead":2326,"Ġfit":2327,"ixture":2328,"Ġstress":2329,"Ġcups":2330,"Ġwebsites":2331,"Ġonce":2332,"Ġappropri":2333,"ĠAmerican":2334,"Ġwriting":2335,"Ġfollows":2336,"ĠInd":2337,"asing":2338,"Ġcontin":2339,"Ġiss":2340,"Ġlim":2341,"Ġtypically":2342,"rodu":2343,"Ġaccess":2344,"Ġunderstanding":2345,"Ġma":2346,"Ġfur":2347,"Ġflu":2348,"Ġincrease":2349,"ĠEx":2350,"Ġ,":2351,"Ġtru":2352,"bo":2353,"Ġchanges":2354,"Ġconvers":2355,"ina":2356,"Ġfish":2357,"Ġanagram":2358,"ior":2359,"ency":2360,"Ġlives":2361,"Ġ|":2362,"ivid":2363,"Ġalphabet":2364,"Ġservices":2365,"ourne":2366,"heat":2367,"oint":2368,"Ġtrou":2369,"rib":2370,"idd":2371,"erness":2372,"13":2373,"Ġphrase":2374,"PE":2375,"entences":2376,"Ġdate":2377,"Ġbig":2378,"Ġegg":2379,"Ġest":2380,"Ġpurch":2381,"Ġwooden":2382,"Ġland":2383,"Ġmixture":2384,"Ġstrong":2385,"Ġcontent":2386,"Ġexercise":2387,"Ġsituation":2388,"Ġsince":2389,"Ġprofessional":2390,"agn":2391,"ĠOther":2392,"Ġdecide":2393,"Ġheav":2394,"Ġlevels":2395,"ĠInput":2396,"Ġclose":2397,"Ġgarden":2398,"ges":2399,"Ġwalking":2400,"Ġgovernment":2401,"ley":2402,"llo":2403,"swer":2404,"Output":2405,"Ġpublic":2406,"Ġdidn":2407,"Ġmod":2408,"ffee":2409,"Ġhig":2410,"Ġprice":2411,"Ġtatt":2412,"Ġsort":2413,"Ġappear":2414,"fl":2415,"Ġpat":2416,"ged":2417,"sequ":2418,"Ġ_____":2419,"ĠAre":2420,"Ġfactors":2421,"Ġcut":2422,"Ġ200":2423,"Ġplaying":2424,"Ġsymptoms":2425,"Ġcir":2426,"Ġwin":2427,"YY":2428,"17":2429,"Ġintern":2430,"Ġclassify":2431,"Ġwilderness":2432,"ison":2433,"Ġpost":2434,"inated":2435,"resh":2436,"Ġwatch":2437,"soci":2438,"augh":2439,"ls":2440,"idge":2441,"Ġmeth":2442,"Ġceiling":2443,"Ġcenter":2444,"Ġphysical":2445,"ift":2446,"Ġess":2447,"Ġyoung":2448,"ĠAll":2449,"Ġtakes":2450,"Ġsolution":2451,"Ġgoes":2452,"Ġ&":2453,"Ġexec":2454,"ams":2455,"Ġwidely":2456,"Ġmeas":2457,"Ġfire":2458,"Ġvide":2459,"ances":2460,"Ġexpen":2461,"Ġmix":2462,"Ġquickly":2463,"Ġappropriate":2464,"Ġforest":2465,"___":2466,"Ġglo":2467,"list":2468,"rive":2469,"Ġprevent":2470,"etwork":2471,"ĠCre":2472,"Ġmorning":2473,"24":2474,"py":2475,"angle":2476,"airs":2477,"bits":2478,"Ġlog":2479,"Ġbal":2480,"ĠThese":2481,"ĠProduce":2482,"Ġexperiment":2483,"ĠX":2484,"Ġmedia":2485,"Ġhappy":2486,"...":2487,"Ġlargest":2488,"Ġdue":2489,"import":2490,"tern":2491,"Ġbox":2492,"Ġseeds":2493,"mon":2494,"Ġensure":2495,"Ġunique":2496,"Ġsequential":2497,"Ġcolumn":2498,"Ġtrack":2499,"Ġ50":2500,"Ġbar":2501,"Ġfront":2502,"Ġinterested":2503,"Ġsmo":2504,"Ġparent":2505,"head":2506,"aced":2507,"Ġfile":2508,"nces":2509,"idence":2510,"ought":2511,"Ġearly":2512,"Ġparty":2513,"Ġhold":2514,"Ġvarious":2515,");":2516,"med":2517,"ĠDe":2518,"Ġrunning":2519,"Ġet":2520,"gn":2521,"Ġtool":2522,"Ġdev":2523,"Ġpref":2524,"Example":2525,"Ġtablespoons":2526,"Ġredu":2527,"Ġcoffee":2528,"Ġmind":2529,"ery":2530,"Ġcreating":2531,"Ġindivid":2532,"Re":2533,"Ġdress":2534,"Ġnoun":2535,"ĠCons":2536,"acks":2537,"alling":2538,"Ġfeatures":2539,"Ġban":2540,"----":2541,"Ġtips":2542,"Ġliving":2543,"ester":2544,"Ġz":2545,"bab":2546,"Ġcell":2547,"ises":2548,"uck":2549,"cent":2550,"Ġquality":2551,"Ġconveys":2552,"Ġdinner":2553,"Ġfull":2554,"Ġprom":2555,"Ġdogs":2556,"Ġnon":2557,"Ġfoot":2558,"Ġproblems":2559,"entle":2560,"Ġcloth":2561,"Ġoverall":2562,"ulation":2563,"izz":2564,"Ġcover":2565,"Ġspok":2566,"Ġbad":2567,"Ġsubject":2568,"Ġspend":2569,"Ġcomfortable":2570,"impl":2571,"azing":2572,"Ġovers":2573,"Ġcandid":2574,"Ġlay":2575,"Ġtook":2576,"Ġfive":2577,"Ġtrouble":2578,"Ġthird":2579,"00000000":2580,"80":2581,"Ġcool":2582,"Ġrequired":2583,"Ġnamed":2584,"Ġconsist":2585,"Ġfruits":2586,"Ġweather":2587,"He":2588,"lude":2589,"Ġstarting":2590,"Ġsurface":2591,"Ġrate":2592,"Ġworks":2593,"Ġport":2594,"ury":2595,"Ġsho":2596,"Ġfollowed":2597,"Ġmedical":2598,"Ġmention":2599,"Ġrelax":2600,"Ġgoal":2601,"Ġcomes":2602,"Ġrange":2603,"Ġfox":2604,"Ġexecut":2605,"Ġcorrespond":2606,"Ġcustomer":2607,"Ġcompute":2608,"Ġvariety":2609,"ĠMary":2610,"++":2611,"eter":2612,"Ġcondition":2613,"Ġextra":2614,"Ġcra":2615,"Ġgentle":2616,"Ġleg":2617,"Ġrepresent":2618,"Ġcollege":2619,"Ġbreat":2620,"Ġden":2621,"Ġactivity":2622,"Ġrequire":2623,"for":2624,"Ġrece":2625,"Ġassoci":2626,"Ġ:),":2627,"iew":2628,"Ġsquare":2629,"Ġpred":2630,"ĠAf":2631,"Ġapply":2632,"Ġposition":2633,"aa":2634,"mar":2635,"Ġhy":2636,"bal":2637,"Ġphot":2638,"itely":2639,"Ġengine":2640,"Ġparticular":2641,"Ġpulled":2642,"case":2643,"Ġeyes":2644,"ton":2645,"Ġspoken":2646,"'ll":2647,"chie":2648,"Ġpress":2649,"lves":2650,"play":2651,"Ġcaused":2652,"She":2653,"pin":2654,"itle":2655,"Ġindu":2656,"ĠSteps":2657,"imum":2658,"rad":2659,"ĠAm":2660,"Ġelement":2661,"Ġdone":2662,"ĠâĢ¢":2663,"Ġho":2664,"Ġrout":2665,"ched":2666,"Ġwhole":2667,"ĠCould":2668,"Ġpersonal":2669,"'(":2670,"Ġborn":2671,"Ġinstead":2672,"Ġbase":2673,"ĠHis":2674,"Ġemail":2675,"Ġvalues":2676,"Ġthroughout":2677,"Ġeasy":2678,"Ġtattoo":2679,"Ġ$<<":2680,"Ġfresh":2681,"Rem":2682,"Ġ_":2683,"Ġgenerally":2684,"Ġinstruction":2685,"illion":2686,"uro":2687,"Ġfar":2688,"Ġcalcul":2689,"AN":2690,"pes":2691,"Ġemploy":2692,"Ġwomen":2693,"Ġfig":2694,"Ġstreet":2695,"fficient":2696,"Ġleaves":2697,"ump":2698,"Ġmissing":2699,"ĊĠĠĠĠĠĠĠĠĠĠĠĠ":2700,"ĠYork":2701,"Ġdecided":2702,"Ġtrad":2703,"Ġparts":2704,"Ġchoices":2705,"oting":2706,"icate":2707,"Ġsong":2708,"Ġmanage":2709,"conom":2710,"Ġdistance":2711,"ils":2712,"Ġextract":2713,"pos":2714,"book":2715,"ush":2716,"da":2717,"ĠSm":2718,"Ġanagrams":2719,"Ġcancer":2720,"Ġremain":2721,"Ġtemperature":2722,"Ġthick":2723,"Ġmount":2724,"ĠCreate":2725,"Ġnotion":2726,"acher":2727,"Ġfrequ":2728,"ball":2729,"Ċĉ":2730,"ret":2731,"ĠTake":2732,"ĠInt":2733,"amm":2734,"Ġarm":2735,"Ġindust":2736,"Ġstop":2737,"ks":2738,"Ġgir":2739,"Ġcult":2740,"Ġprovides":2741,"Ġview":2742,"Ġmiles":2743,"implified":2744,"Ġstatements":2745,"aster":2746,"':":2747,"name":2748,"ilt":2749,"70":2750,"Ġoversimplified":2751,"Ġok":2752,"ĠOr":2753,"oud":2754,"Ġoriginal":2755,"Ġtopic":2756,"ĠEn":2757,"Ġtalking":2758,"=<<":2759,"aken":2760,"cl":2761,"Ġabs":2762,"Ġlose":2763,"Ġinde":2764,"Ġconditions":2765,"Ġappears":2766,"Ġbab":2767,"Ġstick":2768,"Ġwhy":2769,"Ġ22":2770,"Ġingredient":2771,"ĠPersonX":2772,"ource":2773,"Ġkill":2774,"aly":2775,"IN":2776,"Ġamazing":2777,"','":2778,"ĠSentences":2779,"irus":2780,"Ġitem":2781,"Ġcorresponding":2782,"Ġuses":2783,"Ġjumps":2784,"ender":2785,"Ġvisit":2786,"asy":2787,"ĠAt":2788,"Ġstruct":2789,"Ġdre":2790,"aging":2791,"erence":2792,"ai":2793,"fect":2794,"Ġnature":2795,"Ġpack":2796,"Ġpark":2797,"ĠBl":2798,"ĠChe":2799,"ĠWorld":2800,"Ġrefer":2801,"ĠCalling":2802,"Ġspeak":2803,"aff":2804,"Ġ60":2805,"Ġfeeling":2806,"Ġnetwork":2807,"Ġ375":2808,"Ġpepper":2809,"Ġprices":2810,"ĠPar":2811,"imate":2812,"Ġamong":2813,"Ġconversation":2814,"Ġcannot":2815,"ili":2816,"ox":2817,"othes":2818,"Ġblood":2819,"Ġmatch":2820,"Ġcollect":2821,"Ġnews":2822,"ĠTw":2823,"ĠSc":2824,"Remember":2825,"Ġcateg":2826,"Ġdisease":2827,"ooky":2828,"Ġhands":2829,"umb":2830,"ĠConsider":2831,"ires":2832,"Ġspooky":2833,"ĠMr":2834,"pportun":2835,"Ġeconom":2836,"Ġnarr":2837,"Ġmach":2838,"ĠFirst":2839,"Ġsources":2840,"ĠBourne":2841,"Ġeduc":2842,"ising":2843,"Ġproject":2844,"itam":2845,"Ġball":2846,"Ġincome":2847,"This":2848,"Ġmot":2849,"Ġsport":2850,"Ġbegin":2851,"ĠPreheat":2852,"Ġbank":2853,"Ġnorth":2854,"ĠWar":2855,"ken":2856,"Ġarg":2857,"cket":2858,"include":2859,"ĠEm":2860,"Ġmaj":2861,"ĠDod":2862,"Ġlocated":2863,"Ġperm":2864,"amb":2865,"iber":2866,"OR":2867,"Ġopportun":2868,")))":2869,"do":2870,"Ġaff":2871,"ĠZ":2872,"Ġcake":2873,"Ġreport":2874,"Ġterms":2875,"rench":2876,"Ġexpress":2877,"Tail":2878,"ĠAnswer":2879,"ĠBrit":2880,"ention":2881,"Ġlisten":2882,"Ġlean":2883,"ĠAmerica":2884,"Ġsigns":2885,"Ġflowers":2886,"Ġseen":2887,"Inst":2888,"illa":2889,"Ġbirth":2890,"urity":2891,"Ġdescribe":2892,"attern":2893,"What":2894,"Ġimages":2895,"Ġscore":2896,"osp":2897,"Ġexperien":2898,"Ġdescribed":2899,"Ġtasks":2900,"Ġgarlic":2901,"iet":2902,"ister":2903,"ĠJack":2904,"Ġlate":2905,"sec":2906,"Ġstands":2907,"Ġpal":2908,"Ġinfl":2909,"Ġsoon":2910,"Ġgrammatically":2911,"Ġiron":2912,"Ġetc":2913,"no":2914,"plete":2915,"Ġindex":2916,"ĠDodger":2917,"ĠTry":2918,"ocol":2919,"90":2920,"Ġopin":2921,"Ġlines":2922,"Ġstat":2923,"Ġsat":2924,"Ġsau":2925,"Ġassociated":2926,"iced":2927,"Ġgames":2928,"af":2929,"ĠPh":2930,"iddle":2931,"ledge":2932,"time":2933,"Ġareas":2934,"Ġpregn":2935,"Ġdoc":2936,"Ġstrateg":2937,"pple":2938,"Ġokay":2939,"ored":2940,"unch":2941,"34":2942,"Ġill":2943,"ondon":2944,"Ġwon":2945,"('":2946,"icles":2947,"Ġson":2948,"ĠMar":2949,"Ġgro":2950,"ding":2951,"Ġlif":2952,"Ġspl":2953,"Ġprote":2954,"ann":2955,"iques":2956,"Ġcontrol":2957,"Ġ==":2958,"most":2959,"unt":2960,"aim":2961,"ĠWould":2962,"Ġseries":2963,"Ġmist":2964,"NO":2965,"omes":2966,"sive":2967,"Ġmentioned":2968,"Ġodd":2969,"Ġpen":2970,"Ġphrases":2971,"Ġcame":2972,"Ġpet":2973,"Ġmedic":2974,"dr":2975,"Ġcooking":2976,"Ġformat":2977,"Ġblanks":2978,"Ġcosts":2979,"Ġfant":2980,"Ġmeal":2981,"Ġbring":2982,"ĠList":2983,"Ġmass":2984,"EN":2985,"aus":2986,"Ġ('":2987,"Ġmess":2988,"raction":2989,"Ġsor":2990,"Ġwar":2991,"ĠImage":2992,"Ġsupp":2993,"Ġerrors":2994,"Ġfat":2995,"str":2996,"plication":2997,"Ġblog":2998,"Ġmath":2999,"Ġsmaller":3000,"Ġwants":3001,"erences":3002,"Ġsides":3003,"urope":3004,"Ġbeaut":3005,"Ġdesigned":3006,"ĠCity":3007,"ĠPart":3008,"Ġhappened":3009,"Ġcoming":3010,"Ġteacher":3011,"Ġoperators":3012,"Ġtechniques":3013,"ightly":3014,"order":3015,"Ġcarefully":3016,"Ġresults":3017,"Ġcats":3018,"UN":3019,"Ġgrass":3020,"Ġaffect":3021,"Ġpassages":3022,"Ġapple":3023,"Ġachie":3024,"oring":3025,"Ġtowards":3026,"Ġ`":3027,"Ġsurround":3028,"otes":3029,"Ġteam":3030,"attle":3031,"Ġpict":3032,"Person":3033,"Ġalc":3034,"wards":3035,"Ġknowledge":3036,"Ġtast":3037,"Ġelim":3038,"Ġthinking":3039,"sing":3040,"Ġperfect":3041,"sequence":3042,"Ġever":3043,"Ġsound":3044,"Ġdefinitely":3045,"Ġfinding":3046,"ĠDes":3047,"Ġ->":3048,"omet":3049,"Ġgas":3050,"Ġgeneration":3051,"Ġsky":3052,"Ġvol":3053,"Ġgen":3054,"Ġcareer":3055,"ĠAfric":3056,"Ġdeal":3057,"Ġfamous":3058,"Ġincreased":3059,"ĠLondon":3060,"ĠTom":3061,"Ġmajor":3062,"ĠNe":3063,"Ġseparated":3064,"Ġsauce":3065,"cat":3066,"ĠLe":3067,"iod":3068,"ER":3069,"Ġdrinking":3070,"Ġsorry":3071,"ended":3072,"Ġbuying":3073,"Ġsets":3074,"bit":3075,"ured":3076,"word":3077,"Ġ[\"":3078,"ock":3079,"ung":3080,"Ġexperimental":3081,"anation":3082,"ĠPOSITIVE":3083,"min":3084,"Ġsafety":3085,"rief":3086,"Ġlonger":3087,"Ġpattern":3088,"Ġdiscus":3089,"Ġdoesn":3090,"Ġindividual":3091,"Ġbag":3092,"Ġdest":3093,"Ġlater":3094,"Ġbread":3095,"Ġdirectly":3096,"Ġtitle":3097,"Ġcheese":3098,"ĠMs":3099,"Ġbran":3100,"Ġbehav":3101,"Ġopp":3102,"Ġbought":3103,"Ġdam":3104,"itional":3105,"ech":3106,"ĠGe":3107,"ĠTail":3108,"vious":3109,"Ġvan":3110,"Ġspread":3111,"Ġbur":3112,"add":3113,"Ġanyone":3114,"Ġcauses":3115,"orrect":3116,"Ġreplace":3117,"Ġrat":3118,"Ġindustry":3119,"Ġbaby":3120,"itting":3121,"uments":3122,"Ġscient":3123,"ying":3124,"Ġincludes":3125,"ĠEurope":3126,"Ġspending":3127,"Ġsere":3128,"Ġsoftware":3129,"Ġpron":3130,"ĠAd":3131,"Ġhelps":3132,"wood":3133,"Ġhor":3134,"Ġsnow":3135,"Ġsoil":3136,"Input":3137,"aches":3138,"Ġbecame":3139,"Ġchoice":3140,"Ġresearching":3141,"Ġwest":3142,"ĠâĢĵ":3143,"ĠFrench":3144,"Ġfell":3145,"Ġtrip":3146,"iversity":3147,"aps":3148,"Ġdetails":3149,"}.":3150,"Ġearn":3151,"AR":3152,"Ġexecuting":3153,"Ġexc":3154,"urance":3155,"rush":3156,"Ġcontaining":3157,"icial":3158,"Ġmedium":3159,"lt":3160,"Ġproduce":3161,"Ġround":3162,"Ġreason":3163,"Ġnothing":3164,"use":3165,"uff":3166,"rought":3167,"Ġserene":3168,"ĠSy":3169,"ready":3170,"key":3171,"Ġfem":3172,"Ġyog":3173,"ively":3174,"Ġproviding":3175,"Ġbelieve":3176,"Ġsavings":3177,".',":3178,"Ġbrief":3179,"ĠChar":3180,"Ġoak":3181,"Ġwait":3182,"Ġplat":3183,"umber":3184,"Ġsix":3185,"Ġfle":3186,"Ġburn":3187,"Ġslowly":3188,"36":3189,"32":3190,"ability":3191,"ohol":3192,"Ġrain":3193,"Ġstir":3194,"Ġshoes":3195,"ictionary":3196,"Ġbott":3197,"Ġprepare":3198,"Ġarch":3199,"sion":3200,"Ġstock":3201,"Ġmaintain":3202,"Ġforms":3203,"Ġsmallest":3204,"Ġloss":3205,"Warning":3206,"Ġstates":3207,"unct":3208,"Ġmaterials":3209,"Ġclos":3210,"Ġconcise":3211,"Ġworth":3212,"izing":3213,"Ġtools":3214,"room":3215,"Ġaction":3216,"Ġbit":3217,"Ġalready":3218,"Ġrelevant":3219,"Ġfurther":3220,"Ġhigher":3221,"Ġinfect":3222,"Ġshad":3223,"ised":3224,"Ġthought":3225,"Ġtopics":3226,"erous":3227,"ĠBr":3228,"Ġgain":3229,"Ġsea":3230,"Ġwindows":3231,"Ġbuilt":3232,"Ġadvant":3233,"Ġdrive":3234,"Ġaud":3235,"Ġtaken":3236,"Ġpriv":3237,"Ġappro":3238,"oogle":3239,"Ġdecision":3240,"Ġsimple":3241,"Ġalphabetical":3242,"Ġasking":3243,"Ġwindow":3244,"anced":3245,"fast":3246,"++)":3247,"Ġflight":3248,"][":3249,"Ġrespons":3250,"sy":3251,"Ġpurchase":3252,"Ġmag":3253,"istance":3254,"78":3255,"array":3256,"ience":3257,"Ġoperations":3258,"ouch":3259,"Ġcases":3260,"Ġdesired":3261,"Ġessential":3262,"apan":3263,"Ġjo":3264,"ĠPlace":3265,"pro":3266,"Ġpolic":3267,"Ġfantasy":3268,"Ġdescribes":3269,"Ġplatform":3270,"vered":3271,"Ġconvert":3272,"Ġeverything":3273,"Ġcrim":3274,"Ġmembers":3275,"Ġsmooth":3276,"ptop":3277,"Ġrole":3278,"['":3279,"//":3280,"Ġvideo":3281,"itation":3282,"ĠSus":3283,"ĠHer":3284,"anti":3285,"ĠChoose":3286,"Ġadding":3287,"rap":3288,"22":3289,"Ġitself":3290,"Ġsouth":3291,"ĠClick":3292,"sc":3293,"Ġrot":3294,"Ġju":3295,"ĠAnd":3296,"Ġerror":3297,"STE":3298,"Ġinterview":3299,"ĠLast":3300,"live":3301,"])":3302,"Ġlink":3303,"Ġobjects":3304,"erns":3305,"Ġnarrow":3306,"Ph":3307,"new":3308,"Ġpaint":3309,"ĠGet":3310,"Ġexplo":3311,"Ġfro":3312,"Ġfix":3313,"Ġheavy":3314,"ging":3315,"Ġhelpful":3316,"Ġalcohol":3317,"ĠAv":3318,"Ġchem":3319,"Ġdang":3320,"unrelated":3321,"Ġcry":3322,"Ġpredict":3323,"Ġ27":3324,"rase":3325,"Ġvi":3326,"Ġdom":3327,"rug":3328,"where":3329,"Ġremo":3330,"Ġformed":3331,"Ġreducing":3332,"Ġperiod":3333,"ellig":3334,"Ġconsum":3335,"Ġseems":3336,"ĠCar":3337,"ler":3338,"Ġvacation":3339,"Ġvanilla":3340,"ĠPe":3341,"olution":3342,"Ġes":3343,"words":3344,"Ġhum":3345,"Ġonion":3346,"Ġorbits":3347,"Review":3348,"Ġmale":3349,"xy":3350,"itch":3351,"Ġaddress":3352,"Ġfruit":3353,"arian":3354,"Ġ45":3355,"Ġsmell":3356,"Ġcru":3357,"ograph":3358,"For":3359,"Ġcovered":3360,"ĠTr":3361,"35":3362,"Ġcorner":3363,"ĠNorth":3364,"99":3365,"Ġfridge":3366,"Ġbehind":3367,"Ġfarm":3368,"Target":3369,"Ġbelong":3370,"Ġcirc":3371,"')":3372,"Ġspeed":3373,"mary":3374,"Ġbra":3375,"Ġbatter":3376,"Ġda":3377,"Ġwear":3378,"Ġdisplay":3379,"Ġopinion":3380,"Ġlat":3381,"ĠJo":3382,"Ġsource":3383,"ians":3384,"Ġcamp":3385,"Ġmachine":3386,"Ġtired":3387,"Ġblock":3388,"Ġlibr":3389,"'d":3390,"lines":3391,"\":":3392,"agon":3393,"Ġtrash":3394,"Ġmonths":3395,"Ġbasic":3396,"sex":3397,"bon":3398,"Ġtap":3399,"Ġgrad":3400,"(\"":3401,"istic":3402,"LE":3403,"Ġtank":3404,"Ġsou":3405,"Ġstudying":3406,"Ġfast":3407,"iful":3408,"Ġsell":3409,"Ġsuccessful":3410,"200":3411,"Ġcarp":3412,"Ġincreasing":3413,"ĠBritish":3414,"uture":3415,"made":3416,"Ġretire":3417,"Ġeffects":3418,"secut":3419,"Ġshape":3420,"Ġqual":3421,"zz":3422,"Ġclaim":3423,"LA":3424,"ĠJones":3425,"Ġcorrectly":3426,"Ġadditional":3427,"Ġideas":3428,"Ġdelic":3429,"Ġmaterial":3430,"Ġelectric":3431,"Ġvirus":3432,"Image":3433,"Ġobs":3434,"Ġcandidate":3435,"rist":3436,"Ġtun":3437,"Ġproperly":3438,"aling":3439,"Ġupon":3440,"Ġstructure":3441,"Ġtomat":3442,"pg":3443,"planation":3444,"astic":3445,"oon":3446,"por":3447,"hemat":3448,"Ġtea":3449,"Ġmetal":3450,"Ġleaving":3451,"Ġpercent":3452,"ĠDoyle":3453,"Ġcandy":3454,"Ġpopulation":3455,"duct":3456,"Ġpers":3457,"ww":3458,"Ġchocol":3459,"verse":3460,"ma":3461,"ĠCheck":3462,"Ġspeech":3463,"Ġclasses":3464,"ĠCo":3465,"Ġyellow":3466,"All":3467,"Ġtechnology":3468,"inate":3469,"Ġpressure":3470,"Ġcomplex":3471,"Ġbreast":3472,"utral":3473,"YES":3474,"hest":3475,"Ġsecurity":3476,"Ġsoda":3477,"Ġcreated":3478,"UT":3479,"Ġaccur":3480,"son":3481,"()()":3482,"iles":3483,"ints":3484,"vies":3485,"Ar":3486,"Ġmom":3487,"bles":3488,"Ġeast":3489,"Ġdoll":3490,"Ġbird":3491,"Ġprogress":3492,"Ġissues":3493,"orge":3494,"ĠFl":3495,"Ġlaptop":3496,"Ġ36":3497,"Ġveh":3498,"ĠWith":3499,"Ġkids":3500,"Ġrepe":3501,"epend":3502,"Ġsubsequence":3503,"Ġcars":3504,"Ġcounter":3505,"Ġspeaking":3506,"Ġapart":3507,"Ġbreakfast":3508,"cending":3509,"Ġ26":3510,"Ġadj":3511,"rew":3512,"ancy":3513,"Ġdescribing":3514,"ĠQ":3515,"Ġfly":3516,"Ġ35":3517,"Ġtail":3518,"Ġgentleman":3519,"Ġdriving":3520,"inct":3521,"Ġfail":3522,"overed":3523,"Ġtaxes":3524,"Ġattention":3525,"Explanation":3526,"Ġbroken":3527,"rome":3528,"Ġrad":3529,"Ġdecor":3530,"Ġord":3531,"Ġspecies":3532,"Ġones":3533,"Ġweb":3534,"Ġinvent":3535,"Ġapplic":3536,"Ġeliminated":3537,"YPE":3538,"Ġhyp":3539,"ĠCal":3540,"ello":3541,"ration":3542,"Ġmiddle":3543,"gar":3544,"Ġled":3545,"Ġrecommended":3546,"reng":3547,"Ġrocks":3548,"Ġmillion":3549,"ĠCol":3550,"Ġlik":3551,"itor":3552,"go":3553,"Ġinvesting":3554,"ĠBut":3555,"Ġhall":3556,"Ġthin":3557,"ormal":3558,"Ġpronoun":3559,"utions":3560,"Ch":3561,"Ġrice":3562,"Ġscience":3563,"Ġfigure":3564,"ially":3565,"Ġlarger":3566,"21":3567,".\".":3568,"Ġsold":3569,"Ġ80":3570,"Ġinsurance":3571,"Ġweeks":3572,"Ġoccurs":3573,"orrow":3574,"Ġhearing":3575,"Ġriver":3576,"Ġproperty":3577,"Ġmountain":3578,"Ġcolors":3579,"arp":3580,"oming":3581,"ĠRo":3582,"Ġmaximum":3583,"Ġshare":3584,"Ġfilm":3585,"Ġpounds":3586,"Ġmeasure":3587,"Ġgeneral":3588,"Ġpairs":3589,"pan":3590,"Ġverb":3591,"iding":3592,"REOT":3593,"STEREOT":3594,"STEREOTYPE":3595,"Ġexpression":3596,"Hello":3597,"cipe":3598,"Ġfuture":3599,"Instructions":3600,"story":3601,"Ġimm":3602,"Ġevidence":3603,"Ġsays":3604,"Ġclothes":3605,"Ġexpenses":3606,"Ġprobab":3607,"inese":3608,"ĠQu":3609,"ĠTap":3610,"Ġvitam":3611,"Ġbehavior":3612,"Ġtre":3613,"ological":3614,"Ġsuit":3615,"ods":3616,"Ġcentury":3617,"ĠTV":3618,"ĠGr":3619,"ĠGerm":3620,"Ġhit":3621,"Ġton":3622,"cient":3623,"ba":3624,"Ġexist":3625,"Ġstudent":3626,"Ġ#":3627,"ĠState":3628,"azon":3629,"Ġstri":3630,"Ġgave":3631,"Ġdepend":3632,"ibility":3633,"Ġshirt":3634,"Ġresume":3635,"Ġ28":3636,"length":3637,"Ġeducation":3638,"Ġopportunities":3639,"ĠBased":3640,"ĊĠĠĠĠĠĠĠĠĠĠĠĠĠĠĠ":3641,"ny":3642,"Ġemot":3643,"Ġtrail":3644,"onse":3645,"ĠGoogle":3646,"Ġcarry":3647,"ĠĊ":3648,"ĠLet":3649,"set":3650,"Ġpolit":3651,"Ġinterests":3652,"Ġtraditional":3653,"ĠArt":3654,"Ġplayed":3655,"Ġtwice":3656,"cher":3657,"Ġseem":3658,"cription":3659,"Ġseason":3660,"Ġswim":3661,"Ġcustomers":3662,"Ġparents":3663,"Ġspaces":3664,"Ġdead":3665,"Ġpainting":3666,"ocr":3667,"Ġoffice":3668,"house":3669,"Ġge":3670,"Ġang":3671,"ptic":3672,"ET":3673,"AT":3674,"Ġprograms":3675,"Ġprevious":3676,"like":3677,"Ġrather":3678,"Ġfeed":3679,"Ġsuper":3680,"Ġolive":3681,"Ġgroups":3682,"Ġmovies":3683,"Ġleave":3684,"Ġcalories":3685,"Ġboy":3686,"ĠFrance":3687,"ĠPrint":3688,"ipping":3689,"Ġcast":3690,"Ġtransport":3691,"Ġfalls":3692,"gy":3693,"ival":3694,"ashing":3695,"lus":3696,"Ġusers":3697,"Ġtablespoon":3698,"Ġstreng":3699,"Ġdeath":3700,"Ġsports":3701,"ĠLook":3702,"ĠAvoid":3703,"aves":3704,"Ġband":3705,"Ġvers":3706,"ĠUK":3707,"Ġeveryone":3708,"Ġlatest":3709,"ners":3710,"Ġlifest":3711,"iter":3712,"ums":3713,"Ġself":3714,"Ġhangs":3715,"Ġeasier":3716,"48":3717,"ĠNational":3718,"ĠOpen":3719,"Ġdiscount":3720,"ster":3721,"ĠHar":3722,"ĠChinese":3723,"Ġrow":3724,"ĠJapan":3725,"Ġoffers":3726,"ĠParty":3727,"Ġfurn":3728,"Ġbeautiful":3729,"ĠĠĠĠĠĠĠĠĠĠĠĠĠĠĠĠ":3730,"rest":3731,"date":3732,"Ġtraining":3733,"nonym":3734,"Ġbeach":3735,"Ġabc":3736,"Ġ2012":3737,"Ġequation":3738,"Ġtreatment":3739,"Ġentire":3740,"Ġyoga":3741,"Ġmeeting":3742,"Ġshows":3743,"CT":3744,"ĠGreen":3745,"ĠWord":3746,"Ġstret":3747,"aged":3748,"Ġ21":3749,"Ġexplore":3750,"39":3751,"lled":3752,"Ġintrodu":3753,"oding":3754,"ino":3755,"traction":3756,"agin":3757,"ĠSussex":3758,"sub":3759,"Ġmental":3760,"Ġexpected":3761,"Ġexplain":3762,"acter":3763,"ald":3764,"Ġgives":3765,"Ġfinal":3766,"secutive":3767,"Ġlifestyle":3768,"empt":3769,"Ġfinish":3770,"Ġmethods":3771,"Ġafford":3772,"Ġgrocer":3773,"Ġimproved":3774,"Ġgrowth":3775,"iny":3776,"Ġrecipes":3777,"exic":3778,"Ġleads":3779,"Ġtom":3780,"abcd":3781,"ground":3782,"Ġcompan":3783,"unk":3784,"Ġhon":3785,"Ġdevelopment":3786,"acy":3787,"Ġbegan":3788,"Ġsolar":3789,"Ġretirement":3790,"28":3791,"cean":3792,"Ġfemale":3793,"Ġconsists":3794,"Ġrect":3795,"Ġcourse":3796,"Ġnearby":3797,"Ġexact":3798,"herent":3799,"Ġpickpo":3800,"Ġefficient":3801,"thern":3802,"Ġkil":3803,"];":3804,"eturn":3805,"Ġhumans":3806,"'],":3807,"Ġteeth":3808,"ourage":3809,"Ġmathemat":3810,"âĢĻ?":3811,"ales":3812,"Ġtold":3813,"Ġintellig":3814,"Ġcompare":3815,"heit":3816,"esterday":3817,"izes":3818,"Ġclothing":3819,"fact":3820,"une":3821,"Ġheight":3822,"Ġallerg":3823,"Ġresponse":3824,"erve":3825,"Ġsystems":3826,"Ġalmost":3827,"uesday":3828,"Ġdictionary":3829,"ĠAust":3830,"Ġbrought":3831,"olute":3832,"Ġfilled":3833,"Ġedge":3834,"CC":3835,"Ġgreater":3836,"Ġdenoting":3837,"Ġearth":3838,"sect":3839,"Ġbeneficial":3840,"bor":3841,"back":3842,"Ġri":3843,"dog":3844,"alt":3845,"TION":3846,"Ġrules":3847,"ĠIntern":3848,"bol":3849,"aten":3850,"renheit":3851,"ahrenheit":3852,"bed":3853,"ened":3854,"Ġexce":3855,"Ġpret":3856,"Ġsubs":3857,"ĠWill":3858,"onday":3859,"Ġshortest":3860,"ĠApp":3861,"Ġpolice":3862,"Ġexercises":3863,"Ġbranches":3864,"AM":3865,"Ġfund":3866,"Ġoppos":3867,"Ġloved":3868,"An":3869,"tes":3870,"Ġtick":3871,"oice":3872,"Ġdamage":3873,"ilities":3874,"board":3875,"<=":3876,"bl":3877,"Ġonto":3878,"aint":3879,"ney":3880,"://":3881,"Ġrisks":3882,"ĠSmith":3883,"Ġ86":3884,"ĠOtherwise":3885,"uel":3886,"leg":3887,"Ġrelig":3888,"rom":3889,"Ġchron":3890,"Ġdro":3891,"Ġeye":3892,"Ġmoist":3893,"ĠDep":3894,"Ġtut":3895,"Ġdraw":3896,"ĠTwo":3897,"Ġdial":3898,"Ġinvolves":3899,"Ġcontrib":3900,"Ġsummary":3901,"ael":3902,"ĠFahrenheit":3903,"ĠGreat":3904,"Ġtriangle":3905,"atic":3906,"ĠNot":3907,"ĠSelect":3908,"Ġinternet":3909,"Ġcalculate":3910,"Ġlegs":3911,"Put":3912,"Ġcollected":3913,"Ġanx":3914,"Ġsex":3915,"Ġbeans":3916,"ĠGo":3917,"Ġur":3918,"Ġforget":3919,"aries":3920,"Ġpresident":3921,"Ġgolden":3922,"Ġbrother":3923,"Ġcy":3924,"Ġhous":3925,"Ġbeef":3926,"Ġfriendly":3927,"BC":3928,"riend":3929,"Ġlibrary":3930,"ĠTuesday":3931,"Ġprepared":3932,"Ġstra":3933,"Ġgrains":3934,"Ġplanning":3935,"Ġfeelings":3936,"ĠChrist":3937,"Ġallows":3938,"Ġinstall":3939,"ĠLastly":3940,"li":3941,"ĠAss":3942,"Ġbanana":3943,"Ġchocolate":3944,"oke":3945,"Ġcooked":3946,"iture":3947,"Ġactions":3948,"ĠMonday":3949,"Ġcards":3950,"imately":3951,"Ġsweet":3952,"Ġran":3953,"dom":3954,"isa":3955,"ĠAmazon":3956,"Ġsecure":3957,"ĠMich":3958,"Ġeasily":3959,"Ġmeals":3960,"ults":3961,"Ġteach":3962,"Ġhost":3963,"urt":3964,"Ġseptic":3965,"ĠDr":3966,"gen":3967,"Ġorganization":3968,"ĊĠĠĠĠĠĠ":3969,"76":3970,"Ġjud":3971,"Ġtargets":3972,"Ġsunlight":3973,"Ġlunch":3974,"Ġsmok":3975,"Ġseparate":3976,"based":3977,"Ġlost":3978,"Ġdreary":3979,"Ġoccas":3980,"Ġdistinct":3981,"Ġstyle":3982,"antic":3983,"Ġtrust":3984,"lished":3985,"Ġtonight":3986,"Ġcro":3987,"selves":3988,"Ġbars":3989,"Ġmarble":3990,"care":3991,"hy":3992,"Ġfight":3993,"Ġtend":3994,"Ġann":3995,"Ġadvantage":3996,"apple":3997,"ties":3998,"Ġpalind":3999,"Ġcart":4000,"Ġded":4001,"Ġpool":4002,"Ġgirl":4003,"ĠGeorge":4004,"multi":4005,"Ġmatter":4006,"ĠSouth":4007,"Ġcompet":4008,"Ġbask":4009,"ĠTim":4010,"Ġrearr":4011,"Ġgrammatical":4012,"Ġcoast":4013,"Ġpizz":4014,"Ġjobs":4015,"Ġmedian":4016,"Ġflat":4017,"aught":4018,"Ġinches":4019,"right":4020,"acing":4021,"ĠLab":4022,"Ġharm":4023,"Ġcookies":4024,"used":4025,"Ġcarved":4026,"Ġdust":4027,"ĠRep":4028,"Ġdat":4029,"Ġneigh":4030,"Ġmedication":4031,"ĠKe":4032,"Ġleading":4033,"Ġabsolute":4034,"ĠDem":4035,"Ġready":4036,"ban":4037,"Ġdecl":4038,"Ġgrammar":4039,"Ġrelevance":4040,"Ġpregnant":4041,"Ġut":4042,"Ġcoherent":4043,"Ġsolve":4044,"load":4045,"Ġdollars":4046,"ĠWords":4047,"ĠSec":4048,"Ġprim":4049,"Ġrecent":4050,"Ġstars":4051,"Ġlists":4052,"ogue":4053,"Ġartist":4054,"ada":4055,"âī":4056,"Ġben":4057,"Ġbrain":4058,"Ġsharp":4059,"Ġlic":4060,"Ġindepend":4061,"ĠNext":4062,"Ġantonym":4063,"aper":4064,"Ġsubstring":4065,"Ġbreaks":4066,"\"?":4067,"Ġattack":4068,"Ġestab":4069,"Ġham":4070,"ĠCount":4071,"Ġinteract":4072,"Ġbroke":4073,"Ġmeat":4074,"Ġraining":4075,"Ġaltern":4076,"Ġrpg":4077,"Ġinflu":4078,"Ġremaining":4079,"omy":4080,"Ġconsecutive":4081,"Ġ23":4082,"Ġlooks":4083,"Ġgran":4084,"ĠChina":4085,"nel":4086,"ĠInc":4087,"There":4088,"Ġglobal":4089,"Ġmessage":4090,"ij":4091,"Ġstream":4092,"ĠIndia":4093,"arah":4094,"ager":4095,"Ġdepending":4096,"Ġcombined":4097,"Ġselling":4098,"Ġdoors":4099,"Ġarticles":4100,"Ġmel":4101,"antly":4102,"Ġsitting":4103,"Ġlowercase":4104,"ests":4105,"ĠPat":4106,"Ġdesk":4107,"Ġdelicious":4108,"gor":4109,"Ġlisted":4110,"Ġascending":4111,"Ġrise":4112,"Ġindicate":4113,"Ġgiving":4114,"ifications":4115,"ĠRese":4116,"Ġcave":4117,"Con":4118,"Ġvote":4119,"ission":4120,"ĊĊĠĠĠ":4121,"count":4122,"Ġpretty":4123,"ached":4124,"multiplication":4125,",\"":4126,"nam":4127,"Ġcou":4128,"Ġrich":4129,"Ġwed":4130,"jective":4131,"Ġavoiding":4132,"ĠMad":4133,"ĠComput":4134,"mosp":4135,"Ġliqu":4136,"You":4137,"Ġdied":4138,"âī¤":4139,"icing":4140,"ĠGood":4141,"Ġbright":4142,"uge":4143,"andom":4144,"Ġbirds":4145,"Ġ<=":4146,"Ġcompleted":4147,"Ġnormal":4148,"Ġcolon":4149,"Ġsits":4150,"Ġgets":4151,"ĠUniversity":4152,"Ġshopping":4153,"ĠMon":4154,"Ġir":4155,"redients":4156,"Ġdaily":4157,"Ġcam":4158,"Ġchair":4159,"55":4160,"Ġprin":4161,"Ġtaste":4162,"raints":4163,"Ġinj":4164,"Ġcoord":4165,"Ġinteresting":4166,"RA":4167,"Ġwat":4168,"chant":4169,"ude":4170,"Ġmethod":4171,"Ġfurniture":4172,"Ġbrush":4173,"ode":4174,"Ġstar":4175,"Ġthemselves":4176,"div":4177,"roduct":4178,"Ġsites":4179,"Ġexam":4180,"Ġexists":4181,"Ġwearing":4182,"Ġ32":4183,"ossible":4184,"boding":4185,"Ġsounds":4186,"Ġmovement":4187,"Ġreact":4188,"Ġclimate":4189,"Ġcriminal":4190,"Ġcarpet":4191,"rior":4192,"ĠMark":4193,"iger":4194,"Ġcoll":4195,"Ġforeboding":4196,"iety":4197,"Ġatmosp":4198,"place":4199,"amples":4200,"che":4201,"anged":4202,"Ġlimit":4203,"List":4204,"Ġassistance":4205,"Ġhat":4206,"Ġpunct":4207,"car":4208,"Ġbark":4209,"udd":4210,"Ġmarketing":4211,"Ġdeveloping":4212,"ream":4213,"pty":4214,"ĠResearch":4215,"Ġleather":4216,"Ġcin":4217,"ĠMay":4218,"ĠRem":4219,"Ġ90":4220,"ĠMichael":4221,"?',":4222,"Ġbill":4223,"Ġflavor":4224,"Ġstrategies":4225,"Ġfits":4226,"Ġdegree":4227,"ID":4228,"ius":4229,"ror":4230,"Ġstocks":4231,"Ġframe":4232,"ĠString":4233,"ava":4234,"Ġinvestments":4235,"Ġargument":4236,"Ġmer":4237,"Ġcompletely":4238,"Ġstones":4239,"Ġprobably":4240,"col":4241,"ckets":4242,"Ġclassified":4243,"ĠRed":4244,"Ġwatching":4245,"chan":4246,"anish":4247,"sem":4248,"ivity":4249,"Ġspent":4250,"Ġplaced":4251,"pur":4252,"Ġquart":4253,"Ġlooked":4254,"ification":4255,"Ġaw":4256,"reme":4257,"Ġcompl":4258,"Ġfounded":4259,"Ġ___":4260,"ĠInstructions":4261,"Ġcross":4262,"Ġdra":4263,"Ġsignific":4264,"cast":4265,"Ġ>":4266,"eral":4267,"Ġstores":4268,"Ġcompared":4269,"Ġlaws":4270,"ivil":4271,"ĠEl":4272,"Ġbeneath":4273,"Ġrent":4274,"Ġhomemade":4275,"Ġdou":4276,"Ġnp":4277,"Ġ29":4278,"Ġdeb":4279,"ĠJenn":4280,"na":4281,"Ġuser":4282,"path":4283,"ĠMexic":4284,"inates":4285,",-":4286,"Ġbeer":4287,"ĠIng":4288,"Ġroutine":4289,"Ġfrag":4290,"illed":4291,"Ġdeterm":4292,"ĠKing":4293,"ĠJew":4294,"Ġsales":4295,"Ġchanging":4296,"Ġcleaning":4297,"ĠDemocr":4298,"Ġchairs":4299,"apt":4300,"Ġpages":4301,"zen":4302,"ĠPres":4303,"Ġsummer":4304,"Ġproteins":4305,"Ġimpact":4306,"Ġsymbol":4307,"ĠJane":4308,"Ġtomorrow":4309,"Ġbreathing":4310,"Ġseconds":4311,"Ġcombination":4312,"Ġissue":4313,"though":4314,"pected":4315,"Ġreflect":4316,"ĠLiber":4317,"ĠBake":4318,"Ġcovers":4319,"ache":4320,"Ġagree":4321,"Ġpotat":4322,"Ġmedications":4323,"ĠMan":4324,"Ġtouch":4325,"Ġremember":4326,"Ġwrong":4327,"Ġago":4328,"Phone":4329,"Ġmoder":4330,"Ġhomework":4331,"SE":4332,"ho":4333,"Ġmeditation":4334,"Ġfine":4335,"ĠStep":4336,"ĠSpanish":4337,"Ġmodel":4338,"Ġatmosphere":4339,"Ing":4340,"Ġwrote":4341,"Ġperformance":4342,"Ġoun":4343,"Ġbree":4344,"Ġmember":4345,"uate":4346,"Ġbi":4347,"Ġdim":4348,"Ġdialogue":4349,"Ġapplying":4350,"ĠReturn":4351,"Ġlayer":4352,"Ġcommunication":4353,"Ġbreath":4354,"66":4355,"Ġsick":4356,"iled":4357,"ops":4358,"ube":4359,"Ġviol":4360,"ĠGree":4361,"Ġbuildings":4362,"54":4363,"ptions":4364,"âĢĿ.":4365,"Ġorange":4366,"Ġpalindrome":4367,"Ġnovel":4368,"ausible":4369,"Ġaudience":4370,"elt":4371,"Ġsearching":4372,"Ġorganized":4373,"23":4374,"Ġloan":4375,"Ġstrength":4376,"Event":4377,"ĠAng":4378,"Ġwet":4379,"Ġopposite":4380,"Ġmarking":4381,"Ġsplit":4382,"YYYY":4383,"Ġexpensive":4384,"Ġbalanced":4385,"mit":4386,"Ġdetect":4387,"Ġoffic":4388,"ĠPour":4389,"Ġsleeping":4390,"division":4391,"!!":4392,"Ġ--":4393,"het":4394,"Ġdirt":4395,"ĠMany":4396,"Ġworked":4397,"Ġlikes":4398,"Ġrecord":4399,"TED":4400,"isk":4401,"If":4402,"190":4403,"ĠMe":4404,"Ġmechan":4405,"Ġachieve":4406,"Ġfinally":4407,"Ġbottom":4408,"gorithm":4409,"Add":4410,"ĠEvent":4411,"Ġcliff":4412,"Ġnoise":4413,"Ġ'*":4414,"ĠRom":4415,"Ġwinter":4416,"IP":4417,"ped":4418,"Ġseas":4419,"Ġ70":4420,"Ġcommunity":4421,"Ġposs":4422,"Ġempty":4423,"Ġdevice":4424,"Ġmamm":4425,"Ġstain":4426,"Ġslightly":4427,"iking":4428,"Ġeval":4429,"Ġdocument":4430,"cked":4431,"Ġdangerous":4432,"Ġ350":4433,"ĠLisa":4434,"Ġpurpose":4435,"'),":4436,"Ġcompanies":4437,"Ġpizza":4438,"owing":4439,"ĠFagin":4440,"Ġaccept":4441,"Set":4442,"ĠIm":4443,"ĠFill":4444,"Ġplane":4445,"120":4446,"Ġspot":4447,"Ġadjust":4448,"ralia":4449,"kn":4450,"ĠSarah":4451,"era":4452,"Ġbul":4453,"Ġdiagn":4454,"ĠiPhone":4455,"Ġsite":4456,"Ġchall":4457,"unction":4458,"Ġcities":4459,"Ġoutdo":4460,"Ġwond":4461,"Ġvehicle":4462,"Ġteen":4463,"Ġdiscuss":4464,"Ġanxiety":4465,"Ġ34":4466,"Ġbare":4467,"ays":4468,"Ġ38":4469,"ĠLow":4470,"izations":4471,"Ġrelationships":4472,"Ġbath":4473,"rick":4474,"Ġdishes":4475,"Ġrespectively":4476,"Ġenter":4477,"ĠAmericans":4478,"ĠForm":4479,"uss":4480,"lor":4481,"Ġstaff":4482,"urs":4483,"Ġtrain":4484,"leased":4485,"Ġsorted":4486,"Ġlistening":4487,"lin":4488,"Ġsatis":4489,"Ġopening":4490,"Ġturned":4491,"Ġinvented":4492,"irty":4493,"Ġpoll":4494,"ĠAlso":4495,"Ġprofession":4496,"Ġexactly":4497,"Ġassess":4498,"ttps":4499,"Ġphotos":4500,"lace":4501,"Ġtheory":4502,"la":4503,"illing":4504,"Ġboard":4505,"Ġmoving":4506,"ĠOb":4507,"Ġpub":4508,"Ġmult":4509,"Ġinvestment":4510,"Ġdiam":4511,"Ġsubst":4512,"Ġdepression":4513,"Ġhighest":4514,"Ġbirthday":4515,"Ġpicture":4516,"ciety":4517,"Ġinstr":4518,"ĠParis":4519,"Ġcausing":4520,"aughter":4521,"Ġlegal":4522,"We":4523,"itary":4524,"Ġconcept":4525,"Ġplans":4526,"Ġprefer":4527,"Ġwasn":4528,"cially":4529,"ĠHello":4530,"Ġentity":4531,"Ġtunnel":4532,"Ġyet":4533,"Ġserious":4534,"ractions":4535,"Ġtransportation":4536,"Ġstraight":4537,"uous":4538,"utter":4539,"Ġstorm":4540,"Ġintelligence":4541,"oli":4542,"Ġoccup":4543,"},":4544,"Ġcab":4545,"Ġpage":4546,"Ġinsect":4547,"Ġhob":4548,"Ġreverse":4549,"Ġisn":4550,"Ġvine":4551,"Ġeconomic":4552,"lets":4553,"ĠDoes":4554,"Ġcells":4555,"purpose":4556,"\"].":4557,"ĠNone":4558,"omplete":4559,"isions":4560,"Ġpill":4561,"Ġyesterday":4562,"Ġcompletes":4563,"cies":4564,"Ġvitamins":4565,"Ġneutral":4566,"su":4567,"Ġsty":4568,"erals":4569,"Ġvacc":4570,"reak":4571,"Ġparticip":4572,"Ġwedding":4573,"Ġculture":4574,"Step":4575,"ault":4576,"Ġpoor":4577,"Ġrecently":4578,"Ġguit":4579,"Ġmagn":4580,"Ġtraffic":4581,"Ġrequires":4582,"Ġweigh":4583,"ĠDon":4584,"Ġvariable":4585,"Ġlately":4586,"Ġfab":4587,"Ġbacter":4588,"Ġscan":4589,"lies":4590,"Ġdoorway":4591,"Ġwaste":4592,"redient":4593,"Ġcavern":4594,"ĠShould":4595,"Ġcolumns":4596,"Ġkilled":4597,"Ġhighlight":4598,"Ġblocks":4599,"CO":4600,"Ġcaught":4601,"iforn":4602,"Ġate":4603,"Ġadded":4604,"?.":4605,"night":4606,"Ġproduces":4607,"Ġactually":4608,"Ġdifficulty":4609,"ued":4610,"Un":4611,"itude":4612,"Ġcurrently":4613,"Ġnuts":4614,"Ġneck":4615,"yed":4616,"26":4617,"ags":4618,"Ġclim":4619,"Ġinvolved":4620,"ifornia":4621,"west":4622,"Ġlen":4623,"Ġsheet":4624,"State":4625,"lebr":4626,"ĠYe":4627,"Ġgross":4628,"Ġspray":4629,"Ġcarbon":4630,"Ġexcited":4631,"LATED":4632,"Ġattend":4633,"Ġproced":4634,"Ġconsistent":4635,"Ġwine":4636,"Ġrandom":4637,"Ġregul":4638,"Ġindic":4639,"Ġrelaxation":4640,"iant":4641,"pite":4642,"ST":4643,"ĠPark":4644,"Steps":4645,"rid":4646,"iliar":4647,"Ġbasket":4648,"hips":4649,"Ġlogical":4650,"water":4651,"Ġgall":4652,"27":4653,"inary":4654,"Ġnick":4655,"AC":4656,"Ġ(-":4657,"Ġfrequently":4658,"over":4659,"ĠConvert":4660,"tered":4661,"Ġsister":4662,"ama":4663,"Ġrug":4664,"ĠPeople":4665,"ĠCont":4666,"Ġstarts":4667,"iam":4668,"Ġtells":4669,"Ġmemory":4670,"ĊĉĠĠĠ":4671,"Ġcryst":4672,"type":4673,"Ġast":4674,"ĠĠĠĠĠĠ":4675,"Ġbusinesses":4676,"Ġshelves":4677,"Ġvisible":4678,"ĠSam":4679,"Ġbecoming":4680,"medi":4681,"Ġmotiv":4682,"rix":4683,"RELATED":4684,"345":4685,"ollow":4686,"llent":4687,"ĠEd":4688,"500":4689,"Ġincorrect":4690,"Ġdough":4691,"appoint":4692,"rection":4693,"lection":4694,"ades":4695,"artment":4696,"ĠEvery":4697,"Ġconcent":4698,"acebook":4699,"Ġdecre":4700,"Ġchest":4701,"file":4702,"Ġattending":4703,"ashington":4704,"ences":4705,"Ġentertain":4706,"Ġod":4707,"ĠMus":4708,"Ġmarks":4709,"Ġvideos":4710,"iers":4711,"anges":4712,"String":4713,"Ġtomatoes":4714,"ĠAfrican":4715,"Ġaccom":4716,"Ġseek":4717,"Ġvegetable":4718,"len":4719,"uals":4720,"Ġroot":4721,"Ġsynonym":4722,"icy":4723,"ĠEating":4724,"Ġactive":4725,"Ġrights":4726,"Ġcapt":4727,"Ġdocuments":4728,"iable":4729,"straints":4730,"Ġsmoking":4731,"df":4732,"ĊĊ":4733,"Ġimpl":4734,"Ġdem":4735,"Ġfold":4736,"Ġtooth":4737,"Ġdrain":4738,"Ġtutor":4739,"Ġordered":4740,"Ġancient":4741,"Ġchol":4742,"Ġquant":4743,"Ġcommonly":4744,"Ġgrey":4745,"Ġnutri":4746,"anks":4747,"Ġcategory":4748,"bert":4749,"Ġreceive":4750,"Ġrates":4751,"friend":4752,"Ġten":4753,"ĠBu":4754,"Ġdrinks":4755,"Ġsilver":4756,"Ġtim":4757,"ĠHalf":4758,"ĠAsk":4759,"Ġpreferences":4760,"ĠCalifornia":4761,"rance":4762,"ĠFe":4763,"coming":4764,"Ġloud":4765,"Ġability":4766,"Ġ'/":4767,"esterol":4768,"Ġimmedi":4769,"Ġnouns":4770,"ogn":4771,"Ġincomplete":4772,"Ġhung":4773,"Ġscreen":4774,"iring":4775,"Ġcrit":4776,"UNRELATED":4777,"ĠNoah":4778,"Ġshap":4779,"Ġends":4780,"Ġcham":4781,"Ġinsert":4782,"Ġbroad":4783,"yees":4784,"osis":4785,"Ġwalks":4786,"addition":4787,"sych":4788,"opy":4789,"ĠInstruction":4790,"ĠPract":4791,"hood":4792,"Ġhol":4793,"ĠBill":4794,"Ġroof":4795,"ieval":4796,"29":4797,"itution":4798,"Ġlived":4799,"Ġhelping":4800,"Ġrust":4801,"Ġdeveloped":4802,"Ġruns":4803,"Ġreference":4804,"Ġaware":4805,"lined":4806,"Ġgranite":4807,"Ġfert":4808,"Ġdevices":4809,"Ġcategories":4810,"Ġconsidering":4811,"\",\"":4812,"Ġarms":4813,"Ġhuge":4814,"Ġrelie":4815,"Ġdigits":4816,"Is":4817,"zy":4818,"Ġcit":4819,"orpor":4820,"ĠTra":4821,"Ġemerg":4822,"anc":4823,"ĠCent":4824,"ĠEngland":4825,"--------":4826,"Ġabsolutely":4827,"Ġliquid":4828,"Ġring":4829,"ĠComp":4830,"Ġpickpocket":4831,"bra":4832,"Ġrelation":4833,"Ġhimself":4834,"ĠComplete":4835,"war":4836,"anas":4837,"Ġconcaten":4838,"Ġscientific":4839,"Ġanaly":4840,"Ġminerals":4841,"omb":4842,"Ġsoap":4843,"aph":4844,"erful":4845,"Ġdie":4846,"Ġshown":4847,"Ġrequirements":4848,"Ġemployers":4849,"Ġcert":4850,"ĠAc":4851,"Ġnor":4852,"kins":4853,"Ã©":4854,"Ġ44":4855,"Ġswimming":4856,"bi":4857,"Ġdiced":4858,"Ġmedieval":4859,"Ġserving":4860,"Ġsuitable":4861,"Ġherbs":4862,"Ġprotein":4863,"Ġpolitical":4864,"Ġjuice":4865,"Ġrestaurants":4866,"Ġsupple":4867,"Ġtreatments":4868,"400":4869,"Ġtsp":4870,"ĠTherefore":4871,"Ġdu":4872,"Ġvegan":4873,"*/":4874,"Ġsens":4875,"Ġconsisting":4876,"ĠFormat":4877,"Ġhear":4878,"Ġcholesterol":4879,"SA":4880,"ares":4881,"ĠPresident":4882,"10000":4883,"Ġocean":4884,"ica":4885,"Product":4886,"Ġquiet":4887,"rus":4888,"Ġship":4889,"Ġunex":4890,"Ġpaid":4891,"lex":4892,"ĠAfrica":4893,"Ġtor":4894,"Ġtiny":4895,"ara":4896,"Ġhallway":4897,"term":4898,"Ġorganizations":4899,"ĠJan":4900,"Ġarrived":4901,"ĠPatrick":4902,"uth":4903,"known":4904,"Ġ401":4905,"ĠWashington":4906,"ĠSure":4907,"osing":4908,"ament":4909,"istan":4910,"ĠFacebook":4911,"Ġfacts":4912,"Ġemployees":4913,"alsh":4914,"Ġdivis":4915,"Ġpu":4916,"igare":4917,"Ġintake":4918,"Ġremains":4919,"PER":4920,"ometers":4921,"Ġgather":4922,"Ġsem":4923,"Ġdeals":4924,"....":4925,"que":4926,"Ġexercising":4927,"Ġtur":4928,"stem":4929,"using":4930,"ensity":4931,"Ġautom":4932,"ĠInternet":4933,"Ġcott":4934,"Ġpound":4935,"Ġchoo":4936,"ĠAnother":4937,"0000000000000000":4938,"Ġcelebr":4939,"Ġdigital":4940,"vest":4941,"Ġthr":4942,"otic":4943,"Ġ199":4944,"Ġcas":4945,"Ġmut":4946,"Ġsuff":4947,"attered":4948,"],[":4949,"Ġbones":4950,"ĠComm":4951,"wh":4952,"Ġupper":4953,"Ġcandidates":4954,"Ġneighbor":4955,"Ġdefined":4956,"Ġproperties":4957,"Ġhole":4958,"Ġpunctuation":4959,"Ġsection":4960,"Ġdiscovered":4961,"Ġbeginning":4962,"Ġoverhead":4963,"Ġslept":4964,"Ġexperiences":4965,"inds":4966,"Ġremed":4967,"volution":4968,"Ġcatch":4969,"ĠOver":4970,"Ġcontinue":4971,"ĠDemocrats":4972,"Ġfuel":4973,"Ġinch":4974,"ĠII":4975,"ashion":4976,"Ġconnected":4977,"ole":4978,"Ġdeciding":4979,"ĠFrom":4980,"Ġworkers":4981,"Ġguitar":4982,"dy":4983,"Ġeff":4984,"Ġgrowing":4985,"Ġhydr":4986,"adem":4987,"appy":4988,"Ġcrow":4989,"aker":4990,"CA":4991,"edia":4992,"uts":4993,"change":4994,"aked":4995,"Ġsells":4996,"ucle":4997,"inger":4998,"Ġcompon":4999,"Ġrefers":5000,"Ġpatterns":5001,"Ġinfection":5002,"ded":5003,"rast":5004,"ĠTalk":5005,"Ġweap":5006,"Ġquite":5007,"Ġmansion":5008,"Ġprivate":5009,"ula":5010,"Par":5011,"Ġdefinition":5012,"Ġtour":5013,"ably":5014,"Ġsurrounding":5015,"),(":5016,"ĠCompute":5017,"dule":5018,"Ġrises":5019,"Ġaccounts":5020,"Ġrepresents":5021,"]]":5022,"Ġresponsible":5023,"Ġtu":5024,"Ġvotes":5025,"Ġdestination":5026,"cape":5027,"ĠTe":5028,"Ġcontrad":5029,"ĠHuman":5030,"Ġhealthcare":5031,"ĠProduct":5032,"Ġrom":5033,"Ġfrequent":5034,"Ġanal":5035,"ctors":5036,"ĠItem":5037,"ails":5038,"Ġnewsp":5039,"mber":5040,"Ġtoy":5041,"anging":5042,"Ġregard":5043,"levision":5044,"Ġexcept":5045,"Ġjew":5046,"ĠRes":5047,"Ġpictures":5048,"None":5049,"bled":5050,"Ġgraph":5051,"Ġaccident":5052,"Ġlack":5053,"ĠCat":5054,"Ġreplaced":5055,"Word":5056,"come":5057,"ĠWalsh":5058,"Ġspelling":5059,"iverse":5060,"Ġallowed":5061,"Ġterr":5062,"Ġhill":5063,"urch":5064,"Ġworn":5065,"ffe":5066,"Ġpenc":5067,"Ġpatient":5068,"Ġcash":5069,"Ġresulting":5070,"force":5071,"Ġbalance":5072,"Ġreligious":5073,"rupt":5074,"icro":5075,"stone":5076,"Ġshorter":5077,"([":5078,"log":5079,"Ġsnacks":5080,"lla":5081,"ĠGu":5082,"Ġbags":5083,"Ġcoastal":5084,"Ġcoins":5085,"Ġcomputers":5086,"ificial":5087,"300":5088,"Ġplastic":5089,"Ġ[[":5090,"ED":5091,"Ġbould":5092,"apers":5093,"Ġmouth":5094,"Ġgift":5095,"Ġnative":5096,"ads":5097,"Ġ98":5098,"Ġconcerns":5099,"Ġdiseases":5100,"ores":5101,"umps":5102,"ĠApple":5103,"osop":5104,"yond":5105,"ĠSw":5106,"Ġscr":5107,"Ġcarr":5108,"Ġallowing":5109,"pre":5110,"ky":5111,"ĠĠĠĠĠ":5112,"Ġstretch":5113,"Ġspecifically":5114,"Ġwife":5115,"Ġmarried":5116,"Ġboxes":5117,"iation":5118,"Ġsipping":5119,"Ġdecisions":5120,"Ġaside":5121,"ĠDis":5122,"Ġsomet":5123,"Ġengaging":5124,"Ġlies":5125,"Ġsche":5126,"Ġdisappoint":5127,"Ġkilometers":5128,"Ġchoosing":5129,"iday":5130,"46":5131,"ned":5132,"alid":5133,"ĠSu":5134,"ĠOff":5135,"Ġelectron":5136,"Ġunexpected":5137,"Ġscent":5138,"Ġinvolve":5139,"ilosop":5140,"Ġrows":5141,"Ġbecomes":5142,"hells":5143,"ppers":5144,"ups":5145,"ĠRecipe":5146,".<":5147,"Ġtemple":5148,"ltimately":5149,"Ġaccurate":5150,"Ġindependent":5151,"Ġexcellent":5152,"Ġfabric":5153,"1000":5154,"Ġund":5155,"Ġspends":5156,"Ġplayer":5157,"Ġmassive":5158,"Ġdiscounts":5159,"erry":5160,"Ġdaughter":5161,"rim":5162,"ĠSever":5163,"ĠYES":5164,"Ġdirection":5165,"Ġpromote":5166,"Ġsatisf":5167,"Ġ61":5168,"Ġslices":5169,"ĠHave":5170,"Ġbenefit":5171,"Ġhouses":5172,"Ġchecking":5173,"Ġoccurren":5174,"ĠExerc":5175,"Ġgrocery":5176,"\")":5177,"Ġeffort":5178,"Ġwash":5179,"Ġrests":5180,"ENT":5181,"heast":5182,"Ġapps":5183,"Pr":5184,"Ġschools":5185,"Ġounces":5186,"uum":5187,"Ġpolished":5188,"Ġmeters":5189,"Ġchemical":5190,"Ġtren":5191,"Ġunc":5192,"ĠLowe":5193,"Ġnutr":5194,"with":5195,"Ġsandw":5196,"Ġperspect":5197,"subtraction":5198,"Ġwal":5199,"Ġprime":5200,"Ġtrun":5201,"Ġrace":5202,"Ġoptim":5203,".'":5204,"Ġ37":5205,"lock":5206,"Ġprovider":5207,"ĠBlack":5208,"Ġmuscle":5209,"ĠSeveral":5210,"ĠDef":5211,"ourn":5212,"Ġprimary":5213,"ĠBattle":5214,"ĠSat":5215,"Ġking":5216,"Ġprocessed":5217,"Ġthoughts":5218,"Ġreceived":5219,"ĠUnion":5220,"Ġfats":5221,"gers":5222,"Ġpsych":5223,"igue":5224,"shi":5225,"Ġsupplies":5226,"**":5227,"reet":5228,"ĠNote":5229,"Ġolder":5230,"Ġprem":5231,"ĠLiberal":5232,"Ġbattle":5233,"Ġgently":5234,"Ġextreme":5235,"Ġwid":5236,"Ġ'-":5237,"ĠBar":5238,"Ġrecommendations":5239,"Ġorganic":5240,"Ġelected":5241,"Ġeconomy":5242,"Ġillum":5243,"Ġpotatoes":5244,"Ġspir":5245,"Ġtelevision":5246,"cip":5247,"Ġattract":5248,"Ġmindful":5249,"Ġhomes":5250,"ĠPut":5251,"Ġrating":5252,"Ġdressed":5253,"Ġdriver":5254,"ĠTommy":5255,"Ġnumpy":5256,"Ġfilling":5257,"Ġarrange":5258,".'].":5259,"Ġdru":5260,"Ġfamiliar":5261,"Ġjudge":5262,"ĠCut":5263,"Ġstanding":5264,"Ġcontainer":5265,"fs":5266,"hello":5267,"Ġinit":5268,"Ġdeclared":5269,"Ġmid":5270,"orough":5271,"Ġvary":5272,"Ġsmart":5273,"Ġminimum":5274,"Ġ196":5275,"Ġfest":5276,"Ġremedies":5277,"Ġconver":5278,"Ġwealth":5279,"Ġsmoke":5280,"band":5281,"Ġcoun":5282,"Ġcoat":5283,"atives":5284,"itter":5285,"Ġcollection":5286,"38":5287,"Ġ120":5288,"Ġhandle":5289,"Ġrealistic":5290,"Ġcourses":5291,"Ġsometimes":5292,"James":5293,"01":5294,"Ġrecogn":5295,"Ġguide":5296,"Ġahead":5297,"Ġcaffe":5298,"Ġprogramming":5299,"Ġleader":5300,"Ġpregnancy":5301,"Ġshadows":5302,"Ġrearrange":5303,"Ġangle":5304,"Ġ198":5305,"Ġtrends":5306,"Ġattempt":5307,"Â°":5308,"Ġhar":5309,"Ġhttps":5310,"Ġmedicine":5311,"Ġfatigue":5312,"Ġintroduced":5313,"Ġstories":5314,"Ġobtain":5315,"ĠAngel":5316,"ĠExercise":5317,"IC":5318,"ĠNOT":5319,"negative":5320,"Ġ//":5321,"44":5322,"Ġmur":5323,"ĠNO":5324,"pace":5325,"Ġdeliver":5326,"aul":5327,"Ġnote":5328,"Ġrose":5329,"Ġfocused":5330,"lete":5331,"ĠWhite":5332,"dent":5333,"hold":5334,"ĠGenerally":5335,"erie":5336,"Ġkm":5337,"Ġid":5338,"ĠFollow":5339,"Ġvines":5340,"ĠAny":5341,"icated":5342,"RO":5343,"Ġpig":5344,"Ġinn":5345,"Ġfashion":5346,"Ġprior":5347,"Ġfunds":5348,"bris":5349,"SON":5350,"ham":5351,"Ġlant":5352,"Ġnice":5353,"ĠJu":5354,"ĠMed":5355,"ĠJennie":5356,"ĠPersonY":5357,"ĠPractice":5358,"lands":5359,"stain":5360,"Ġappl":5361,"Ġbattery":5362,"150":5363,"Ġmoss":5364,"Ġvinegar":5365,"37":5366,"ĠMount":5367,"Ġalgorithm":5368,"well":5369,"Ġserve":5370,"Ġplain":5371,"mark":5372,"she":5373,"ĠAnt":5374,"irm":5375,"ĠProper":5376,"Ġlawn":5377,"Ġjewel":5378,"Ġtemperatures":5379,"oured":5380,"Ġinterv":5381,"Ġunw":5382,"Ġimmediately":5383,"ker":5384,"Ġtests":5385,"Ġedges":5386,"ĠMexico":5387,"Ġtoys":5388,"Ġthreat":5389,"Ġmilitary":5390,"Ġdepress":5391,"Ġpercentage":5392,"orage":5393,"Ġnums":5394,"Ġpand":5395,"fra":5396,"ipe":5397,"ruit":5398,"Ġbedtime":5399,"Ġsink":5400,"Ġeight":5401,"etime":5402,"((((":5403,"ĠAir":5404,"Ġdebris":5405,"Ġcabin":5406,"Take":5407,"find":5408,"atory":5409,"Ġnational":5410,"Ġlie":5411,"rab":5412,"entially":5413,"Ġthorough":5414,"ĠRuss":5415,"Ġflex":5416,"IT":5417,"Ġsad":5418,"istics":5419,"ĠJapanese":5420,"Ġnickname":5421,"rict":5422,"odies":5423,"Ġmill":5424,"Ġforward":5425,"abetes":5426,"ĠLabour":5427,"Ġexten":5428,"Ġ75":5429,"cles":5430,"oot":5431,"uis":5432,"Ġmild":5433,"Ġroots":5434,"Ġminute":5435,"xyz":5436,"ography":5437,"Ġcaffeine":5438,"Ġloose":5439,"can":5440,"Ġfed":5441,"ĠHigh":5442,"qr":5443,"ients":5444,"Ġsushi":5445,"Ġmeets":5446,"Ġdrug":5447,"Ġ39":5448,"Ġrough":5449,"cious":5450,"ĠUKIP":5451,"roll":5452,"aign":5453,"osure":5454,"ander":5455,"ANTI":5456,"Ġbake":5457,"ĠSun":5458,"ĠGre":5459,"Ġalphabetically":5460,"ae":5461,"ĠCook":5462,"Ġ48":5463,"lm":5464,"vil":5465,"Ġreturns":5466,"Ġvegetarian":5467,"Ġdouble":5468,"orous":5469,"Ġvoice":5470,"Ġromantic":5471,"Ġpine":5472,"Ġsolutions":5473,"Ġhotel":5474,"Ġupcoming":5475,"Ġplanet":5476,"Ġhope":5477,"Ġchronological":5478,"ĠDepending":5479,"Ġbacteria":5480,"bird":5481,"Ġnucle":5482,"ogram":5483,"Ġelection":5484,"Ġenvironmental":5485,"NA":5486,"ĠAcc":5487,"Ġsalary":5488,"Ġnearly":5489,"Ġbasics":5490,"Ġqualifications":5491,"Ġboo":5492,"pecially":5493,"Ġrabb":5494,"ĠAustralia":5495,"Ġbedroom":5496,"Ġcandles":5497,"Ġwinner":5498,"Ġbeyond":5499,"Ġleaned":5500,"Art":5501,"Ġspeaker":5502,"Ġbot":5503,"Ġstorage":5504,"Ġsupports":5505,"Ġsongs":5506,"rical":5507,"Ġlands":5508,"ashed":5509,"ionally":5510,"ĠPot":5511,"Ġroast":5512,"()()()()":5513,"\").":5514,"Ġentities":5515,"bc":5516,"Ġunits":5517,"Ġstrategy":5518,"abul":5519,"Ġmistakes":5520,"[]":5521,"bur":5522,"Ġtelling":5523,"Ġfilter":5524,"nes":5525,"vere":5526,"ado":5527,"bbbb":5528,"oe":5529,"HE":5530,"Ġdiabetes":5531,"got":5532,"Ġshells":5533,"Pre":5534,"ply":5535,"ĠBy":5536,"Ġhowever":5537,"Ġwaves":5538,"Ġvict":5539,"Ġbelieved":5540,"ĠJewish":5541,"ĠSte":5542,"Ġhydrated":5543,"Ġespecially":5544,"Ġdirty":5545,"Ġprepar":5546,"Ġmonitor":5547,"Ġtower":5548,"Ġassem":5549,"icks":5550,"issors":5551,"Ġyard":5552,"ĠSpe":5553,"Ġphilosop":5554,"Ġforever":5555,"56":5556,"ĊĠĠĠĠĠ":5557,"Ġappearance":5558,"Ġharmful":5559,"ccer":5560,"Ġkeeping":5561,"Ġconcern":5562,"Ġconclus":5563,".?":5564,"EO":5565,"Ġmort":5566,"Ġstove":5567,"Ġstraw":5568,"Ġreferences":5569,"Ġinternational":5570,"person":5571,"Ġreliable":5572,"Ġbear":5573,"ĠPCC":5574,"72":5575,"ening":5576,"lings":5577,"raft":5578,"ĠHouse":5579,"Ġpainted":5580,"Ġamounts":5581,"\"]":5582,"org":5583,"Ġresem":5584,"hered":5585,"Ġreleased":5586,"Ġpeace":5587,"Ġarranged":5588,"ttes":5589,"sm":5590,"uations":5591,"Ġ300":5592,"Ġapplication":5593,"ician":5594,"Ġfeedback":5595,"Ġsignificant":5596,"ĠCanada":5597,"ĠIRA":5598,"MP":5599,"pire":5600,"Ġfelt":5601,"Ġlights":5602,"Ġchalleng":5603,"ĠAct":5604,"Ġsteak":5605,"Ġmagaz":5606,"fr":5607,"Ġadjective":5608,"Ġcombine":5609,"Are":5610,"aming":5611,"ipment":5612,"Ġbrass":5613,"Ġstandard":5614,"Ġcampaign":5615,"Ġbreeze":5616,"Ġcm":5617,"Ġpale":5618,"Ġstrug":5619,"Ġcloves":5620,"Ġapproach":5621,"ĠMadison":5622,"Ġseed":5623,"Ġ31":5624,"Al":5625,"omen":5626,"Ġprotection":5627,"Ġtaller":5628,"quate":5629,"=$":5630,"();":5631,"Ġsoup":5632,"Ġversion":5633,"><":5634,"Ġplate":5635,"Ġrub":5636,"Ġfiles":5637,"Ġpasta":5638,"Ġpowerful":5639,"Ġheavily":5640,"Ġade":5641,"comfort":5642,"Ġclosest":5643,"abor":5644,"illet":5645,"ĠPol":5646,"phone":5647,"Ġhappens":5648,"awkins":5649,"olf":5650,"Ġdirections":5651,"Ġremoved":5652,"Ġeerie":5653,"uary":5654,"Ġscissors":5655,"weight":5656,"Ġoutputs":5657,"Ġbold":5658,"riage":5659,"igarettes":5660,"ym":5661,"Ġsaying":5662,"Ġfaster":5663,"Ġpour":5664,"Ġburning":5665,"lim":5666,"Ġplayers":5667,"Ġequipment":5668,"Ġposts":5669,"Ġcarrots":5670,"Ġ1000":5671,"Ġboil":5672,"Ġmanagement":5673,"ĠArtful":5674,"Ġ400":5675,"Ġcorresponds":5676,"Ġabsor":5677,"Ġseashells":5678,"Ġlake":5679,"']..":5680,"Ġforce":5681,"amps":5682,"uries":5683,"Ġhabits":5684,"âĢĶ":5685,"apital":5686,"Ġchamber":5687,"Ġaspect":5688,"Ġswitch":5689,"42":5690,"Ġherself":5691,"Constraints":5692,"raz":5693,"Ġunit":5694,"Ġ>>":5695,"oter":5696,"ĠHill":5697,"Ġgirls":5698,"estions":5699,"pperc":5700,"Ġpoly":5701,"Ġmodern":5702,"ĠRoman":5703,"body":5704,"Ġcheap":5705,"Ġmodels":5706,"Ġpassed":5707,"AB":5708,"Ġpayment":5709,"Ġobserv":5710,"lier":5711,"roat":5712,"Ġanswered":5713,"Ġcentral":5714,"Ġmenu":5715,"Ġcloud":5716,"Ġratings":5717,"Ġcopy":5718,"ĠUltimately":5719,"Ġgrand":5720,"ibly":5721,"Ġcircle":5722,"Wh":5723,"Ġhosp":5724,"Ġwinds":5725,"vas":5726,"Ġmap":5727,"Ġcrime":5728,"ĠAlex":5729,"ĠWest":5730,"Ġforeign":5731,"Ġsusp":5732,"arts":5733,"Ġplatforms":5734,"Ġstd":5735,"Ġchanged":5736,"Ġtickets":5737,"ĠSol":5738,"Ġcontradict":5739,"fraid":5740,"Ġafraid":5741,"eat":5742,"ilk":5743,"LO":5744,"Ġmis":5745,"char":5746,"Ġmultiplication":5747,"ĠParagraph":5748,"arily":5749,"Ġworksh":5750,"alian":5751,"Ġ150":5752,"Ġmathematical":5753,"bu":5754,"rel":5755,"roid":5756,"www":5757,"ĠSince":5758,"inations":5759,"Ġreve":5760,"ĠHalfling":5761,"Ġadvert":5762,"yal":5763,"lly":5764,"ĠMen":5765,"Ġtone":5766,"ĠServ":5767,"text":5768,"ĠDec":5769,"Ġeveryday":5770,"ĠGermany":5771,"Ġsurpr":5772,"Ġencount":5773,"Ġfence":5774,"Ġlad":5775,"ĠBC":5776,"Ġcouldn":5777,"Ġsurfaces":5778,"babbab":5779,"ufact":5780,"Ġneither":5781,"Ġsilk":5782,"Ġspr":5783,"Ġalone":5784,"sum":5785,"Ġjourn":5786,"Ġhiking":5787,"Ġimpossible":5788,"Ġvisiting":5789,"Ġmatches":5790,"Ġbarely":5791,"ugar":5792,"ppercase":5793,"zer":5794,"Ġcout":5795,"Ġstack":5796,"Ġskillet":5797,"Ġsubset":5798,"Ġwilling":5799,"inoa":5800,"usion":5801,"Ġbrand":5802,"oxide":5803,"Ġexperienced":5804,"Ġstair":5805,"ĠDawkins":5806,"Ġpublished":5807,"leep":5808,"Ġtapest":5809,"Ġhus":5810,"Ġ96":5811,"Ġbushes":5812,"ĠKeep":5813,"79":5814,"Count":5815,"Ġwarming":5816,"ennis":5817,"cont":5818,"separ":5819,"Ġbodies":5820,"Ġmatt":5821,"Ġmole":5822,"irect":5823,"Ġ500":5824,"Ġnotice":5825,"Ġschedule":5826,"=$<<":5827,"ĠIdent":5828,"Ġconduct":5829,"ĠEven":5830,"ĠThai":5831,"Ġrepair":5832,"Ġhistor":5833,"Head":5834,"berry":5835,"izer":5836,"Ġessay":5837,"ĠRepublic":5838,"ancing":5839,"Ġhoney":5840,"value":5841,"Ġencourage":5842,"Ġjoin":5843,"ĠUN":5844,"Ġpartner":5845,"vant":5846,"lying":5847,"Ġhello":5848,"Ġpros":5849,"Ġexh":5850,"Ġoils":5851,"Ġ!":5852,"usiness":5853,"Ġfewer":5854,"Ġfalling":5855,"fer":5856,"Ġhund":5857,"Ġeats":5858,"Ġadvis":5859,"Ġartificial":5860,"Ġroute":5861,"ĠAngeles":5862,"Ġproduction":5863,"Ġentry":5864,"Ġaccordingly":5865,"Paragraph":5866,"Ġuppercase":5867,"Ġunf":5868,"Ġmyst":5869,"Ġ139":5870,"Ġmagical":5871,"Ġcamera":5872,"ĠBates":5873,"59":5874,"ĠStreet":5875,"Ġinsight":5876,"Ġlemon":5877,"Ġwhose":5878,"idden":5879,"Ġhonest":5880,"Ġfaint":5881,"hand":5882,"Ġer":5883,"Ġseeing":5884,"ora":5885,"Ġliter":5886,"ĠMin":5887,"Ġsociety":5888,"ĠGreek":5889,"fall":5890,"Ġfair":5891,"Ġgang":5892,"ilies":5893,"phant":5894,"xygen":5895,"hetic":5896,"02":5897,"look":5898,"outs":5899,"Ġnutrients":5900,"ran":5901,"Ġbridge":5902,"ĠNews":5903,"happy":5904,"Ġwashing":5905,"Ġstom":5906,"ĠRemove":5907,"Ġ42":5908,"Ġpositions":5909,"Ġballs":5910,"inst":5911,"Ġgloomy":5912,"Ġep":5913,"oop":5914,"ĠGod":5915,"Ġmanufact":5916,"Ġkeywords":5917,"Ġvacuum":5918,"razil":5919,"Ġcobb":5920,"Ġexamples":5921,"ipedia":5922,"positive":5923,"Ġreasoning":5924,"Ġfarmland":5925,"Des":5926,"irts":5927,"Ġadequate":5928,"Ġprop":5929,"ikipedia":5930,"3333":5931,"Ġmir":5932,"ifts":5933,"Ġoffering":5934,"Ġprocedure":5935,"Ġ114":5936,"*.":5937,"2000":5938,"Ġthera":5939,"Ġminimal":5940,"Ġoperation":5941,"Ġthroat":5942,"Ġtoward":5943,"Ġaccompl":5944,"rooms":5945,"Ġunderlined":5946,"Ġholds":5947,"Ġseg":5948,".\"\"\"":5949,"books":5950,"icious":5951,"Ġfees":5952,"Ġchopped":5953,"ĠJoe":5954,"Ġthoroughly":5955,"Ġopportunity":5956,"Ingredients":5957,"Ġ'*'":5958,"range":5959,"Ġillness":5960,"Ġtutorials":5961,"Ġmode":5962,"Ġtwe":5963,"oday":5964,"ĠWater":5965,"Ġscen":5966,"Ġfever":5967,"Ġshel":5968,"Ġsimply":5969,"Ġhungry":5970,"Ġperspective":5971,"NE":5972,"Ġdisco":5973,"Ġcutting":5974,"49":5975,"free":5976,"Ġ______":5977,"ĠHi":5978,"Ġsummar":5979,"Ġastron":5980,"top":5981,"ghan":5982,"Ġboiling":5983,"ĠBrown":5984,"Ġcomponents":5985,"ĠSn":5986,"Ġremoving":5987,"Ġoriginally":5988,"minist":5989,"Ġcitiz":5990,"+'(":5991,"Ġselection":5992,"iency":5993,"Ġthrow":5994,"rency":5995,"Ġbat":5996,"Ġ56":5997,"Ġindividuals":5998,"())":5999,"ĠSim":6000,"Ġexchange":6001,"Ġkinds":6002,"Ġpean":6003,"Ġtattoos":6004,"cribe":6005,"Ġnutrition":6006,"Ġhealthier":6007,"RU":6008,"cience":6009,"ĠWhile":6010,"Ġsurv":6011,"Ġdivide":6012,"Ġelectricity":6013,"uv":6014,"Ġpasseng":6015,"ĠEnc":6016,"Ġdrugs":6017,"ĠPer":6018,"Ġsoccer":6019,"Ġdarkness":6020,"?,":6021,"ĠSan":6022,"Ġworried":6023,"Ġchips":6024,"ĠName":6025,"Ġusage":6026,"arsh":6027,"Ġ{'":6028,"Ġlogically":6029,"Ġestablish":6030,"ĠOut":6031,"Ġdifferences":6032,"verb":6033,"Ġmoved":6034,"rip":6035,"Ġemb":6036,"Ġspots":6037,"Ġmyself":6038,"Ġparagraphs":6039,"Ġsolid":6040,"craft":6041,"yr":6042,"Ġsight":6043,"Ġteaspoons":6044,"Ġrectangle":6045,"800":6046,"inter":6047,"ĠIN":6048,"Ġscattered":6049,"Ġcommit":6050,"Ġmentions":6051,"Ġtomato":6052,"Ġinstrument":6053,"1000000":6054,"ĠItalian":6055,"Ġregion":6056,"Ġcounse":6057,"inch":6058,"Ġclust":6059,"odes":6060,"ijk":6061,"Com":6062,"Ġic":6063,"Ġax":6064,"Ġdivisible":6065,"!\"":6066,"pm":6067,"Ġboss":6068,"Ġsimpl":6069,"Ġoutdoor":6070,"icals":6071,"avig":6072,"Ġdebt":6073,"true":6074,"Ġflower":6075,"Ġexpectations":6076,"Ġconsumption":6077,"Ġsend":6078,"Ġwoods":6079,"Ġfan":6080,"ĠIdentify":6081,"31":6082,"gling":6083,"hel":6084,"Ġfiber":6085,"ateful":6086,"separated":6087,"life":6088,"alle":6089,"etch":6090,"Ġchance":6091,"ĠBo":6092,"Ġcharge":6093,"Ġwaiting":6094,"Ġreferring":6095,"Ġenchant":6096,"Ġcorn":6097,"Ġclearly":6098,"ĠMoon":6099,"Ġlod":6100,"Ġemergency":6101,"Ġtight":6102,"ĠTrump":6103,"MM":6104,"Ġmeasures":6105,"ĠCharley":6106,"inating":6107,"Ġnic":6108,"zing":6109,"idents":6110,"Ġsustain":6111,"Ġwhisk":6112,"Ġcontract":6113,"Ġholding":6114,"Ġbottle":6115,"Ġther":6116,"Ġhur":6117,"Ġclick":6118,"ĠMaria":6119,"Statement":6120,"uce":6121,"Ġtent":6122,"Ġhabit":6123,"atural":6124,"road":6125,"Ġuniverse":6126,"issions":6127,"year":6128,"Ġweapons":6129,"FO":6130,"ague":6131,"hesis":6132,"Ġrelative":6133,"Ġconfident":6134,"Ġcivil":6135,"yer":6136,"ĠJe":6137,"Ġsuggestions":6138,"function":6139,"Ġmob":6140,"Ġmos":6141,"Ġbackground":6142,"Ġexposure":6143,"Ġsus":6144,"Ġglow":6145,"Ġprofessionals":6146,"Ġshapes":6147,"ulate":6148,"Ġstudies":6149,"aid":6150,"yon":6151,"Ġtraveling":6152,"%.":6153,"van":6154,"ednes":6155,"Ġgate":6156,"ĠStud":6157,"Ġprec":6158,"return":6159,"lest":6160,"umbers":6161,"Ġisland":6162,"Ġhanging":6163,"Ġmotivated":6164,"ednesday":6165,"AD":6166,"ipped":6167,"Ġwire":6168,"asons":6169,"Ġtherapy":6170,"eks":6171,"Ġhappening":6172,"Can":6173,"more":6174,"max":6175,"ership":6176,"Ġtried":6177,"gram":6178,"osc":6179,"aving":6180,"Ġrule":6181,"Ġbusy":6182,"Ġyounger":6183,"Ġeth":6184,"ĠBoth":6185,"oph":6186,"cular":6187,"Ġresidence":6188,"Ġuseful":6189,"Ġsynt":6190,"Ġpassword":6191,"ĠCharles":6192,".[":6193,"Ġadults":6194,"Ġevenly":6195,"Ġassign":6196,"itamin":6197,"Ġjewelry":6198,"Ġgoods":6199,"Ġbound":6200,"Ġmeaningful":6201,"Ġstomach":6202,"jo":6203,"althy":6204,"isms":6205,"duc":6206,"Ġcraft":6207,"reci":6208,"Ġreput":6209,"ĠNations":6210,"urer":6211,"elly":6212,"Ġfourth":6213,"Ġbills":6214,"Ġbrothers":6215,"Ġbenches":6216,"world":6217,"agers":6218,"ositive":6219,"Ġshelf":6220,"________":6221,"Ġdisappointed":6222,"67":6223,"urday":6224,"Ġscrew":6225,"ĠOrgan":6226,"Ġenchanting":6227,"Ġrespond":6228,"ĠGerman":6229,"pers":6230,"idance":6231,"roup":6232,"Ġrecords":6233,"Ġturnout":6234,"Ġconfl":6235,"ĠDevelop":6236,"Ġalternative":6237,"47":6238,"Ġnest":6239,"Option":6240,"aj":6241,"vet":6242,"athered":6243,"erb":6244,"ĠBob":6245,"Ġguidance":6246,"ĠDescription":6247,"Ġdates":6248,"aaaa":6249,"Ġneat":6250,"Ġrabbit":6251,"Ġevening":6252,"Ġbreasts":6253,"Ġconclusion":6254,"Ġstation":6255,"Ġsurve":6256,"sn":6257,"aded":6258,"ammation":6259,"Ġdent":6260,"Ġpicked":6261,"sol":6262,"Ġ__":6263,"Ġwake":6264,"Ġhunt":6265,"Ġacid":6266,"Ġimproving":6267,"Ġreward":6268,"agged":6269,"Ġpoison":6270,"Ġproduced":6271,"ĠAssign":6272,"Ġhusband":6273,"ux":6274,"Ġsituations":6275,"Ġsteel":6276,"Words":6277,"mail":6278,"Ġbuys":6279,"Ġrack":6280,"Ġcreative":6281,"ĠCountry":6282,"Ġexcess":6283,"Ġinflammation":6284,"cu":6285,"Ġble":6286,"Ġweeds":6287,"Ġhighly":6288,"Ġearlier":6289,"Ġmatrix":6290,"Ġmixed":6291,"==":6292,"Ġgiant":6293,"Ġrap":6294,"screen":6295,"Ġeventually":6296,"Ġpolicy":6297,"Ġbone":6298,"Ġsale":6299,"Ġrecy":6300,"pril":6301,"Ġbasketball":6302,"archer":6303,"ĠDay":6304,"Ġspring":6305,"ĠJul":6306,"Ġfields":6307,"Ġnone":6308,"Ġorbit":6309,"ĠWind":6310,"ĠCO":6311,"Ġpoem":6312,"Ġoccurred":6313,"Ġscientists":6314,"forcement":6315,"asm":6316,"lope":6317,"ĠLos":6318,"Ġclosed":6319,"Ġfear":6320,"335":6321,"ghanistan":6322,"Ġwoke":6323,"Ġweak":6324,"ĠJuly":6325,"oted":6326,"Ġdried":6327,"urname":6328,"Ġevaluate":6329,"Ġlau":6330,"ĠWell":6331,"Ġblond":6332,"ĠCompose":6333,"Ġreduced":6334,"Ġtennis":6335,"Ġple":6336,"aled":6337,"Ġnause":6338,"Ġstuff":6339,"unks":6340,"aren":6341,"Ġdivision":6342,"Ġbananas":6343,"Ġhospital":6344,"My":6345,"Ġdur":6346,"ĠEr":6347,"Ġinfer":6348,"Ġended":6349,"ĠEnjoy":6350,"give":6351,"lar":6352,"Ġquery":6353,"Ġ64":6354,"Ġairport":6355,"ĠMc":6356,"ĠBen":6357,"ipp":6358,"Ġpile":6359,"Ġkg":6360,"Ġnose":6361,"Ġstatue":6362,"Ġfrozen":6363,".:":6364,"Ġmoves":6365,"Ġvoc":6366,"Ġpresence":6367,"Ġrectang":6368,"Ġune":6369,"Ġsupply":6370,"Ġpollution":6371,"ourney":6372,"Ġwidth":6373,"Pro":6374,"Ġoranges":6375,"Ġplausible":6376,"iods":6377,"Ġconstruct":6378,"ING":6379,"Ġ'/'":6380,"Ġfactor":6381,"yard":6382,"Ġears":6383,"rial":6384,"Ġwhom":6385,"ressive":6386,"Ġvolume":6387,"570":6388,"cember":6389,"forest":6390,"Ġperiods":6391,"aws":6392,"ĠAI":6393,"estic":6394,"dden":6395,"Ġlabor":6396,"Ġbillion":6397,"Ġgender":6398,"Ġproof":6399,"Ġeffectively":6400,"Ġaffordable":6401,"counter":6402,"65":6403,"gi":6404,"Ġowner":6405,"Ġestate":6406,"off":6407,"Ġ%":6408,"Ġfa":6409,"index":6410,"Ġtotals":6411,"Ġcalls":6412,"Instruction":6413,"Ġconflict":6414,"Ġ65":6415,"Ġmuse":6416,"GET":6417,"ait":6418,"item":6419,"allow":6420,"ĠMo":6421,"des":6422,"Ġtrade":6423,"othesis":6424,"Ġangry":6425,"Not":6426,"Ġseven":6427,"Ġwheel":6428,"Ġtechnique":6429,"ĠAsia":6430,"Ġhorse":6431,"encies":6432,"Ġcontrast":6433,"Ġteaching":6434,"Ġstrange":6435,"Answer":6436,"Ġdetermined":6437,"Ġpump":6438,"Ġgun":6439,"Ġquinoa":6440,"code":6441,"Ġrealized":6442,"First":6443,"ka":6444,"Ġgone":6445,"Ġweekend":6446,"pted":6447,"Ġalthough":6448,"Ġscale":6449,"Ġkeys":6450,"Ġsalad":6451,"Ġflying":6452,"Ġcrystal":6453,"Ġpink":6454,"Ġrelease":6455,"Ġonions":6456,"wo":6457,"lean":6458,"ĠWilliam":6459,"Ġcheerful":6460,"tenance":6461,"Ġdownload":6462,"Ġfocuses":6463,"Ġpanel":6464,"PersonX":6465,"Ġrounded":6466,"Ġbottles":6467,"flour":6468,"ĠSchool":6469,"osen":6470,"Ġhumid":6471,"ĠPeter":6472,"Ġ33":6473,"Ġinfluen":6474,"inse":6475,"').":6476,"Ġsurname":6477,"Ġlamp":6478,"ĠWednesday":6479,"Ġscratch":6480,"umin":6481,"ĠPaul":6482,"ĠInvest":6483,"ĠJoan":6484,"Ġapartment":6485,"low":6486,"Ġbinary":6487,"ilize":6488,"Ġshot":6489,"ĠBBC":6490,"itect":6491,"Ġallergic":6492,"Bake":6493,"Ġoz":6494,"Ġinformed":6495,"Ġmonthly":6496,"eries":6497,"Ġupd":6498,"Ġjump":6499,"ancis":6500,"ĠSaturday":6501,"kick":6502,"Ġreasons":6503,"ĠSal":6504,"ĠIts":6505,"Ġgrams":6506,"ĠDecember":6507,"Ġrepeats":6508,"ĠJanuary":6509,"ML":6510,"Mix":6511,"yn":6512,"Ġcuis":6513,"ĠJust":6514,"Ġraise":6515,"Ġassist":6516,"03":6517,"ference":6518,"Ġbonds":6519,"uted":6520,"ĠIngredient":6521,"Ġdupl":6522,"vantages":6523,"RI":6524,"Ġmask":6525,"Ġreorder":6526,"Ġboys":6527,"Ġgreatest":6528,"Ġadvent":6529,"Ġstaying":6530,"unte":6531,"iate":6532,"Ġoxygen":6533,"Ġgrows":6534,"Ġprofit":6535,"fish":6536,"Ġchosen":6537,"ĠSmall":6538,".\",":6539,"Name":6540,"bies":6541,"fit":6542,"Ġrewards":6543,"Ġstro":6544,"nee":6545,"Ġenjoyed":6546,"ĠQue":6547,"cling":6548,"Ġdioxide":6549,"ĠRevolution":6550,"Ġallergies":6551,"Ġaccomplish":6552,"std":6553,"Ġarmy":6554,"Ġwhenever":6555,"box":6556,"Ġcircular":6557,"ĠEncourage":6558,"itute":6559,"ĠAg":6560,"aes":6561,"Ġjoint":6562,"Ġknock":6563,"ysis":6564,"ĠTrans":6565,"Ġgroceries":6566,"Ġcough":6567,"ĠLa":6568,"Ġemotional":6569,"Ġestablished":6570,"Ġlighting":6571,"Ġdepartment":6572,"Ġclimb":6573,"reg":6574,"ĠItaly":6575,"Ġinstances":6576,"Ġ72":6577,"Ġcris":6578,"umes":6579,"Ġcorners":6580,"Ġtruth":6581,"Ġspecialize":6582,"ĠSystem":6583,"nds":6584,"ĠGold":6585,"Ġbreaking":6586,"Ġsubtraction":6587,"Ġcultural":6588,"ĠHarry":6589,"ĠReg":6590,"Ġcomma":6591,"fortun":6592,"392":6593,"Ġoccasionally":6594,"Ġ55":6595,"arest":6596,"Ġoffered":6597,"Ġnamespace":6598,"ĠIndian":6599,"Ġfails":6600,"Ġpencils":6601,"Ġconcerned":6602,"85":6603,"Ġtherap":6604,"Ġmold":6605,"ĠFrancis":6606,"Ġsaucepan":6607,"Ġcalm":6608,"Ġdedu":6609,"ĠMost":6610,"Ġloves":6611,"Ġfloors":6612,"Ġsidekick":6613,"ĠProperty":6614,"gings":6615,"Ġdoctors":6616,"Ġairline":6617,"Ġturning":6618,"Ġfootball":6619,"luded":6620,"Ġmarbles":6621,"Ġentertainment":6622,"Ġodor":6623,"->":6624,"Ġkid":6625,"ĠBeat":6626,"Ġdiamond":6627,"Ġmystical":6628,"rons":6629,"Ġtire":6630,"Ġaim":6631,"Ġvirt":6632,"osition":6633,"Ġappoint":6634,"Ġindices":6635,"Ġbudgets":6636,"'+'(":6637,"Ġthous":6638,"Ġclassic":6639,"Ġlots":6640,"Ġdomain":6641,"017":6642,"Ġrein":6643,"aks":6644,"Ġsevere":6645,"eline":6646,"Ġmaintaining":6647,"Ġcoup":6648,"89":6649,"Place":6650,"ey":6651,"gg":6652,"ena":6653,"omic":6654,"Ġpractices":6655,"Ġhammer":6656,"fol":6657,"Ġbench":6658,"Ġoccurrences":6659,"Sentences":6660,"bly":6661,"cest":6662,"ouds":6663,"Ġbike":6664,"ĠSund":6665,"Ġalt":6666,"Ġrash":6667,"ologist":6668,"gypt":6669,"Ġreaction":6670,"Mary":6671,"ynt":6672,"Ġfac":6673,"ĠLar":6674,"Ġrising":6675,"Ġcommunicate":6676,"ursday":6677,"false":6678,"Ġhidden":6679,"ĠWikipedia":6680,"ĠJim":6681,"Ġants":6682,"Ġmoment":6683,"Ġcoordinates":6684,"uable":6685,"Ġloyal":6686,"Ġchemicals":6687,"agonist":6688,"Ġil":6689,"igr":6690,"quality":6691,"Ġjourney":6692,"Ġpeanut":6693,"ĠFin":6694,"Ġwhereas":6695,"ĠDoe":6696,"Ġrepresented":6697,"ĠEuropean":6698,"Ġhorrible":6699,"Ġacadem":6700,"Ġadvance":6701,"Ġpracticing":6702,"Ġcolorful":6703,"ville":6704,"Ġboost":6705,"Ġyes":6706,"orted":6707,"Ġflag":6708,"Ġexpand":6709,"Ġvisual":6710,"Ġtruck":6711,"Ġnuclear":6712,"imize":6713,"ĠIngredients":6714,"yo":6715,"Ġhate":6716,"Ġforces":6717,"Ġrude":6718,"flow":6719,"Ġrepresenting":6720,"lusive":6721,"AS":6722,"Ġdance":6723,"ago":6724,"Ġdemon":6725,"ĠBel":6726,"Ġretain":6727,"ĠDrink":6728,"mp":6729,"ero":6730,"Ġincorpor":6731,"Ġbranch":6732,"Ġboulders":6733,"ĠAM":6734,"ĠRome":6735,"egative":6736,"Ġslice":6737,"Ġexposed":6738,"ĠBefore":6739,"Ġdivided":6740,"utes":6741,"nums":6742,"amous":6743,"ulated":6744,"ria":6745,"Ġleaf":6746,"Ġadult":6747,"Ġserved":6748,"Ġboots":6749,"600":6750,"vin":6751,"ifier":6752,"Ġcompass":6753,"Ġmaintenance":6754,"Ġpaying":6755,"mas":6756,"Ġder":6757,"ĠDid":6758,"Ġuns":6759,"Ġdistrib":6760,"Ġparticles":6761,"Ġarchitect":6762,"Ġdepressing":6763,"green":6764,"Ġ180":6765,"Ġnetworking":6766,"Ġmoisture":6767,"Ġpets":6768,"Ġmarked":6769,"ĠBlue":6770,"ĠMain":6771,"Ġfinished":6772,"ht":6773,"Ġtense":6774,"Ġinh":6775,"Ġdel":6776,"formation":6777,"Ġcleaner":6778,"Ġphoto":6779,"Do":6780,"Test":6781,"ĠID":6782,"urdy":6783,"Ġchilling":6784,"aped":6785,"Ġparalle":6786,"Ġraised":6787,"valid":6788,"Ġpolicing":6789,"Ġgeomet":6790,"ĠSecond":6791,"Ġencounters":6792,"cel":6793,"Ġalb":6794,"Ġresearcher":6795,"Ġexperiencing":6796,"\"],":6797,"64":6798,"RAL":6799,"Ġdamp":6800,"Ġbears":6801,"Ġexpert":6802,"Ġexisting":6803,"Ġmerchant":6804,"Ant":6805,"healthy":6806,"Ġworse":6807,"Ġnotes":6808,"Ġwriter":6809,"Ġheadaches":6810,"Ġpresentation":6811,"Ġlodgings":6812,"Ġilleg":6813,"ĠArab":6814,"Ġshore":6815,"enses":6816,"Ġconnection":6817,"Ġcontinues":6818,"Ġcommas":6819,"Ġparaph":6820,"Ġsteep":6821,"Ġclosely":6822,"Ġshat":6823,"Ġ(\"":6824,"Ġequival":6825,"Three":6826,"Ġshadow":6827,"Ġinsects":6828,"ĠAb":6829,"Ġhats":6830,"ĠTaking":6831,"Ġsudden":6832,"rained":6833,"Ġspark":6834,"Ġfunctions":6835,"gery":6836,"Ġconstant":6837,"Ġobjective":6838,"Ġsafely":6839,"Ġconcentration":6840,"Ġinnoc":6841,"aze":6842,"Ġcourty":6843,"Ġfully":6844,"apor":6845,"plane":6846,"Item":6847,"</":6848,"Ġminced":6849,"Ġpurchases":6850,"ĠUt":6851,"Ġcompound":6852,"Ġcomposed":6853,"Ġlamb":6854,"ĠPM":6855,"Ġvow":6856,"ĠNow":6857,"Ġcompleting":6858,"Ġtan":6859,"Ġforecast":6860,"abcdef":6861,"win":6862,"Ġvert":6863,"Ġchain":6864,"Ġinvestig":6865,"ikes":6866,"Ġsexual":6867,"ola":6868,"Ġjoining":6869,"ml":6870,"Ġscar":6871,"Ġbroth":6872,"cope":6873,"Ġsavory":6874,"ĠCour":6875,"Ġdespite":6876,"ĠVal":6877,"Ġselecting":6878,"ĠObject":6879,"uated":6880,"vis":6881,"ĠEast":6882,"ĠOf":6883,"Ġfallen":6884,"Ġspeakers":6885,"Ġpermut":6886,"warf":6887,"Ġnavig":6888,"Ġconven":6889,"Ġscru":6890,"Ġrope":6891,"Ġlanguages":6892,"Ġdigit":6893,"ĠSum":6894,"ĠDav":6895,"Ġnode":6896,"airy":6897,"ĠFriday":6898,"Ġcolleges":6899,"Ġpackage":6900,"Ġhobby":6901,"Ġcush":6902,"Ġatop":6903,"Ġturns":6904,"Ġprivile":6905,"Ġcourtyard":6906,"pir":6907,"ĠEat":6908,"Ġphysics":6909,"Ġticket":6910,"Ġpassengers":6911,"essert":6912,"Ġconcert":6913,"ĠKingdom":6914,"fe":6915,"hi":6916,"Ġtit":6917,"Ġlosing":6918,"ĠTheir":6919,"ĠBer":6920,"IS":6921,"Ġsizes":6922,"Ġgn":6923,"Ġspices":6924,"Ġunivers":6925,"Ġheadache":6926,"Ġfitness":6927,"175":6928,"spe":6929,"Ġfif":6930,"Ġlengths":6931,"Ġinterior":6932,"Ġglasses":6933,"Ġlessons":6934,"Ġdivers":6935,"Ġsandwich":6936,"ms":6937,"Ġluck":6938,"Ġavoc":6939,"Ġtesting":6940,"Ġapprox":6941,"Ġvaccine":6942,"Ġnausea":6943,"AA":6944,"Ġrefr":6945,"Ġcouple":6946,"Ġneighborhood":6947,"cers":6948,"ĠGal":6949,"Ġanywhere":6950,"ario":6951,"eding":6952,"cho":6953,"rier":6954,"Ġestim":6955,"Ġstirring":6956,"banana":6957,"Ġdemand":6958,"Ġaspects":6959,"een":6960,"fox":6961,"Ġank":6962,"elsius":6963,"size":6964,"Ġcow":6965,"ĠGive":6966,"Ġvel":6967,"itize":6968,"ĠAD":6969,"Ġphones":6970,"Ġimportance":6971,"Ġshelter":6972,"gr":6973,"section":6974,"Ġclouds":6975,"phrase":6976,"upunct":6977,"Ġgathering":6978,"Ġlanterns":6979,"Ġcuisine":6980,"fortunately":6981,"Ġending":6982,"Ġbell":6983,"Ġunknown":6984,"playing":6985,"3456":6986,"Ġclearing":6987,"vable":6988,"Ġdict":6989,"omas":6990,"ndry":6991,"Ġbland":6992,"Ġadvantages":6993,"Ġcarrying":6994,"Ġmelted":6995,"II":6996,"Ġarrive":6997,"Ġpersonality":6998,"Ġvibr":6999,"Ġrefriger":7000,"Int":7001,"commod":7002,"Ġheadline":7003,"Ġtransfer":7004,"press":7005,"ously":7006,"Ġfeels":7007,"Ġeffic":7008,"Stir":7009,"vents":7010,"ĠDuring":7011,"ĠNumber":7012,"Ġcobblest":7013,"igs":7014,"Ġshower":7015,"Ġje":7016,"ĠFrank":7017,"Ġemotions":7018,"Ġfought":7019,"alog":7020,"entiment":7021,"ĠHT":7022,"ĠBang":7023,"Ġdescriptions":7024,"Ġconstantly":7025,"Ġportion":7026,"ynthesis":7027,"venue":7028,"Ġelectrical":7029,"ĠStatements":7030,"Ġmal":7031,"berries":7032,"ools":7033,"Ġqualified":7034,")=":7035,"covered":7036,"ensive":7037,"Ġsnake":7038,".(":7039,"Ġbits":7040,"Ġ'+":7041,"Ġcommer":7042,"Ġstored":7043,"ĠCivil":7044,"run":7045,"ĠEgypt":7046,"Ġ46":7047,"Ġuniversity":7048,"Ġentrance":7049,"Ġportfol":7050,"Ġportfolio":7051,"PS":7052,"Voter":7053,"Ġsch":7054,"Ġstage":7055,"Ġearned":7056,"friendly":7057,"onic":7058,"Ġsturdy":7059,"ĠAtt":7060,"ĠDNA":7061,"Ġjack":7062,"Ġ2016":7063,"Ġmuscles":7064,"Ġfrontline":7065,"Ġcrack":7066,"Ġcultures":7067,"Ġreports":7068,"Ġhoriz":7069,"Ġmutual":7070,"tains":7071,"Ġpayments":7072,"Ġgrav":7073,"Ġlinked":7074,"Ġcritic":7075,"iest":7076,"Ġflav":7077,"Ġmotion":7078,"Ġvolunte":7079,"Ġflights":7080,"uvw":7081,"Ġslope":7082,"ĠRE":7083,"âĢĻ,":7084,"Ġsurrounded":7085,"dro":7086,"men":7087,"Ġiv":7088,"Ġnort":7089,"Ġsteam":7090,"ĠUSA":7091,"Ġnorthern":7092,"Ġcel":7093,"Ġdrop":7094,"abb":7095,"ĠBrazil":7096,"Ġtexture":7097,"atty":7098,"Ġstuck":7099,"esty":7100,"Ġhumorous":7101,"ĠThursday":7102,"Ġcompress":7103,"Ġpit":7104,"Ġhurt":7105,"ĠType":7106,"plement":7107,"ĠGar":7108,"ĠLee":7109,"Ġgray":7110,"Ġsupplements":7111,"[\"":7112,"Ġdesert":7113,"Ġumb":7114,"rels":7115,"ooks":7116,"Ġdense":7117,"level":7118,"ĠShow":7119,"Ġemployer":7120,"Ġconsuming":7121,"Ġdelivery":7122,"Preheat":7123,"'?":7124,"Ġsed":7125,"ĠYouT":7126,"Ġknew":7127,"Ġspin":7128,"Ġpeppers":7129,"123":7130,"Ġtransl":7131,")/":7132,"test":7133,"ĠTurn":7134,"ĠBur":7135,"plit":7136,"Ġ+=":7137,"Ġguests":7138,"Ġflexibility":7139,"NON":7140,"Ġfeature":7141,"Ġbrightly":7142,"______":7143,"ename":7144,"Ġmood":7145,"ĠPo":7146,"Ġ=>":7147,"Ġmostly":7148,"Ġprotagonist":7149,"Ġinnocent":7150,"Ġjog":7151,"Ġnumerous":7152,"Ġcreature":7153,"ĠStatement":7154,"Ġmush":7155,"Ġlimited":7156,"Recipe":7157,"Ġvitamin":7158,"Ġstains":7159,"Ġ54":7160,"Ġcreates":7161,"05":7162,"vi":7163,"ĠApril":7164,"ĠCelsius":7165,"ĠGra":7166,"Ġspider":7167,"Ġeaten":7168,"ĠAlthough":7169,"ĠSpain":7170,"Ġconstruction":7171,"ĠChristmas":7172,"Ġmobile":7173,"yl":7174,"ĠMac":7175,"Ġbrows":7176,"Ġrequest":7177,"Ġsupported":7178,"Ġengage":7179,"Ġdream":7180,"Ġtag":7181,"Ġsample":7182,"ĠEst":7183,"Ġagg":7184,"Which":7185,"ini":7186,"oned":7187,"iply":7188,"Ġappreci":7189,"Ġcompost":7190,"ifying":7191,"Ġchann":7192,"ĠRiver":7193,"aust":7194,"Ġencour":7195,"ser":7196,"ĠMars":7197,"ghijk":7198,"Ġtheme":7199,"Ġprison":7200,"Ġsecret":7201,"ĠEmpire":7202,"cur":7203,"Ġsew":7204,"ĠRight":7205,"10000001000000":7206,"Ġado":7207,"Ġregulations":7208,"Ġmattress":7209,"Ġdemonstr":7210,"input":7211,"Ġtoile":7212,"Ġreached":7213,"ĠThree":7214,"Ġpoet":7215,"UTRAL":7216,"Ġcitizens":7217,"WE":7218,"bes":7219,"gage":7220,"lam":7221,"Ġske":7222,"Ġvision":7223,"Ġassume":7224,"Ġholes":7225,"MI":7226,"icates":7227,"ountain":7228,"Ġcrates":7229,"ĠPlay":7230,"Ġpolicies":7231,"Ġtweet":7232,"Ġride":7233,"Ġsurgery":7234,"brown":7235,"Ġoperating":7236,"Ġbeginner":7237,"Ġhosting":7238,"Ġped":7239,"oma":7240,"imeter":7241,"Ġmanner":7242,"ĠStar":7243,"Ġdestro":7244,"bling":7245,"Ġmechanic":7246,"Ġjournal":7247,"Ġefficiency":7248,"Ġwings":7249,"Ġborder":7250,"Ġcracks":7251,"ĠCong":7252,"Ġnearest":7253,"Ġvill":7254,"okyo":7255,"together":7256,"Ġsimilarity":7257,"ĊĠĠĠĠĠĠĠĠĠĠĠĠĠĠĠĠĠĠĠ":7258,"Ġratio":7259,"Ġlaundry":7260,"foot":7261,"Ġdot":7262,"ĠTit":7263,"Ġchili":7264,"Ġsore":7265,"Ġbucket":7266,"Ġsaving":7267,"Ġillegal":7268,"writ":7269,"Ġdp":7270,"ailand":7271,"Ġperformed":7272,"Ġarmor":7273,"Ġparticipants":7274,"down":7275,"Ġasleep":7276,"endment":7277,"Ġaccommod":7278,"inkle":7279,"Ġreaching":7280,"Ġvehicles":7281,"Ġcotton":7282,"Ġnewspapers":7283,"ĠYouTube":7284,"Ġtwist":7285,"VEGET":7286,"Ġrespective":7287,"98":7288,"ras":7289,"255":7290,"Ġapplications":7291,"ha":7292,"Ġcompre":7293,"Ġsugary":7294,"Ġequivalent":7295,"Ġmud":7296,"They":7297,"Ġlightly":7298,"Ġvisitors":7299,"Ġmagazines":7300,"data":7301,"Ġsouthern":7302,"Ġanalysis":7303,"city":7304,"cod":7305,"ĠToday":7306,"Ġrh":7307,"ĠNor":7308,"Ġattrib":7309,"Ġprojects":7310,"Ġresembles":7311,"ĠIns":7312,"âĢĵ":7313,"check":7314,"dict":7315,"Ġrenew":7316,"amily":7317,"Ġfigures":7318,"Ġstatus":7319,"ĠNearing":7320,"Ġcloser":7321,"Ġoccasional":7322,"ĠKore":7323,"abulary":7324,"Country":7325,"bru":7326,"Ġwra":7327,"Ġfirm":7328,"iders":7329,"tery":7330,"Ġvaluable":7331,"Ġpacked":7332,"ĠDescribe":7333,"Ġumbre":7334,"Ġthread":7335,"Ġnerv":7336,"Ġstim":7337,"ĠMix":7338,"Ġalarm":7339,"Ġboards":7340,"Ġinfamous":7341,"Ġhobbies":7342,"Ġcere":7343,"YYYYYYYY":7344,"Ġtrunk":7345,"ĠDar":7346,"Ġunus":7347,"Ġdishon":7348,"Ġconversations":7349,"Ġeducational":7350,"Ġpermit":7351,"Ġprincip":7352,"Ġofficer":7353,"asant":7354,"Ġconsume":7355,"Ġlowest":7356,"Ġbelieves":7357,"Ġmindfulness":7358,"ĠSunday":7359,"ME":7360,"Ġmicro":7361,"Ġspoke":7362,"Ġshoulders":7363,"acent":7364,"Questions":7365,"bruary":7366,"\\\\":7367,"Ġtro":7368,"Ġrev":7369,"Ġiter":7370,"Ġ43":7371,"iano":7372,"Ġannual":7373,".*":7374,"Ġchunks":7375,"Ġrocky":7376,"noon":7377,"Ġcontribute":7378,"gin":7379,"Ġmarriage":7380,"ĠGrateful":7381,"Ġvictim":7382,"omer":7383,"ĠStir":7384,"ĠComb":7385,"Ġengines":7386,"Ġpronouns":7387,"yy":7388,"Ġnine":7389,"Ġfocusing":7390,"Ġripe":7391,"Ġnoticed":7392,"param":7393,"Ġsunscreen":7394,"Ġeastern":7395,"ittingly":7396,"Ġcans":7397,"Ġjun":7398,"Ġbeauty":7399,"Ġbelongs":7400,"Ġconcepts":7401,"Ġvirtual":7402,"Ġdairy":7403,"ĠRobert":7404,"Ġantonyms":7405,"ĠPenn":7406,"Ġflows":7407,"Ġideal":7408,"Ġcriter":7409,"nov":7410,"Ġrapid":7411,"OS":7412,"bre":7413,"dis":7414,"iner":7415,"Ġsen":7416,"aste":7417,"aware":7418,"Ġdatab":7419,"Ġta":7420,"ato":7421,"eters":7422,"ĠDark":7423,"Ġpassing":7424,"Ġsettings":7425,"ĠCentral":7426,"Ġfederal":7427,"Ġprivileged":7428,"Ġmirror":7429,"upuncture":7430,"NOT":7431,"XX":7432,"cakes":7433,"erent":7434,"Ġcop":7435,"ĠScott":7436,">.":7437,"Ġvector":7438,"Ġbegins":7439,"ifting":7440,"Ġ49":7441,"Ġsomewhere":7442,"rence":7443,"ĠKaren":7444,"Ġsunny":7445,"ugust":7446,"Ġemployee":7447,"Ġnorthwest":7448,"Ġhonoured":7449,"Ġunwittingly":7450,"ca":7451,"nop":7452,"initely":7453,"Ġlying":7454,"Ġvest":7455,"Ġdiscomfort":7456,"Ġclock":7457,"rd":7458,"ĠSub":7459,"Ġinstance":7460,"Ġequations":7461,"Ġfertil":7462,"Ġwish":7463,"igning":7464,"ĠData":7465,"Ġadm":7466,"Ġencl":7467,"Ġfixed":7468,"Ingredient":7469,"ĠDavid":7470,"Ġfeather":7471,"Ġknife":7472,"Ġ123":7473,"Ġgallons":7474,"Ġpupp":7475,"Ġconverted":7476,"43":7477,"Cl":7478,"tract":7479,"ĠCor":7480,"Ġsheets":7481,"Ġemph":7482,"Ġmessages":7483,"Ġpickpockets":7484,"ĠCr":7485,"Ġdelete":7486,"ĠUsing":7487,"Ġtreated":7488,"88":7489,"ĠMat":7490,"Ġretail":7491,"Ġhistorical":7492,"ĠHTML":7493,"To":7494,"cal":7495,"atin":7496,"Ġoverw":7497,"affron":7498,"Ġsoldiers":7499,"Ġhundred":7500,"Ad":7501,"oons":7502,"Ġâī¤":7503,"Ġpond":7504,"Ġdessert":7505,"Ġchances":7506,"Ġforming":7507,"icted":7508,"Ġ:/":7509,"Ġexploring":7510,"Ġconditioner":7511,"PUT":7512,"Ġhop":7513,"ĠOcean":7514,"Ġscon":7515,"amin":7516,"ĠNetwork":7517,"Ġunable":7518,"Ġsomebody":7519,"Ġidi":7520,"irds":7521,"ief":7522,"ĠLou":7523,"Ġkept":7524,"Ġequally":7525,"ĠZe":7526,"Ġstretches":7527,"ĠOffer":7528,"rated":7529,"Ġsib":7530,"Ġpurple":7531,"Ġidentity":7532,"Ġ_____.":7533,"Ġroleplaying":7534,"Ġadvisor":7535,"Ġboat":7536,"Ġmanageable":7537,"long":7538,"ceed":7539,"Ġstated":7540,"Ġroll":7541,"Ġtrails":7542,"ĠOrganization":7543,"Se":7544,"Ġbeat":7545,"Ġtypical":7546,"Ġmachines":7547,"Ġangles":7548,"ĠMusic":7549,"Ġpremise":7550,"Ġalbum":7551,"Res":7552,"Ġdeck":7553,"Ġtherefore":7554,"cript":7555,"num":7556,"Ġbes":7557,"Ġjelly":7558,"ĠJune":7559,"Ġspecified":7560,"ĠConnect":7561,"Ġmountains":7562,"Ġcabinet":7563,"Ne":7564,"occ":7565,"Ġjava":7566,"Ġregist":7567,"Ġfamilies":7568,"orns":7569,"effect":7570,"Ġmad":7571,"icide":7572,"Ġjar":7573,"Ġ78":7574,"96":7575,"gent":7576,"mount":7577,"oos":7578,"ĠRye":7579,"ĠAfghanistan":7580,"Ġpaintings":7581,"Ġemphas":7582,"Ġtags":7583,"ĠOct":7584,"Ġunhealthy":7585,"Ġtrim":7586,"Ġcurtains":7587,"Ġpanels":7588,"Ġcompetition":7589,"Ġelectronic":7590,"Ġairplane":7591,"Ġpatches":7592,"Ġengineer":7593,"ĠDespite":7594,"ptember":7595,"Ġoverp":7596,"Ġguess":7597,"Ġstained":7598,"ĠCatcher":7599,"ĠPal":7600,"Ġwhites":7601,"VER":7602,"uba":7603,"Ġumbrella":7604,"ĠSand":7605,"Ġworkout":7606,"Ġmouse":7607,"Ġlun":7608,"appe":7609,"Ġtransform":7610,"ĠInstall":7611,"Ġschol":7612,"ĠCD":7613,"Ġplot":7614,"ppings":7615,"andel":7616,"Ġemissions":7617,"Ġtrick":7618,"Ġmusical":7619,"Ġtattered":7620,"So":7621,"bad":7622,"part":7623,"rating":7624,"ittle":7625,"ĠBreak":7626,"Ġflash":7627,")):":7628,"Ġguard":7629,"ritious":7630,"Ġtrusting":7631,"RUE":7632,"240":7633,"ele":7634,"what":7635,"Ġign":7636,"ĠPoint":7637,"Ġrank":7638,"ooked":7639,"Ġclar":7640,"Ġpaste":7641,"Ġnutritious":7642,"Ġtailored":7643,"Ġhypothesis":7644,"liest":7645,"Ġstyles":7646,"persed":7647,"74":7648,"iances":7649,"Ġplays":7650,"venile":7651,"Ġaffected":7652,"Print":7653,"Ġdishonesty":7654,"ĠThink":7655,"Ġraw":7656,"Ġos":7657,"ĠTime":7658,"Ġstead":7659,"Ġarrest":7660,"Ġfluids":7661,"Ġemails":7662,"Ġstructures":7663,"UL":7664,"fed":7665,"uk":7666,"ulture":7667,"Ġadminist":7668,"Ġ!=":7669,"NN":7670,"cba":7671,"Ġstairs":7672,"ĠBond":7673,"Ġapproximately":7674,"OD":7675,"Ġtie":7676,"rem":7677,"edy":7678,"ications":7679,"oles":7680,"Ġplus":7681,"soft":7682,"Ġexpresses":7683,"under":7684,"Ġshift":7685,"Ġ97":7686,"Ġcourt":7687,"Ġteenagers":7688,"ĠFebruary":7689,"ĠRussia":7690,"Ġpreparing":7691,"FA":7692,"ĠNoun":7693,"180":7694,"Ġcircum":7695,"Ġdedicated":7696,"Ġhorm":7697,"Ġformer":7698,"Ġinfections":7699,"going":7700,"Ġagreement":7701,"Ġextremely":7702,"frame":7703,"OG":7704,"met":7705,"Ġcopper":7706,"Ġankle":7707,"Ġfacing":7708,"ste":7709,"anta":7710,"ĠBro":7711,"ĠGeneral":7712,"ĠConst":7713,"Ġimplies":7714,"Ġnecess":7715,"Ġbrands":7716,"(\"%":7717,"uit":7718,"hess":7719,"Ġtransact":7720,"Ġcreatures":7721,"ĠSeptember":7722,"Ġfreed":7723,"Ġjuvenile":7724,"Ġfighting":7725,"Ġoutdoors":7726,"Ġneatly":7727,"brush":7728,"Ġscul":7729,"ĠThailand":7730,"Ġelig":7731,"being":7732,"Ġmoonlight":7733,"ĠService":7734,"Pour":7735,"Ġsout":7736,"ception":7737,"ĠLarge":7738,"Ġtip":7739,"Ġparch":7740,"Ġdensity":7741,"Ġwithd":7742,"eled":7743,"Ġ195":7744,"poses":7745,"Ġcoordinate":7746,"haps":7747,"Ġsail":7748,"ĠSaffron":7749,"Ġblogs":7750,"txt":7751,"Ġcents":7752,"oral":7753,"Ġdecay":7754,"ĠCommon":7755,"Ġpatients":7756,"Ġlayers":7757,"Ġmanufacturer":7758,"kin":7759,"nic":7760,"ishes":7761,"These":7762,"âĢĿ,":7763,"Ġmotor":7764,"Ġepis":7765,"number":7766,"Ġancest":7767,"Ġec":7768,"Ġseat":7769,"ĠUnder":7770,"Ġ2010":7771,"Ġputting":7772,"Ġopinions":7773,"Ġsubstance":7774,"Ġlandscape":7775,"Ġshattered":7776,"Ġreaches":7777,"Ġamb":7778,"Ġofficial":7779,"Ġ95":7780,"Ġprocesses":7781,"Phrase":7782,"Ġcrypt":7783,"Ġadjacent":7784,"Ġinferred":7785,"77":7786,"llen":7787,"rian":7788,"ĠBet":7789,"Ġmanager":7790,"Ġsimmer":7791,"ĠTwitter":7792,"DE":7793,"FF":7794,"nD":7795,"ĠHo":7796,"ĠAlice":7797,"Ġinternal":7798,"Ġtracking":7799,"Ġawful":7800,"rich":7801,"ĠRich":7802,"Ġclub":7803,"Ġyeast":7804,"Ġactor":7805,"Ġedit":7806,"ĠAtl":7807,"Ġvocabulary":7808,"Ġoverwhel":7809,".'.":7810,"Ent":7811,"cil":7812,"ĠServe":7813,"Ġsuits":7814,"ĠHealth":7815,"Ġreads":7816,"Ġmajority":7817,"Ġirrit":7818,"Ġregarding":7819,"Ġ...":7820,"Ġaer":7821,"iguous":7822,"Ġsufficient":7823,"lose":7824,"Ġgrape":7825,"Ġstruggling":7826,"Ġstroke":7827,"Ġgay":7828,"ĠPay":7829,"Ġbutton":7830,"Ġorganize":7831,"Ġlabels":7832,"Ġradio":7833,"Ġfundament":7834,"Ġphotosynthesis":7835,"ĠFrancisco":7836,"Ġcomprehen":7837,"Ġcub":7838,"ette":7839,"Ġshut":7840,"ĠDog":7841,"Ġdiets":7842,"Ġlitter":7843,"this":7844,"Ġdiagnosed":7845,"Ġpuzz":7846,"tan":7847,"Ġtab":7848,"Ġhiring":7849,"ĠCapital":7850,"ĠDnD":7851,"Ġcoverage":7852,"point":7853,"tea":7854,"ension":7855,"oxid":7856,"ĠCompany":7857,"Ġappliances":7858,"Anti":7859,"otine":7860,"asure":7861,"aba":7862,"Ġexcl":7863,"Ġacne":7864,"ĠThus":7865,"Ġsequentially":7866,"Ġdesigns":7867,"Unrelated":7868,"Ġtoothp":7869,"Ġchallenges":7870,"Ġcher":7871,"fts":7872,"Ġindo":7873,"Ġorigin":7874,"ydr":7875,"Ġpiano":7876,"Ġflick":7877,"Ġcartons":7878,"Ġweighs":7879,"Ġdecrease":7880,"orize":7881,"ashes":7882,"ĠTest":7883,"Ġ2000":7884,"Ġshamp":7885,"ĠRest":7886,"Ġages":7887,"ĠChicken":7888,"Ġfloat":7889,"Ġreplacing":7890,"Ġbaseball":7891,"Grow":7892,"Ġpus":7893,"ĠFold":7894,"Ġcoding":7895,"Ġincluded":7896,"Ġcurtain":7897,"Ġlasted":7898,"Ġlinks":7899,"Ġlicense":7900,"Ġwaters":7901,"Ġsynonyms":7902,"OP":7903,"alls":7904,"Ġdepth":7905,"Ġ_______":7906,"Ġpossibly":7907,"snared":7908,")]":7909,"110":7910,"Ġpython":7911,"Ġfoss":7912,"Ġ[(":7913,"ifferent":7914,"Ġgrown":7915,"pack":7916,"Ġaid":7917,"reens":7918,"Ġlair":7919,"Ġ52":7920,"Ġcolored":7921,"Stereotype":7922,"REE":7923,"Ġgreenhouse":7924,"Ġcontributions":7925,"pare":7926,"shed":7927,"Ġcigarettes":7928,"Ġfountain":7929,"Ġplanks":7930,"Ġroses":7931,"Ġthank":7932,"Ġafternoon":7933,"ĠGn":7934,"Ġfills":7935,"Ġimmune":7936,"Ġnewspaper":7937,"bac":7938,"from":7939,"ĠEve":7940,"Ġjoy":7941,"Ġshoulder":7942,"Ġsubarray":7943,"ĠĠĠĠĠĠĠĠĠ":7944,"Ġhousing":7945,"Ġnortheast":7946,"boh":7947,"Ġwool":7948,"Ġconv":7949,"Ġhaz":7950,"Ġoutcome":7951,"ĠBring":7952,"Ġarrays":7953,"Ġnetworks":7954,"Ġwestern":7955,"Ġindicates":7956,"lmnop":7957,"was":7958,"Ġsess":7959,"Ġginger":7960,"Ġfog":7961,"Ġexams":7962,"necessary":7963,"Ġcommand":7964,"Ġgenerated":7965,"Ġmission":7966,"Ġperman":7967,"Ġinjured":7968,"Ġinstruments":7969,"PERSON":7970,"ĠAccording":7971,"oscopy":7972,"Ġsynthetic":7973,"Ġcriteria":7974,"bohydr":7975,"Who":7976,"uting":7977,"ĠNatural":7978,"Ġestimate":7979,"Ġescape":7980,"itating":7981,"ĠCur":7982,"Ġmuff":7983,"Ġ2020":7984,"Ġtowel":7985,"Ġcovering":7986,"Ġtorches":7987,"WEET":7988,"lvan":7989,"raq":7990,"ĠDown":7991,"Ġtexts":7992,"ĠChurch":7993,"Ġprocessing":7994,"Ġsuccessfully":7995,"Ġphilosopher":7996,"KE":7997,"ounce":7998,"Ġplumber":7999,"ĠLoc":8000,"Ġattractions":8001,"ĠBerlin":8002,"Ġtiss":8003,"ĠWright":8004,"Ġmanaging":8005,"]..":8006,"Ġremind":8007,"Ġcardio":8008,"Ġteachers":8009,"Ġtherapist":8010,"ov":8011,"write":8012,"ĠPort":8013,"Ġcrum":8014,"Ġachievable":8015,"you":8016,"ĠCEO":8017,"Ġnegot":8018,"Ġworry":8019,"Ġliters":8020,"Ġclog":8021,"Ġswelling":8022,"Ġvelvet":8023,"ĠGroup":8024,"Ġtwenty":8025,"Ġcrust":8026,"Ġabcd":8027,"As":8028,"efficient":8029,"Ġsour":8030,"Ġdizz":8031,"ĠPass":8032,"Ġdisag":8033,"Ġagency":8034,"ĠKill":8035,"ĠVitamin":8036,"Ġfragment":8037,"olve":8038,"Ġcomputing":8039,"Ġdefine":8040,"Ġpurposes":8041,"Ġgradually":8042,"Ġsegment":8043,"Ġuneven":8044,"Ġsiblings":8045,"Ġalign":8046,"acity":8047,"shaped":8048,"Ġmushrooms":8049,"enge":8050,"rie":8051,"ĠMiss":8052,"Ġantioxid":8053,"Ġflavors":8054,"xic":8055,"Ġ66":8056,"Ġtoilet":8057,"Cont":8058,"pass":8059,"ita":8060,"Ġlined":8061,"ĠDick":8062,"Ġcarried":8063,"Ġeleg":8064,"Ġzero":8065,"Ġfrog":8066,"Ġaccurately":8067,".âĢĿ":8068,"Ge":8069,"cre":8070,"Ġath":8071,"Ġalert":8072,"Ġens":8073,"ĠDogs":8074,"sequences":8075,"Ġsticks":8076,"Ġsupplement":8077,"ĠQueen":8078,"Ġmaster":8079,"ĠAllow":8080,"ĠPad":8081,"Ġsmile":8082,"Ġviolence":8083,"Ġow":8084,"anes":8085,"ingers":8086,"rof":8087,"Ġaltogether":8088,"Ġrobot":8089,"ahog":8090,"ĠInstagram":8091,"Ġorders":8092,"Ġquantity":8093,"Ġrelieve":8094,"Ġproposed":8095,"63":8096,"95":8097,"hour":8098,"ĠAut":8099,"Ġeverywhere":8100,"Ġpots":8101,"ORD":8102,"ĠGrand":8103,"Ġabsorb":8104,"sentence":8105,"walk":8106,"itage":8107,"Ġpants":8108,"arse":8109,"ĠBene":8110,"Ġleak":8111,"Ġkit":8112,"Ġcorrid":8113,"Ġcharges":8114,"Ġcalming":8115,"Ġshowing":8116,"Ġpossess":8117,"Given":8118,"reed":8119,"ench":8120,"Ġreality":8121,"ffy":8122,"reek":8123,"orders":8124,"Ġshops":8125,"Ġpatri":8126,"Ġfrequency":8127,"Ġaudio":8128,"Ġsouthwest":8129,"fruit":8130,"uing":8131,"Ġpra":8132,"Ġcontents":8133,"eggs":8134,"Ġmonit":8135,"ploy":8136,"Ġyogurt":8137,"sylvan":8138,"Ġspirit":8139,"Ġrenewable":8140,"Ġunusual":8141,".*;":8142,"::":8143,"Ind":8144,"Sum":8145,"urally":8146,"abol":8147,"Ġreader":8148,"ports":8149,"Ġlearned":8150,"Ġintersection":8151,"Ġgenetic":8152,"789":8153,"Description":8154,"sylvania":8155,"AI":8156,"iost":8157,"Ġshru":8158,"ahogany":8159,"fil":8160,"Ġthy":8161,"lder":8162,"ĠMore":8163,"Ġjson":8164,"egin":8165,"Array":8166,"Ġcasual":8167,"oven":8168,"quick":8169,"Ġqui":8170,"Ġformal":8171,"Ġregister":8172,"Ġenjoyable":8173,"Ġhyper":8174,"Ġinjury":8175,"Ġsymbols":8176,"Ġresearchers":8177,"hett":8178,"icip":8179,"ĠMarch":8180,"Ġspelled":8181,"Ġ67":8182,"Ġ84":8183,"Ġelephant":8184,"Ġfreel":8185,"Ġhydro":8186,"Ġperfectly":8187,"Bu":8188,"ordered":8189,"ensions":8190,"Ġearliest":8191,"Ġ'-'":8192,"160":8193,"Ġopened":8194,"Ġfishing":8195,"avy":8196,"Ġplanets":8197,"amboo":8198,"Ġinserted":8199,"Ġ'+'":8200,"ĠPennsylvania":8201,"iostream":8202,"?'":8203,"Ġveter":8204,"Ġadapt":8205,"Ġ85":8206,"ropical":8207,"cules":8208,"Ġrelaxing":8209,"high":8210,"ji":8211,"Ġtied":8212,"Ġmahogany":8213,"ĠUp":8214,"Ġperimeter":8215,"Aust":8216,"ĠMet":8217,"Ġcarries":8218,"Ġmarkets":8219,"Ġsolving":8220,"Ġcircul":8221,"Ġmistake":8222,"Ġtapestry":8223,"Ġrefrigerator":8224,"Bl":8225,"butter":8226,"Ġbac":8227,"advantages":8228,"olit":8229,"Ġserves":8230,"Ġpassion":8231,"Ġsupposed":8232,"Ġviruses":8233,"Ġparchment":8234,"ĠHaw":8235,"ĠPositive":8236,"ĠDel":8237,"Ġmanual":8238,"ĠLine":8239,"2019":8240,"Ġfootprint":8241,"ĠBritain":8242,"Ġfestive":8243,"ober":8244,"Ġpush":8245,"ĠThomas":8246,"Ġsigned":8247,"Ġauthorities":8248,"Ġfireplace":8249,"pret":8250,"Ġchess":8251,"Ġfake":8252,"Ġcanopy":8253,"Ġ41":8254,"eger":8255,"Ġelev":8256,"Ġvariables":8257,"Ġcolonoscopy":8258,"lst":8259,"Ġ\\":8260,"itz":8261,"Ġmail":8262,"ching":8263,"Ġ2017":8264,"Ġdepos":8265,"Ġdigest":8266,"Ġfailed":8267,"((((((((":8268,"]].":8269,"mes":8270,"Ġtoler":8271,"ĠBig":8272,"Ġgod":8273,"Ġscram":8274,"ĠStand":8275,"Ġexperts":8276,"ĠArray":8277,"ĠOnly":8278,"Ġpatriotic":8279,"Ġcouch":8280,"Ġbomb":8281,"Ġgap":8282,"Ġnet":8283,"Ġforced":8284,"Ġbackyard":8285,"Ġpaths":8286,"levant":8287,"Ġspecializes":8288,"Ġcrowd":8289,"Ġsconces":8290,"Ġfra":8291,"Ġ47":8292,"Ġreflects":8293,"Ġshampoo":8294,"Ġbun":8295,"Ġoutline":8296,"ensitive":8297,"Ġengineering":8298,"Ġhypot":8299,"Ġmelting":8300,"Ġhighlighted":8301,"viet":8302,"Ġpod":8303,"Ġgases":8304,"Ġhide":8305,"Ġupset":8306,"auc":8307,"Ġ93":8308,"ĠĠĠĠĠĠĠĠĠĠĠ":8309,"riced":8310,"Ġrainforest":8311,"Ġaltar":8312,"Ġacademic":8313,"BB":8314,"gument":8315,"Ġgym":8316,"++;":8317,"ĠFlour":8318,"Ġmammal":8319,"Ġadvertising":8320,"ĠSqu":8321,"osh":8322,"peror":8323,"ĠRel":8324,"acific":8325,"_____":8326,"Ġcurrency":8327,"ĠPrice":8328,"Ġdenotes":8329,"Ġradiation":8330,"Ġdatas":8331,"Ġsustainable":8332,"ĠTokyo":8333,"uses":8334,"Ġdisappe":8335,"Ġpocket":8336,"Ġcontainers":8337,"Ġskill":8338,"Ġobvious":8339,"Ġopenings":8340,"Ġswir":8341,"Ġsuffering":8342,".)":8343,"bow":8344,"Ġtorn":8345,"Ġfu":8346,"ometer":8347,"ĠTony":8348,"Ġshade":8349,"Ġintense":8350,"Ġglad":8351,"Ġbasis":8352,"Ġdecorations":8353,"Ġwondering":8354,"ĠPotter":8355,"250":8356,"Ġhaven":8357,"ĠRock":8358,"Ġunnecessary":8359,"Ġimper":8360,"Ġsecluded":8361,"Ġlocations":8362,"Ġrail":8363,"Ġdependent":8364,"Ġmillions":8365,"Ġmortgage":8366,"icago":8367,"ĠIraq":8368,"Ġnation":8369,"Ġquit":8370,"emale":8371,"ĠIslam":8372,"Ġ01":8373,"Ġdiscusses":8374,"Ġsummarize":8375,"ĠOctober":8376,"84":8377,"Ms":8378,"essor":8379,"onsense":8380,"ĠArrange":8381,"Ġgrades":8382,"ĠInternational":8383,"()()()()()()()()":8384,"Ġcheapest":8385,"Ġnecessarily":8386,"sugar":8387,"Ġ99":8388,"ĠSocial":8389,"ĠListen":8390,"Ġcarton":8391,"Ġjeans":8392,"iy":8393,"ona":8394,"Ġfoli":8395,"irgin":8396,"ĠWork":8397,"Ġ250":8398,"ĠLim":8399,"Ġ2019":8400,"Ġattach":8401,"Ġtreats":8402,"Ġpromot":8403,"Ġvolcan":8404,"Ġpandas":8405,"king":8406,"Ġworst":8407,"Ġscored":8408,"Ġ59":8409,"Ġsuggests":8410,"ĠWindows":8411,"ĠLord":8412,"1234":8413,"Ġincreases":8414,"ologies":8415,"Ġsquares":8416,"Ġfluffy":8417,"Ġsuspicious":8418,"map":8419,"then":8420,"Ġpad":8421,"lymp":8422,"ila":8423,"unger":8424,"Ġimag":8425,"sole":8426,"Ġremote":8427,"Ġpassport":8428,"Ġcharacteristics":8429,"Ġidentified":8430,"Ġconcatenate":8431,"Ġhurric":8432,"Ġparallel":8433,"ĠCombine":8434,"Ġsculpt":8435,"corn":8436,"Ġtiger":8437,"Ġimposed":8438,"Ġrestrict":8439,"ccoli":8440,"atsby":8441,"Ġsaved":8442,"Ġstatic":8443,"Ġturkey":8444,"PP":8445,"otal":8446,"Ġhom":8447,"stuvw":8448,"ĠGatsby":8449,"ĠLu":8450,"ogy":8451,"Ġpreserv":8452,"auses":8453,"lower":8454,"Ġattached":8455,"ading":8456,"Ġunfortunately":8457,"Ġcalling":8458,"Ġperforming":8459,"ĊĉĠĠĠĠĠĠĠ":8460,"burg":8461,"Ġmolecules":8462,"hetti":8463,"86":8464,"New":8465,"bup":8466,"esse":8467,"ĠEnt":8468,"Ġneedles":8469,"Ġcamping":8470,"Ġintervals":8471,"Ġfoliage":8472,"field":8473,"split":8474,"Ġbamboo":8475,"arium":8476,"Ġteams":8477,"Ġ68":8478,"oston":8479,"ecause":8480,"Ġabcdef":8481,"Ġcycle":8482,"Ġskelet":8483,"Ġfossil":8484,"rofen":8485,"buprofen":8486,"IAN":8487,"aghetti":8488,"eless":8489,"ĠSoviet":8490,"Ġlaunch":8491,"Ġinvolving":8492,"Ġconfused":8493,"now":8494,"ubs":8495,"Ġtough":8496,"Ġshared":8497,"Ġvent":8498,"Ġcoin":8499,"ĠJerry":8500,"Ġworkshop":8501,"SS":8502,"born":8503,"ios":8504,"Ġnap":8505,"Ġtele":8506,"Ġstopped":8507,"ĠSetting":8508,"Ġsurprised":8509,"Ġreputable":8510,"Mr":8511,"lers":8512,"Ġcanyon":8513,"Ġcore":8514,"Ġ58":8515,"Ġappet":8516,"ĠEnsnared":8517,"looking":8518,"lmnopqr":8519,"Ġantioxidants":8520,"'/":8521,"ida":8522,"oodles":8523,"Ġblanket":8524,"ĠSequ":8525,"Ġlawyer":8526,"Ġdatetime":8527,"Ġtherm":8528,"OUT":8529,"rant":8530,"ĠPost":8531,"oses":8532,"Ġvisited":8533,"shirt":8534,"Tom":8535,"ias":8536,"Ġtiles":8537,"Ġaqu":8538,"Ġpatch":8539,"Ġnails":8540,"ĠBusiness":8541,"ĠLatin":8542,"Ġprehe":8543,"Ġregards":8544,"melet":8545,"Ġconducted":8546,":'":8547,"Ġintric":8548,"Ġalive":8549,"Ġsupporting":8550,"Ġpowered":8551,"Ġobsc":8552,"Ġapplied":8553,"ĠAugust":8554,"ĠHist":8555,"Ġdeterg":8556,"Ġrepresentation":8557,"Ġmatching":8558,"Ġanalyze":8559,"fat":8560,"mo":8561,"pot":8562,"Ġfatty":8563,"vector":8564,"Ġmeasuring":8565,"icrosoft":8566,"69":8567,"ĠMil":8568,"Ġcoco":8569,"emic":8570,"ipes":8571,"ĠGrease":8572,"FK":8573,"Ġslop":8574,"itals":8575,"ĠeB":8576,"ĠMass":8577,"ĠOR":8578,"Ġscores":8579,"next":8580,"ĠChange":8581,"Ġmargar":8582,"Ġconnecting":8583,"Ġledge":8584,"Ġterror":8585,"Ġladder":8586,"Ġestimated":8587,"Pe":8588,"Ġ?":8589,"Ġdiving":8590,"start":8591,"ĠSaling":8592,"Ġchew":8593,"Ġwalkway":8594,"Ġpasses":8595,"ĠMrs":8596,"Ġearthqu":8597,"ĠCongress":8598,"ĠSalinger":8599,"ĠSWEET":8600,"Ġdistractions":8601,"Ġicon":8602,"Ġrectangular":8603,"Ġscholars":8604,"Ġpiles":8605,"ĠOlymp":8606,"Ġ2015":8607,"Ġrav":8608,"Ġchecked":8609,"Ġorganisms":8610,"Ġgrasses":8611,"Ġstretching":8612,"Ġsoutheast":8613,"gl":8614,"Ġphen":8615,"arc":8616,"urated":8617,"ĠEduc":8618,"Ġcheaper":8619,"Ġgrid":8620,"Ġunderst":8621,"RECT":8622,"ĠAssume":8623,"Ġconcatenating":8624,"Ġscenario":8625,"Ġcorridor":8626,"'-":8627,"Ob":8628,"den":8629,"Ġcos":8630,"Ġharsh":8631,"ĠMale":8632,"anda":8633,"Ġunsure":8634,"Ġ63":8635,"Ġpresented":8636,"Ġreligion":8637,"ĠObama":8638,"71":8639,"Code":8640,"ford":8641,"Ġacupuncture":8642,"Ġconserv":8643,"Ġbees":8644,"Ġcanvas":8645,"rael":8646,"ĠHind":8647,"ĠPacific":8648,"Ġadvanced":8649,"Ġlabeled":8650,"Ġbasement":8651,"possible":8652,"Ġparaphrase":8653,"ATION":8654,"Ġtang":8655,"isters":8656,"unched":8657,"Ġimplement":8658,"Ġexpressed":8659,"Ġneighb":8660,"Ġpillows":8661,"ĠError":8662,"ris":8663,"orange":8664,"ĠThick":8665,"Ġoverpriced":8666,"Ġbin":8667,"Ġfort":8668,"Ġconce":8669,"Ġbubb":8670,"Ġpartially":8671,"Ġrugs":8672,"left":8673,"Ġlb":8674,"ĠSave":8675,"ĠDI":8676,"Ġhelped":8677,"Ġbron":8678,"Ġibuprofen":8679,"Ġinfected":8680,"Ġmoistur":8681,"ĠChristian":8682,"?\"":8683,"]);":8684,"mm":8685,"za":8686,"Ġsnee":8687,"Ġlas":8688,"Ġskull":8689,"Ġprofile":8690,"ĠEmma":8691,"ĠUtilize":8692,"Ġbeside":8693,"Get":8694,"eric":8695,"Ġchurch":8696,"Ġvice":8697,"Ġ51":8698,"ĠThough":8699,"Ġprinter":8700,"ĠSalt":8701,"Ġresource":8702,"bsp":8703,"Ġknows":8704,"Ġdelicate":8705,"Ġutil":8706,"Ġquarters":8707,"ĠMuslim":8708,"73":8709,"Ġâ":8710,"iches":8711,"ĠBan":8712,"ĠLong":8713,"Ġunderground":8714,"Ġtrunks":8715,"Ġtropical":8716,"Ġsending":8717,"Ġfinger":8718,"sey":8719,"ĠPick":8720,"Ġchick":8721,"ultural":8722,"Ġafterwards":8723,"iously":8724,"Ġmeanings":8725,"Ġexpans":8726,"afe":8727,"Ġaccuracy":8728,"Germ":8729,"Oliver":8730,"PR":8731,"Ġmassage":8732,"Ġquotes":8733,"Ġpays":8734,"Ġarchway":8735,"ĠKorea":8736,",[":8737,"tra":8738,"ingbird":8739,"steps":8740,"quit":8741,"Ġabilities":8742,"Ġartists":8743,"Ġcuts":8744,"Ġscientist":8745,"ĠGnome":8746,"Ġber":8747,"Ġformula":8748,"ocus":8749,"Statements":8750,"babbabbabbab":8751,"ĠCourt":8752,"stuvwxyz":8753,"Green":8754,"[[":8755,"entive":8756,"ĠFact":8757,"acb":8758,"Ġagent":8759,"jectives":8760,"Ġappeared":8761,"Article":8762,"Ġcontradicts":8763,"Af":8764,"Ġatomic":8765,"aurant":8766,"flies":8767,"namon":8768,"Ġcelery":8769,"AG":8770,"Ġseats":8771,"Ġouter":8772,"Ġperhaps":8773,"Ġattacks":8774,"Ġproductivity":8775,"ORRECT":8776,"NEUTRAL":8777,"Ġtitles":8778,"Americ":8779,"US":8780,"oft":8781,"Ġpipe":8782,"Ġ160":8783,"Ġoutlines":8784,"ĠMike":8785,"CE":8786,"cut":8787,"oices":8788,"Ġpri":8789,"Ġlin":8790,"ulf":8791,"ablish":8792,"ĠLove":8793,"Ġscreens":8794,"Ġ53":8795,"Ġprescri":8796,"Ġengaged":8797,"Ġmaximize":8798,"Ġpoisoning":8799,"Ġvillage":8800,"Results":8801,"NI":8802,"rate":8803,"Ġtamp":8804,"Ġomelet":8805,"ĠSl":8806,"Ġbuzz":8807,"Ġparks":8808,"ĠYellow":8809,"pres":8810,"velo":8811,"roduce":8812,"Ġaren":8813,"heses":8814,"Ġinitial":8815,"Artful":8816,"Ġnervous":8817,"mith":8818,"abs":8819,"Ġsyll":8820,"Ġdrops":8821,"Ġworkshops":8822,"relevant":8823,"Ġchat":8824,"orph":8825,"Ġsuited":8826,"asso":8827,"Ġ[]":8828,"Ġkeyword":8829,"Ġconfidence":8830,"Ġbanks":8831,"Ġdataset":8832,"Ġbeams":8833,"ĠSou":8834,"verages":8835,"Ġvom":8836,"ĠBook":8837,"Ġtrig":8838,"Ġrooms":8839,"Ġreasonable":8840,"Ġprocedures":8841,"After":8842,"On":8843,"dictionary":8844,"ĠSil":8845,"Ġslight":8846,"Ġfounder":8847,"Ġmetabol":8848,"Ġprotective":8849,"Ġarguments":8850,"Ġsurroundings":8851,"Ġbehavi":8852,"Ġbrackets":8853,"Ġprogressive":8854,"Ġlichen":8855,"Ġrelief":8856,"Ġprioritize":8857,"Ġboundaries":8858,"Ġwithdraw":8859,"Ġcrumbs":8860,"Ġstops":8861,"Ġreplacement":8862,"Ġdiscover":8863,"Ġavocado":8864,"One":8865,"boy":8866,"quire":8867,"ĠProv":8868,"ALSE":8869,"Ġbiggest":8870,"Ġprobability":8871,"Ġscrews":8872,"Ġupdates":8873,"92":8874,"Ġsees":8875,"ĠJava":8876,"ĠStan":8877,"ĠStone":8878,"obic":8879,"Ġcenturies":8880,"ESCO":8881,"ĠDefinitely":8882,"*(":8883,"At":8884,"zes":8885,"enry":8886,"ĠAge":8887,"Ġ',":8888,"Ġsyring":8889,"Ġoldest":8890,"Ġtreating":8891,"Ġseeking":8892,"Ġphenomen":8893,"ii":8894,"otherap":8895,"teen":8896,"Ġbreed":8897,"Ġgenre":8898,"Ġclaims":8899,"Ġboyfriend":8900,"Ġ'*'(":8901,"Ġpens":8902,"Ġdancing":8903,"Ġlamps":8904,"ĠCra":8905,"Ġlip":8906,"Ġwallets":8907,"Ġsurvive":8908,"Ġnicotine":8909,"Ġrelatively":8910,"YZ":8911,"iance":8912,"Ġtightly":8913,"Ġhire":8914,"Ġlion":8915,"Ġsections":8916,"Ġvast":8917,"ĠMock":8918,"Ġusual":8919,"othing":8920,"Ġrare":8921,"ibilities":8922,"Ġfrost":8923,"Ġquantum":8924,"Ġfertility":8925,"41":8926,"gre":8927,"hot":8928,"Ġfaces":8929,"Ġbicy":8930,"organ":8931,"Ġpm":8932,"Ġnodes":8933,"Ġult":8934,"ĠIsrael":8935,"ĠSynonym":8936,"UR":8937,"ingu":8938,"iments":8939,"atell":8940,"ĠHome":8941,"berg":8942,"orem":8943,"Ġflood":8944,"Ġinvalid":8945,"'].,":8946,"Ġphotography":8947,"Ġinjuries":8948,"Ġthousands":8949,"Ġscrub":8950,"Ġrapidly":8951,"Ġeligible":8952,"inent":8953,"Ġgathered":8954,"ĠMicrosoft":8955,"Ġreaders":8956,"ĠVen":8957,"Ġfinances":8958,"ĠCharl":8959,"Ġfrogs":8960,"Ġintelligent":8961,"Ġregardless":8962,"Ġstaircase":8963,"'/'(":8964,"Ġtube":8965,"quis":8966,"Ġ87":8967,"Ġnoises":8968,"ĠPrime":8969,"Ġchallenge":8970,"Ġteenager":8971,"Ġelectronics":8972,"Ġguidelines":8973,"Ġdetergent":8974,"oil":8975,"Ġhut":8976,"ĠSentiment":8977,"endar":8978,"Ġneedle":8979,"Ġacids":8980,"Ġbrick":8981,"Ġweights":8982,"ĠArmy":8983,"Ġexecuted":8984,"Ġinfluence":8985,"Ġtouching":8986,"ĠCommun":8987,"Ġblonde":8988,"iat":8989,"ĠTower":8990,"ĠLight":8991,"Ġclues":8992,"Ġshell":8993,"Ġ1960":8994,"Ġcareful":8995,"1100":8996,"Ġhardware":8997,"Ġjumped":8998,"Ġviews":8999,"ARIAN":9000,"Ġemotion":9001,"52":9002,"Fr":9003,"Ġmic":9004,"Ġlav":9005,"ĠMart":9006,"Ġcontinuation":9007,"Ġcracked":9008,"Ġcluster":9009,"VEGETARIAN":9010,"Ġfetch":9011,"itory":9012,"istry":9013,"Ġshallow":9014,"Ġjug":9015,"Ġsalmon":9016,"Ġprints":9017,"Ġguild":9018,"Ġcapacity":9019,"while":9020,"Ġreinforcement":9021,"ĠMockingbird":9022,"Ġcram":9023,"Ġnorm":9024,"igration":9025,"abilities":9026,"ĠFur":9027,"Ġdispersed":9028,"Ġcompar":9029,"azz":9030,"Ġhousehold":9031,"ipper":9032,"icit":9033,"iration":9034,"Ġimpression":9035,"neutral":9036,"ĠDepartment":9037,"Ġquarter":9038,"ĠBuy":9039,"Ġgravity":9040,"Germany":9041,"DD":9042,"Sub":9043,"Ġtub":9044,"ĠPop":9045,"love":9046,"ormous":9047,"ypical":9048,"Ġelabor":9049,"Ġcalor":9050,"Ġcaps":9051,"Ġfilters":9052,"Ġaffects":9053,"BA":9054,"WW":9055,"bat":9056,"ean":9057,"wide":9058,"Ġpil":9059,"Ġatoms":9060,"Ġloans":9061,"Ġ76":9062,"Ġrush":9063,"Ġswamp":9064,"Ġbarrels":9065,"position":9066,"Ġdropped":9067,"Ġbarking":9068,"kerchie":9069,"Ġstacked":9070,"Ġtavern":9071,"/.":9072,"TREE":9073,"race":9074,"Ġdozen":9075,"Ġaband":9076,"roud":9077,"ĠRound":9078,"Ġparties":9079,"Ġreviewer":9080,"Ġsubtract":9081,"Ġburger":9082,"Ġefforts":9083,"Ġduplicates":9084,"Ġfiling":9085,"Ġmac":9086,"illy":9087,"Ġplates":9088,"Ġdisg":9089,"Ġ{\"":9090,"Ġ125":9091,"Ġsinger":9092,"Ġprivacy":9093,"Ġkidney":9094,"bage":9095,"good":9096,"Ġbeaten":9097,"ĠWal":9098,"Ġdock":9099,"ĠMax":9100,"Ġadorn":9101,"Ġunderlying":9102,"ocur":9103,"Ġheads":9104,"Ġbeds":9105,"Ġaccepted":9106,"Ġboulder":9107,"ABLE":9108,"ghijklmnopqr":9109,"!,":9110,"aic":9111,"last":9112,"uming":9113,"iel":9114,"aved":9115,"reating":9116,"Ġ89":9117,"Ġkeeps":9118,"Ġbigger":9119,"jpg":9120,"Ġfraction":9121,"istent":9122,"Ġshirts":9123,"rounds":9124,"Ġspa":9125,"Ġagrees":9126,"Ġvalley":9127,"Ġracks":9128,"456":9129,"ĠProt":9130,"EL":9131,"Ġconj":9132,"Ġspoon":9133,"Ġclauses":9134,"Ġcarbohydr":9135,"Ġgrade":9136,"bbing":9137,"Ġwildlife":9138,"Ġroads":9139,"....-":9140,"ĠSuper":9141,"hus":9142,"tax":9143,"alg":9144,"Ġhed":9145,"quart":9146,"Ġenh":9147,"Ġ74":9148,"Ġmammals":9149,"ĠOverall":9150,"Ġderived":9151,"Ġbiking":9152,"Ġnur":9153,"Ġhes":9154,"ĠNegative":9155,"Ġpopcorn":9156,"Ġoptimal":9157,"Ġportions":9158,"ĠEstablish":9159,"140":9160,"EC":9161,"ien":9162,"Ġgle":9163,"Ġsocks":9164,"Ġnaturally":9165,"Ġtechnologies":9166,"ĠCode":9167,"Ġberries":9168,"ĠTur":9169,"Ġstable":9170,"Ġvisa":9171,"Ġshowed":9172,"ĠPhot":9173,"Ġcasting":9174,"Ġmathematics":9175,"Ġfreedom":9176,"Ġcocoa":9177,"ĠThanks":9178,"axy":9179,"123456":9180,"bbed":9181,"Ġhandkerchie":9182,"Ġpersonalized":9183,"ĠAndroid":9184,"ĠSecurity":9185,"Ġpencil":9186,"ĠJeff":9187,"Ġmargarine":9188,"ĠWall":9189,"Ġash":9190,"output":9191,"chnology":9192,"Ġkilogram":9193,"Ġscratching":9194,"Ġjungle":9195,"lyn":9196,"ĠHI":9197,"ĠMiddle":9198,"Ġdecent":9199,"Ġ88":9200,"2018":9201,"Ġobtained":9202,"Ġpandemic":9203,"Ġfeathers":9204,"??":9205,"ĠKh":9206,"Ġcandle":9207,"Ġdataframe":9208,"Ġentirely":9209,"ĠeBay":9210,"Ġvomiting":9211,"cin":9212,"ishing":9213,"vernment":9214,"anean":9215,"Ġrental":9216,"ĠMexican":9217,"Ġtolerance":9218,"Ġfuels":9219,"VI":9220,"cd":9221,"Ġwagon":9222,"Ġbands":9223,"ĠWood":9224,"agues":9225,"Ġcrash":9226,"Ġcookie":9227,"Ġinfest":9228,"Ġcomplain":9229,"And":9230,"Ġtheater":9231,"atically":9232,"Ġpapers":9233,"Ġmow":9234,"iform":9235,"ĠBible":9236,"Ġrob":9237,"Ġprocessor":9238,"Ġstandards":9239,"Ġplanting":9240,"Ġcinnamon":9241,"Ġquiets":9242,"Ġsan":9243,"Ġ57":9244,"Ġ-....-":9245,"Ġproven":9246,"Ġattended":9247,"ĠPhrase":9248,"Ġsuspect":9249,"Ġprinciples":9250,"mounter":9251,"kes":9252,"Ġmart":9253,"weet":9254,"ĠHeat":9255,"orses":9256,"2015":9257,"ttp":9258,"Ġmixing":9259,"!!!":9260,"ĠCompare":9261,"ĠRussian":9262,"Ġexhaust":9263,"=-":9264,"break":9265,"Ġpleased":9266,"ĠCam":9267,"ĠMa":9268,"Ġrolls":9269,"Ġbull":9270,"Ġgeneric":9271,"Ġdivor":9272,"Ġlimbs":9273,"Ġcommercial":9274,"face":9275,"meg":9276,"Ġcrev":9277,"Ġobst":9278,"ĠJohnson":9279,"Ġauto":9280,"milk":9281,"oline":9282,"Ġinclusive":9283,"Ġclassical":9284,"Ġattitude":9285,"Ġgrew":9286,"MPLE":9287,"Ġmosquit":9288,"iar":9289,"reds":9290,"Ġwoven":9291,"Ġbeverages":9292,"Ġcogn":9293,"Ġsett":9294,"Ġcenters":9295,"Ġbroccoli":9296,"Ġreactions":9297,"Ġvolunteer":9298,"TH":9299,"adow":9300,"Ġplug":9301,"Ġalphab":9302,"Ġrecognize":9303,"erk":9304,"Ġpacks":9305,"Ġsoy":9306,"post":9307,"Ġglim":9308,"Ġcertainly":9309,"Ġparentheses":9310,"Ġdecorated":9311,"Ġcrocod":9312,"PA":9313,"cigarettes":9314,"sad":9315,"Ġdating":9316,"image":9317,"eping":9318,"Ġupdate":9319,"Ġ81":9320,"Ġ79":9321,"Ġrotting":9322,"Ġliked":9323,"lit":9324,"rs":9325,"Ġsatell":9326,"Ġfork":9327,"ĠST":9328,"ĠOld":9329,"Ġunaware":9330,"Ġ82":9331,"Ġskunk":9332,"Ġbored":9333,"Ġcrumb":9334,"Ġ1859":9335,"ĠPrepare":9336,"Ġsaturated":9337,"Ġbringing":9338,"Ġcrushed":9339,"Ġdigestive":9340,"Japan":9341,"Ġpun":9342,"step":9343,"Ġstrain":9344,"ĠRs":9345,"Ġreturned":9346,"ĠViet":9347,"Ġinvestors":9348,"Ġconveying":9349,"Ġdigestion":9350,"Ġconstitution":9351,"Ġstronger":9352,"ĠCarl":9353,"Ġsignificantly":9354,"Ġcapture":9355,"Ġsandwiches":9356,"Im":9357,"Your":9358,"Ġtires":9359,"Ġore":9360,"ĠMu":9361,"ĠGen":9362,"Ġcommonsense":9363,"ĠValid":9364,"Ġspecialized":9365,"Ġstrips":9366,"Ġannoun":9367,"Ġextensive":9368,"ND":9369,"how":9370,"Ġresidents":9371,"Ġ62":9372,"Ġstreets":9373,"Ġstayed":9374,"ĠPlan":9375,"bbbbbbbb":9376,"Ġpreparation":9377,"ĠAtlantic":9378,"Ġhandkerchiefs":9379,"Ġwound":9380,"Ġbon":9381,"Ġlift":9382,"ĠPER":9383,"ĠNA":9384,"Ġwhatever":9385,"Ġcastle":9386,"Ġsin":9387,"Ġwears":9388,"Ġamid":9389,"Ġpointed":9390,"define":9391,"Ġbeliefs":9392,"ĠInstead":9393,"Ġchronic":9394,"Ġillnesses":9395,"Ġshrubs":9396,"ĠFurther":9397,"Ġfairs":9398,"Ġbond":9399,"Ġheating":9400,"ĠFitz":9401,"Ġcocon":9402,"ĠOh":9403,"Ġroles":9404,"Ġdrift":9405,"ĠAssoci":9406,"autions":9407,"Ġpurchased":9408,"Ġtapestries":9409,"Ġastronaut":9410,"Ġdeductions":9411,"Ġpier":9412,"store":9413,"Ġdeleg":9414,"Ġintended":9415,"merce":9416,"Ġ1945":9417,"Ġvegetation":9418,"Ġreported":9419,"Ġhypn":9420,"Ġaccomplishments":9421,"Ġvowels":9422,"04":9423,"ATE":9424,"sized":9425,"two":9426,"inished":9427,"Ġcumin":9428,"arl":9429,"Ġ240":9430,"olk":9431,"Ġflank":9432,"Ġ83":9433,"Ġsandstone":9434,"Ġtrading":9435,"Ġwonderful":9436,"ĠDonald":9437,"join":9438,"Ġmuseum":9439,"Ġuniversities":9440,"gestion":9441,"ystem":9442,"inition":9443,"rust":9444,"Ġ77":9445,"Ġsubmit":9446,"ĠOrwell":9447,"ĠMonitor":9448,"Ġmammogram":9449,"Ġsensitive":9450,"ĠCommission":9451,"ademy":9452,"Ġcherry":9453,"GH":9454,"Sp":9455,"Ġpy":9456,"Ġorn":9457,"emption":9458,"Ġdisorder":9459,"Ġrepeated":9460,"ĠHarper":9461,"Ġcrystals":9462,"Ġfacial":9463,"=\"":9464,"Of":9465,"aque":9466,"Ġ@":9467,"ented":9468,"Ġgifts":9469,"storm":9470,"Ġallig":9471,"Ġgloves":9472,"Ġdiagnose":9473,"ĠMinister":9474,"ĠRegular":9475,"first":9476,"that":9477,"Ġwit":9478,"Ġven":9479,"Ġequals":9480,"Ġexplanation":9481,"ternal":9482,"Ġbulk":9483,"Ġwallet":9484,"Australia":9485,"cs":9486,"math":9487,"otics":9488,"icting":9489,"olic":9490,"Ġcling":9491,"odel":9492,"Ġpurs":9493,"DF":9494,"Don":9495,"mond":9496,"Ġ110":9497,"Ġscra":9498,"Ġoffensive":9499,"Ġobserve":9500,"Ġprecautions":9501,"Ġknocked":9502,"Ġarrested":9503,"Cats":9504,"adian":9505,"neath":9506,"Ġ600":9507,"Ġsubm":9508,"00000":9509,"Ġverbs":9510,"Ġcrossing":9511,"Ġnutrient":9512,"ĠSteve":9513,"ĠBeneath":9514,"NT":9515,"oman":9516,"ĠTor":9517,"ĠBoston":9518,"Ġplural":9519,"ĠAnn":9520,"Ġdecorate":9521,"Ġmultiply":9522,"Ġodors":9523,"Ġfles":9524,"ĠSk":9525,"Ġfrying":9526,"ĠPen":9527,"ĠFour":9528,"Ġenormous":9529,"Ġupward":9530,"Ġ71":9531,"Ġ73":9532,"Ġattentive":9533,"Ġchocolates":9534,"Ġoccurrence":9535,"57":9536,"Ġtou":9537,"ĠABC":9538,"anted":9539,"Ġrinse":9540,"ĠGPS":9541,"Ġsoci":9542,"Ġdescending":9543,"luding":9544,"Ġapparent":9545,"Ġcharacterized":9546,"Ġattractive":9547,"Ġcircumst":9548,"France":9549,"]:":9550,"Ġherbal":9551,"Ġsilent":9552,"Ġlimits":9553,"ĠColor":9554,"Ġpolitics":9555,"column":9556,"CATION":9557,"Ġscrambled":9558,"repre":9559,"Ġpap":9560,"Ġlegumes":9561,"such":9562,"ĠCenter":9563,"Ġstuffed":9564,"Ġpassionate":9565,"reprene":9566,".','":9567,"68":9568,"Ġpul":9569,"rol":9570,"ĠHenry":9571,"Ġcoron":9572,"object":9573,"Ġcandies":9574,"Ġharder":9575,"Ġpolyg":9576,"flowers":9577,"Ġarchitecture":9578,"oration":9579,"aland":9580,"astern":9581,"Ġchandel":9582,"Ġscuba":9583,"Ġwouldn":9584,"ĠVis":9585,"Ġstrict":9586,"exas":9587,"ĠSpace":9588,"Ġscanf":9589,"Each":9590,"public":9591,"hell":9592,"Ġlock":9593,"1200":9594,"Ġfinance":9595,"Ġpolar":9596,"Ġdistant":9597,"Ġheading":9598,"Ġswing":9599,"Ġresponses":9600,"Ġtuple":9601,"Ġozone":9602,"father":9603,"non":9604,"Ġborrow":9605,"Ġgolf":9606,"Ġsharing":9607,"Ġsod":9608,"ĠChicago":9609,"ĠReturns":9610,"ĠMedit":9611,"gentina":9612,"Ġpermanent":9613,"Ġpodcast":9614,"rics":9615,"esan":9616,"Ġwel":9617,"anger":9618,"Ġaged":9619,"Ġinterpret":9620,"Ġmathematician":9621,"Ġpotato":9622,"Day":9623,"Line":9624,"Turn":9625,"rases":9626,"inos":9627,"Ġgum":9628,"Ġhills":9629,"Ġebon":9630,"Ġstalk":9631,"agle":9632,"Ġcomment":9633,"inked":9634,"Ġruins":9635,"Ġasks":9636,"ĠVeg":9637,"Ġtempor":9638,"Ġkilling":9639,"Ġwatched":9640,"dig":9641,"Ġtbsp":9642,"Ġwave":9643,"ĠScient":9644,"ĠBell":9645,"Ġatypical":9646,"Ġket":9647,"Ġspiders":9648,"ĠJes":9649,"Ġ69":9650,"Ġtrained":9651,"tenant":9652,"125":9653,"ĠVer":9654,"Ġsymph":9655,"Ġcombining":9656,"Ġclassifying":9657,"Ġdiscussing":9658,"Ġcompetitive":9659,"Ġquartz":9660,"Ġtimeline":9661,"Ġ1984":9662,"Ġaxis":9663,"Ġassistant":9664,"Ġoverwhelmed":9665,"Ġpure":9666,"ĠParm":9667,"Ġvapor":9668,"Ġwheels":9669,"Ġcontam":9670,"Ġsheep":9671,"ĠVirgin":9672,"Ġtourist":9673,"ĠHistory":9674,"Ġbronze":9675,"Ġfingers":9676,"Ġresistance":9677,"Ġpassive":9678,"erranean":9679,"ritis":9680,"ĠCalcul":9681,"chest":9682,"Ġferns":9683,"stract":9684,"urtenant":9685,"ĠDan":9686,"andy":9687,"ĠOption":9688,"Ġadjectives":9689,"Ġproducing":9690,"Ġfungi":9691,"Ġpromoting":9692,"Ġexpressing":9693,"Ġcoughing":9694,")?":9695,"stream":9696,"ĠAB":9697,"ĠWay":9698,"ĠScience":9699,"ĠGer":9700,"asters":9701,"ĠStay":9702,"Ġcalendar":9703,"Ġefficiently":9704,"Ġsharply":9705,"ĠTrack":9706,"Ġcounseling":9707,"ĠFitzger":9708,"Ġdri":9709,"ĠSanta":9710,"Ġheated":9711,"ĠBest":9712,"Ġmeant":9713,"Ġagric":9714,"ologically":9715,"filename":9716,"Ġpursue":9717,"ĠFitzgerald":9718,"eting":9719,"uten":9720,"ĠFocus":9721,"Ġvet":9722,"Ġsomewhat":9723,"Ġknowing":9724,"Ġservings":9725,"Ġfilms":9726,"Ġpreviously":9727,"Ġmerch":9728,"Ġanalogy":9729,"Ġlantern":9730,"Ġspinach":9731,"ĠMediterranean":9732,"Jane":9733,"Ġsap":9734,"Ġdow":9735,"Ġshining":9736,"Ġnumb":9737,"Ġclause":9738,"Ġcontacts":9739,"ĠSea":9740,"Ġcontrovers":9741,"Ġurban":9742,"ĠMadrid":9743,"apter":9744,"='":9745,"table":9746,"Ġ)":9747,"oust":9748,"andid":9749,"Ġconference":9750,"ackson":9751,"Ċĉĉ":9752,"raped":9753,"Ġq":9754,"asc":9755,"Ġnoodles":9756,"Ġships":9757,"Ġvase":9758,"Ġcodes":9759,"ĠEnd":9760,"Ġenem":9761,"Ġminor":9762,"Ġ1970":9763,"Ġcurve":9764,"Ġpopul":9765,"Ġexpressions":9766,"Ġholiday":9767,"Ġcashier":9768,"Ġpreheated":9769,"Ġty":9770,"Ġframed":9771,"Ġrings":9772,"Ġ2014":9773,"Ġ1990":9774,"Ġfluid":9775,"Ġprefix":9776,"Ġmeasurements":9777,"ĠJews":9778,"Ġdatabase":9779,"Ġcomprehensive":9780,"ya":9781,"ĠCro":9782,"ĠCath":9783,"ĠHy":9784,"Ġtracks":9785,"ictional":9786,"Ġ1980":9787,"common":9788,"Ġprepaid":9789,"ambur":9790,"Ġdrove":9791,"Ġdiamonds":9792,"vascular":9793,"Ġdestroyed":9794,"asp":9795,"ĠMel":9796,"Ġabuse":9797,"keys":9798,"Ġrefund":9799,"Ġentered":9800,"ĠiP":9801,"--)":9802,"vention":9803,"Ġbudgeting":9804,"Ġsucceed":9805,"Ġconnections":9806,"ternative":9807,"Ġfreshly":9808,"Ġflee":9809,"Ġcollabor":9810,"Ġoccupations":9811,"58":9812,"ear":9813,"ĠSur":9814,"berra":9815,"avirus":9816,"ĠâĢĶ":9817,"Ġrac":9818,"Ġkeyboard":9819,"Ġcontinent":9820,"Ġbarked":9821,"Ġconvenient":9822,"Ġjacket":9823,"Ġcryptocur":9824,"Ġveterin":9825,"App":9826,"aud":9827,"bar":9828,"ln":9829,"rete":9830,"Ġproud":9831,"estone":9832,"Ġ140":9833,"Ġconsequences":9834,"Ġentering":9835,"anguage":9836,"Ġoccurring":9837,"Ġparticularly":9838,"Ġstreaming":9839,"Ġrubble":9840,"Ġexhib":9841,"Ġpedest":9842,"Ġflesh":9843,"ĠParmesan":9844,"hent":9845,"asty":9846,"plant":9847,"upid":9848,"Ġdragon":9849,"Ġclassroom":9850,"Ġprinted":9851,"Ġvisibility":9852,"Ġcolleagues":9853,"Ġencry":9854,"ĠSym":9855,"Ġsatisfies":9856,"hea":9857,"Ġchim":9858,"Ġappurtenant":9859,"Ġfinds":9860,"Ġsinging":9861,"Ġprotest":9862,"Ġbrowned":9863,"ĠDeep":9864,"Ġdetermining":9865,"Ġsyringe":9866,"Ġcognitive":9867,"81":9868,"GT":9869,"jud":9870,"rans":9871,"Ġfiction":9872,"Ġnations":9873,"Ġbeads":9874,"ĠSort":9875,"Ġ92":9876,"Ġfung":9877,"Ġrespectful":9878,"ĠVerb":9879,"Ġconvey":9880,"Ġlanding":9881,"Ġdealing":9882,"Ġcertified":9883,"Ġsteady":9884,"hunt":9885,"wall":9886,"Ġpipes":9887,"Ġgerm":9888,"Ġrevers":9889,"utch":9890,"Ġforth":9891,"olt":9892,"ciated":9893,"Ġscales":9894,"Ġdecides":9895,"Ġcontinued":9896,"Ġsubjects":9897,"7890":9898,"Ġcrimson":9899,"Ġincorporate":9900,"Testcase":9901,"ĠLouis":9902,"Object":9903,"Ġcircumstances":9904,"parent":9905,"tics":9906,"Ġwarning":9907,"Ġmile":9908,"ĠSEO":9909,"agger":9910,"Ġexternal":9911,"Ġaloud":9912,"Ġjagged":9913,"Ġunless":9914,"Ġincent":9915,"Ġbuff":9916,"Ġcord":9917,"Ġcharity":9918,"Ġreturning":9919,"Ġofficials":9920,"Ġretailers":9921,"Ġcoconut":9922,")].":9923,"nia":9924,"eties":9925,"Ġseal":9926,"Ġpeak":9927,"Ġlogs":9928,"ograp":9929,"Ġgreased":9930,"Ġcircles":9931,"ĠYear":9932,"white":9933,"ĠSolar":9934,"!.":9935,"cats":9936,"Ġdesc":9937,"Ġopens":9938,"Ġglaes":9939,"Ġplanted":9940,"Ġconstructed":9941,"Ġbrowser":9942,"Ġveterinarian":9943,"Return":9944,"pet":9945,"Ġshark":9946,"ĠFA":9947,"ĠMor":9948,"ĠDu":9949,"Ġdiffers":9950,"ovember":9951,"Ġoperator":9952,"Ġpurchasing":9953,"ĠĠĠĠĠĠĠĠĠĠĠĠĠĠĠĠĠĠĠĠĠĠĠĠĠĠĠĠĠĠĠĠ":9954,"ĠReplace":9955,"ĠZealand":9956,"Ġlavender":9957,"\";":9958,"CD":9959,"correct":9960,"iper":9961,"sort":9962,"stones":9963,"Ġcomments":9964,"aching":9965,"ĠJackson":9966,"Ġentreprene":9967,"Ġimmigr":9968,"Ġsubstrings":9969,"ĠGreece":9970,"Ġbathroom":9971,"Ġpigs":9972,"Ġflexible":9973,"ĠJesus":9974,"Col":9975,"vard":9976,"Ġwrought":9977,"itt":9978,"Ġinner":9979,"Ġgene":9980,"ĠTexas":9981,"ĠJon":9982,"ĠVe":9983,"standing":9984,"ĠSpend":9985,"Ġcrimin":9986,"Ġversa":9987,"blue":9988,"Ġbulbs":9989,"Ġdisagree":9990,"Ġfraud":9991,",'":9992,"OK":9993,"Ġtong":9994,"ilit":9995,"verty":9996,"Ġintensity":9997,"ĠLaw":9998,"Ġoverc":9999,"ĊĠĠĠĠĠĠĠĠ":10000,"Ġdistur":10001,"ĠWeb":10002,"Ġidentical":10003,"Ġgravel":10004,"Ġdeeper":10005,"ĠArticle":10006,"Ġgallon":10007,"Ġdecreased":10008,"Ġinterval":10009,"Ġaggressive":10010,"noun":10011,"enuse":10012,"Ġrepairs":10013,"ĠEngine":10014,"Ġglowing":10015,"Ġspecialist":10016,"ĠScan":10017,"Ġalgorithms":10018,"Ġmuseums":10019,"94":10020,"Ġtum":10021,"Ġpenn":10022,"Ġtoppings":10023,"ĠIr":10024,"ĠWomen":10025,"ĠSup":10026,"ĠNaz":10027,"Ġswine":10028,"Ġdiscrim":10029,"Ġblogging":10030,"biotics":10031,"Ġcardiovascular":10032,"GB":10033,"LY":10034,"Ġfres":10035,"Ġgh":10036,"Ġhorses":10037,"rup":10038,"Ġfee":10039,"Ġsaus":10040,"Ġdrivers":10041,"ĠApples":10042,"ĠKey":10043,"Ġearthquake":10044,"'))":10045,"53":10046,"Or":10047,"grad":10048,"Ġgrain":10049,"Ġplank":10050,"lph":10051,"Ġevil":10052,"Ġamendment":10053,"ĠPersonZ":10054,"Ġcontinuous":10055,"Ġgardening":10056,"Ġpreventing":10057,"Ġtissue":10058,"Ġappetite":10059,"Ġmicrow":10060,"Mike":10061,"rat":10062,"Ġfav":10063,"qual":10064,"racy":10065,"ĠFed":10066,"ĠRun":10067,"ĠLo":10068,"ssss":10069,"Ġdentist":10070,"kok":10071,"anic":10072,"orra":10073,"Ġworker":10074,"ertainment":10075,"Ġsquat":10076,"ĠShop":10077,"Ġstickers":10078,"ĠCarol":10079,"Ġinteractive":10080,"ĠIncre":10081,"Ġounce":10082,"Ġpleasant":10083,"Ġpermutation":10084,"ĠTop":10085,"ĠPoss":10086,"acts":10087,"Ġ1950":10088,"Ġcreamy":10089,"Ġspeaks":10090,"ĠNear":10091,"Ġincreasingly":10092,"Ġstrengthen":10093,"Ġhypotenuse":10094,"Ġcarbohydrates":10095,"ĠAssociation":10096,"Sec":10097,"ronym":10098,"Ġbaked":10099,"ĠFemale":10100,"ĠOK":10101,"Ġcharged":10102,"ĠChild":10103,"2020":10104,"Ġslee":10105,"agrams":10106,"Ġfailure":10107,"Ġshaped":10108,"Ġcelebrate":10109,"Ġidiom":10110,"Ġdizziness":10111,"associated":10112,"DI":10113,"SP":10114,"bell":10115,"{'":10116,"Ġcancers":10117,"Ġscri":10118,"Ġanswering":10119,"Ġ2018":10120,"arrange":10121,"ĠProgram":10122,"Ġsupportive":10123,"Ġprofessor":10124,"Ġwares":10125,"lessly":10126,"Ġaffili":10127,"liament":10128,"Ġirrelevant":10129,"without":10130,"Ġinhab":10131,"husi":10132,"Ġwrap":10133,"Ġfauc":10134,"Ġdram":10135,"Ġhood":10136,"ructor":10137,"ante":10138,"inder":10139,"cipl":10140,"ĠJill":10141,"acci":10142,"Ġportra":10143,"Ġsticking":10144,"Ġdais":10145,"Ġpools":10146,"Ġmurder":10147,"Ġ>>>":10148,"Ġcounselor":10149,"Ġpuppy":10150,"Ġincentives":10151,"(-":10152,"87":10153,"LI":10154,"VB":10155,"Ġwis":10156,"itis":10157,"Ġelder":10158,"stick":10159,"Ġorb":10160,"ĠFile":10161,"Ġcleans":10162,"ategory":10163,"Ġreferred":10164,"Ġclosing":10165,"Ġgeometric":10166,"ĠSettings":10167,"Ġmetabolism":10168,"cons":10169,"Ġpic":10170,"Ġneur":10171,"Ġrins":10172,"gex":10173,"Ġuniform":10174,"obj":10175,"Ġpoverty":10176,"Ġrouter":10177,"Char":10178,"ĠReduce":10179,"Ġrecycling":10180,"Ġchop":10181,"ĠBegin":10182,"ĠJose":10183,"Ġsugars":10184,"Ġconsulting":10185,"ĠTimmy":10186,"----------------":10187,"ĠDarwin":10188,"Che":10189,"mers":10190,"inion":10191,"ĠSally":10192,"inton":10193,"Ġ[('":10194,"Ġ94":10195,"Ġposture":10196,"Ġzoo":10197,"Ġemployment":10198,"Ġbreaths":10199,"Ġphilosophy":10200,"Ġcampaigns":10201,"Ġensuring":10202,"Ġbite":10203,"uma":10204,"ĠTer":10205,"ogen":10206,"Ġpharm":10207,"Ġcontained":10208,"ificent":10209,"Ġconcrete":10210,"Ġpathway":10211,"Ġtrend":10212,"Ġtutoring":10213,"Ġtorch":10214,"Ġweakness":10215,"Ġabandoned":10216,"vings":10217,"ota":10218,"Ġyield":10219,"Ġech":10220,"sters":10221,"ĠCase":10222,"Ġdevelo":10223,"ĠNovember":10224,"Ġbloss":10225,"Ġcurved":10226,"Ġmistwood":10227,"Ġshades":10228,"Ġuncertain":10229,"Ġmagazine":10230,"VERB":10231,"Press":10232,"QU":10233,"Ġlone":10234,"ĠPossible":10235,"Ġabdom":10236,"Ġslang":10237,"Ġdirectory":10238,"Ġpreference":10239,"Ġprompt":10240,"ocolate":10241,"Ġdamaged":10242,"colored":10243,"nat":10244,"Ġtort":10245,"Ġyards":10246,"osion":10247,"Ġspan":10248,"Ġunion":10249,"ĠLife":10250,"Ġspell":10251,"lasses":10252,"ĠFlor":10253,"Ġcompliment":10254,"tys":10255,"see":10256,"ĠPower":10257,"Ġvoid":10258,"Ġrated":10259,"Ġquote":10260,"cium":10261,"Ġmyster":10262,"Ġspect":10263,"Ġassets":10264,"Ġauthority":10265,"home":10266,"ĠMal":10267,"Ġabbre":10268,"Ġfunny":10269,"Ġpotentially":10270,"ĠSpread":10271,"Ġbelief":10272,"Ġribb":10273,"Ġlicens":10274,"ĠBuild":10275,"Ġsatisfied":10276,"yrics":10277,"atoes":10278,"Ġrecess":10279,"Ġforgot":10280,"ĠElect":10281,"Ġmanaged":10282,"Ġinputs":10283,"Ġdefault":10284,"Ġexcise":10285,"Ġdangers":10286,"Ġsmells":10287,"Ġconcentrating":10288,"Ġsymphony":10289,"234":10290,"51":10291,"Ġfans":10292,"Ġpd":10293,"icol":10294,"Ġlaugh":10295,"ifies":10296,"aki":10297,"igers":10298,"ĠBre":10299,"ĠNet":10300,"ĠIsland":10301,"Ġenthusi":10302,"Ġtested":10303,"Ġlaunched":10304,"Ġroutes":10305,"ĠRomans":10306,"Ġweapon":10307,"Ġcrisis":10308,"Ġtransactions":10309,"sers":10310,"ĠĊĠĠĠĠĠĠ":10311,"reland":10312,"Ġov":10313,"esity":10314,"Ġdwarf":10315,"olved":10316,"Ġchart":10317,"Ġwillow":10318,"enery":10319,"osex":10320,"Ġmetric":10321,"Ġgrace":10322,"Ġfitting":10323,"ĠLabel":10324,"Ġhunting":10325,"Ġcushions":10326,"Ġvibrant":10327,"Ġhip":10328,"Ġbeast":10329,"ĠWars":10330,"Ġuncomfort":10331,"ĠSoft":10332,"Ġtravels":10333,"Ġfarmer":10334,"Ġfastest":10335,"Ġrearranging":10336,"Ġcrossed":10337,"Ġentertained":10338,"Ġtroops":10339,"Ġcomparison":10340,"celer":10341,"Ġchains":10342,"Ġparam":10343,"Ġunderneath":10344,"ĠVac":10345,"Ġlighter":10346,"Ġtribal":10347,"Ġflowing":10348,"ĠButter":10349,"ĠGoodnight":10350,"Ġpillars":10351,"Ġliterature":10352,"nag":10353,"tuce":10354,"ĠGl":10355,"endl":10356,"Ġactual":10357,"Ġcrimes":10358,"Ġnarrator":10359,"Ġachieved":10360,"Ġcertific":10361,"Ġepisode":10362,"Ġrestrictions":10363,"People":10364,"Point":10365,"worth":10366,"Ġgal":10367,"ĠBit":10368,"Ġplaque":10369,"loc":10370,"commerce":10371,"aesar":10372,"Ġdistribution":10373,"Ġintricate":10374,"ĠPERSON":10375,"Le":10376,"cap":10377,"Ġtac":10378,"Ġads":10379,"Ġrele":10380,"ĠSing":10381,"ĠThird":10382,"Ġauthent":10383,"Ġselected":10384,"ĠPlant":10385,"ructure":10386,"Ġdollar":10387,"Ġcushion":10388,"91":10389,"Data":10390,"heim":10391,"ceans":10392,"Ġstal":10393,"Ġforums":10394,"irth":10395,"oln":10396,"thritis":10397,"ĠBudd":10398,"Ġweed":10399,"Ġcurves":10400,"Ġsoftened":10401,"println":10402,"space":10403,"Ġcapitalized":10404,"Ġcertifications":10405,"Ġdiscovery":10406,"tysburg":10407,"starch":10408,"Ġconsole":10409,"Ġruled":10410,"Ġ1978":10411,"ensional":10412,"Ġdonate":10413,"ika":10414,"TER":10415,"Ġenjoying":10416,"Ġmagnificent":10417,"Ġtuition":10418,"Ġfestival":10419,"Ġrubber":10420,"Ġcoupons":10421,",,":10422,"AX":10423,"fly":10424,"va":10425,"ĠCust":10426,"Ġcock":10427,"Ġterrain":10428,"ĠInstitute":10429,"Ġ||":10430,"Ġchallenging":10431,"Ġchannel":10432,"Ġstimul":10433,"Def":10434,"mission":10435,"ĠHig":10436,"Ġwheat":10437,"aphor":10438,"Invalid":10439,"Ġownership":10440,"incoln":10441,"Ġindependence":10442,"Ġsuspended":10443,"ĠDIY":10444,"dp":10445,"ĠÂ":10446,"Ġmine":10447,"Ġgust":10448,"Ġlyrics":10449,"ĠCaesar":10450,"ĠHam":10451,"Ġshield":10452,"Ġmeats":10453,"Ġbrew":10454,"Ġproductive":10455,"Ġsunset":10456,"iolet":10457,"coin":10458,"ĠSearch":10459,"Ġaccessories":10460,"agna":10461,"Ġgenres":10462,"Ġflickering":10463,"Ġspiritual":10464,"ĠHawai":10465,"Ġannounced":10466,"Wash":10467,"Ġcute":10468,"Ġfictional":10469,"isher":10470,"Ġhooks":10471,"Ġlush":10472,"Ġease":10473,"Ġrevenue":10474,"ooper":10475,"Ġacronym":10476,"Ġovernight":10477,"Ġworldwide":10478,"Ġcontextually":10479,"Ġrecorded":10480,"American":10481,"ĠFlorida":10482,"iw":10483,"hem":10484,"ĠPan":10485,"Ġexempt":10486,"ĠNap":10487,"active":10488,"Ġunderfoot":10489,"Ġlargely":10490,"Ġphysic":10491,"Ġlaid":10492,"Ġ&&":10493,"Ġrepeat":10494,"Ġintroducing":10495,"Ġcrock":10496,"Ġ'-'(":10497,"Ġunfinished":10498,"Ġthermost":10499,"cule":10500,"Ġprescribed":10501,"DP":10502,"MAL":10503,"Val":10504,"target":10505,"var":10506,"oni":10507,"Ġbay":10508,"ĠCA":10509,"Ġwrink":10510,"Ġgrants":10511,"Ġartwork":10512,"Ġsafer":10513,"Ġsubjective":10514,"annah":10515,"ĠGeorg":10516,"ĠColle":10517,"ĠColumb":10518,"Ġinstalled":10519,"Ġviolent":10520,"Ġmagnetic":10521,"Read":10522,"ĠTimes":10523,"Ġmainly":10524,"Ġ1800":10525,"Ġcombinations":10526,"Ġalcoholic":10527,"Ġlibraries":10528,"Ġstripes":10529,"likely":10530,"Ġdimensions":10531,"Ġhorizon":10532,"ĠConstitution":10533,"Noun":10534,"urop":10535,"Ġtal":10536,"ĠDifferent":10537,"Ġquad":10538,"Ġherb":10539,"_______":10540,"ĠBeing":10541,"boards":10542,"aaa":10543,"ĠGettysburg":10544,"ĠPolice":10545,"Ġethical":10546,"ĠBangkok":10547,"Ġpuzzle":10548,"Ġelegant":10549,"'*":10550,"Ġcraw":10551,"Ġlime":10552,"ĠTitle":10553,"ĠFood":10554,"izers":10555,"Ġowned":10556,"Ġowners":10557,"Ġobjectives":10558,"anna":10559,"Ġburned":10560,"Ġgear":10561,"Ġcornstarch":10562,"Ġchickens":10563,"ĠVirginia":10564,"Ġrevolution":10565,"ĠDou":10566,"Ġcozy":10567,"Ġbelt":10568,"Ġdietary":10569,"Ġsquir":10570,"affe":10571,"Ġtrusted":10572,"Ġloudly":10573,"onacci":10574,"Ġdull":10575,"Ġinnov":10576,"Ġsung":10577,"ĠPC":10578,"ĠDwarf":10579,"Ġspam":10580,"ardo":10581,"phones":10582,"Ġaches":10583,"Ġacting":10584,"arrow":10585,"Ġcapable":10586,"ESC":10587,"Ġparking":10588,"ĠPrinting":10589,"Ġexcessive":10590,"Ġecos":10591,"Sc":10592,"pired":10593,"sim":10594,"Ġware":10595,"stairs":10596,"Ġvoting":10597,"ĠMath":10598,"Ġpancakes":10599,"Ġfantastic":10600,"PersonY":10601,"Ġresponsibility":10602,"Ġcarpets":10603,"ĠAcademy":10604,"City":10605,"class":10606,"gote":10607,"normal":10608,"Ġtape":10609,"Ġced":10610,"Ġecho":10611,"ĠWi":10612,"ĠRoth":10613,"Ġdeter":10614,"Ġliber":10615,"Ġnost":10616,"Ġmovements":10617,"Ġbarrier":10618,"Ġstrip":10619,"Ġivory":10620,"OUTPUT":10621,"Ġelaborate":10622,"Sh":10623,"dat":10624,"hist":10625,"https":10626,"salt":10627,"imeters":10628,"Ġfollowers":10629,"ĠRob":10630,"ĠCanadian":10631,"ĠAnne":10632,"Ġaccused":10633,"Ġpractical":10634,"Ġsatisfy":10635,"Ġrhyth":10636,"Ġdivorce":10637,"Ġscript":10638,"\");":10639,"Business":10640,"Red":10641,"hib":10642,"ĊĊĠĠĠĠĠĠĠ":10643,"aning":10644,"Ġinject":10645,"Ġlava":10646,"ĠTRUE":10647,"agons":10648,"Ġseating":10649,"Ġoutfit":10650,"ĠLincoln":10651,"opinion":10652,"Ġevolution":10653,"Ġdisaster":10654,"Ġinstructor":10655,"athon":10656,"Ġlocate":10657,"Ġaircraft":10658,"color":10659,"html":10660,"ĠFurthermore":10661,"ĠScanner":10662,"Ġuncomfortable":10663,"Em":10664,"Ġcows":10665,"ĠTrad":10666,"ĠWild":10667,"Ġdele":10668,"ĠDa":10669,"Ġarthritis":10670,"Ġclay":10671,"acles":10672,"Ġshooting":10673,"ĠPhil":10674,"Ġchronologically":10675,"Ġsuddenly":10676,"().":10677,"nut":10678,"rine":10679,"Ġink":10680,"ĠAC":10681,"Ġexter":10682,"ĠJason":10683,"Ġenforcement":10684,"Ġresting":10685,"arrhea":10686,"ucose":10687,"Ġpermits":10688,"Ġeliminate":10689,"catalog":10690,"Ġrotation":10691,"Ġcrun":10692,"ependence":10693,"Ġextends":10694,"Ġroasted":10695,"Ġpermutations":10696,"bel":10697,"lap":10698,"pie":10699,"Ġhay":10700,"Ġabroad":10701,"unci":10702,"Ġpersu":10703,"Ġmoderate":10704,"Ġmosaic":10705,"Ġmonitoring":10706,"Ġmicrowave":10707,"62":10708,"Key":10709,"fu":10710,"Ġdissol":10711,"Ġtraps":10712,"Ġgrilled":10713,"iana":10714,"Ġdepart":10715,"\"\"\"":10716,"Ġgarbage":10717,"Ġexecutive":10718,"Ġconditioning":10719,"Ġhygi":10720,"Ġillumination":10721,"ĠCalculate":10722,"ĠSupreme":10723,"Time":10724,"Ġwise":10725,"Ġdil":10726,"ĠIreland":10727,"Ġ175":10728,"ĠSch":10729,"agiar":10730,"eren":10731,"Ġunpro":10732,"odian":10733,"Ġarts":10734,"Ġfunding":10735,"Ġbreeches":10736,"adesh":10737,"zygote":10738,"Codehunt":10739,"83":10740,"Go":10741,"Ġbrus":10742,"Ġhike":10743,"Ġsemin":10744,"Ġvia":10745,"ĠMic":10746,"Ġalley":10747,"Ġqueen":10748,"ĠJud":10749,"Ġstudied":10750,"Ġfactory":10751,"Ġdistrict":10752,"Ġweekends":10753,"Ġsilence":10754,"posal":10755,"ĠQuora":10756,"Ġregulate":10757,"Ġappointment":10758,"Ġcobblestones":10759,"Ġhydrogen":10760,"Second":10761,"iac":10762,"Ġtender":10763,"Ġbeaches":10764,"Ġwhale":10765,"Ġmeadow":10766,"ĠLike":10767,"Ġobesity":10768,"Ġrecre":10769,"Ġdistract":10770,"Ġresulted":10771,"Ġsilvery":10772,"Ġappropriately":10773,"Ġlimiting":10774,"ucked":10775,"ĠEmily":10776,"Ġgasoline":10777,"Ġstyling":10778,"Ġlawns":10779,"Ġclarity":10780,"Ġravine":10781,"IA":10782,"iens":10783,"Ġoats":10784,"erate":10785,"ĠFire":10786,"Ġlect":10787,"Ġtriple":10788,"Ġtemp":10789,"Ġsuggested":10790,"dogs":10791,"Ġfarmers":10792,"Ġsubmitting":10793,"Ġsausage":10794,"EW":10795,"World":10796,"paper":10797,"ua":10798,"Ġine":10799,"ayer":10800,"Ġsoot":10801,"Ġcoal":10802,"ĠLi":10803,"Ġprey":10804,"Ġpoker":10805,"ĠKenn":10806,"Ġdrives":10807,"Ġtyping":10808,"Ġinsult":10809,"Ġstreams":10810,"Ġcleaned":10811,"Ġidentifying":10812,"Ġprotecting":10813,"Ġjumbled":10814,"Ġmaple":10815,"balls":10816,"ĠLearn":10817,"Ġdiagnosis":10818,"Ġadvertise":10819,"Ġinvestigate":10820,"Ġwrapped":10821,"ĠProvide":10822,"Ġkilograms":10823,"User":10824,"alph":10825,"iden":10826,"ĠCart":10827,"Ġchi":10828,"Ġincident":10829,"Ġcorpor":10830,"Ġdiarrhea":10831,"Ġ91":10832,"ocracy":10833,"Ġhappiness":10834,"Ġassass":10835,"Ġserver":10836,"Ġalternatives":10837,"Ġdrained":10838,"rupted":10839,"ĠWestern":10840,"ĠCrime":10841,"Ġtampon":10842,"Ġebonwood":10843,"Fi":10844,"but":10845,"Ġsamples":10846,"Ġcakes":10847,"oul":10848,"asive":10849,"Ġhambur":10850,"Ġrept":10851,"abeth":10852,"Ġcomparing":10853,"ĠĠĠĠĠĠĠĠĠĠ":10854,"Ġ____.":10855,"Ġblankets":10856,"appropri":10857,"ĠInsert":10858,"Be":10859,"tac":10860,"Ġop":10861,"Ġoceans":10862,"akers":10863,"olves":10864,"redible":10865,"ĠJer":10866,"ibonacci":10867,"Ġlimestone":10868,"Ġphotograph":10869,"Ġindustrial":10870,"Ġcircuit":10871,"Ġdrawn":10872,"Comput":10873,"Ġclimbing":10874,"Ġhorizont":10875,"ographer":10876,"Ġol":10877,"Ġwick":10878,"Ġtopped":10879,"Ġmats":10880,"ivia":10881,"Ġcommitting":10882,"Ġ190":10883,"ĠSeason":10884,"Ġanxious":10885,"Price":10886,"Ġpremises":10887,"Ġhabitat":10888,"Ġcopies":10889,"Ġseminars":10890,"LD":10891,"Ġhiding":10892,"ĠHard":10893,"ĠInformation":10894,"Ġjars":10895,"ĠStore":10896,"Ġpolite":10897,"Ġfreezer":10898,"ESS":10899,"ĠSpring":10900,"Ġdisplayed":10901,"Ġmechanics":10902,"1000000100000010000001000000":10903,"Ġsenior":10904,"Ġbehaviors":10905,"ĠPossessor":10906,"Ġelderly":10907,"'}":10908,"93":10909,"lazy":10910,"pat":10911,"stud":10912,"Ġoutc":10913,"ĠMah":10914,"usville":10915,"ella":10916,"Ġswap":10917,"Ġmemor":10918,"ĠConstraints":10919,"ĠIntellig":10920,"Ġblocking":10921,"ĠEliz":10922,"Ġ'/'(":10923,"Ġcomponent":10924,"Ġoptimize":10925,"Ġpushed":10926,"Ġspacious":10927,"Please":10928,"state":10929,"cking":10930,"rika":10931,"Ġargs":10932,"Ġairlines":10933,"awa":10934,"Ġpoles":10935,"example":10936,"Ġtravelers":10937,"Ġhalfling":10938,"Ġdisplays":10939,"Ġcyl":10940,"uddy":10941,"Mexic":10942,"Write":10943,"mother":10944,"tion":10945,"ĠCats":10946,"ĠFro":10947,"Ġfeat":10948,"Ġblend":10949,"Ġhollow":10950,"Ġdomestic":10951,"ĠHarvard":10952,"Ġrectangles":10953,"ĠDownload":10954,"Ġsac":10955,"Ġfault":10956,"asal":10957,"Ġreform":10958,"streak":10959,"ayed":10960,"akistan":10961,"igure":10962,"ĠJob":10963,"ashore":10964,"ĠWordPress":10965,"Ġcobblestone":10966,"ĠTitusville":10967,"Ġnormally":10968,"Ġfungus":10969,"JFK":10970,"json":10971,"Ġtar":10972,"amic":10973,"Ġfrust":10974,"ĠBay":10975,"ĠRAM":10976,"Ġmyth":10977,"Ġagencies":10978,"ĠAnna":10979,".,.":10980,"Ġlinear":10981,"Ġsweat":10982,"Ġshoe":10983,"ĠDisney":10984,"Ġleafy":10985,"serv":10986,"Ġ00":10987,"Ġstru":10988,"agg":10989,"usable":10990,"Ġcrown":10991,"onesia":10992,"Ġguards":10993,"Ġgardens":10994,"Ġdestruction":10995,"Ġcrude":10996,"Ġhundreds":10997,"Ġenclosed":10998,"Ġsculpture":10999,"Ġcalorie":11000,"!\".":11001,"BLE":11002,"gur":11003,"ĠÃ":11004,"ingly":11005,"Ġtoast":11006,"icians":11007,"ĠSend":11008,"Ġspills":11009,"icking":11010,"Ġjustice":11011,"ĠAlbert":11012,"Ġtraveled":11013,"Ġcomfortably":11014,"Ġcontrols":11015,"Ġbaskets":11016,"Ġstormy":11017,"solving":11018,"Ġnavigation":11019,"Ġfifth":11020,"Ġdemonstrate":11021,"Ġfreelance":11022,"gment":11023,"lide":11024,"sun":11025,"ett":11026,"ĠTall":11027,"amus":11028,"ĠSign":11029,"ĠHelp":11030,"ules":11031,"Ġinterns":11032,"Ġgenet":11033,"Ġexistence":11034,"ĠGovernment":11035,"appropriate":11036,"?'.":11037,"Ġpace":11038,"ĠIran":11039,"Ġecl":11040,"ĠPale":11041,"ĠFred":11042,"ĠFried":11043,"ĠRow":11044,"].,":11045,"Ġgrounds":11046,"Ġenters":11047,"Ġlottery":11048,"Ġcloset":11049,"Ġjoined":11050,"ĠAndrew":11051,"Ġhumidifier":11052,"Ġslopes":11053,"Ġbicycle":11054,"Ġchandelier":11055,"fa":11056,"entials":11057,"ĠClean":11058,"Ġalloc":11059,"Ġbutt":11060,"ressed":11061,"Ġthinks":11062,"Ġcareers":11063,"Ġcalcium":11064,"Ġsnack":11065,"Ġforests":11066,"349":11067,"Ġsurvey":11068,"Ġivy":11069,"ĠNetworking":11070,"Possible":11071,"Sim":11072,"ĠIS":11073,"Ġnail":11074,"irates":11075,"ĠFound":11076,"indle":11077,"Ġsprained":11078,"ĠJess":11079,"Ġmakeup":11080,"matrix":11081,"Ġheadquart":11082,"Ġdirected":11083,"Ġdreams":11084,"ĠLeague":11085,"Ġcyber":11086,"hydr":11087,"ĠRichard":11088,"Ġclogged":11089,"Ġfaucet":11090,"'*'(":11091,"CORRECT":11092,"hire":11093,"itro":11094,"ĠWas":11095,"ĠWalk":11096,"ilant":11097,"Ġclients":11098,"Ġevapor":11099,"Ġblended":11100,"Ġsla":11101,"Ġsnakes":11102,"ĠScot":11103,"Ġballoons":11104,"Ġdealers":11105,"Ġexciting":11106,"Ġbrace":11107,"LAX":11108,"ĠCounty":11109,"Ġevaluation":11110,"Ġreputation":11111,"YYYYYYYYYYYYYYYY":11112,"remove":11113,"Ġpraise":11114,"ĠCatholic":11115,"Positive":11116,"fess":11117,"ady":11118,"ĠHold":11119,"Ġ[-":11120,"urned":11121,"comes":11122,"Ġ1234":11123,"Ġseverity":11124,"Ġwarmth":11125,"append":11126,"Ġreceiving":11127,"Ġscanner":11128,"Ġmolecule":11129,"algic":11130,"97":11131,"Ro":11132,"dim":11133,"hol":11134,"tail":11135,"ĠTy":11136,"ĠSee":11137,"ĠPDF":11138,"usive":11139,"Ġclaws":11140,"Ġresolution":11141,"Ġdisadvantages":11142,"Node":11143,"Ġrisky":11144,"anned":11145,"biance":11146,"small":11147,"ĠStudies":11148,"stdio":11149,"ĠNorthern":11150,"61":11151,"IR":11152,"Ġsway":11153,"Ġpup":11154,"Ġmound":11155,"Ġthunder":11156,"ĠSP":11157,"ĠSom":11158,"ĠBecause":11159,"angered":11160,"Ġ101":11161,"ĠReach":11162,"Ġcupboard":11163,"Ġ12345":11164,"Ġopenly":11165,"ĠAsian":11166,"ĠConfed":11167,"Ġachieving":11168,"Ġdeadlines":11169,"ĠSecret":11170,"Ġprimarily":11171,"ĠMaybe":11172,"mitted":11173,"Ġvolcano":11174,"Ġhurricane":11175,"Ġpicnic":11176,"à¸":11177,"Ġtile":11178,"Ġtension":11179,"ĠTHE":11180,"ĠAT":11181,"ĠCare":11182,"ĠGard":11183,"Ġspon":11184,"Ġoverweight":11185,"Ġmaybe":11186,"Ġwaterfall":11187,"ordan":11188,"Ġprescription":11189,"Ġtechnical":11190,"Ġimprovement":11191,"ĠExpl":11192,"Ġsemi":11193,"Ġcrowded":11194,"ĠMathemat":11195,"ĠHindu":11196,".-":11197,"LL":11198,"replace":11199,"Ġnom":11200,"Ġsched":11201,"Ġsheer":11202,"gano":11203,"Ġtablet":11204,"Ġsignals":11205,"Ġtowers":11206,"Ġprotected":11207,"Ġtastes":11208,"Ġprofessionally":11209,"ĠDeclar":11210,"Ġattribute":11211,"Ġft":11212,"ĠSI":11213,"pelled":11214,"Ġchill":11215,"Ġload":11216,"Ġfried":11217,"apsed":11218,"Ġhighlights":11219,"ĠMartin":11220,"\"),":11221,"Science":11222,"late":11223,"Ġox":11224,"Ġpor":11225,"Ġpest":11226,"Ġgaps":11227,"ĠTem":11228,"util":11229,"Ġvault":11230,"ĠLittle":11231,"upiter":11232,"Ġpartners":11233,"Ġsliced":11234,"Ġdownward":11235,"Ġsubsequ":11236,"Ġfoundation":11237,"Ġmonkey":11238,"Ġleadership":11239,"ĠArch":11240,"lights":11241,"inclusive":11242,"Ġheavier":11243,"Ġmounted":11244,"Ġdrawing":11245,"Ġparticipate":11246,"Ġthrown":11247,"front":11248,"33333333":11249,"ĠSnow":11250,"Ġnostalgic":11251,"82":11252,"900":11253,"Ġlining":11254,"ĠMatch":11255,"Ġrats":11256,"Ġambiance":11257,"ĠAnaly":11258,"ocument":11259,"Ġstrewn":11260,"Ġtalked":11261,"pinion":11262,"ĠComputer":11263,"Ġdurable":11264,"Ġsodium":11265,"Ġimmigrants":11266,"Gather":11267,"omnia":11268,"ĠTreat":11269,"Ġsuicide":11270,"Ġinstitution":11271,"uples":11272,"ĠVan":11273,"########":11274,"Ġfleas":11275,"Ġstrawberry":11276,"olitics":11277,"ĠRelations":11278,"Ġdownt":11279,")-":11280,"Ġlid":11281,"ĠSugar":11282,"Ġrural":11283,"ĠNON":11284,"ĠEvents":11285,"Ġnumer":11286,"acle":11287,"Ġdeeply":11288,"Ġ2009":11289,"Ġflew":11290,"Ġnarrowed":11291,"achel":11292,"Ġvictory":11293,"ĠAlexander":11294,"ĠUNESCO":11295,"Ġfundamental":11296,"Ġtelephone":11297,"ĠSequential":11298,"Most":11299,"Smith":11300,"gans":11301,"enly":11302,"Ġhal":11303,"Ġliver":11304,"Ġlux":11305,"ĠWatch":11306,"abled":11307,"ĠMem":11308,"osph":11309,"Ġarched":11310,"Ġworkb":11311,"Ġemo":11312,"Ġediting":11313,"Ġ255":11314,"Ġpresidential":11315,"Ġwonder":11316,"ĠTechnology":11317,"Ġsmartphone":11318,"Ġassembling":11319,"Ġsurprise":11320,"Ġinfestation":11321,"Ġblossoms":11322,"Ġmysterious":11323,"heimer":11324,"datetime":11325,"mart":11326,"rors":11327,"zens":11328,"Ġsq":11329,"Ġmales":11330,"ĠCreating":11331,"ĠMont":11332,"Ġweathered":11333,"ĠEth":11334,"Ġtriang":11335,"Ġaccountant":11336,"Ġimmun":11337,"Ġoccupation":11338,"Ġsessions":11339,"Ġthermostat":11340,"inn":11341,"Ġpars":11342,"Ġpix":11343,"Ġpiled":11344,"Ġbeard":11345,"ĠMatt":11346,"ĠNancy":11347,"ipse":11348,"inks":11349,"Ġowns":11350,"Ġcustodian":11351,"Ġsoftly":11352,"Ġpronunci":11353,"Ġassembly":11354,"Ġchannels":11355,"Ġphenomenon":11356,"CH":11357,"ĠBank":11358,"Ġmanip":11359,"Ġclubs":11360,"Ġordering":11361,"Ġinstalling":11362,"Ġcomposition":11363,"Ġformation":11364,"Ġvisits":11365,"Start":11366,"Ġtrips":11367,"Ġsquee":11368,"Ġcommunities":11369,"ĠXYZ":11370,"Ġintroduction":11371,"Ġcompanions":11372,"Ġfragments":11373,"ĠFinance":11374,"Ġscholarships":11375,"ladesh":11376,"pread":11377,"isp":11378,"ĠInter":11379,"ĠPil":11380,"Ġalter":11381,"Ġsettle":11382,"Ġparticle":11383,"Ġcounts":11384,"ĠArgument":11385,"Ġpicking":11386,"ĠIndependence":11387,"Ġbrings":11388,"Ġcaptures":11389,"Ġjogging":11390,"Negative":11391,"PM":11392,"anse":11393,"eras":11394,"ari":11395,"ione":11396,"ĠFore":11397,"ĠElf":11398,"Ġpole":11399,"Ġadverb":11400,"Ġbrill":11401,"Ġinviting":11402,"lfriend":11403,"Ġsword":11404,"idespread":11405,"Ġpersists":11406,"Ġswitching":11407,"ĠDecide":11408,"Ġnull":11409,"rav":11410,"ĠFamily":11411,"Ġchords":11412,"Ġimpressive":11413,"Ġsyrup":11414,"ĠKen":11415,"merse":11416,"brid":11417,"Ġextended":11418,"<<\"":11419,"Ġdryer":11420,"Ġcontrolled":11421,"Ġpackages":11422,"Ġthoughtful":11423,"Ġinterviews":11424,"ĠIncorpor":11425,"Ġmechanical":11426,"ĠYeah":11427,"****":11428,"Ġthousand":11429,"Ġconvenience":11430,"Ġdisgust":11431,"Ġaffiliate":11432,")*":11433,"Ġcompat":11434,"Ġagreed":11435,"Ġcurly":11436,"Ġcooker":11437,"Ġphysically":11438,"Ġcapitalization":11439,"Ġwinning":11440,"ĠAdam":11441,"ĊĊĊĊ":11442,"Ġiniti":11443,"Ġadventure":11444,"Ġindoors":11445,"mega":11446,"ĠVietnam":11447,"ĠCollege":11448,"Apple":11449,"When":11450,"fram":11451,"ril":11452,"ĠSU":11453,"Ġseashore":11454,"ĠNon":11455,"ciple":11456,"Ġreserv":11457,"ĠStory":11458,"Ġworkplace":11459,"Ġ1903":11460,"Ġfinancing":11461,"Ġconstraints":11462,"roduction":11463,"Ġspreading":11464,"Ġhumming":11465,"Ġaddresses":11466,"qrt":11467,"Ġcubes":11468,"ĠPortug":11469,"ĠHawaii":11470,"uropath":11471,"RL":11472,"Ġ..":11473,"Ġoct":11474,"Ġneg":11475,"ĠPress":11476,"Ġwashes":11477,"ĠMess":11478,"ĠNative":11479,"enders":11480,"Ġresid":11481,"Ġbackwards":11482,"Ġrefused":11483,"Ġdepict":11484,"Ġtalks":11485,"Ġcreams":11486,"Ġexplains":11487,"Ġdominates":11488,"ĠSolve":11489,"XOG":11490,"]])":11491,"pow":11492,"Ġze":11493,"Ġwax":11494,"arry":11495,"leaf":11496,"sts":11497,"Ġneut":11498,"ĠBah":11499,"Ġknot":11500,")..":11501,"ĠKat":11502,"ercury":11503,"Ġleaders":11504,"ĠQuestions":11505,"braham":11506,"occup":11507,"ĠEverest":11508,"Ġnegotiate":11509,"Ġcramped":11510,"digit":11511,"Ġwipe":11512,"Ġwidespread":11513,"Ġloop":11514,"Ġreusable":11515,"amation":11516,"ircle":11517,"ĠMove":11518,"ĠBow":11519,"Ġgods":11520,"ĠLake":11521,"Ġliz":11522,"Ġactress":11523,"Ġbasil":11524,"Ġdestinations":11525,"Ġinteractions":11526,"Ġcliffs":11527,"Ġloyalty":11528,"Ġthermometer":11529,"ABC":11530,"grow":11531,"lib":11532,"pit":11533,"Ġ;":11534,"idth":11535,"ĠSen":11536,"Ġentail":11537,"Ġprintf":11538,"artha":11539,"((_":11540,"Ġtroubles":11541,"Ġbreathe":11542,"ĠAdminist":11543,"00000000000000000000000000000000":11544,"Ġcommitted":11545,"Ġtwisted":11546,"Ġathlet":11547,"Ġthyroid":11548,"otherapy":11549,"Ġcrocodile":11550,"Ġstalks":11551,"cards":11552,"requ":11553,"Ġmaker":11554,"Ġhits":11555,"Ġinterm":11556,"Ġaroma":11557,"Ġ[['":11558,"Ġemperor":11559,"Ġslim":11560,"Ġslaves":11561,"Ġchildhood":11562,"Ġglucose":11563,"Ġwaiter":11564,"Ġinteraction":11565,"nament":11566,"Ġautomatically":11567,"Ġharvest":11568,"Ġvertices":11569,"Ġoregano":11570,"Ġphysicist":11571,"yan":11572,"isl":11573,"ĠTotal":11574,"Ġorchest":11575,"ĠHall":11576,"Ġabstract":11577,"elf":11578,"Ġdiscipl":11579,"Ġcrops":11580,"Ġdedication":11581,"ĠInclude":11582,"ĠBarack":11583,"marks":11584,"Ġduplicate":11585,"Ġcirculation":11586,"hors":11587,"xx":11588,"Ġbol":11589,"items":11590,"ifer":11591,"Ġneural":11592,"olen":11593,"three":11594,"ĠDen":11595,"ĠReorder":11596,"Ġinsomnia":11597,"():":11598,"Ġoriginated":11599,"Ġcredits":11600,"Ġsweating":11601,"Ġpersistent":11602,"pathy":11603,"Ġneighbors":11604,"Ġghost":11605,"ĠNapole":11606,"]==":11607,"bable":11608,"ipt":11609,"Ġlst":11610,"Ġhem":11611,"getarian":11612,"ĠNE":11613,"ghi":11614,"Ġflies":11615,"Noah":11616,"Ġtrial":11617,"Ġtasted":11618,"Ġversions":11619,"ĠBeatles":11620,"ĠiPad":11621,"judice":11622,"nagr":11623,".).":11624,"Pl":11625,"big":11626,"bound":11627,"fire":11628,"uct":11629,"Ġdy":11630,"Ġlent":11631,"Ġshred":11632,"Ġhotels":11633,"Ġaccessible":11634,"ĠJoin":11635,"Ġofficers":11636,"Ġrecognition":11637,"Context":11638,"Ġlinen":11639,"Ġtyph":11640,"WER":11641,"Ġorient":11642,"ĠCulture":11643,"Ġshipping":11644,"Ġwhis":11645,"Ġdisk":11646,"Ġcloak":11647,"IND":11648,"Ġgraduate":11649,"faction":11650,"aptain":11651,"6666":11652,"Ġroasting":11653,"Ġsatellite":11654,"Ġsubsequent":11655,"Ġpronunciation":11656,"Capital":11657,"XED":11658,"aab":11659,"rey":11660,"Ġwing":11661,"itutions":11662,"Ġmoons":11663,"Ġshares":11664,"ĠFree":11665,"ĠRinse":11666,"ermat":11667,"Ġpebb":11668,"plug":11669,"phants":11670,"obia":11671,"Ġruined":11672,"Ġmemories":11673,"Ġsmoothie":11674,"Ġfragrant":11675,"Ġpublish":11676,"ICE":11677,"Ġcloudy":11678,"ĠVenus":11679,"Ġornate":11680,"UM":11681,"VOR":11682,"cled":11683,"dep":11684,"Ġcer":11685,"Ġfractions":11686,"Ġbog":11687,"Ġpies":11688,"Ġdut":11689,"struct":11690,"utive":11691,"Ġbearing":11692,"Ġorch":11693,"irs":11694,"ĠFibonacci":11695,"Ġteles":11696,"ĠExt":11697,"ĠRam":11698,"Ġunem":11699,"Ġrailing":11700,"Ġvegg":11701,"Ġbush":11702,"Ġgreens":11703,"Ġsquats":11704,"Ġdiscard":11705,"ghijklmnopqrstuvwxyz":11706,"andidate":11707,"jan":11708,"rils":11709,"Ġsisters":11710,"itate":11711,"Ġpests":11712,"achus":11713,"geeks":11714,"ramble":11715,"Ġmodw":11716,"Ġtoothbrush":11717,"Sports":11718,"bt":11719,"Ġpi":11720,"Ġdining":11721,"etts":11722,"Ġframes":11723,"ĠPri":11724,"ddess":11725,"action":11726,"Ġacceler":11727,"ypes":11728,"105":11729,"Ġslender":11730,"Ġsums":11731,"oked":11732,"Ġvisuals":11733,"Ġpaperwork":11734,"Ġ___.":11735,"Ġaccompan":11736,"Ġunders":11737,"ĠAccount":11738,"visor":11739,"Ġadopted":11740,"Ġworkbench":11741,"XOGEN":11742,"TS":11743,"jumps":11744,"zed":11745,"zheimer":11746,"Ġpines":11747,"ĠTable":11748,"ivide":11749,"ĠCost":11750,"Ġcomed":11751,"plex":11752,"Ġsphere":11753,"Ġincredible":11754,"Ġlettuce":11755,"Ġinfin":11756,"Ġdesigner":11757,"Ġflavorful":11758,"Ġcottage":11759,"Ġduration":11760,"Ġappreciate":11761,"Ġtongue":11762,"achusetts":11763,"aci":11764,"iams":11765,"Ġfet":11766,"iry":11767,"Ġexit":11768,"Ġleap":11769,"ĠNorm":11770,"ĠLog":11771,"Ġdecline":11772,"Ġbreeds":11773,"Ġmuscular":11774,"Ġwinding":11775,"Ġbasin":11776,"END":11777,"Ġwastewater":11778,"Ġcrisp":11779,"Ġgrapefruit":11780,"HER":11781,"pany":11782,"Ġwarn":11783,"Ġtops":11784,"Ġhired":11785,"ĠSAT":11786,"hattan":11787,"Ġrivers":11788,"unes":11789,"ĠJordan":11790,"plate":11791,"Ġsmiling":11792,"Ġspeeds":11793,"Ġinvention":11794,"ĠCanberra":11795,"ĠKindle":11796,"Ġboiled":11797,"Ġgreatly":11798,"Ġdefect":11799,"Ġeditor":11800,"ĠExper":11801,"Ġ2008":11802,"Ġportray":11803,"Ġearnings":11804,"Ġconsumer":11805,"Mexico":11806,"Cons":11807,"Number":11808,"ggs":11809,"names":11810,"Ġante":11811,"learning":11812,"Ġhint":11813,"Ġheater":11814,"Ġfries":11815,"Ġresolve":11816,"apse":11817,"Ġflames":11818,"ĠReference":11819,"Ġendl":11820,"ĠAlzheimer":11821,"Ġcreativity":11822,"Ġcontacting":11823,"click":11824,"Ġstatues":11825,"321":11826,"ENTS":11827,"ĠCharlie":11828,"Ġalphabets":11829,"Ġrinsed":11830,"''":11831,"drop":11832,"hift":11833,"mad":11834,"Ġpork":11835,"Ġdf":11836,"iveness":11837,"abel":11838,"rous":11839,"Ġque":11840,"ĠEle":11841,"unning":11842,"Ġallergy":11843,"Ġcommands":11844,"Ġmini":11845,"Ġgrated":11846,"Ġexpanse":11847,"Ġpassageway":11848,"Ġfunctioning":11849,"Ġpresents":11850,"Ġcooler":11851,"Ġrearranged":11852,"bania":11853,"Ġ>=":11854,"etchup":11855,"Ġhygiene":11856,"Bob":11857,"away":11858,"iop":11859,"ibb":11860,"mony":11861,"Ġtheft":11862,"Ġfired":11863,"Ġanger":11864,"Ġpills":11865,"Ġdart":11866,"Ġhamm":11867,"Ġstability":11868,"ĠAR":11869,"ĠCorrect":11870,"ĠPet":11871,"Ġvesse":11872,"Ġ((":11873,"Ġdrank":11874,"azard":11875,"Ġcentimeters":11876,"Ġtaxation":11877,"Ġrepet":11878,"Ġinfluential":11879,"Ġindicated":11880,"Ġstrawberries":11881,"Ġnavigate":11882,"Ġencouraging":11883,"SFO":11884,"fun":11885,"Ġtid":11886,"Ġtact":11887,"Ġstamps":11888,"Ġstolen":11889,"Ġprohib":11890,"Ġdehydr":11891,"ĠFlo":11892,"Ġlexic":11893,"gebra":11894,"ermel":11895,"ĠLinked":11896,"Ġoutputting":11897,"ĠCanyon":11898,"geria":11899,"parse":11900,"Ġblooming":11901,"Ġdevelopments":11902,"Ġdirector":11903,"Ġ2006":11904,"Ġbarrel":11905,"Ġdressing":11906,"Ġoppon":11907,"Ġpronounced":11908,"ĠRepublican":11909,"Ġutilizing":11910,"pection":11911,"ĠPakistan":11912,"ĠOcc":11913,"ateral":11914,"ĠStat":11915,"Ġdecades":11916,"Ġinspection":11917,"Ġdistances":11918,"Ġavailability":11919,"letter":11920,"Ġmusicians":11921,"Ġconveyed":11922,"Ġexpectancy":11923,"Ġprincess":11924,"Ġreversed":11925,"Ġcedar":11926,"Ġslavery":11927,"Ye":11928,"ns":11929,"Ġcreek":11930,"orus":11931,"oops":11932,"ĠFar":11933,"Ġchased":11934,"ptom":11935,"ĠEffect":11936,"Ġblade":11937,"Ġemer":11938,"Ġcleft":11939,"Ġbloom":11940,"Ġsnoring":11941,"Ġcustoms":11942,"EST":11943,"ĠCream":11944,"Ġpredators":11945,"Ġblocked":11946,"Ġdeaths":11947,"uddenly":11948,"Ġrhythm":11949,"Ġtons":11950,"Ġislands":11951,"Ġgaze":11952,"Ġlakes":11953,"Ġstood":11954,"Ġstub":11955,"ami":11956,"ĠMartha":11957,"ĠEqu":11958,"ĠLO":11959,"Ġblow":11960,"Ġphosph":11961,"Ġbookstore":11962,"ĠCannot":11963,"000000":11964,"Ġdefe":11965,"Ġmarathon":11966,"Italy":11967,"ĠReading":11968,"Ġcooled":11969,"ĠOrder":11970,"Ġburied":11971,"Ġtanks":11972,"Ġheights":11973,"Ġlicenses":11974,"Ġbiology":11975,"Ġindicating":11976,"'-'(":11977,"VIEW":11978,"Ġpunish":11979,"./":11980,"gener":11981,"Ġming":11982,"ĠHel":11983,"inea":11984,"ĠModel":11985,"Ġgoddess":11986,"Ġworkouts":11987,"othy":11988,"Ġgluten":11989,"Ġfemin":11990,"Ġexceed":11991,"ĠResults":11992,"Ġclusters":11993,"Ġencourages":11994,"Ġpaprika":11995,"GE":11996,"Ġtries":11997,"onia":11998,"ĠAri":11999,"ĠCle":12000,"ideo":12001,"Ġalike":12002,"iffel":12003,"Ġmug":12004,"Ġadds":12005,"Ġtrave":12006,"Ġobese":12007,"Ġshortness":12008,"ĠPlus":12009,"Ġjudgment":12010,"Ġdusty":12011,"laid":12012,"Ġcottages":12013,"ĠRestaurant":12014,"ployment":12015,"ĠSymptoms":12016,"ĠJoseph":12017,"Ġorchestra":12018,"Correct":12019,"cade":12020,"tte":12021,"Ġdraped":12022,"ĠAbraham":12023,"ĠSolution":12024,"ados":12025,"Ġproport":12026,"Ġintroduce":12027,"Ġplush":12028,"Ġtraits":12029,"tee":12030,"Ġtray":12031,"ĠKabul":12032,"ĠRoad":12033,"ĠMassachusetts":12034,"ĠCarolina":12035,"ĠElizabeth":12036,"ĠAdministration":12037,"ope":12038,"Ġtread":12039,"Ġfaded":12040,"Ġpans":12041,"star":12042,"ctic":12043,"ĠWash":12044,"ĠRachel":12045,"Ġbust":12046,"Ġcapitals":12047,"Ġ165":12048,"Ġfluent":12049,"Ġreceives":12050,"Ġmeasurement":12051,"Ġsurveys":12052,"ĠMcC":12053,"Ġproofread":12054,"Ġaerobic":12055,"Ġpopulations":12056,"cb":12057,"parts":12058,"Ġ]":12059,"Ġsigning":12060,"ruce":12061,"Ġoutcomes":12062,"Ġplagiar":12063,"ĠNER":12064,"Ġtransmission":12065,"Ġmakeshift":12066,"ĠAmendment":12067,"Ġcategorize":12068,"Ġburgers":12069,"Ġbatteries":12070,"Ġcelebrity":12071,"Ġoptimizing":12072,"ĠSquare":12073,"Ġhesitating":12074,"Ġpyram":12075,"34976":12076,"ZATION":12077,"sorted":12078,"Ġsarc":12079,"ĠCoun":12080,"Ġdebit":12081,"redict":12082,"ĠRice":12083,"Ġscal":12084,"Ġanymore":12085,"Ġacet":12086,"Ġaccidents":12087,"));":12088,"Ġprinting":12089,"Ġendangered":12090,"Ġguy":12091,"Ġhandling":12092,"ĠShaw":12093,"Ġriding":12094,"meal":12095,"Ġfootsteps":12096,"Ġstrengths":12097,"Ġcritical":12098,"Ġsimpler":12099,"racecar":12100,"fessional":12101,"Ġlexicograph":12102,"cm":12103,"enities":12104,"Ġgin":12105,"Ġthai":12106,"istant":12107,"Ġrum":12108,"asket":12109,"ophen":12110,"plot":12111,"ĠStr":12112,"Ġinsul":12113,"topped":12114,"Ġlayout":12115,"Ġamongst":12116,"')]":12117,"Ġmultiv":12118,"Ġfolder":12119,"Ġwealthy":12120,"Ġthreats":12121,"Ġhormones":12122,"Ġpromotions":12123,".']":12124,"700":12125,"?'].":12126,"From":12127,"Where":12128,"natural":12129,"ĠIce":12130,"Ġnasal":12131,"Ġhealing":12132,"ĠCold":12133,"Ġchip":12134,"Ġimmerse":12135,"Ġaddiction":12136,"oking":12137,"Ġpotted":12138,"Ġpasswords":12139,"prinkle":12140,"Ġtransition":12141,"Ġbasalt":12142,"Health":12143,"Ġcitrus":12144,"Ġpsychology":12145,"Ġrevealing":12146,"Ġembro":12147,"Ġhabitats":12148,"ĠMathematics":12149,"ĠDeclaration":12150,"Dis":12151,"real":12152,"Ġcav":12153,"Ġrear":12154,"rog":12155,"ĠSide":12156,"Ġprove":12157,"Ġvs":12158,"Ġric":12159,"Ġcope":12160,"ĠLas":12161,"open":12162,"Ġdisasters":12163,"enger":12164,"Ġgeometry":12165,")/(":12166,"Ġcryptocurrency":12167,"ĠCouncil":12168,"534976":12169,"bn":12170,"clock":12171,"ein":12172,"ping":12173,"atile":12174,"Ġfer":12175,"Ġpant":12176,"Ġmph":12177,"ico":12178,"Ġhttp":12179,"Ġlender":12180,"ĠTree":12181,"Ġrays":12182,"ĠDead":12183,"Ġunsc":12184,"axis":12185,"Ġtrap":12186,"Ġregions":12187,"Ġrecruit":12188,"Ġtowering":12189,"anny":12190,"Ġapplicable":12191,"Ġcameras":12192,"ĠDemocratic":12193,"Ġsprays":12194,"rastructure":12195,"Ġdepressed":12196,"Ġassemble":12197,"Ġlungs":12198,"ders":12199,"making":12200,"mise":12201,"Ġyouth":12202,"ĠWrit":12203,"Ġhairst":12204,"riers":12205,"riends":12206,"ĠMaj":12207,"Ġcomprom":12208,"icture":12209,"Ġsurrounds":12210,"Ġrecall":12211,"Ġbutterflies":12212,"ĠSociety":12213,"Ġrepeating":12214,"Ġinstallation":12215,"ĠJulia":12216,"Ġdiscrimination":12217,"Ġechoes":12218,"Dog":12219,"Ġaward":12220,"Ġbough":12221,"Ġthirty":12222,"Ġredd":12223,"Ġstiff":12224,"Ġcongestion":12225,"Ġkne":12226,"ĠOper":12227,"Ġclerk":12228,"Ġrefres":12229,"bole":12230,"izza":12231,"Ġrelaxed":12232,"Ġresponsibilities":12233,"ĠHeritage":12234,"Ġsecurely":12235,"Ġindoor":12236,"Ġpolygon":12237,"flo":12238,"Ġdome":12239,"Ġhipp":12240,"ammat":12241,"Ġshy":12242,"Ġramp":12243,"Ġketchup":12244,"Ġblowing":12245,"ĠThings":12246,"Ġinspired":12247,"values":12248,"ALIND":12249,"Ġtradition":12250,"useum":12251,"China":12252,"Ġdimin":12253,"Ġseasons":12254,"Ġnutritional":12255,"Entertainment":12256,"Ġscraps":12257,"VID":12258,"Ġfier":12259,"Ġinquire":12260,"Ġisol":12261,"Ġpropose":12262,"Ġvul":12263,"ĠGames":12264,"ĠJac":12265,"1010":12266,"coord":12267,"ĠPhys":12268,"ĠLeon":12269,"Ġcomplexity":12270,"Ġdrainage":12271,"Ġreveal":12272,"Ġadministr":12273,"Ġunderstood":12274,"osexual":12275,"Er":12276,"Ġtoad":12277,"ĠTO":12278,"staff":12279,"ĠSample":12280,"Ġshar":12281,"Ġwors":12282,"antically":12283,"thur":12284,"Ġquot":12285,"ĠLanguage":12286,"aven":12287,"Ġheritage":12288,"ipher":12289,"odor":12290,"Ġcommission":12291,"ĠKim":12292,"Ġcurious":12293,"GANI":12294,"Ġbabies":12295,"NOUN":12296,"Ġcolonies":12297,"Ġanalytics":12298,"Ġsuspen":12299,"Ġimperative":12300,"Ġmodwir":12301,"GANIZATION":12302,"pse":12303,"rum":12304,"Ġtack":12305,"erting":12306,"onto":12307,"ĠTell":12308,"child":12309,"urities":12310,"Ġplacing":12311,"usse":12312,"ĠDiet":12313,"ectangle":12314,"ouses":12315,"ĠURL":12316,"Ġprecip":12317,"Ġdrifts":12318,"Ġprotru":12319,"Ġbowls":12320,"++.":12321,"Ġindustries":12322,"Ġ===":12323,"Ġdiscussion":12324,"Ġdecorative":12325,"Ġimmigration":12326,"Ġilluminate":12327,"Ġattempts":12328,"Pros":12329,"Donald":12330,"Ġbuttons":12331,"cord":12332,"cony":12333,"ugs":12334,"Ġwider":12335,"Ġcray":12336,"Ġfi":12337,"itarian":12338,"Ġdiction":12339,"Ġhues":12340,"osite":12341,"ĠGab":12342,"Ġdisorders":12343,"Ġdiffer":12344,"ĠUV":12345,"Ġblind":12346,"Ġpreced":12347,"ccdd":12348,"Ġextend":12349,"Ġinfrastructure":12350,"oids":12351,"Ġalongside":12352,"Ġbalcony":12353,"Ġargue":12354,"Ġgained":12355,"Ġsmoothly":12356,"Ġrusted":12357,"ĠSpeak":12358,"Ġpeaceful":12359,"ĠJimmy":12360,"piration":12361,"aminophen":12362,"Ġtoothpick":12363,"((((((((((((((((":12364,"dimensional":12365,"TRUE":12366,"tab":12367,"Ġbis":12368,"Ġmash":12369,"Ġdad":12370,"Ġster":12371,"Ġstupid":12372,"ivals":12373,"Ġdeer":12374,"Ġatom":12375,"Ġsole":12376,"ĠEiffel":12377,"ĠOur":12378,"ĠRoy":12379,"Ġbug":12380,"Ġbackpack":12381,"ampions":12382,"Ġprofits":12383,"ĠAlong":12384,"Ġelectrons":12385,"Ġaccounting":12386,"Ġbeginners":12387,"ĠZika":12388,"ĠDesign":12389,"Ġwaitress":12390,"Ġfinely":12391,"ROME":12392,"Ġretaining":12393,"Ġfundamentals":12394,"Ġlasagna":12395,"FL":12396,"Note":12397,"Some":12398,"fits":12399,"push":12400,"vy":12401,"Ġlane":12402,"Ġbeam":12403,"Ġ145":12404,"ĠDutch":12405,"Ġcontiguous":12406,"Ġrolling":12407,"Ġamenities":12408,"Ġ105":12409,"Ġcrick":12410,"Ġstrands":12411,"shank":12412,"Ġflooring":12413,"Ġglist":12414,"ĠSeek":12415,"added":12416,"Ġinterviewing":12417,"Ġcontributing":12418,"Ġthrowing":12419,"longest":12420,"Ġcoronavirus":12421,"Ġcriminals":12422,"Ġacetaminophen":12423,"ALINDROME":12424,"Valid":12425,"Ġfel":12426,"Ġdwar":12427,"oscope":12428,"ĠGene":12429,"ĠOil":12430,"Ġdiss":12431,"ipation":12432,"Ġgrill":12433,"ĠChocolate":12434,"ĠVi":12435,"Ġverd":12436,"Ġverte":12437,"Ġgarage":12438,"Ġburnt":12439,"ĠAusten":12440,"ĠMountains":12441,"cases":12442,"cost":12443,"hued":12444,"nels":12445,"power":12446,"pression":12447,"itors":12448,"Ġmuddy":12449,"arled":12450,"Ġjazz":12451,"obe":12452,"Ġrains":12453,"Ġrained":12454,"attles":12455,"onesome":12456,"Ġblackened":12457,"Ġassert":12458,"Ġgotten":12459,"Ġbald":12460,"Ġfuller":12461,"clusion":12462,"Ġbraz":12463,"Ġclaimed":12464,"Ġfeeding":12465,"black":12466,"Ġoccasion":12467,"Ġtendrils":12468,"ĠSnap":12469,"Ġinfluenza":12470,"Ġtoothpaste":12471,"Buzz":12472,"Ġsyllables":12473,"Ġalligator":12474,"Definition":12475,"480":12476,"GG":12477,"ooth":12478,"sk":12479,"heastern":12480,"Ġtox":12481,"Ġgem":12482,"quered":12483,"ĠHu":12484,"Ġsha":12485,"ĠFort":12486,"Ġchlor":12487,"ĠMaps":12488,"ĠDave":12489,"redit":12490,"ĠOtt":12491,"Ġspaghetti":12492,"uster":12493,"Ġdifferently":12494,"Ġtowels":12495,"Ġconferences":12496,"month":12497,"driver":12498,"Ġearns":12499,"ĠColl":12500,"ijing":12501,"IDS":12502,"igarette":12503,"instein":12504,"ĠLocation":12505,"Ġtemporary":12506,"Ġcuc":12507,"Ġpitch":12508,"ĠMRI":12509,"Ġabnormal":12510,"Ġranging":12511,"ights":12512,"ĠGDP":12513,"ĠNob":12514,"Ġlocked":12515,"Ġflakes":12516,"Ġprogression":12517,"Ġmonarch":12518,"Ġconfirm":12519,"Ġconstipation":12520,"Ġdresses":12521,"([[":12522,"Ġbleeding":12523,"Ġappreciation":12524,"ĠStanding":12525,"Ġexhausted":12526,"Ġhypnosis":12527,"ĠIrish":12528,"ĠShawshank":12529,"ammatory":12530,"ĠCry":12531,"ruption":12532,"Ġfoam":12533,"Ġkick":12534,"Ġshed":12535,"Ġcompr":12536,"Ġcrew":12537,"Ġtopical":12538,"works":12539,"Ġcontinuing":12540,"Ġgirlfriend":12541,"Ġpermission":12542,"Ġlifes":12543,"Ġalcove":12544,"Ġapproved":12545,"Ġadjustments":12546,"Ġperspectives":12547,"Ġadopt":12548,"Ġovercooked":12549,"Ġwarehouse":12550,"fare":12551,"gium":12552,"och":12553,"eness":12554,"Ġwart":12555,"Ġwand":12556,"Ġcure":12557,"esome":12558,"ller":12559,"Ġbean":12560,"Ġfry":12561,"Ġshine":12562,"ĠMuseum":12563,"Ġabund":12564,"Ġ360":12565,"Ġlem":12566,"Ġmelt":12567,"ĠRet":12568,"Ġunhappy":12569,"Ġ800":12570,"Ġdriven":12571,"Ġcupcakes":12572,"Ġplanned":12573,"bby":12574,"Ġmeter":12575,"Ġlesson":12576,"Ġsandbox":12577,"Ġpackaging":12578,"Ġmoments":12579,"Ġ384":12580,"United":12581,"ĠGolden":12582,"Family":12583,"rot":12584,"Ġwars":12585,"Ġmul":12586,"Ġlions":12587,"Ġsealed":12588,"ĠRub":12589,"Ġ102":12590,"ername":12591,"issance":12592,"Ġdefend":12593,"Ġstrongly":12594,"Ġreduces":12595,"Ġknowledgeable":12596,"Ġdrawer":12597,"Ġgraphics":12598,"ĠOffice":12599,"ĠIRAs":12600,"ĠRights":12601,"()()()()()()()()()()()()()()()()":12602,"Ġnumbered":12603,"Two":12604,"ĠTuring":12605,"ĠWil":12606,"agment":12607,"Ġscared":12608,"Ġsaut":12609,"Ġ128":12610,"Ġantibiotics":12611,"Ġelephants":12612,"Ġpursu":12613,"Ġauthors":12614,"Ġnights":12615,"Ġcalculated":12616,"Ġemployed":12617,"555":12618,"Ġimpacts":12619,"Ġbulb":12620,"Ġinhabit":12621,"lists":12622,"mn":12623,"Ġaster":12624,"atmeal":12625,"asion":12626,"ĠAS":12627,"ĠHol":12628,"Ġhaph":12629,"ĠMot":12630,"Ġtear":12631,"ĠDirect":12632,"ĠNum":12633,"ultiply":12634,"Ġgloss":12635,"Ġexplicit":12636,"Ġphotographer":12637,"umbered":12638,"uffed":12639,"Ġstrike":12640,"ĠRedemption":12641,"Ġturtle":12642,"pirin":12643,"Ġconservation":12644,"ĠMuslims":12645,"Ġfleece":12646,"Ġsunglasses":12647,"Ġschedul":12648,"Ġhaphazard":12649,")^":12650,"3000":12651,"DA":12652,"Let":12653,"MO":12654,"Spe":12655,"VAL":12656,"[-":12657,"aac":12658,"bye":12659,"rig":12660,"tical":12661,"yst":12662,"Ġcable":12663,"ĠCSS":12664,"ĠHot":12665,"TIC":12666,"aza":12667,"radually":12668,"Ġcollecting":12669,"ĠLearning":12670,"ART":12671,"Ġquantities":12672,"ĠTrail":12673,"Ġcouples":12674,"ktop":12675,"pop":12676,"Ġomega":12677,"ali":12678,"Ġeagle":12679,"rock":12680,"ĠCup":12681,"ĠCaptain":12682,"Ġoutlets":12683,"ĠMilk":12684,"ĠBas":12685,"Ġaloe":12686,"aska":12687,"ĠRot":12688,"Ġcoral":12689,"Ġcounting":12690,"Ġdefic":12691,"Ġsignal":12692,"ĠArm":12693,"Ġsymmet":12694,"Ġarrow":12695,"Ġstatistics":12696,"Ġtreasure":12697,"ĠGermans":12698,"Ġmerge":12699,"ĠEdward":12700,"Ġautomatic":12701,"rimp":12702,"ĠDefine":12703,"Ġpsychological":12704,"stdc":12705,"Society":12706,"ĠLinkedIn":12707,"Other":12708,"Ġgau":12709,"Ġlonesome":12710,"seen":12711,"Ġwashed":12712,"Ġabrupt":12713,"Ġlocks":12714,"Ġcarn":12715,"Ġsubtle":12716,"ĠAdvantages":12717,"Ġscrat":12718,"Ġceremony":12719,"Ġsession":12720,"Frame":12721,"Ġconjunction":12722,"%,":12723,"450":12724,"Water":12725,"Ġtuples":12726,"ativity":12727,"Ġborders":12728,"Ġtoken":12729,"ĠCreek":12730,"\",&":12731,"Ġsyn":12732,"rencies":12733,"Ġski":12734,"Ġraz":12735,"Ġ{}":12736,"cerpt":12737,"Ġvera":12738,"flower":12739,"Ġpalm":12740,"Ġconsumed":12741,"Ġseller":12742,"Ġoccupied":12743,"Ġattempting":12744,"Ġcertificate":12745,"Computers":12746,"VD":12747,"bing":12748,"ano":12749,"eros":12750,"Ġwires":12751,"Ġell":12752,"sels":12753,"ĠPack":12754,"Ġleaking":12755,"rying":12756,"Ġclut":12757,"nequ":12758,"Ġbricks":12759,"Ġaging":12760,"Ġxy":12761,"Ġmetaphor":12762,"Ġcollections":12763,"Ġremained":12764,"Ġwarmer":12765,"Ġripp":12766,"Ġsatisfaction":12767,"Ġincorrectly":12768,"Ġeru":12769,"Ġvested":12770,"Ġexpansion":12771,"Ġcontroversial":12772,"ĠNapoleon":12773,"Ġtoxins":12774,"ĠsautÃ©":12775,"Does":12776,"Enter":12777,"Educ":12778,"Ġwarr":12779,"Ġorgans":12780,"ĠFALSE":12781,"ĠBack":12782,"Ġhash":12783,"ureau":12784,"ĠJupiter":12785,"Ġstarter":12786,"rays":12787,"Ġheadlines":12788,"111":12789,"Ġcalculator":12790,"Ġgrove":12791,"Ġ365":12792,"Ġsubstitute":12793,"Ġmoisturizer":12794,"Ġentrepreneurs":12795,"Ġabbrevi":12796,"itrogen":12797,"NG":12798,"Ġthes":12799,"Ġpestic":12800,"stop":12801,"ĠSales":12802,"Ġconvent":12803,"Ġalgebra":12804,"ĠGir":12805,"ĠNumbers":12806,"ĠLy":12807,"Ġoverlap":12808,"ĠNode":12809,"ixed":12810,"Ġelections":12811,"ĠArthur":12812,"Ġmaintained":12813,"Ġexamine":12814,"ĠBetty":12815,"Ġwrinkles":12816,"Ġinternships":12817,"De":12818,"cue":12819,"found":12820,"hard":12821,"ucc":12822,"Ġmit":12823,"algorithm":12824,"Ġbee":12825,"ima":12826,"Ġdozens":12827,"Ġspilled":12828,"ĠJay":12829,"Ġclaw":12830,"Ġobl":12831,"Ġexpiration":12832,"Ġbutterfly":12833,"Ġfreezing":12834,"ĠExamples":12835,"Ġdanger":12836,"Ġurl":12837,"Ġacceptable":12838,"Ġvaccinated":12839,"Ġterritory":12840,"Ġvertical":12841,"Ġtranslation":12842,"Ġflashcards":12843,"ĠRelationships":12844,"Ġdynam":12845,"mal":12846,"nom":12847,"nem":12848,"Ġmarsh":12849,"Ġcoined":12850,"Ġspaced":12851,"ĠLeg":12852,"Ġscents":12853,"Ġrolled":12854,"Ġsecured":12855,"Ġblades":12856,"Ġgrind":12857,"Ġ108":12858,"Ġexperiments":12859,"Ġcaption":12860,"Ġ2001":12861,"ĠOrig":12862,"Ġindeed":12863,"INI":12864,"door":12865,"Ġcatching":12866,"Ġterrarium":12867,"relation":12868,"Ġfertilizer":12869,"Ġpodcasts":12870,"Ġdictionaries":12871,",...":12872,"filled":12873,"})":12874,"ĪĴ":12875,"Ġfool":12876,"Ġhue":12877,"Ġ130":12878,"peat":12879,"ĠPers":12880,"ulum":12881,"Ġantiv":12882,"Ġskirt":12883,"Ġendurance":12884,"Ġprinciple":12885,"Ġwatches":12886,"ĠGraham":12887,"Ġportrait":12888,"FE":12889,"Mad":12890,"gu":12891,"Ġtucked":12892,"help":12893,"itzer":12894,"Ġgaming":12895,"chain":12896,"url":12897,"Ġalmond":12898,"Ġunple":12899,"Ġenerg":12900,"Ġcreation":12901,"Ġinserting":12902,"Ġsolved":12903,"uccess":12904,"ĠClark":12905,"Ġ1776":12906,"Ġliquids":12907,"Ġwireless":12908,"Ġjumping":12909,"ĠSalad":12910,"Ġavocados":12911,"effective":12912,"ĠVegas":12913,"iliters":12914,"MS":12915,"fight":12916,"hab":12917,"just":12918,"sl":12919,"Ġhug":12920,"Ġey":12921,"Ġsock":12922,"cials":12923,"ĠLut":12924,"Ġresident":12925,"Ġrod":12926,"Ġdiagon":12927,"imentary":12928,"Ġcrashing":12929,"Ġpowers":12930,"Ġprotects":12931,"Ġexecute":12932,"Ġbanners":12933,"ANT":12934,"ĠParliament":12935,"Ġmagic":12936,"Ġsubstances":12937,"Ġdemocracy":12938,"Ġmurm":12939,"Ġobserved":12940,"ĠInvesting":12941,"regular":12942,"Ġvowel":12943,"Ġprize":12944,"ĠIntelligence":12945,"Ġtroublesho":12946,"/\"":12947,"Brazil":12948,"PALINDROME":12949,"average":12950,"food":12951,"ref":12952,"Ġcooper":12953,"omile":12954,"amorph":12955,"Ġcoach":12956,"eling":12957,"Ġlisting":12958,"Ġlips":12959,"Ġevolved":12960,"oga":12961,"Ġcheating":12962,"Ġequality":12963,"ahoo":12964,"Ġdarker":12965,"144":12966,"Ġmeasured":12967,"second":12968,"Ġmotivate":12969,"Ġawareness":12970,"biotic":12971,"Ġdivisor":12972,"Ġspiral":12973,"Ġnotebooks":12974,"Ġhyperbole":12975,"Ġstrictly":12976,"Ġinequality":12977,"Education":12978,"numbered":12979,"ington":12980,"Ġanch":12981,"Ġmigr":12982,"Ġstem":12983,"Ġstew":12984,"amel":12985,"ĠUs":12986,"neous":12987,"Ġslate":12988,"Ġcomputed":12989,"Ġbroker":12990,"Ġcombines":12991,"Ġlanded":12992,"Ġqualities":12993,"Ġangled":12994,"bedded":12995,"Ġreflecting":12996,"Ġquietly":12997,"LOCATION":12998,"Ġeras":12999,"ĠTitanic":13000,"ĠHIV":13001,"ĠBitcoin":13002,"Ġdissolved":13003,"Good":13004,"Script":13005,"jk":13006,"zona":13007,"Ġpin":13008,"Ġpione":13009,"omin":13010,"ĠAction":13011,"Ġprobable":13012,"ulent":13013,"ĠLED":13014,"Ġsmiled":13015,"Ġvectors":13016,"olds":13017,"Ġridge":13018,"Ġkiller":13019,"Ġseemed":13020,"Ġseasonings":13021,"Ġbrushing":13022,"Ġdiameter":13023,"ĠMountain":13024,"Ġincorporating":13025,"ĠValley":13026,"Ġcrevices":13027,"Ġbrilliant":13028,"Last":13029,"Ġau":13030,"ĠSoph":13031,"Ġshots":13032,"anty":13033,"asser":13034,"ĠDate":13035,"ĠEp":13036,"Ġmannequ":13037,"ĠRearrange":13038,"Ġclassification":13039,"Ġcrashed":13040,"Ġmonet":13041,"Ġ:).":13042,"Ġminding":13043,"Ġbanking":13044,"Ġgaining":13045,"Ġfailing":13046,"ĠWilliams":13047,"Ġmultip":13048,"Ġmilliliters":13049,"Ġprecise":13050,"ĠGalaxy":13051,"Ġdatabases":13052,"ĠPalace":13053,"babbabbabbabbabbabbabbab":13054,")+":13055,">,":13056,"SU":13057,"lad":13058,"infl":13059,"Ġdiverse":13060,"chat":13061,"ĠHaving":13062,"Ġmop":13063,"Ġcha":13064,"swers":13065,"Ġbrakes":13066,"Ġplacement":13067,"Ġvaluation":13068,"Ġ1930":13069,"Ġchores":13070,"iked":13071,"Ġ144":13072,"Ġconnects":13073,"appro":13074,"mean":13075,"ĠQuick":13076,"Ġextension":13077,"Ġastronomy":13078,"Ġgleaming":13079,"Ġdelegated":13080,"ĠCommissioner":13081,"ĠWriting":13082,"Error":13083,"uates":13084,"washed":13085,"Ġcact":13086,"Ġeager":13087,"stru":13088,"ĠMer":13089,"ĠNight":13090,"Ġqueries":13091,"ĠRena":13092,"Ġcontra":13093,"Ġungre":13094,"ĠJam":13095,"Ġbund":13096,"Ġflame":13097,"Ġpersons":13098,"Ġcounted":13099,"Ġ132":13100,"Ġgrave":13101,"headed":13102,"LECT":13103,"Ġdeclar":13104,"Ġdraft":13105,"Ġstruggle":13106,"Ġcitizen":13107,"Ġassignment":13108,"Ġwisdom":13109,"Ġoutcro":13110,"ĠRowling":13111,"Ġpebbles":13112,"Ġboughs":13113,"MD":13114,"MENT":13115,"giving":13116,"will":13117,"Ġtheat":13118,"Ġdies":13119,"Ġloos":13120,"idian":13121,"chy":13122,"amiliar":13123,"ĠBab":13124,"Ġsofa":13125,"ĠEinstein":13126,"weed":13127,"Ġthanks":13128,"Ġcompression":13129,"Ġpartial":13130,"ĠVict":13131,"eeee":13132,"ĠExcel":13133,"Ġcalculations":13134,"ĊĉĠĠĠĠĠĠĠĠĠĠĠ":13135,"Ġcollapsed":13136,"orescent":13137,"ĠBarb":13138,"Ġniche":13139,"Ġcrafted":13140,"Ġhumidity":13141,"ployee":13142,"Ġskeleton":13143,"ĠEducation":13144,"Value":13145,"Ġdeleting":13146,"Ġdowntown":13147,"Ġcrayons":13148,"Ġungreased":13149,"Fizz":13150,"google":13151,"gmail":13152,"uating":13153,"Ġlung":13154,"eremy":13155,"Ġnotation":13156,"ĠNY":13157,"locked":13158,"Ġspouse":13159,"ĠItems":13160,"hesive":13161,"Ġmining":13162,"Ġadvances":13163,"Ġglaci":13164,"Ġmusician":13165,"Ġspreads":13166,"Ġfemales":13167,"Ġwaitstaff":13168,"semble":13169,"Ġimplications":13170,"Ġancestors":13171,"ĠStanford":13172,"Ġmerchand":13173,"Ġtelescope":13174,"Ġmultivitamin":13175,"360":13176,"That":13177,"product":13178,"stack":13179,"cell":13180,"imgur":13181,"Ġfoil":13182,"Ġspill":13183,"Ġclin":13184,"Ġpartition":13185,"hens":13186,"Ġraising":13187,"ĠDoing":13188,"âĢĿ?":13189,"Ġsque":13190,"strings":13191,"Ġlaptops":13192,"abcdabcd":13193,"Ġtweets":13194,"Ġgnarled":13195,"350":13196,"TF":13197,"aire":13198,"bet":13199,"iability":13200,"atient":13201,"Ġfasc":13202,"isure":13203,"ĠTax":13204,"Ġthus":13205,"Ġthrew":13206,"ĠYoung":13207,"Ġshifting":13208,"ainst":13209,"Ġabol":13210,"ĠOwn":13211,"Ġspoil":13212,"asting":13213,"webs":13214,"ĠStock":13215,"Ġreviewed":13216,"Ġtrains":13217,"Ġinvited":13218,"Ġaccum":13219,"Ġrecording":13220,"working":13221,"ronoun":13222,"Ġmissed":13223,"Ġmisspelled":13224,"Ġpizzas":13225,"Ġimmediate":13226,"ĠBoil":13227,"Ġmalicious":13228,"ĠKhan":13229,"Ġvaulted":13230,"Ġreddish":13231,"Ġdiminutive":13232,"Cre":13233,"tight":13234,"width":13235,"rets":13236,"Ġdash":13237,"ersion":13238,"Ġknee":13239,"getable":13240,"Ġarches":13241,"Ġupwards":13242,"plausible":13243,"Ġ2011":13244,"atching":13245,"Ġbanned":13246,"Ġillust":13247,"profit":13248,"Ġqualify":13249,"holders":13250,"Ġexpertise":13251,"Ġcomplaints":13252,"Returns":13253,"ĠFederal":13254,"Ġunpleasant":13255,"Part":13256,"]=":13257,"aption":13258,"cake":13259,"dir":13260,"Ġcube":13261,"Ġmes":13262,"alty":13263,"ĠSir":13264,"ura":13265,"ainted":13266,"asks":13267,"lod":13268,"ection":13269,"Ġimagin":13270,"Ġmineral":13271,"Ġsquash":13272,"Ġwaited":13273,"Ġdisplaying":13274,"Ġgranulated":13275,"Ġparticipating":13276,"ĠBilly":13277,"Ġfamiliarize":13278,"Ġplateau":13279,"Ġsegments":13280,"ĠJean":13281,"Ġsparkling":13282,"written":13283,"Ġattributes":13284,"Ġdepths":13285,"Geeks":13286,"Ġfootprints":13287,"Ġenemy":13288,"ĠJessica":13289,"ĠRenaissance":13290,":,":13291,"Car":13292,"MA":13293,"wind":13294,"amine":13295,"estamp":13296,"Ġ450":13297,"Ġinspiration":13298,"Ġcurving":13299,"Ġ:(":13300,"SIVE":13301,"Ġtallest":13302,"ĠIndonesia":13303,"Ġzone":13304,"Ġconsistency":13305,"Remove":13306,"strong":13307,"ĠBright":13308,"ĠCarbon":13309,"ĠStephen":13310,"Ġthrows":13311,"Ġhoping":13312,"Ġshredded":13313,"/>":13314,"numbers":13315,"ollen":13316,"recipe":13317,"arly":13318,"choice":13319,"Ġitiner":13320,"ĠFish":13321,"Ġ\"-":13322,"ĠDC":13323,"ĠDD":13324,"ĠDi":13325,"Ġcoarse":13326,"eman":13327,"opath":13328,"ĠKn":13329,"Ġspecifying":13330,"ĠProject":13331,"Ġtaxi":13332,"Ġinterf":13333,"Ġshoot":13334,"ĠInteger":13335,"Ġaffecting":13336,"ĠAdams":13337,"Ġreasonably":13338,"Ġcycling":13339,"Ġsuffix":13340,"Ġeclipse":13341,"ĠExplain":13342,"Ġparsley":13343,"Fl":13344,"Men":13345,"mus":13346,"named":13347,"Ã¡":13348,"Ġicy":13349,"ĠTH":13350,"Ġstark":13351,"changed":13352,"rolls":13353,"iral":13354,"ĠCorpor":13355,"about":13356,"Ġchin":13357,"Ġoutlet":13358,"Ġlistings":13359,"Incorrect":13360,"Ġdepicting":13361,"Ġfilename":13362,"Ġdefinitions":13363,"135":13364,"ĠSusan":13365,"ĠAustria":13366,"ĠIncorrect":13367,"ĠStudent":13368,"lowly":13369,"ynasty":13370,"Ġcriticism":13371,"Ġvictims":13372,"Ġregistered":13373,"Ġathlete":13374,"Ġpreserving":13375,"Ġcollaboration":13376,"Ġemoji":13377,"\"}":13378,"2255":13379,"=>":13380,"fold":13381,"mind":13382,"mates":13383,"Ġawards":13384,"Ġward":13385,"Ġba":13386,"Ġpou":13387,"Ġlaz":13388,"Ġthirst":13389,"Ġbeings":13390,"roph":13391,"Ġsucc":13392,"Ġintact":13393,"Ġuncle":13394,"Ġoverview":13395,"rambles":13396,"Ġ2013":13397,"ĠAnimal":13398,"Ġrequiring":13399,"ĠPrince":13400,"Ġwaist":13401,"ambiguous":13402,"999":13403,"Ġgraduated":13404,"Ġimmense":13405,"Ġreveals":13406,"Ġstairway":13407,"Ġhonestly":13408,"Ġexterior":13409,"Ġsponge":13410,"cbad":13411,"has":13412,"lifting":13413,"ĠAND":13414,"Ġoutbreak":13415,"ĠMother":13416,"una":13417,"izard":13418,"angers":13419,"Ġfellow":13420,"Ġovercome":13421,"Ġcheckups":13422,"Ġadvoc":13423,"Ġfloating":13424,"Ġasset":13425,"Ġswollen":13426,"iki":13427,"itched":13428,"Ġsuccesses":13429,"Ġverbal":13430,"ĠEnsure":13431,"Ġirony":13432,"ARY":13433,"ĠManhattan":13434,"Ġfabrics":13435,"Ġcriticized":13436,"Ġadorned":13437,"ĠDaniel":13438,"Ġfreshen":13439,"Ġdeveloper":13440,"End":13441,"after":13442,"miss":13443,"warm":13444,"Ġtaught":13445,"ingo":13446,"ĠCru":13447,"ĠCIA":13448,"Ġaliens":13449,"Ġclad":13450,"opot":13451,"Ġoverly":13452,"Ġpockets":13453,"engu":13454,"cycle":13455,"ĠPersonA":13456,"Ġdesignated":13457,"ĠSeattle":13458,"including":13459,"Ġstressed":13460,"Ġissued":13461,"zzare":13462,"empty":13463,"ĠStrings":13464,"ĠAccess":13465,"Ġcasino":13466,"Ġbolded":13467,"ĠCOVID":13468,"Ġfactorial":13469,"ĠDrinking":13470,"Ġtornado":13471,"Ġwitness":13472,"ĠKennedy":13473,"backs":13474,"dc":13475,"pol":13476,"icides":13477,"Ġrephrase":13478,"ĠAff":13479,"ĠClose":13480,"ĠPrior":13481,"Ġshim":13482,"Ġintru":13483,"ĠBi":13484,"epal":13485,"asted":13486,"Ġprecar":13487,"oths":13488,"Ġcountert":13489,"Ġrecover":13490,"Ġchopping":13491,"ĠAlternative":13492,"Ġ135":13493,"Ġconfusion":13494,"ribute":13495,"Ġlegisl":13496,"AND":13497,"Ġcampus":13498,"Ġcouncil":13499,"Ġguns":13500,"Ġuniversal":13501,"audi":13502,"\\'":13503,"tom":13504,"Ġ....":13505,"onna":13506,"Ġmural":13507,"ilia":13508,"orts":13509,"elve":13510,"ango":13511,"Ġacqu":13512,"Ġovert":13513,"pens":13514,"Ġempathy":13515,"Ġunderwater":13516,"Ġdrill":13517,"umbing":13518,"ometimes":13519,"Ġradi":13520,"ĠRemember":13521,"Ġhillside":13522,"Ġuncooked":13523,"Ġarrangement":13524,"Ġcabinets":13525,"Desktop":13526,"Ġepisodes":13527,"Ġthyme":13528,"Ġdeposit":13529,"Afric":13530,"Ġomelette":13531,"ĠIncorporate":13532,"Ġdefeated":13533,"Yesterday":13534,"hew":13535,"anum":13536,"Ġcul":13537,"uration":13538,"agm":13539,"ĠCultural":13540,"resent":13541,"ours":13542,"Ġslab":13543,"Ġrealize":13544,"ĠTwist":13545,"ĠEmperor":13546,"Ġaffordances":13547,"Ġdrun":13548,"bca":13549,"Ġrecycle":13550,"Blue":13551,"Ġlicensed":13552,"Ġverdant":13553,"zzarella":13554,"Make":13555,"fin":13556,"Ġml":13557,"Ġthicken":13558,"Ġstoring":13559,"olks":13560,"ĠDist":13561,"Ġhasht":13562,"Ġinstitutions":13563,"Ġchef":13564,"Ġpreposition":13565,"Ġexpecting":13566,"lessness":13567,"Ġgovernments":13568,"Ġsticky":13569,"Ġtasty":13570,"Ġrotate":13571,"Ġchemistry":13572,"Ġannoy":13573,"Ġcomplicated":13574,"Ġvaccines":13575,"></":13576,"Ġassigned":13577,"Ġassignments":13578,"Ġtrimmed":13579,"Ġconvicted":13580,"Ġtactics":13581,"Ġmerchandise":13582,"()))":13583,"Cal":13584,"Pick":13585,"fting":13586,"Ġsne":13587,"Ġcrop":13588,"isy":13589,"Ġgild":13590,"Ġoral":13591,"ĠAmy":13592,"ĠYesterday":13593,"Ġsep":13594,"ĠMill":13595,"achine":13596,"ĠDie":13597,"ĠRog":13598,"Ġfindings":13599,"swe":13600,"Ġcompounds":13601,"Ġdipl":13602,"athan":13603,"Ġproviders":13604,"Ġcompletion":13605,"Ġindig":13606,"Ġbookshe":13607,"Ġarrives":13608,"Ġwildflowers":13609,"ĠProm":13610,"Ġswept":13611,"charge":13612,"Ġappointed":13613,"Ġpuzzles":13614,"Ġdisgusting":13615,"FALSE":13616,"call":13617,"mill":13618,"herence":13619,"anagram":13620,"Ġanim":13621,"ĠTre":13622,"Ġ111":13623,"ĠSams":13624,"people":13625,"ĠBra":13626,"Ġpricing":13627,"Ġchees":13628,"Ġslide":13629,"abcde":13630,"mann":13631,"ĠPrin":13632,"Ġpostings":13633,"Ġpositioned":13634,"Ġsonic":13635,"Ġtune":13636,"Ġsemantically":13637,"ĠSupport":13638,"Ġkingdom":13639,"forestation":13640,"Ġmartial":13641,"Ġsocieties":13642,"ĠBuilding":13643,"Ġstruck":13644,"LC":13645,"best":13646,"base":13647,"Ġcous":13648,"Ġpudd":13649,"Ġga":13650,"eterm":13651,"Ġ\",":13652,"Ġintent":13653,"Ġchasm":13654,"apore":13655,"oded":13656,"ĠFord":13657,"Ġminim":13658,"ubric":13659,"Ġapolog":13660,"Ġsequences":13661,"ĠTogether":13662,"Ġopera":13663,"Ġtowns":13664,"Ġstealing":13665,"Ġdreamed":13666,"urtles":13667,"Ġcompete":13668,"ĠGreeks":13669,"Ġdocumentaries":13670,"Ġchamomile":13671,"Ġsemicol":13672,"ĠSwed":13673,"Ġadventures":13674,"grown":13675,"stein":13676,"Ġmuffins":13677,"Ġmosquito":13678,"oustic":13679,"growth":13680,"Ġceramic":13681,"Te":13682,"eor":13683,"foli":13684,"school":13685,"Ġbrambles":13686,"Ġdangle":13687,"Ġreject":13688,"Ġforwards":13689,"ĠSound":13690,"Ġ'(":13691,"Ġunlikely":13692,"ĠJun":13693,"opard":13694,"compass":13695,"Ġrunny":13696,"Ġguar":13697,"Ġputs":13698,"Ġsweep":13699,"Ġremainder":13700,"Ġthicker":13701,"Ġsplint":13702,"Ġ456":13703,"blank":13704,"uttering":13705,"ĠMedic":13706,"Ġsprinkle":13707,"Ġvacuuming":13708,"Afghanistan":13709,"Ġhedge":13710,"iwi":13711,"occupied":13712,"ala":13713,"ĠSong":13714,"Ġseaf":13715,"ĠBread":13716,"Ġkale":13717,"ĠJeremy":13718,"12345":13719,"arnished":13720,"Ġnaturopath":13721,"Ġcandel":13722,"Ġsymptom":13723,"Ġcustomize":13724,"ĠClinton":13725,"Ġ170":13726,"ĠOrange":13727,"program":13728,"Ġtunnels":13729,"Ġtreacher":13730,"Ġstriking":13731,"Ġdiscounted":13732,"uminum":13733,"ĠMahal":13734,"service":13735,"Ġgenetics":13736,"ĠVictor":13737,"$$":13738,"SER":13739,"bble":13740,"lamb":13741,"args":13742,"eted":13743,"ĠSer":13744,"eres":13745,"ĠMaur":13746,"Ġrig":13747,"Ġcoats":13748,"ĠOs":13749,"Ġthemes":13750,"Ġperf":13751,"Ġinvasion":13752,"ĠChoice":13753,"shirts":13754,"ĠPlausible":13755,"Ġwatermel":13756,"ACESC":13757,"Ġcaptured":13758,"Ġresponding":13759,"ĠValue":13760,"inosaur":13761,"Ġagricultural":13762,"Ġenthusiasm":13763,"Ġinsulin":13764,"Ġbiscu":13765,"GO":13766,"Sentiment":13767,"System":13768,"Verb":13769,"his":13770,"net":13771,"Ġoatmeal":13772,"Ġbend":13773,"Ġhitting":13774,"ido":13775,"ĠPy":13776,"Ġvot":13777,"Ġplunger":13778,"ĠRay":13779,"ĠRose":13780,"ĠLower":13781,"ĊĠĠĠĠĊĠĠĠ":13782,"comput":13783,"Ġreliability":13784,"ĠKent":13785,"Ġ123456":13786,"Ġcurry":13787,"Ġrunner":13788,"Ġappearing":13789,"enna":13790,"Ġutens":13791,"Ġdebate":13792,"ĠMean":13793,"Ġbacterial":13794,"Ġjoints":13795,"ĠTranslate":13796,"Ġowning":13797,"ĠIslamic":13798,"Ġcandelab":13799,".),":13800,"Age":13801,"BI":13802,"apping":13803,"np":13804,"tr":13805,"Ġtigers":13806,"Ġpome":13807,"Ġpel":13808,"ĠIron":13809,"ĠGary":13810,"ĠRos":13811,"keep":13812,"Ġagents":13813,"Ġslings":13814,"Ġinsulation":13815,"Ġreferen":13816,"Ġgrease":13817,"Ġreco":13818,"Ġdefense":13819,"Ġhardwood":13820,"ĠBeijing":13821,"ĠSpaghetti":13822,"connect":13823,"Ġsteal":13824,"YYY":13825,"Ġposted":13826,"Ġgrassy":13827,"minute":13828,"Ġdoubt":13829,"Ġfragrance":13830,"Ġaquarium":13831,"Ġenhance":13832,"ĠNazi":13833,"Ġsharpen":13834,"Politics":13835,"gran":13836,"à¤":13837,"Ġgorge":13838,"Ġlu":13839,"imm":13840,"ĠSprinkle":13841,"Ġvivid":13842,"ĠBern":13843,"Ġleaks":13844,"Ġquitting":13845,"Ġspine":13846,"ĠLand":13847,"angar":13848,"Ġropes":13849,"Ġblender":13850,"Ġindication":13851,"Ġcapabilities":13852,"Ġgrapes":13853,"Ġsandy":13854,"sequential":13855,"umped":13856,"ĠQuery":13857,"ĠEdit":13858,"Ġresemble":13859,"ĠSummar":13860,"Ġdiversify":13861,"ĠPopular":13862,"Ġracist":13863,"Ġnumerical":13864,"ĠNobel":13865,"AP":13866,"HO":13867,"WORD":13868,"elect":13869,"ani":13870,"Ġwins":13871,"Ġmashed":13872,"ifted":13873,"Ġoutstanding":13874,"ighth":13875,"Ġkiss":13876,"ĠGlass":13877,"gets":13878,"ĠDish":13879,"ĠRon":13880,"ĠRyan":13881,"Ġenro":13882,"interest":13883,"Ġfloods":13884,"Ġinformative":13885,"Ġraces":13886,"Ġstrand":13887,"Ġoperate":13888,"Ġrespir":13889,"Ġsaves":13890,"Ġcontrolling":13891,"Ġfluor":13892,"Ġhybrid":13893,"umbled":13894,"ĠFlies":13895,"Ġexception":13896,"Ġducks":13897,"Ġmidnight":13898,"ĠBelow":13899,"Ġtransaction":13900,"quisition":13901,"ĠNASA":13902,"Ġhamburger":13903,"Ġdehydration":13904,"INION":13905,"Ġmurmur":13906,"Pass":13907,"USE":13908,"rand":13909,"inth":13910,"Ġoval":13911,"Ġbins":13912,"Ġpru":13913,"arians":13914,"Ġregex":13915,"irteen":13916,"Ġexcerpt":13917,"Ġimpe":13918,"TheGiven":13919,"ĠLI":13920,"arks":13921,"pled":13922,"phrases":13923,"inking":13924,"fulness":13925,"Ġeasiest":13926,"Ġorganizing":13927,"Ġfreeze":13928,"Ġexploration":13929,"Ġwarrior":13930,"Ġrainy":13931,"Ġrainbow":13932,"Ġpoisonous":13933,"Ġwhitespace":13934,"Ġbacon":13935,"ĠScientific":13936,"Ġlentils":13937,"130":13938,"PU":13939,"cr":13940,"{\"":13941,"Ġwolf":13942,"itable":13943,"ĠmL":13944,"Ġdip":13945,"Ġdermat":13946,"arg":13947,"Ġlug":13948,"Ġlubric":13949,"Ġstench":13950,"ayers":13951,"Ġcann":13952,"Ġcomic":13953,"ĠBroad":13954,"ĠGi":13955,"ĠEner":13956,"Ġscream":13957,"obile":13958,"Ġbeforehand":13959,"igned":13960,"insensitive":13961,"Ġ192":13962,"ĠShel":13963,"Ġtaxed":13964,"Ġintersect":13965,"Ġassum":13966,"Ġsingular":13967,"Ġmissions":13968,"proof":13969,"restrial":13970,"Ġdrople":13971,"Ġcivilization":13972,"joys":13973,"Ġexpanding":13974,"ĠAttend":13975,"MIXED":13976,"Ġancestor":13977,"ĠEducational":13978,"Ġsneezing":13979,"Ġnurse":13980,"Ġpharmac":13981,"Ġaccompanied":13982,"ĠArizona":13983,"Ġrecruiters":13984,"Ġantivirus":13985,"ACESCENTS":13986,"DO":13987,"gender":13988,"sil":13989,"ta":13990,"ule":13991,"iser":13992,"Ġbarn":13993,"Ġmnem":13994,"Ġdye":13995,"ĠPublic":13996,"ĠFle":13997,"ĠMP":13998,"outing":13999,"ĠGlo":14000,"ĠGather":14001,"Ġsparse":14002,"Ġscam":14003,"week":14004,"iley":14005,"Ġrestart":14006,"Ġ126":14007,"Ġgreenery":14008,"Ġadvise":14009,"Ġindirect":14010,"Ġglitter":14011,"ployed":14012,"aneously":14013,"Ġbadly":14014,"Ġironwood":14015,"Ġburns":14016,"ĠBridge":14017,"Ġhazard":14018,"Ġcontinuously":14019,"framed":14020,"Bur":14021,"CON":14022,"dough":14023,"Ġtill":14024,"otion":14025,"ĠWhe":14026,"ĠYoga":14027,"Ġhearth":14028,"ĠBureau":14029,"gee":14030,"Ġperpet":14031,"Ġrecon":14032,"Ġrecommends":14033,"Ġstays":14034,"Ġglue":14035,"Ġenvironmentally":14036,"Ġparenting":14037,"Ġpetals":14038,"Ġradius":14039,"curric":14040,"Ġiterate":14041,"Ġtriggers":14042,"23415":14043,"ĠSummarize":14044,"TheGivenWord":14045,"Man":14046,"tu":14047,"Ġmaze":14048,"ĠSE":14049,"unicip":14050,"ĠRain":14051,"Ġparas":14052,"Ġ2021":14053,"ĠAncient":14054,"Ġboot":14055,"Ġvaries":14056,"Ġguest":14057,"ĠPride":14058,"ĠIndust":14059,"Ġ2003":14060,"ANS":14061,"ĠSyria":14062,"Ġflea":14063,"scale":14064,"Argentina":14065,"Ġfifty":14066,"ĠOlympics":14067,"Ġcosine":14068,"Ġbuzzing":14069,"220":14070,"jamin":14071,"Ġdiver":14072,"Ġgates":14073,"llis":14074,"herical":14075,"ĠHan":14076,"ĠDVD":14077,"udes":14078,"ĠOl":14079,"ĠForce":14080,"Ġslick":14081,"ensus":14082,"issipp":14083,"Ġearring":14084,"Ġmenstru":14085,"Ġpulls":14086,"Ġcomplications":14087,"Ġoptimization":14088,"build":14089,"Ġscrewdriver":14090,"Ġfierce":14091,"Ġfaced":14092,"Ġbou":14093,"Ġlilies":14094,"ĠIll":14095,"Ġreeds":14096,"ros":14097,"ĠAst":14098,"Ġhelm":14099,"Ġoutward":14100,"ĠEgg":14101,"Ġjail":14102,"Ġ425":14103,"Ġunambiguous":14104,"ĠJr":14105,"sored":14106,"ĠLily":14107,"Ġenjoys":14108,"owned":14109,"Ġfloral":14110,"Ġretrie":14111,"Ġactors":14112,"inson":14113,"Ġappealing":14114,"Ġ____________":14115,"attering":14116,"implify":14117,"Ġdebts":14118,"Ġrandomly":14119,"Ġnucleus":14120,"Ġboolean":14121,"zero":14122,"Ġmatters":14123,"Ġfacilities":14124,"Neutral":14125,"Ġemerald":14126,"ĠMajor":14127,"itzerland":14128,"Ġrespiratory":14129,"burn":14130,"page":14131,"Ġtheories":14132,"Ġtofu":14133,"otte":14134,"Ġhides":14135,"chicken":14136,"hate":14137,"ĠCall":14138,"Ġmozzarella":14139,"Ġ210":14140,"ĠBh":14141,"ĠBeth":14142,"Ġimpul":14143,"ypothesis":14144,"Ġremn":14145,"ĠRepeat":14146,"Ġlightning":14147,"Ġassort":14148,"Ġ168":14149,"OTHER":14150,"Ġconsistently":14151,"Ġfiguring":14152,"ĠCheese":14153,"Ġopposed":14154,"Ġfixing":14155,"Ġsubsets":14156,"Ġdistributed":14157,"Ġtangled":14158,"ĠHiggs":14159,"madam":14160,"ystems":14161,"4000":14162,
[...]
